{
  "version": "1.0",
  "truncation": null,
  "padding": null,
  "added_tokens": [
    {
      "id": 0,
      "content": "<pad>",
      "single_word": false,
      "lstrip": false,
      "rstrip": false,
      "normalized": false,
      "special": true
    },
    {
      "id": 1,
      "content": "<unk>",
      "single_word": false,
      "lstrip": false,
      "rstrip": false,
      "normalized": false,
      "special": true
    },
    {
      "id": 2,
      "content": "<bos>",
      "single_word": false,
      "lstrip": false,
      "rstrip": false,
      "normalized": false,
      "special": true
    },
    {
      "id": 3,
      "content": "<eos>",
      "single_word": false,
      "lstrip": false,
      "rstrip": false,
      "normalized": false,
      "special": true
    }
  ],
  "normalizer": {
    "type": "NFKC"
  },
  "pre_tokenizer": {
    "type": "ByteLevel",
    "add_prefix_space": false,
    "trim_offsets": true,
    "use_regex": true
  },
  "post_processor": {
    "type": "TemplateProcessing",
    "single": [
      {
        "SpecialToken": {
          "id": "<bos>",
          "type_id": 0
        }
      },
      {
        "Sequence": {
          "id": "A",
          "type_id": 0
        }
      },
      {
        "SpecialToken": {
          "id": "<eos>",
          "type_id": 0
        }
      }
    ],
    "pair": [
      {
        "Sequence": {
          "id": "A",
          "type_id": 0
        }
      },
      {
        "Sequence": {
          "id": "B",
          "type_id": 1
        }
      }
    ],
    "special_tokens": {
      "<bos>": {
        "id": "<bos>",
        "ids": [
          2
        ],
        "tokens": [
          "<bos>"
        ]
      },
      "<eos>": {
        "id": "<eos>",
        "ids": [
          3
        ],
        "tokens": [
          "<eos>"
        ]
      }
    }
  },
  "decoder": {
    "type": "ByteLevel",
    "add_prefix_space": true,
    "trim_offsets": true,
    "use_regex": true
  },
  "model": {
    "type": "BPE",
    "dropout": null,
    "unk_token": "<unk>",
    "continuing_subword_prefix": null,
    "end_of_word_suffix": null,
    "fuse_unk": false,
    "byte_fallback": false,
    "ignore_merges": false,
    "vocab": {
      "<pad>": 0,
      "<unk>": 1,
      "<bos>": 2,
      "<eos>": 3,
      "!": 4,
      "\"": 5,
      "#": 6,
      "$": 7,
      "%": 8,
      "&": 9,
      "'": 10,
      "(": 11,
      ")": 12,
      "*": 13,
      "+": 14,
      ",": 15,
      "-": 16,
      ".": 17,
      "/": 18,
      "0": 19,
      "1": 20,
      "2": 21,
      "3": 22,
      "4": 23,
      "5": 24,
      "6": 25,
      "7": 26,
      "8": 27,
      "9": 28,
      ":": 29,
      ";": 30,
      "<": 31,
      "=": 32,
      ">": 33,
      "?": 34,
      "@": 35,
      "A": 36,
      "B": 37,
      "C": 38,
      "D": 39,
      "E": 40,
      "F": 41,
      "G": 42,
      "H": 43,
      "I": 44,
      "J": 45,
      "K": 46,
      "L": 47,
      "M": 48,
      "N": 49,
      "O": 50,
      "P": 51,
      "Q": 52,
      "R": 53,
      "S": 54,
      "T": 55,
      "U": 56,
      "V": 57,
      "W": 58,
      "X": 59,
      "Y": 60,
      "Z": 61,
      "[": 62,
      "\\": 63,
      "]": 64,
      "^": 65,
      "_": 66,
      "`": 67,
      "a": 68,
      "b": 69,
      "c": 70,
      "d": 71,
      "e": 72,
      "f": 73,
      "g": 74,
      "h": 75,
      "i": 76,
      "j": 77,
      "k": 78,
      "l": 79,
      "m": 80,
      "n": 81,
      "o": 82,
      "p": 83,
      "q": 84,
      "r": 85,
      "s": 86,
      "t": 87,
      "u": 88,
      "v": 89,
      "w": 90,
      "x": 91,
      "y": 92,
      "z": 93,
      "{": 94,
      "|": 95,
      "}": 96,
      "~": 97,
      "¡": 98,
      "¢": 99,
      "£": 100,
      "¤": 101,
      "¥": 102,
      "¦": 103,
      "§": 104,
      "¨": 105,
      "©": 106,
      "ª": 107,
      "«": 108,
      "¬": 109,
      "®": 110,
      "¯": 111,
      "°": 112,
      "±": 113,
      "²": 114,
      "³": 115,
      "´": 116,
      "µ": 117,
      "¶": 118,
      "·": 119,
      "¸": 120,
      "¹": 121,
      "º": 122,
      "»": 123,
      "¼": 124,
      "½": 125,
      "¾": 126,
      "¿": 127,
      "À": 128,
      "Á": 129,
      "Â": 130,
      "Ã": 131,
      "Ä": 132,
      "Å": 133,
      "Æ": 134,
      "Ç": 135,
      "È": 136,
      "É": 137,
      "Ê": 138,
      "Ë": 139,
      "Ì": 140,
      "Í": 141,
      "Î": 142,
      "Ï": 143,
      "Ð": 144,
      "Ñ": 145,
      "Ò": 146,
      "Ó": 147,
      "Ô": 148,
      "Õ": 149,
      "Ö": 150,
      "×": 151,
      "Ø": 152,
      "Ù": 153,
      "Ú": 154,
      "Û": 155,
      "Ü": 156,
      "Ý": 157,
      "Þ": 158,
      "ß": 159,
      "à": 160,
      "á": 161,
      "â": 162,
      "ã": 163,
      "ä": 164,
      "å": 165,
      "æ": 166,
      "ç": 167,
      "è": 168,
      "é": 169,
      "ê": 170,
      "ë": 171,
      "ì": 172,
      "í": 173,
      "î": 174,
      "ï": 175,
      "ð": 176,
      "ñ": 177,
      "ò": 178,
      "ó": 179,
      "ô": 180,
      "õ": 181,
      "ö": 182,
      "÷": 183,
      "ø": 184,
      "ù": 185,
      "ú": 186,
      "û": 187,
      "ü": 188,
      "ý": 189,
      "þ": 190,
      "ÿ": 191,
      "Ā": 192,
      "ā": 193,
      "Ă": 194,
      "ă": 195,
      "Ą": 196,
      "ą": 197,
      "Ć": 198,
      "ć": 199,
      "Ĉ": 200,
      "ĉ": 201,
      "Ċ": 202,
      "ċ": 203,
      "Č": 204,
      "č": 205,
      "Ď": 206,
      "ď": 207,
      "Đ": 208,
      "đ": 209,
      "Ē": 210,
      "ē": 211,
      "Ĕ": 212,
      "ĕ": 213,
      "Ė": 214,
      "ė": 215,
      "Ę": 216,
      "ę": 217,
      "Ě": 218,
      "ě": 219,
      "Ĝ": 220,
      "ĝ": 221,
      "Ğ": 222,
      "ğ": 223,
      "Ġ": 224,
      "ġ": 225,
      "Ģ": 226,
      "ģ": 227,
      "Ĥ": 228,
      "ĥ": 229,
      "Ħ": 230,
      "ħ": 231,
      "Ĩ": 232,
      "ĩ": 233,
      "Ī": 234,
      "ī": 235,
      "Ĭ": 236,
      "ĭ": 237,
      "Į": 238,
      "į": 239,
      "İ": 240,
      "ı": 241,
      "Ĳ": 242,
      "ĳ": 243,
      "Ĵ": 244,
      "ĵ": 245,
      "Ķ": 246,
      "ķ": 247,
      "ĸ": 248,
      "Ĺ": 249,
      "ĺ": 250,
      "Ļ": 251,
      "ļ": 252,
      "Ľ": 253,
      "ľ": 254,
      "Ŀ": 255,
      "ŀ": 256,
      "Ł": 257,
      "ł": 258,
      "Ń": 259,
      "ĠÐ": 260,
      "Ð¾": 261,
      "Ðµ": 262,
      "Ð¸": 263,
      "Ð°": 264,
      "Ð½": 265,
      "ÑĤ": 266,
      "Ñģ": 267,
      "ÑĢ": 268,
      "Ð¾Ð": 269,
      "Ð»": 270,
      "Ðº": 271,
      "Ñı": 272,
      "Ñĥ": 273,
      "ÑģÑĤ": 274,
      "Ð²": 275,
      "Ñĭ": 276,
      "Ð¼": 277,
      "Ð´": 278,
      "Ð½Ð¸": 279,
      "ĠÐ¿": 280,
      "Ð¾Ð²": 281,
      "ÑĮ": 282,
      "ĠÐ½": 283,
      "ÑĨ": 284,
      "ĠÑģ": 285,
      "ĠÐ²": 286,
      "Ñĩ": 287,
      "ĠÐ¸": 288,
      "ÑĢÐ°": 289,
      "Ð¿": 290,
      "Ð¹": 291,
      "ĠÐ¾": 292,
      "$$": 293,
      "Ð·": 294,
      "Ð³": 295,
      "ÐµÐ½": 296,
      "ÑĨÐ¸": 297,
      "Ð¾Ð¼": 298,
      "ÑĢÐµ": 299,
      "Ð±": 300,
      "ĠÐ´": 301,
      "ĠÐ½Ð°": 302,
      "Ð¾ÑĢ": 303,
      "Ð¾Ð´": 304,
      "Ð°ÑĤ": 305,
      "00": 306,
      "ÐµÑĤ": 307,
      "Ñħ": 308,
      "Ð¶": 309,
      "ÐµÐ½Ð¸": 310,
      "Ð¾Ð»": 311,
      "ĠÐº": 312,
      "ÑĦ": 313,
      "ĠÐ¸Ð½": 314,
      "Ñİ": 315,
      "ÐµÑĢ": 316,
      "ÐµÐ»": 317,
      "Ð½Ð°": 318,
      "ÑĢÐ¾": 319,
      "Ð½Ñĭ": 320,
      "Ð¾Ð¹": 321,
      "Ġ2": 322,
      "Ð¸ÑĤ": 323,
      "ÑģÐº": 324,
      "ÑģÑĤÐ¸": 325,
      "ĠÐ¼": 326,
      "Ð½Ð¾": 327,
      "Ġ$$": 328,
      "Ġ$$$": 329,
      "ÑĪ": 330,
      "ĠÐ±": 331,
      "ĠÑĤ": 332,
      "Ð¾Ðº": 333,
      "ĠÑĥ": 334,
      "ÑģÑı": 335,
      "ĠÐ·": 336,
      "ÐµÐº": 337,
      "Ð¾Ð½": 338,
      "Ġ1": 339,
      "02": 340,
      "Ð°Ð»": 341,
      "Ð²Ðµ": 342,
      "Ðļ": 343,
      "ÑĢÑĥ": 344,
      "âĢ": 345,
      "ĠÐ½Ðµ": 346,
      "ÑĤÐ¸": 347,
      "ĠÐ³": 348,
      "ĠÐĳ": 349,
      "Ð°Ð½Ð¸": 350,
      "Ñī": 351,
      "ÑĢÐ¾Ð²": 352,
      "Ġ202": 353,
      "Ð»Ñı": 354,
      "Ðŀ": 355,
      "ĠÐ·Ð°": 356,
      "ÐµÐ¹": 357,
      "ĠÐ°": 358,
      "ÑĨÐ¸Ð¸": 359,
      "ĠÐĴ": 360,
      "ÑģÑĤÐ°": 361,
      "ÑģÑĤÐ¾": 362,
      "Ð¾Ð³": 363,
      "Ð¡": 364,
      "ĠÐ¾ÑĤ": 365,
      "ĠÐ¿Ð¾": 366,
      "ÑĢÐ¸": 367,
      "Ð»Ð¸": 368,
      "ÑĢÐµÐ´": 369,
      "Ð½Ð¸Ðº": 370,
      "ĠÑĢÐ°": 371,
      "ĠÐ¸Ð½Ð²Ðµ": 372,
      "ÐĶ": 373,
      "ÐµÐ½Ð¸Ñı": 374,
      "ÐµÐ¼": 375,
      "Ð²Ð¸": 376,
      "Ð¢": 377,
      "Ð¾Ð¶": 378,
      "ĠÐŀ": 379,
      "Ð°Ð½": 380,
      "Ðĺ": 381,
      "Ð¾Ñģ": 382,
      "Ð¾ÑĤ": 383,
      "Ð¼Ð°": 384,
      "Ð°ÑĤÐ°": 385,
      "ĠÂ": 386,
      "ÑģÑĤÐ¾Ñĩ": 387,
      "ÑģÑĤÐ¾ÑĩÐ½Ð¸Ðº": 388,
      "ĠÐ»": 389,
      "Ð»Ð°": 390,
      "ĠÐľ": 391,
      "ÐµÐºÑģÑĤ": 392,
      "Ð½Ðµ": 393,
      "ÐĺÑģÑĤÐ¾ÑĩÐ½Ð¸Ðº": 394,
      "ÐĶÐ°ÑĤÐ°": 395,
      "Ð¢ÐµÐºÑģÑĤ": 396,
      "Ð°Ð½Ð¸Ñı": 397,
      "ĠâĢ": 398,
      "ĠÐŁ": 399,
      "ĠÐ²Ñĭ": 400,
      "ĠÂ«": 401,
      "ÐºÐ¸": 402,
      "Ð¼Ð¸": 403,
      "Â»": 404,
      "ĠÐ°Ðº": 405,
      "ÐµÐ½Ð¸Ðµ": 406,
      "ĠÐ¸Ð½Ð²ÐµÑģÑĤÐ¸": 407,
      "Ð¾Ð±": 408,
      "ĠÑĦ": 409,
      "Ð¾Ð¼Ð¿": 410,
      "ÐºÐ°": 411,
      "ÐļÐ¡": 412,
      "Ð°ÑĤÑĮ": 413,
      "ĠÐĳÐļÐ¡": 414,
      "ÐµÐ»ÑĮ": 415,
      "Ð´Ð°": 416,
      "ĠÐ¡": 417,
      "ĠÑĢÑĥ": 418,
      "Ð²Ð°": 419,
      "ĠÑĢÑĥÐ±": 420,
      "ÑģÐ¸": 421,
      "Ð²Ð»": 422,
      "Ð¾Ð¿": 423,
      "Ð¸ÑĢ": 424,
      "ÑĢÑĭ": 425,
      "ĠÐł": 426,
      "ÑĨÐµÐ½": 427,
      "Ð¾Ð·": 428,
      "ÐºÐµ": 429,
      "ĠÑĩ": 430,
      "Ð½Ð¾Ð¼": 431,
      "Ð¶Ðµ": 432,
      "ÑİÑĤ": 433,
      "ÑĭÐµ": 434,
      "Ð¾Ð³Ð¾": 435,
      "ĠÐ¸Ð½Ð²ÐµÑģÑĤÐ¸ÑĨÐ¸": 436,
      "ĠÐ¾Ð±": 437,
      "ÑģÐ¾Ð²": 438,
      "ÑĩÐµ": 439,
      "ĠÐ¿ÑĢÐµÐ´": 440,
      "Ð°Ðº": 441,
      "ÑĥÑĤ": 442,
      "ĠÐ»Ð¸": 443,
      "ÐµÐ½ÑĤ": 444,
      "Ð¾Ð¼Ð¿Ð°Ð½Ð¸Ñı": 445,
      "ÑħÐ¾Ð´": 446,
      "ÐµÐ³": 447,
      "ĠÐ¿Ð¾Ð´": 448,
      "ĠÑĢÐ°Ð·": 449,
      "ÑģÐ¿": 450,
      "Ñį": 451,
      "ÑĦÐ¾ÑĢ": 452,
      "Ð½ÑĭÐµ": 453,
      "Ð¸ÑĤÑĮ": 454,
      "Ð°Ñı": 455,
      "Ð½Ð¾ÑģÑĤÐ¸": 456,
      "Ð¸Ð½Ð°": 457,
      "Ð½Ð¾Ð¹": 458,
      "ĠÐ¾Ð¿": 459,
      "ÑĨÐ¸Ñı": 460,
      "Ð¾Ð»ÑĮ": 461,
      "ĠÐ¿ÑĢ": 462,
      "Ð°Ð³": 463,
      "Ð¾ÑĢÐ³": 464,
      "ĠÐĿ": 465,
      "Ð°ÑĢ": 466,
      "Ġ3": 467,
      "Ð·Ð¸": 468,
      "ĠÑģÐ¾": 469,
      "ÑĦÐ¾ÑĢÐ¼Ð°": 470,
      "ĠÐ¸Ð½ÑĦÐ¾ÑĢÐ¼Ð°": 471,
      "Ð²Ð»Ñı": 472,
      "ÑģÑĤÐ²": 473,
      "ĠÐŀÐŀ": 474,
      "ĠÐŀÐŀÐŀ": 475,
      "ÐļÐ¾Ð¼Ð¿Ð°Ð½Ð¸Ñı": 476,
      "ÐµÑĤÑģÑı": 477,
      "ĠÑĤÐ¾ÑĢÐ³": 478,
      "ĠÐ´Ð¾": 479,
      "Ð»ÑĮ": 480,
      "ÑıÑĤ": 481,
      "cs": 482,
      "ÐĹ": 483,
      "bcs": 484,
      "Ð¾Ð»Ð¾Ð²": 485,
      "ĠÐ¿ÑĢÐ¾": 486,
      "ÑĤÐ¾": 487,
      "ÑģÐºÐ¸": 488,
      "ĠÑį": 489,
      "ĠÐĲ": 490,
      "Ð´ÐµÐ»": 491,
      "ĠÑĢÐ¾": 492,
      "ĠÐ³Ð¾Ð´": 493,
      "ĠâĢ¢": 494,
      "ĠÐĺ": 495,
      "Ð¾Ð»Ð¾Ð²Ð¾Ðº": 496,
      "Ð°Ð³Ð¾Ð»Ð¾Ð²Ð¾Ðº": 497,
      "ÐĹÐ°Ð³Ð¾Ð»Ð¾Ð²Ð¾Ðº": 498,
      "ÐµÐ´": 499,
      "Ġ2024": 500,
      "ÑĥÑī": 501,
      "ĠÑĢÐµ": 502,
      "ĠÐ¿ÑĢÐ¸": 503,
      "ĠÐ¤": 504,
      "ĠÐ¸Ð½Ð²ÐµÑģÑĤÐ¸ÑĨÐ¸Ð¾Ð½": 505,
      "ÑģÐ»": 506,
      "ÐµÑĢÐ°": 507,
      "ĠÐ°ÐºÑĨÐ¸Ð¸": 508,
      "Ð½ÑĭÑħ": 509,
      "Ġ2023": 510,
      "Ð°Ð¹": 511,
      "la": 512,
      "ÐµÑģÑĤ": 513,
      "Ġ5": 514,
      "Ð¸Ð¼": 515,
      "ĠÐļ": 516,
      "ÐºÐ¾Ð¼": 517,
      "ÑĤÑĮ": 518,
      "ĠÑı": 519,
      "Ð½Ñı": 520,
      "Ġ/": 521,
      "01": 522,
      "Ð¸Ð½Ð°Ð½": 523,
      "Ġbcs": 524,
      "Ð²Ð¾Ð¹": 525,
      "ĠÐ¼Ð¾Ð¶": 526,
      "Ð¸Ð½Ð°Ð½ÑģÐ¾Ð²": 527,
      "Ð¾ÐºÐ°": 528,
      "ÑĤÑĥ": 529,
      "ĠÐ¿ÐµÑĢ": 530,
      "ĠÐĶ": 531,
      "ÑĢÐ¾Ñĩ": 532,
      "ĠâĢĶ": 533,
      "ĠÑģÑĤ": 534,
      "âĢĵ": 535,
      "Ð°Ð»ÑĮ": 536,
      "Ġ(": 537,
      "ĠÑĢÑĭ": 538,
      "Ð½ÑĭÐ¹": 539,
      "Ð½Ð°Ñı": 540,
      "Ð±Ð¾": 541,
      "ĠÑĨ": 542,
      "ÐĲ": 543,
      "ÑģÑĮ": 544,
      "ĠÑĤÐ¾ÑĢÐ³Ð¾Ð²": 545,
      "ÑĦÐ¸": 546,
      "ĠÑıÐ²Ð»Ñı": 547,
      "Ð½Ð¾Ð²": 548,
      "ÑĪÐµ": 549,
      "Ð°Ð¼": 550,
      "04": 551,
      "ĠÑĢÑĭÐ½": 552,
      "ÑİÑĤÑģÑı": 553,
      "ÑģÑĭ": 554,
      "Â»,": 555,
      "Ð»Ñİ": 556,
      "Ð¼ÐµÐ½ÑĤ": 557,
      "ÑĩÐ°": 558,
      "ĠÐ±Ñĥ": 559,
      "ÐµÐ·": 560,
      "ar": 561,
      "Ġ15": 562,
      "Ð½ÑĭÐ¼": 563,
      "ÐºÑĥ": 564,
      "ÑģÑĤÑĮ": 565,
      "ĠÐ´Ð»Ñı": 566,
      "000": 567,
      "Ð²Ð¸Ð´": 568,
      "ĠÐ¸Ð½Ð´": 569,
      "Ġ10": 570,
      "art": 571,
      "Ġ0": 572,
      "Ġs": 573,
      "mart": 574,
      "lab": 575,
      "Ġsmart": 576,
      "ÐµÑĢÐ¶": 577,
      "ĠÑĨÐµÐ»": 578,
      "ĠÑĥÑĢÐ¾Ð²": 579,
      "Ð¤": 580,
      "ĠÐĺÐ½": 581,
      "Ð¾Ð¿ÑĢÐ¾": 582,
      "Ð¸Ð½": 583,
      "ĠÐ´Ð¸": 584,
      "ĠÐ²Ð¾Ð·": 585,
      "Ð°Ð»Ð¸": 586,
      "ÐµÐ½Ð´": 587,
      "Ð¶Ð°": 588,
      "ÑģÐµ": 589,
      "Ðł": 590,
      "ĠÑĦÐ¸Ð½Ð°Ð½ÑģÐ¾Ð²": 591,
      "ÑĥÑİ": 592,
      "Ð¾ÑģÑĢÐ¾Ñĩ": 593,
      "ÑĨÐ¸Ð¹": 594,
      "Ġ4": 595,
      "ĠÐ±Ð¸ÑĢ": 596,
      "ĠÐ´Ð°Ð½": 597,
      "Ð°Ð·": 598,
      "ĠÐ¼Ð»": 599,
      "ÑģÑĤÐ²Ð¸": 600,
      "Ð²Ð»ÐµÐ½Ð¸Ðµ": 601,
      "ĠÐ¾Ñģ": 602,
      "in": 603,
      "ÑıÐ¼": 604,
      "Ð´ÐµÑĢÐ¶": 605,
      "Ð¾ÑģÐº": 606,
      "ĠÐµ": 607,
      "ÑģÑģÐ¸": 608,
      "ÑģÑĤÑĢÑĥ": 609,
      "re": 610,
      "ÐµÑĢÐµ": 611,
      "ĠÐľÐ¾ÑģÐº": 612,
      "ĠÑģÐ»": 613,
      "Ġ2022": 614,
      "ÐŁ": 615,
      "200": 616,
      "ĠÑĨÐµÐ½": 617,
      "ĠÐ¾Ð¿ÐµÑĢÐ°": 618,
      "ĠÐ¿Ð¾Ð»": 619,
      "Ð²ÐµÑĤ": 620,
      "Ð´ÐµÐ»Ðµ": 621,
      "ÑĢÐ°Ð½": 622,
      "ÑģÑĤÐ²ÐµÐ½": 623,
      "ÑģÑĤÑĢÑĥÐ¼ÐµÐ½ÑĤ": 624,
      "ĠN": 625,
      "Ġ6": 626,
      "ĠÐ¿ÑĢÐ¾Ð´": 627,
      "ĠÐ¸Ð½ÑģÑĤÑĢÑĥÐ¼ÐµÐ½ÑĤ": 628,
      "Ð¾Ð»ÑĮÐ·": 629,
      "34": 630,
      "100": 631,
      "ĠÐºÐ°ÑĢ": 632,
      "ĠÐ±Ð¸ÑĢÐ¶Ðµ": 633,
      "ÑĢÐ°Ð½Ð¸": 634,
      "ÑģÐºÐ¾Ð¹": 635,
      "ĠÐ¢": 636,
      "ÑģÑĤÐ²Ð¸Ñı": 637,
      "ĠÐºÐ°ÑĢÑĤÐ¸": 638,
      "%.": 639,
      "ĠÐ³Ð¾Ð´Ð°": 640,
      "ÑĥÐ¿": 641,
      "Ð½Ð¾Ð³Ð¾": 642,
      "ĠÐĽ": 643,
      "ĠNo": 644,
      "ĠÑĢÐ¸": 645,
      "Ð¼Ð°Ð³": 646,
      "ĠÐ»Ð¸Ð±Ð¾": 647,
      "ÑĨÐµÐ½Ð·Ð¸": 648,
      "Ġ154": 649,
      "Ð¸ÑĤÐ¸": 650,
      "Ð²ÐµÑĢ": 651,
      "Ð¼Ñĥ": 652,
      "ĠÐ´Ð°Ð½Ð½Ð¾Ð¼": 653,
      "Ð¸Ð·": 654,
      "ĠÑĢÐ°Ð·Ð´ÐµÐ»Ðµ": 655,
      "ĠÐ¼Ð¾Ð¶ÐµÑĤ": 656,
      "Ð¼Ð¾Ð¶": 657,
      "ĠÐ±Ð¸ÑĢÐ¶ÐµÐ²Ð¾Ð¹": 658,
      "044": 659,
      "ÑĨÐµÐ½Ð·Ð¸Ñı": 660,
      "2001": 661,
      "100000": 662,
      "04434": 663,
      "ĠÑĩÑĤÐ¾": 664,
      "ÑīÐ¸": 665,
      "ÑģÐºÐ°Ñı": 666,
      "ĠÑĦÐ¾Ð½": 667,
      "Ð¶Ð¸": 668,
      "ÐµÐ½Ð¸Ñİ": 669,
      "ĠÑģÐ½Ð¸": 670,
      "ĠÐłÐ¾Ñģ": 671,
      "Ð½ÑĥÑĤ": 672,
      "ĠÐ·Ð°Ðº": 673,
      "ĠÐ´Ðµ": 674,
      "Ġ00": 675,
      "ĠÑĥÐ¿": 676,
      "Ð¾Ð²Ð¸": 677,
      "ĠÐĿÐ°": 678,
      "Ð½ÑĭÐ¼Ð¸": 679,
      "Ð¸ÑĤÐµÐ»ÑĮ": 680,
      "ĠÐ²Ð¾Ð·Ð¼Ð¾Ð¶": 681,
      "ÐµÑĢÐ¸": 682,
      "ÑĢÑı": 683,
      "ÑĢÐ°Ð²": 684,
      "ina": 685,
      "ĠÐºÐ°ÑĢÑĤÐ¸Ð½Ð°": 686,
      "ÑĢÐ¾Ð²Ð°ÑĤÑĮ": 687,
      "Ð¸ÑĤÑĮÑģÑı": 688,
      "ĠÑģÑĢÐµÐ´": 689,
      "Ð²ÐµÑģÑĤÐ¸": 690,
      "ĠÐĵ": 691,
      "Ġf": 692,
      "ÑĢÐ´": 693,
      "ĠÐºÐ¾ÑĤ": 694,
      "inam": 695,
      "Ġfinam": 696,
      "ÑĬ": 697,
      "ÑĤÐ°": 698,
      "ĠÑĢÐ¸ÑģÐº": 699,
      "ĠÐ¼Ð»ÑĢÐ´": 700,
      "ĠÑĢÐ¾ÑģÑĤÐ°": 701,
      "ÑĥÑģ": 702,
      "ĠÐ¿Ð¾ÑĢ": 703,
      "Ð±Ñĭ": 704,
      "ĠÐĴÑĭ": 705,
      "ĠÐ¿Ð¾Ð´Ð´ÐµÑĢÐ¶": 706,
      "Ð½ÐµÐ¹": 707,
      "ĠÐ¿ÑĢÐ¾Ð²": 708,
      "ÑĩÐ¸": 709,
      "ĠÐ¸Ð·": 710,
      "Ð¾Ð»Ð³": 711,
      "ÑĢÐ°ÑĦÐ¸": 712,
      "ÑĪÐµÐ½Ð¸Ñı": 713,
      "ĠÐ´Ð¸Ð²Ð¸Ð´": 714,
      "Ð²Ð»ÐµÐ½Ð¸Ñı": 715,
      "ĠÐ±Ñĭ": 716,
      "ÐµÐµ": 717,
      "ÑĢÐ°ÑĤ": 718,
      "Ð½Ð¸Ð¹": 719,
      "Ð¾Ð¿ÑĢÐ¾ÑĤÐ¸": 720,
      "ĠÐºÐ¾ÑĤÐ¾ÑĢ": 721,
      "ĠÐ¾Ð³": 722,
      "ÑĩÐµÐ½Ð¸Ñı": 723,
      "ĠÑĥÑģÐ»": 724,
      "ÑĢÐ¾Ðº": 725,
      "ĠÐ¾Ð³ÑĢÐ°Ð½Ð¸": 726,
      "ĠÐ¿ÐµÑĢÐ²": 727,
      "Ð°ÑĤÐµÐ»": 728,
      "ÑĨÐ¸ÐµÐ¹": 729,
      "ĠÐ¸Ð½Ð²ÐµÑģÑĤÐ¸ÑĨÐ¸Ð¹": 730,
      "Ð·Ð½Ð°": 731,
      "ÐµÐºÑģ": 732,
      "Ð¾ÑģÑĤÐ°": 733,
      "Ð¾ÑģÑĢÐ¾ÑĩÐ½Ð°Ñı": 734,
      "ĠÐĺÐ½Ð²ÐµÑģÑĤÐ¸": 735,
      "ĠÐľÐ¾ÑģÐºÐ¾Ð²": 736,
      "Ð¡Ð¤": 737,
      "ĠÐ¸ÑģÐ¿": 738,
      "ÑģÑĤÐ¾ÑĢÐ°": 739,
      "Ð¾Ð¼Ð¿Ð°Ð½Ð¸": 740,
      "Ð¼ÐµÑģÑĤ": 741,
      "Ð½Ð¾Ð¼Ñĥ": 742,
      "Ġ-": 743,
      "ĠÑĥÑģÐ»Ð¾Ð²Ð¸": 744,
      "ÑĪÐ¸": 745,
      "Ð¾Ð²Ð°Ñı": 746,
      "ĠÐ¸Ð½Ð²ÐµÑģÑĤÐ¾ÑĢÐ°": 747,
      "Ð½Ð¾ÑģÑĤÑĮ": 748,
      "ÐµÐ³Ð¾": 749,
      "ĠÑıÐ²Ð»ÑıÐµÑĤÑģÑı": 750,
      "ĠÐºÐ¾Ð½": 751,
      "Ð¸ÑĢÐ¶Ð°": 752,
      "ĠÐ³ÑĢÐ°ÑĦÐ¸": 753,
      "Ð¾Ð»ÑĮÐ·Ð¾Ð²": 754,
      "ĠÐ¾ÑĤÐ¼": 755,
      "ĠÐ´ÐµÐ¹": 756,
      "ĠÑĥÑģÐ»Ð¾Ð²Ð¸Ñı": 757,
      "ĠÐ½ÐµÑĦ": 758,
      "ÑĤÐ¾ÑĢ": 759,
      "ÑĢÐ¾Ð¼": 760,
      "Ðĳ": 761,
      "ĠÐłÐ¾ÑģÑģÐ¸": 762,
      "Ð¾Ð²Ñĭ": 763,
      "Ð¾ÑĤÐ²ÐµÑĤ": 764,
      "ĠÐºÐ¾Ð¼Ð¿Ð°Ð½Ð¸": 765,
      "ĠÑģÐ¾Ð¾ÑĤÐ²ÐµÑĤ": 766,
      "ÐĲÐŀ": 767,
      "ĠÑĨÐµÐ»ÑıÐ¼": 768,
      "Ð¼ÐµÑģÑĤÐµ": 769,
      "âĢĶ": 770,
      "Ð°Ð½Ð¸Ðµ": 771,
      "Ð¾Ð¿ÑĢÐ¾ÑĤÐ¸Ð²Ð»ÐµÐ½Ð¸Ñı": 772,
      "ĠÐ±ÑĥÐ´": 773,
      "ĠÑĤÐ°Ðº": 774,
      "ÑĢÐ¾ÐºÐµÑĢ": 775,
      "ĠÑģÐ¾ÑģÑĤÐ°": 776,
      "ĠÐ¸ÑģÐ¿Ð¾Ð»ÑĮÐ·Ð¾Ð²": 777,
      "ÑıÐ´": 778,
      "ĠÐ²Ð¼ÐµÑģÑĤÐµ": 779,
      "ÑģÑĭÐ»": 780,
      "ÑıÑĤÐµÐ»ÑĮ": 781,
      "ĠÐ±ÑĢÐ¾ÐºÐµÑĢ": 782,
      "ĠÑģÑģÑĭÐ»": 783,
      "ĠÐ¿ÑĢÐµÐ´Ð¾ÑģÑĤÐ°": 784,
      "ĠÐ¦": 785,
      "ĠÐ¾Ð³ÑĢÐ°Ð½Ð¸ÑĩÐµÐ½Ð¸Ñı": 786,
      "ĠÐ¿Ð¾ÑĢÑıÐ´": 787,
      "ÐµÐ½Ð´Ð°": 788,
      "ĠÐľÐ¾ÑģÐºÐ¾Ð²ÑģÐºÐ°Ñı": 789,
      "ĠÐ´ÐµÑıÑĤÐµÐ»ÑĮ": 790,
      "Ð°Ð»Ð°": 791,
      "ÑĢÑĭÑĤÐ¸": 792,
      "ÑıÐ±": 793,
      "ĠÑģÑģÑĭÐ»ÐºÐµ": 794,
      "ÑīÐµÐ½": 795,
      "ĠÐ£": 796,
      "ÑĢÐ¾ÐºÐ°": 797,
      "Ð¾Ð±Ñĭ": 798,
      "ĠÑıÐ²Ð»ÑıÑİÑĤÑģÑı": 799,
      "Ð¾Ð³ÑĥÑĤ": 800,
      "ĠÑĥÐ¿Ð¾Ð¼": 801,
      "ĠÐĳÐµÐ·": 802,
      "ĠÐĳÐ¸ÑĢÐ¶Ð°": 803,
      "ÑĥÑīÐµÑģÑĤ": 804,
      "ĠÐ¿Ð¾ÑģÐ»": 805,
      "ĠÐ¾Ð·Ð½Ð°": 806,
      "ĠÐ´ÐµÐ¹ÑģÑĤÐ²Ð¸Ñı": 807,
      "Ð°Ð½Ðº": 808,
      "ĠÐ¸Ð½ÑĦÐ¾ÑĢÐ¼Ð°ÑĨÐ¸Ð¸": 809,
      "ĠÐ¿ÐµÑĢÐµ": 810,
      "ĠÐŁÐ¾Ð´": 811,
      "ĠÑįÑĤ": 812,
      "Ð°ÑĤÐµÑĢÐ¸": 813,
      "ĠÑģÐ°Ð¹": 814,
      "%,": 815,
      "ĠÐ»ÐµÐ³": 816,
      "ru": 817,
      "ĠÐ´Ð¸Ð²Ð¸Ð´ÐµÐ½Ð´": 818,
      "Ð½ÐµÑĪ": 819,
      "ĠÐ´ÐµÑıÑĤÐµÐ»ÑĮÐ½Ð¾ÑģÑĤÐ¸": 820,
      "ĠÑģÑĢÐ¾ÐºÐ°": 821,
      "Ð°Ð´": 822,
      "ĠÐ¾ÑģÑĥÑīÐµÑģÑĤ": 823,
      "ĠÐ¾Ð¿ÐµÑĢÐ°ÑĨÐ¸Ð¸": 824,
      "Ð°ÑĤÐµÑĢÐ¸Ð°Ð»": 825,
      "ĠÐ¸Ð½ÑģÑĤÑĢÑĥÐ¼ÐµÐ½ÑĤÑĭ": 826,
      "ÑıÐ½ÑĥÑĤ": 827,
      "Ġ200": 828,
      "ĠÑĢÐ¸ÑģÐºÑĥ": 829,
      "ĠÐ¸Ð½ÑĦÐ¾ÑĢÐ¼Ð°ÑĨÐ¸Ñı": 830,
      "Ð°Ð¶": 831,
      "Ð´Ð°Ð½Ð°": 832,
      "ÑĬÐµÐ¼": 833,
      "ÐºÐ¾Ð¼Ð¸ÑĤÑĮÑģÑı": 834,
      "ĠÐ¸Ð½ÑĦÐ¾ÑĢÐ¼Ð°ÑĨÐ¸ÐµÐ¹": 835,
      "ĠÐ¾Ð·Ð½Ð°ÐºÐ¾Ð¼Ð¸ÑĤÑĮÑģÑı": 836,
      "ĠÐ¸Ð½Ð²ÐµÑģÑĤÐ¸ÑĨÐ¸Ð¾Ð½Ð½ÑĭÐ¼": 837,
      "ĠÐ»Ð¸ÑĨÐµÐ½Ð·Ð¸Ñı": 838,
      "ĠÐ¾ÑģÑĥÑīÐµÑģÑĤÐ²Ð»ÐµÐ½Ð¸Ðµ": 839,
      "ĠÐ»ÐµÐ³ÑĩÐµ": 840,
      "ĠÐ¸Ð½Ð²ÐµÑģÑĤÐ¸ÑĨÐ¸Ð¾Ð½Ð½Ð¾Ð¼Ñĥ": 841,
      "ĠÐĺÐ½Ð²ÐµÑģÑĤÐ¸ÑĢÐ¾Ð²Ð°ÑĤÑĮ": 842,
      "ĠÐ±ÑĢÐ¾ÐºÐµÑĢÑģÐºÐ¾Ð¹": 843,
      "ĠÐ½Ð¸": 844,
      "ĠÐ¤Ð¡Ð¤": 845,
      "ÐŁÑĢÐ°Ð²": 846,
      "ĠÐ¤Ð¡Ð¤Ðł": 847,
      "ĠÑĥÐ¿Ð¾Ð¼ÑıÐ½ÑĥÑĤ": 848,
      "ĠÑĥÐ¿Ð¾Ð¼ÑıÐ½ÑĥÑĤÑĭÐµ": 849,
      "ĠÐĴÑĭÐ´Ð°Ð½Ð°": 850,
      "ÐŁÑĢÐ°Ð²Ð¾Ð²Ð°Ñı": 851,
      "ÐºÐ¾": 852,
      "Ð¿Ð»": 853,
      "Ð¼Ð¾ÑĤ": 854,
      "ĠÐ¿Ð¾Ð·": 855,
      "ĠÐ±ÑĥÐ¼Ð°Ð³": 856,
      "ĠÐ¼Ð¾Ð³ÑĥÑĤ": 857,
      "10": 858,
      "ĠS": 859,
      "ÑĤÑĢÐ°": 860,
      "ÐµÑħ": 861,
      "ĠÐ¿ÑĢÐµ": 862,
      "ĠÐ¼Ð¸": 863,
      "ĠÐ¾ÑĤÐ¼ÐµÑĤ": 864,
      "ĠÐ¾Ð±Ð»Ð°": 865,
      "ĠÑģÑĤÐ°": 866,
      "Ð½Ð°Ð»": 867,
      "ĠÑģÐ¾Ð¿ÑĢÐ¾ÑĤÐ¸Ð²Ð»ÐµÐ½Ð¸Ñı": 868,
      "ÑĤÐµ": 869,
      "Ð·Ð°": 870,
      "Ð¾Ðµ": 871,
      "ÑĢÐ¾Ñģ": 872,
      "ĠÑģÐ¸": 873,
      "ĠÐ¸Ð½Ð´Ð¸": 874,
      "Ð½ÐµÐµ": 875,
      "ÑĩÐµÑĤ": 876,
      "Ð½ÐµÐ²": 877,
      "Ð½ÐµÑĪÐ½Ð¸Ð¹": 878,
      "ÑĢÐ¾Ð±": 879,
      "Ð²Ð»ÐµÐ½": 880,
      "ÑĤÐ¸Ð²": 881,
      "ĠÐ´Ð¾ÑħÐ¾Ð´": 882,
      "Ġ7": 883,
      "ÑĭÐ²Ð°": 884,
      "Ð¾Ð¼Ñĥ": 885,
      "ĠÑģÐµ": 886,
      "ĠÐ·Ð½Ð°": 887,
      "ĠÐ¿Ð¾Ð´Ð´ÐµÑĢÐ¶ÐºÐ¸": 888,
      "Ð¾ÐºÑĥÐ¿": 889,
      "ÐºÐ°Ñħ": 890,
      "ÑĩÐµÑĢ": 891,
      "ĠÐ§": 892,
      "Ð³Ñĥ": 893,
      "ÐµÐ²": 894,
      "ÑĩÐµÑģÐºÐ¸": 895,
      "ÑĮÑİ": 896,
      "te": 897,
      "Ð°ÐºÑģÐ¸": 898,
      "ĠÐ½Ð¾": 899,
      "Ð¿ÑĢÐµ": 900,
      "ÑĤÐ¸ÑĢÐ¾Ð²": 901,
      "ÐĿ": 902,
      "11": 903,
      "ĠB": 904,
      "ĠÐ±Ð¾Ð»ÑĮ": 905,
      "ĠÐ¼Ð¾Ð¶Ð½Ð¾": 906,
      "ÐºÑĨÐ¸Ð¸": 907,
      "Ð¼ÑĥÐ¼": 908,
      "ĠÐ½Ð°Ñĩ": 909,
      "ÑĥÐ»ÑĮ": 910,
      "ÐµÐ½Ð¸Ð¹": 911,
      "ĠÑģÐ»Ñĥ": 912,
      "ÑĢÐµÐ´ÐµÐ»": 913,
      "ÐµÐ¼Ñĥ": 914,
      "08": 915,
      "ÑıÑī": 916,
      "ÐµÐºÑĤ": 917,
      "ĠÐ¿Ð¾ÐºÐ°": 918,
      "12": 919,
      "ĠÐ°Ð²": 920,
      "ĠÐ¼Ðµ": 921,
      "07": 922,
      "ĠÐĴÐ½ÐµÑĪÐ½Ð¸Ð¹": 923,
      "ÐµÐ»Ð¸": 924,
      "ĠÐ²ÑĭÑĪÐµ": 925,
      "ÑģÑĤÐ¾ÑĢ": 926,
      "Ð¾Ð²Ð¾Ð¹": 927,
      "ĠÐ¿Ð¾ÑĤ": 928,
      "ĠÑĢÑĭÐ½ÐºÐ°": 929,
      "ĠÑģÐ¿": 930,
      "ĠÐ±ÐµÐ·": 931,
      "ĠÐ³ÑĢÐ°ÑĦÐ¸ÐºÐµ": 932,
      "ĠÑĤÑĢÐµ": 933,
      "ÑĪÐ»": 934,
      "ĠÐ¼Ð°ÐºÑģÐ¸": 935,
      "ĠÑģÐ¾ÑģÑĤÐ°Ð²Ð¸": 936,
      "ĠÐķ": 937,
      "ĠÐ¿ÑĢÐ¾Ð±": 938,
      "ĠÐ½ÐµÐ´": 939,
      "ĠÑģÐ»ÑĥÑĩÐ°": 940,
      "ÑıÐ±ÑĢÑı": 941,
      "05": 942,
      "ĠÐºÐ¾Ð¼Ð¿Ð°Ð½Ð¸Ð¸": 943,
      "Ġ500": 944,
      "Ð»ÐµÐ¹": 945,
      "ÐµÐ½ÑĮ": 946,
      "ĠÑĢÐ¾ÑģÑģÐ¸": 947,
      "ĠÐ·Ð°ÐºÑĢÑĭÑĤÐ¸": 948,
      "ĠÐ¼Ð°ÑĢ": 949,
      "Ð»Ð¾Ð¶": 950,
      "ĠÑģÐ»ÑĥÑĩÐ°Ðµ": 951,
      "ch": 952,
      "ÑĢÐ¾Ð²Ð½Ð¸": 953,
      "ĠÐŁÐ¾Ð´ÑĢÐ¾Ð±": 954,
      "09": 955,
      "ĠÐ¸Ð»Ð¸": 956,
      "ĠÐ¿ÑĢÐ¾Ð´Ð¾Ð»": 957,
      "Ð¸ÑĤÑģÑı": 958,
      "ĠÑģÐ¾Ð²": 959,
      "ÑĮÑİÑĩÐµÑĢ": 960,
      "ĠÐŀÐ±": 961,
      "ĠÐºÐ¾ÑĢ": 962,
      "ĠÑĤÑĢ": 963,
      "ÑĢÐ°ÑĤÐº": 964,
      "Ġ19": 965,
      "ĠÐ¿Ð¾ÐºÑĥÐ¿": 966,
      "Ð°ÐµÑĤ": 967,
      "Ð¾Ð½Ðµ": 968,
      "Ð¸ÑĤÐµÐ»ÑĮÐ½Ð¾": 969,
      "ĠÑģÐµÑģÑģÐ¸": 970,
      "ĠÑĢÐ¾ÑģÑģÐ¸Ð¹": 971,
      "Ð¾Ð´Ð½Ñı": 972,
      "06": 973,
      "ĠÑģÐº": 974,
      "ÐµÐ³Ð¾Ð´Ð½Ñı": 975,
      "ĠÐ°ÐºÑĨÐ¸Ð¹": 976,
      "Ð³Ð»Ñı": 977,
      "ĠÑĢÐ°Ð¼": 978,
      "Ð¾ÑĤÐ¸ÑĢÐ¾Ð²": 979,
      "Ð½ÐµÑģ": 980,
      "Ð»ÑİÑĩ": 981,
      "Ð»Ð¸ÑģÑĮ": 982,
      "Ð¾Ð»ÐµÐµ": 983,
      "ĠÐ¾ÑĤÐº": 984,
      "Ð°ÑĢÐ¸": 985,
      "ÐµÐ½Ð°": 986,
      "Ð»Ðµ": 987,
      "ĠÐ±ÑĥÐ´ÐµÑĤ": 988,
      "ĠÐ³Ð¾ÑĢ": 989,
      "ÑĨÐ¸Ñİ": 990,
      "ĠÑĥÑĢÐ¾Ð²Ð½Ñı": 991,
      "Ġ2021": 992,
      "ĠÐ¾ÑĤÐ½Ð¾": 993,
      "ĠÐ¸ÑģÐº": 994,
      "ĠÑĢÐ°Ð¼ÐºÐ°Ñħ": 995,
      "ĠÐ¸Ð½Ð´ÐµÐºÑģ": 996,
      "ĠÑĢÐµÐºÐ¾Ð¼": 997,
      "Ð³Ð¾": 998,
      "ĠÑģÐ½Ð¸Ð¶": 999,
      "ĠÐłÐ¾ÑģÑģÐ¸Ð¸": 1000,
      "ĠÑįÐº": 1001,
      "ĠÐ¾Ðº": 1002,
      "ĠÑĢÑĥÐ±Ð»ÐµÐ¹": 1003,
      "ĠÑĤÐ°ÐºÐ¶Ðµ": 1004,
      "tech": 1005,
      "ĠÐ¿Ð¾Ð»Ð¾Ð¶": 1006,
      "Ð¾Ð²Ð°ÑĤÑĮ": 1007,
      "Â».": 1008,
      "ĠÑĢÐ¾ÑģÑĤ": 1009,
      "ÑģÑĤÑĢÐ°Ð½": 1010,
      "ÐºÐ°Ð·": 1011,
      "Ð°ÑĤÐ¸": 1012,
      "ÐµÑħÐ½Ð¸": 1013,
      "ÐµÐ½Ð¸Ð¸": 1014,
      "Ð¿ÑĢÐ¾Ð¼": 1015,
      "50": 1016,
      "nt": 1017,
      "ĠÐĶÐ¾Ð»Ð³": 1018,
      "Ð¸Ð·Ð¾Ð½": 1019,
      "ÑģÐºÐ¸Ðµ": 1020,
      "ĠÐ³Ð¾ÑĢÐ¸Ð·Ð¾Ð½": 1021,
      "ĠÐ²ÐµÑĢ": 1022,
      "Ð½Ð¾Ðµ": 1023,
      "ĠÐ¿ÑĢÐ¾ÑĪÐ»": 1024,
      "ĠÐ¿ÐµÑĢÐ²ÑĭÐµ": 1025,
      "ĠÐ°Ð²Ð³Ñĥ": 1026,
      "ĠÐ²Ð¾Ð¿ÑĢÐ¾": 1027,
      "ĠÑĨÐµÐ½Ð°": 1028,
      "ĠÐ±Ð¾Ð»ÑĮÑĪÐµ": 1029,
      "ÑĭÐ¹": 1030,
      "ĠÐ¿ÑĢÐ°": 1031,
      "Ð¸Ð¾Ð´": 1032,
      "ĠÐ¿ÐµÑĢÐ¸Ð¾Ð´": 1033,
      "ĠÐľÐ¸": 1034,
      "Ð°Ð·Ð¿ÑĢÐ¾Ð¼": 1035,
      "ÑĢÐµÐ½": 1036,
      "Ġ$": 1037,
      "ĠÐ½Ð°ÑħÐ¾Ð´": 1038,
      "202": 1039,
      "ĠÐĹ": 1040,
      "Ġ9": 1041,
      "ÑģÐµÑĤ": 1042,
      "ĠÑģÐµÐ½ÑĤ": 1043,
      "Ð¼Ðµ": 1044,
      "ÐĴ": 1045,
      "ÑĤÐ¾Ð±Ñĭ": 1046,
      "ĠÐ¼Ð¸Ð½Ð¸": 1047,
      "Ð½Ð¾Ð²Ð»": 1048,
      "Ð´Ðµ": 1049,
      "rent": 1050,
      "ĠBrent": 1051,
      "ĠR": 1052,
      "03": 1053,
      "ĠÐ¤ÑĮÑİÑĩÐµÑĢ": 1054,
      "ĠÐ½ÐµÐ´ÐµÐ»ÑĮ": 1055,
      "Ð°Ð½Ð½ÑĭÐµ": 1056,
      "ÑĢÐ¾Ð²Ð°Ð½Ð¸Ñı": 1057,
      "ÑĥÑĩ": 1058,
      "ĠÐ¿ÑĢÐµÐ´Ð»Ð¾Ð¶": 1059,
      "ĠÐľÐ¸ÑĢ": 1060,
      "Ð»ÑıÑĨÐ¸Ñı": 1061,
      "ĠÐŃ": 1062,
      "ÑĭÑħ": 1063,
      "Ġ8": 1064,
      "Ð¼Ð¸ÑĤ": 1065,
      "ÑĥÐ¶": 1066,
      "ĠÐ¿ÑĢÐµÐ´ÑģÑĤÐ°": 1067,
      "or": 1068,
      "ÑĨÐ¸Ð¾Ð½": 1069,
      "Ð¸Ð½Ð³": 1070,
      "Ð´Ð¸": 1071,
      "ĠÑĤÐ¾ÑĢÐ³Ñĥ": 1072,
      "Ð¼ÐµÑĢ": 1073,
      "ĠÑģÐµÑģÑģÐ¸Ð¸": 1074,
      "Ġ#": 1075,
      "ĠÑĩÑĤÐ¾Ð±Ñĭ": 1076,
      ").": 1077,
      "ĠÐ²Ð¾Ñģ": 1078,
      "ĠÐ²ÑĭÑĢÐ¾Ñģ": 1079,
      "ĠÑĦÐ¸Ð½Ð°Ð½ÑģÐ¾Ð²ÑĭÐµ": 1080,
      "ÑĦÑĤÑĮ": 1081,
      "ÑĨÐ¸ÑıÐ¼Ð¸": 1082,
      "ÑĢÐ°Ð½Ñģ": 1083,
      "ĠÐŁÑĢÐ¾": 1084,
      "ÑĤÐ¾Ð³": 1085,
      "ĠÐ°Ð²Ð³ÑĥÑģÑĤÐ°": 1086,
      "ĠÐ±Ð¾Ð»ÐµÐµ": 1087,
      "ĠÐĴÑģÐµ": 1088,
      "19": 1089,
      "ĠÐºÐ°": 1090,
      "ĠÐºÐ¾ÑĤÐ¸ÑĢÐ¾Ð²": 1091,
      "Ð½ÑĥÑİ": 1092,
      "ĠÐ¾ÑĤÐ½Ð¾ÑĪ": 1093,
      "ÑģÐ¾Ðº": 1094,
      "ĠÐłÐ°": 1095,
      "ĠÑģÐµÐ³Ð¾Ð´Ð½Ñı": 1096,
      "ĠÐŀÐ¿": 1097,
      "ĠÑĢÐµÐºÐ¾Ð¼ÐµÐ½Ð´Ð°": 1098,
      "ĠÐ¶": 1099,
      "ĠÐ¿Ð¾ÑģÐ»Ðµ": 1100,
      "ÑģÑĤÐ²Ð¾Ð²Ð°ÑĤÑĮ": 1101,
      "ri": 1102,
      "ÑĥÐ±": 1103,
      "ĠÐ¸ÑģÐºÐ»ÑİÑĩ": 1104,
      "Ð±ÑĭÑĤ": 1105,
      "ĠÐ¼ÐµÑģÑı": 1106,
      "ÐºÐµÑĤ": 1107,
      "ÑĩÐ¸ÑĤ": 1108,
      "ĠÐ¿ÑĢÐ¾Ð²ÐµÐ´": 1109,
      "Ġ69": 1110,
      "Ð»Ð¸Ð¶": 1111,
      "Ġ30": 1112,
      "ĠÐĳÑĥ": 1113,
      "Ð°ÑĪ": 1114,
      "ĠÑĢÐ°ÑģÑĤ": 1115,
      "ĠÐĲÐºÑĨÐ¸Ð¸": 1116,
      "Ð°Ð²": 1117,
      "ÑĢÐ°ÑĤÐºÐ¾ÑģÑĢÐ¾ÑĩÐ½Ð°Ñı": 1118,
      "ĠÐ·Ð°Ð¿ÑĢÐµ": 1119,
      "ĠÐĵÐ°Ð·Ð¿ÑĢÐ¾Ð¼": 1120,
      "ĠÑĥÐ±ÑĭÑĤ": 1121,
      "ÑĢÑĤ": 1122,
      "ex": 1123,
      "ĠÐ¿ÑĢÐ¾Ð²Ð¾Ð´": 1124,
      "ÑĢÐµÐº": 1125,
      "ĠÑĢÐ°Ñģ": 1126,
      "ĠÑĥÑģÐ»Ð¾Ð²Ð¸ÑıÑħ": 1127,
      "ĠÐŁÐ¾Ð´ÑĢÐ¾Ð±Ð½ÐµÐµ": 1128,
      "Ð½ÑĤ": 1129,
      "ĠÑĤÑĢÐµÑĤÑĮ": 1130,
      "ĠÐĶÐ¾Ð»Ð³Ð¾ÑģÑĢÐ¾ÑĩÐ½Ð°Ñı": 1131,
      "Ð°Ð»ÑĮÐ½ÑĭÐ¼Ð¸": 1132,
      "ĠÑĩÐ°": 1133,
      "ĠÐºÐ¾ÑĤÐ¾ÑĢÐ¾Ð¹": 1134,
      "Ð»Ð¸Ð¶Ð°Ð¹": 1135,
      "ĠÐ²Ð¾Ð·Ð¼Ð¾Ð¶Ð½Ð¾": 1136,
      "ÐºÐ¾Ð²": 1137,
      "Ð¿ÑĢÐ°": 1138,
      "ĠÑģÐµÐ½ÑĤÑıÐ±ÑĢÑı": 1139,
      "ĠÐĳÑĥÐ¼Ð°Ð³": 1140,
      "ÑĩÐµÐ¹": 1141,
      "Ð¾Ð±ÑģÑĤÐ²ÐµÐ½": 1142,
      "Ð¸ÑĤÐ¸Ð²": 1143,
      "ĠÑĢÐ°Ð·ÑĢÐµ": 1144,
      "ĠÐ¾ÑĤÐ¼ÐµÑĤÐºÐµ": 1145,
      "ĠÐ£ÑĢÐ¾Ð²Ð½Ð¸": 1146,
      "ĠÐĿÐµ": 1147,
      "ĠÐ´Ð¾ÑħÐ¾Ð´Ð½Ð¾ÑģÑĤÐ¸": 1148,
      "Ð¸ÑĤÐ°Ð¹": 1149,
      "Co": 1150,
      "ĠÐ¿Ð¾Ð´ÑħÐ¾Ð´": 1151,
      "Ðľ": 1152,
      "ĠÐ·Ð°Ð´Ð°": 1153,
      "ÑģÐ»Ð¸": 1154,
      "ĠÐ¾ÑĤÐ²ÐµÑĤ": 1155,
      "ÑĢÐµÑģ": 1156,
      "ĠÐ¾Ð¶Ð¸": 1157,
      "ĠÐ¸Ð½Ð²ÐµÑģÑĤÐ¸ÑĨÐ¸Ð¸": 1158,
      "Ġ12": 1159,
      "ĠÐĽÐ¸": 1160,
      "ĠÐ²ÑģÐµ": 1161,
      "ÑīÐµ": 1162,
      "ĠÑģÐ¾Ð²ÐµÑĢ": 1163,
      "ĠÑģÐ²": 1164,
      "ĠÑħ": 1165,
      "ĠÑĢÐµÐ·": 1166,
      "Ġ16": 1167,
      "ĠÐ»Ð¸ÑĨ": 1168,
      "ĠÐ½ÐµÑģÐµÑĤ": 1169,
      "ĠÐ´Ð¾Ð»Ð³": 1170,
      "Ð½Ð°ÑĤÑĮ": 1171,
      "ĠÐ¾Ð¿ÐµÑĢÐ°ÑĨÐ¸Ð¹": 1172,
      "ÑĢÐ¾Ð´": 1173,
      "ss": 1174,
      "ĠÐłÐ°ÑģÐ¿": 1175,
      "ĠÑĤÐ¾ÑĢÐ³ÑĥÑİÑĤÑģÑı": 1176,
      "gh": 1177,
      "ĠÑĤÑĢÐ°Ð½Ñģ": 1178,
      "ÐºÐ°ÑĤ": 1179,
      "ĠÐ¿Ð°Ð´": 1180,
      "Ð£": 1181,
      "Ð²Ð°ÑĤÑĮ": 1182,
      "ĠÑĥÐ·": 1183,
      "ÐµÐ¼Ð¾Ð¹": 1184,
      "ĠÐŁÐĲÐŀ": 1185,
      "2024": 1186,
      "ĠÐ¾ÑĤÐ½Ð¾ÑĪÐµÐ½Ð¸Ñİ": 1187,
      "ĠÑĦÐ¸Ð½Ð°Ð½ÑģÐ¾Ð²Ð¾Ð³Ð¾": 1188,
      "ĠÐ¼Ð°ÑĢÐºÐµÑĤ": 1189,
      "ĠI": 1190,
      "Ġ2008": 1191,
      "ĠÐ¤Ð¸Ð½Ð°Ð½ÑģÐ¾Ð²": 1192,
      "ĠÐ¿ÑĢÐµÐ´ÑĥÑģ": 1193,
      "Ð²Ð¸Ð´Ñĥ": 1194,
      "ĠÐ¾Ð¿Ñĭ": 1195,
      "Ð¸Ð¼Ð¾Ð¹": 1196,
      "ĠÐ¸Ð½ÑģÑĤÑĢÑĥÐ¼ÐµÐ½ÑĤÐ°": 1197,
      "ĠÐ±Ð¾Ð½": 1198,
      "ĠÐ¿ÑĢÐ¾ÑĦÐ¸": 1199,
      "ĠÐ¸Ð½Ð²ÐµÑģÑĤÐ¸ÑĢÐ¾Ð²Ð°Ð½Ð¸Ñı": 1200,
      "Ð°ÑĤÐµÐ»ÐµÐ¼": 1201,
      "pre": 1202,
      "ĠÐ¿ÑĢÐ¾Ð²ÐµÐ´ÐµÐ½Ð¸Ñı": 1203,
      "ĠÐ½Ð¾Ð²": 1204,
      "ÑĥÑĢ": 1205,
      "Ð½Ð¾Ð¿": 1206,
      "Ġ*": 1207,
      "ĠÐ¼Ð°ÑĤÐµÑĢÐ¸Ð°Ð»": 1208,
      "ĠÐ¼Ð¾Ð¶ÐµÑĤÐµ": 1209,
      "ÑģÑĤÑĥÐ¿": 1210,
      "ĠÐ·Ð°Ð´Ð°ÑĩÐµÐ¹": 1211,
      "ĠÐ¤Ð¸Ð½Ð°Ð½ÑģÐ¾Ð²ÑĭÐµ": 1212,
      "ĠÐ¿ÑĢÐµÐ´Ð¾ÑģÑĤÐ°Ð²Ð»Ñı": 1213,
      "ĠÐ¿ÑĢÐ°Ð²Ð°": 1214,
      "ĠÐºÐ½Ð¾Ð¿": 1215,
      "Ð¼Ð¾ÑĤÑĢÐµÐ½": 1216,
      "ÑģÐºÐ¸Ð¹": 1217,
      "ĠÑĥÐ±ÑĭÑĤÐºÐ¸": 1218,
      "ght": 1219,
      "ĠÑĢÑĭÐ½ÐºÐµ": 1220,
      "tor": 1221,
      "ĠÐ¸ÑģÐ¿Ð¾Ð»ÑĮÐ·Ð¾Ð²Ð°Ð½Ð¸Ñı": 1222,
      "ĠÐľÐ¾ÑģÐºÐ²Ð°": 1223,
      "ĠÐ¸Ð½Ð´Ð¸Ð²Ð¸Ð´Ñĥ": 1224,
      "ĠÐ¿Ð»": 1225,
      "ĠÑĤÐ¾Ð»": 1226,
      "ĠÐ¸ÑģÐºÐ»ÑİÑĩÐ¸ÑĤÐµÐ»ÑĮÐ½Ð¾": 1227,
      "Ð»Ð°ÑģÑĮ": 1228,
      "ĠÐ²Ð¾Ð·Ð¼Ð¾Ð¶Ð½ÑĭÐµ": 1229,
      "ĠÐĶÐ°Ð½Ð½ÑĭÐµ": 1230,
      "ĠÐ¿ÑĢÐµÐ´ÑģÑĤÐ°Ð²Ð»ÐµÐ½": 1231,
      "ĠÐĽÑİ": 1232,
      "ĠÐ¸ÑģÐ¿Ð¾Ð»ÑĮÐ·Ð¾Ð²Ð°Ð½Ð¸Ðµ": 1233,
      "ĠÐ¿Ð¾ÑĢÑıÐ´ÐºÐµ": 1234,
      "Ð½Ð¸ÐºÐ¾Ð¼": 1235,
      "ĠÑĥÐ·Ð½Ð°ÑĤÑĮ": 1236,
      "ĠÑģÑĤÑĢ": 1237,
      "Ð¼Ð¸ÑĤÐµ": 1238,
      "SI": 1239,
      "ĠÑģÐ°Ð¹ÑĤÐ°": 1240,
      "ĠÐºÐ½Ð¾Ð¿ÐºÑĥ": 1241,
      "ĠÐ¿ÑĢÐµÐ´Ð¾ÑģÑĤÐ°Ð²Ð»ÐµÐ½Ð¸Ðµ": 1242,
      "ĠÐ²Ð¾Ð¿ÑĢÐ¾ÑģÐ¾Ð²": 1243,
      "ÑĢÐ¾ÑģÑĤÑĢÐ°Ð½": 1244,
      "ĠÐ·Ð½Ð°Ð½Ð¸": 1245,
      "ÑīÐµÐ½Ñĭ": 1246,
      "ĠÐ·Ð°ÑīÐ¸": 1247,
      "ĠÐĴÐ°ÑĪ": 1248,
      "ÑĢÐµÐ´ÐµÐ»ÐµÐ½Ð¸Ðµ": 1249,
      "ĠÐ¾ÑĤÐ²ÐµÑĤÑģÑĤÐ²ÐµÐ½": 1250,
      "ĠÐ¿ÑĢÐµÐ´ÑĥÑģÐ¼Ð¾ÑĤÑĢÐµÐ½": 1251,
      "ÑģÐ¿ÐµÐºÑĤ": 1252,
      "ĠÐ¼Ð°ÑĤÐµÑĢÐ¸Ð°Ð»Ð¾Ð²": 1253,
      "Ð±Ð¾Ðµ": 1254,
      "ĠÐ·Ð°Ð¿ÑĢÐµÑīÐµÐ½": 1255,
      "Ð´ÑĢÐµÑģ": 1256,
      "py": 1257,
      "ĠÑĢÐ°Ð·ÑĢÐµÑĪÐµÐ½Ð¸Ñı": 1258,
      "gu": 1259,
      "press": 1260,
      "ĠÐ¼Ð°ÑĢÐºÐµÑĤÐ¸Ð½Ð³": 1261,
      "ÐĶÐ²Ð¾Ð¹": 1262,
      "ĠÑĦÐ¸Ð½Ð°Ð½ÑģÐ¾Ð²Ð¾Ð¼Ñĥ": 1263,
      "ĠÐ¿ÑĢÐµÐ´Ð»Ð¾Ð¶ÐµÐ½Ð¸Ð¹": 1264,
      "ĠÐ±Ð¾Ð½ÑĥÑģ": 1265,
      "ĠÐ¾Ð¿ÑĭÑĤÑĥ": 1266,
      "ĠÐ·Ð½Ð°Ð½Ð¸ÑıÐ¼": 1267,
      "ĠÐ»Ð¸ÑĨÐ°Ð¼": 1268,
      "ĠÐ¾ÑĤÐ²ÐµÑĤÑģÑĤÐ²ÐµÐ½Ð½Ð¾ÑģÑĤÐ¸": 1269,
      "ÐµÐºÑģÑĭ": 1270,
      "ĠÐ³Ð¾Ð´Ñĥ": 1271,
      "ĠÐ´Ð½ÐµÐ²": 1272,
      "ĠÑĥÑģÐ»Ð¾Ð²Ð¸ÑıÐ¼Ð¸": 1273,
      "Ð°ÑĤÐµÑĢÐ¸Ð°Ð»Ñĭ": 1274,
      "ĠÐ¿Ð¾Ð´ÑħÐ¾Ð´Ð¸ÑĤÑĮ": 1275,
      "ĠÑĤÑĢÐµÑĤÑĮÐ¸Ð¼": 1276,
      "ĠÑģÐ¾Ð²ÐµÑĢÑĪÐµÐ½Ð¸Ñı": 1277,
      "ĠÐĴÐ°Ð¼": 1278,
      "ĠÐ·Ð°Ð¿ÑĢÐµÑīÐµÐ½Ð¾": 1279,
      "ÑĢÐ¾ÑģÑĤÑĢÐ°Ð½ÐµÐ½Ð¸Ðµ": 1280,
      "ĠÐŀÐĲÐŀ": 1281,
      "ÐµÑĢÐ°Ð½ÑĤ": 1282,
      "ĠÑĤÐ¾Ð»ÐµÑĢÐ°Ð½ÑĤ": 1283,
      "ĠÑģÐ¾Ð¾ÑĤÐ²ÐµÑĤÑģÑĤÐ²Ð¾Ð²Ð°ÑĤÑĮ": 1284,
      "tory": 1285,
      "ĠÐ¸Ð½Ð²ÐµÑģÑĤÐ¸ÑĨÐ¸Ð¾Ð½Ð½ÑĭÐ¼Ð¸": 1286,
      "ĠÐ¸Ð½Ð¾Ðµ": 1287,
      "ĠÐŀÐ¿ÑĢÐµÐ´ÐµÐ»ÐµÐ½Ð¸Ðµ": 1288,
      "ĠÐ¿ÑĢÐ¾Ð²Ð¾Ð´Ð¸Ð¼Ð¾Ð¹": 1289,
      "ĠÑĤÑĢÐ°Ð½ÑģÐ»ÑıÑĨÐ¸Ñı": 1290,
      "ĠÐ·Ð°ÑīÐ¸ÑīÐµÐ½Ñĭ": 1291,
      "ÑģÐ¾Ð±ÑģÑĤÐ²ÐµÐ½": 1292,
      "ĠÐ¾Ð±Ð»Ð°Ð´": 1293,
      "ĠÐľÐ¸ÑĢÐ°": 1294,
      "ĠÑĢÐµÐºÐ¾Ð¼ÐµÐ½Ð´Ð°ÑĨÐ¸ÑıÐ¼Ð¸": 1295,
      "ĠÐ¿ÑĢÐµÐ´ÑģÑĤÐ°Ð²Ð»ÐµÐ½Ð½ÑĭÐµ": 1296,
      "ĠÐ¿ÑĢÐµÐ´ÑĥÑģÐ¼Ð¾ÑĤÑĢÐµÐ½Ð½ÑĭÑħ": 1297,
      "ĠÐĴÐ°ÑĪÐµÐ¼Ñĥ": 1298,
      "ĠÐ¿Ð¾ÑĢÑıÐ´ÐºÐ¾Ð¼": 1299,
      "ĠÐĽÐ¸ÑĨÐµÐ½Ð·Ð¸Ñı": 1300,
      "ĠÐĽÑİÐ±Ð¾Ðµ": 1301,
      "ĠÐľÐ°ÑĤÐµÑĢÐ¸Ð°Ð»Ñĭ": 1302,
      "ĠÐ¿Ð¾Ð»Ð¾Ð¶ÐµÐ½Ð¸Ñİ": 1303,
      "express": 1304,
      "ĠÐ¼Ð°ÑĢÐºÐµÑĤÐ¸Ð½Ð³Ð¾Ð²Ð¾Ð¹": 1305,
      "ĠÑģÐ¾Ð¾ÑĤÐ²ÐµÑĤÑģÑĤÐ²Ð¸Ñı": 1306,
      "ĠÐŁÑĢÐ¾ÑģÐ¿ÐµÐºÑĤ": 1307,
      "ĠÑĤÐ¾Ð»ÐµÑĢÐ°Ð½ÑĤÐ½Ð¾ÑģÑĤÐ¸": 1308,
      "ĠÂ©": 1309,
      "Copy": 1310,
      "ĠÐ¸Ð½Ð´Ð¸Ð²Ð¸Ð´ÑĥÐ°Ð»ÑĮÐ½ÑĭÐ¼Ð¸": 1311,
      "ĠÐ¾Ð±Ð»Ð°Ð´Ð°ÑĤÐµÐ»ÐµÐ¼": 1312,
      "ĠÐĲÐ´ÑĢÐµÑģ": 1313,
      "ĠÐłÐ°ÑģÐ¿ÑĢÐ¾ÑģÑĤÑĢÐ°Ð½ÐµÐ½Ð¸Ðµ": 1314,
      "ĠÐ¿ÑĢÐµÐ´Ð¾ÑģÑĤÐ°Ð²Ð»ÑıÐµÐ¼Ð¾Ð¹": 1315,
      "latory": 1316,
      "regu": 1317,
      "ĠÑģÐ°Ð¹ÑĤÑĥ": 1318,
      "ruCopy": 1319,
      "Ð°Ð¶Ð¼Ð¸ÑĤÐµ": 1320,
      "ÐĿÐ°Ð¶Ð¼Ð¸ÑĤÐµ": 1321,
      "ĠÐ³Ð¾ÑĢÐ¸Ð·Ð¾Ð½ÑĤÑĥ": 1322,
      "right": 1323,
      "ĠÐ¿ÑĢÐ¾ÑĦÐ¸Ð»Ñİ": 1324,
      "ÐĶÐ²Ð¾Ð¹Ð½Ð¾Ð¹": 1325,
      "ÑģÐ¾Ð±ÑģÑĤÐ²ÐµÐ½Ð½Ð¸ÐºÐ¾Ð¼": 1326,
      "regulatory": 1327,
      "ruCopyright": 1328,
      "ĠÐŀÐ±ÑĬÐµÐ¼": 1329,
      "30": 1330,
      "ĠÐ¾ÑģÑĤÐ°": 1331,
      "Ð³Ð¸": 1332,
      "Ð²Ð¸Ð¶": 1333,
      "ĠÐ¿ÑĢÐ¸Ð±Ñĭ": 1334,
      "ĠÑģÐ¾ÑģÑĤÐ°Ð²Ð¸Ð»": 1335,
      "Ð¾Ð½Ð°": 1336,
      "ĠÐ¾ÑģÐ½Ð¾Ð²": 1337,
      "ÐµÐºÑĥÑī": 1338,
      "15": 1339,
      "ĠÐºÐ°Ðº": 1340,
      "ĠÐ¿Ð¾Ð·Ð¸ÑĤÐ¸Ð²": 1341,
      "Ġ\"": 1342,
      "ÑĢÐµÐ¼": 1343,
      "ĠÐ½ÐµÑĦÑĤÑĮ": 1344,
      "Ð²ÐµÐ»Ð¸": 1345,
      "Ð¾ÑģÑĤÐ¸": 1346,
      "ÐºÐ¾Ð¹": 1347,
      "ÑģÐ°": 1348,
      "ĠRSI": 1349,
      "ÐĽ": 1350,
      "Ð°Ð»Ð¸ÑģÑĮ": 1351,
      "ĠÐ¼Ð»Ð½": 1352,
      "ĠÐłÐ¤": 1353,
      "ĠÐ¼ÐµÑģÑıÑĨ": 1354,
      "ĠÐ¾Ð´": 1355,
      "ÑĨÐµÐ½Ð°ÑĢÐ¸": 1356,
      "ĠÑĨÐµÐ»Ð¸": 1357,
      "ĠÐµÑīÐµ": 1358,
      "ĠÑģÑĤÐ°Ð²": 1359,
      "Ð¾Ð»Ð¸": 1360,
      "Ð²Ñĭ": 1361,
      "ĠE": 1362,
      "ĠÐľÐ¾Ñģ": 1363,
      "ĠÐ±ÑĥÐ¼Ð°Ð³Ð¸": 1364,
      "ĠÐ½ÐµÐ´ÐµÐ»": 1365,
      "ĠÐļÑĢÐ°ÑĤÐºÐ¾ÑģÑĢÐ¾ÑĩÐ½Ð°Ñı": 1366,
      "Ð½Ñĥ": 1367,
      "Ð²Ð°ÑĢÑĤ": 1368,
      "Ð½Ð°Ð»Ð¸ÑĤÐ¸": 1369,
      "ĠÐ½Ð¸Ð¶Ðµ": 1370,
      "ĠÑģÐºÐ¾Ð»ÑĮÐ·": 1371,
      "Ġ14": 1372,
      "ÐºÑĤÑĥ": 1373,
      "Ð°ÑĤÐµÐ»ÑĮ": 1374,
      "Ð¨": 1375,
      "ÑĥÐ»ÑĮÑĤ": 1376,
      "ĠÑģÐ¾Ñħ": 1377,
      "Ð±Ð¾ÑĤ": 1378,
      "ĠÐ²ÑĭÑģÐ¾Ðº": 1379,
      "es": 1380,
      "Ð²Ð¾Ð´": 1381,
      "Ð¾Ð»Ð¾": 1382,
      "ĠÑįÑĤÐ¾Ð¼": 1383,
      "Ð¼ÑĥÐ¼Ð°": 1384,
      "ĠÐºÐ¾ÑĤÐ¸ÑĢÐ¾Ð²ÐºÐ¸": 1385,
      ".,": 1386,
      "ĠÑģÑĨÐµÐ½Ð°ÑĢÐ¸": 1387,
      "ĠÐ¿ÑĢÐ¾Ð´Ð¾Ð»Ð¶": 1388,
      "Ð½ÐµÑģÑĢÐ¾Ñĩ": 1389,
      "Ġ17": 1390,
      "ĠÑģÐ»ÐµÐ´": 1391,
      "20": 1392,
      "Ð°ÑĤÑĭ": 1393,
      "Ð¨ÐĲ": 1394,
      "ĠÐ¡Ð¨ÐĲ": 1395,
      "ĠÐŁÑĢÐ¸": 1396,
      "ÐµÐ½Ð½Ð¾": 1397,
      "ÑĪÐ¸Ðµ": 1398,
      "ÐºÐ°ÑĤÐ¾ÑĢ": 1399,
      "Ð¾ÑĢÐ°": 1400,
      "ĠÐ²ÑĭÐ³Ð»Ñı": 1401,
      "ĠÐ¤ÑĮÑİÑĩÐµÑĢÑģ": 1402,
      "Ð¾Ð¼Ð¸": 1403,
      "Ð¾ÑĢÐ¸": 1404,
      "ĠÐ´Ð²Ð¸Ð¶": 1405,
      "Ð¾Ñĩ": 1406,
      "ĠÐ´Ð¾Ð»": 1407,
      "Ðĵ": 1408,
      "ĠÐ¾ÐºÐ¾Ð»Ð¾": 1409,
      "Ð³Ð°": 1410,
      "Ð»ÑģÑı": 1411,
      "ĠÑģÐ½Ð¸Ð·Ð¸": 1412,
      "ÑĩÐµÑģÐºÐ¸Ñħ": 1413,
      "Ð´ÑĥÑī": 1414,
      "ĠÑįÑĤÐ¾": 1415,
      "ĠÐ½ÐµÐ¹": 1416,
      "Ð²Ð°Ñı": 1417,
      "ĠÐ¾ÑĤÑģÐº": 1418,
      "ÐµÐ½Ð¸ÐµÐ¼": 1419,
      "ĠÐ¸Ð½Ð²ÐµÑģÑĤÐ¾ÑĢ": 1420,
      "ĠÑĤÐµÑħÐ½Ð¸": 1421,
      "ĠÑĢÑĥÐ±Ð»Ñı": 1422,
      "ĠÐºÐ²Ð°ÑĢÑĤ": 1423,
      "ĠÐ¿Ð¾ÐºÑĥÐ¿Ð°ÑĤÐµÐ»": 1424,
      "ĠÑĢÐµÐ·ÑĥÐ»ÑĮÑĤ": 1425,
      "ÑĭÐ´ÑĥÑī": 1426,
      "ĠÑģÐ¸Ð³": 1427,
      "ĠÑĥÐ¶Ðµ": 1428,
      "ĠÑĤÐ¾ÑĢÐ³Ð¾Ð²Ð¾Ð¹": 1429,
      "Ð´ÐµÐºÑģ": 1430,
      "ÑĩÐ°Ñģ": 1431,
      "ĠÐ¿ÑĢÐµÐ´ÑĭÐ´ÑĥÑī": 1432,
      "ĠÑĤÑĢÐµÐ½Ð´": 1433,
      "ĠÑĥÑĢÐ¾Ð²Ð½Ðµ": 1434,
      "ÐµÐ¹ÑĩÐ°Ñģ": 1435,
      "ÑıÑĤÑĮ": 1436,
      "ĠÑĤÐµÐºÑĥÑī": 1437,
      "ĠÐ½ÑĥÐ¶": 1438,
      "25": 1439,
      "ÐµÐ¶": 1440,
      "ÑħÐ¾Ð´ÑıÑī": 1441,
      "ĠÐ´Ð¾ÑģÑĤÐ¸": 1442,
      "Ð¼Ð¿": 1443,
      "ĠÐ½Ð°ÑħÐ¾Ð´Ð¸ÑĤÑģÑı": 1444,
      "ĠÐ¿Ð¾ÑģÐ»ÐµÐ´": 1445,
      "ĠÐĿÐµÑĦÑĤÑĮ": 1446,
      "ÑĤÑĢÐ°Ð»ÑĮ": 1447,
      "ĠÐ¿Ð¾Ð²Ñĭ": 1448,
      "Ð·Ð¸Ð°ÑĤ": 1449,
      "ĠÐ±Ð»Ð¸Ð¶Ð°Ð¹": 1450,
      "Ð¾ÑģÑĮ": 1451,
      "¸ı": 1452,
      "ï¸ı": 1453,
      "ĠÐ¼Ð¸Ð½Ð¸Ð¼ÑĥÐ¼": 1454,
      "ĠÑģÑĤÐ¾": 1455,
      "ÐµÐ½Ñĭ": 1456,
      "14": 1457,
      "ÑĥÑģÐº": 1458,
      "ÑģÐºÐ¾Ð³Ð¾": 1459,
      "ĠÐ¸Ñİ": 1460,
      "ĠÑĥÐ²ÐµÐ»Ð¸": 1461,
      "Ð½Ð¾Ð·": 1462,
      "ĠÐ±ÑĭÐ»": 1463,
      "ÑĥÑīÐµ": 1464,
      "Ġ201": 1465,
      "Ð°Ñħ": 1466,
      "ĠÑĢÑĭÐ½Ð¾Ðº": 1467,
      "ĠÐĳÑĥÐ¼Ð°Ð³Ð¸": 1468,
      "Ð¾ÑģÑĤ": 1469,
      "ĠÑģÑĤÐ¾ÑĢ": 1470,
      "Ð°ÑĤÐ¸Ð²": 1471,
      "16": 1472,
      "ĠÐ¦ÐµÐ½Ð°": 1473,
      "Ð°Ð½ÐºÐ°": 1474,
      "ĠÐ½ÐµÐ¹ÑĤÑĢÐ°Ð»ÑĮ": 1475,
      "Ð¸Ñģ": 1476,
      "Ġ13": 1477,
      "ĠÐ²ÑĭÐ¿Ð»": 1478,
      "ĠÐ¿Ð¾ÐºÐ°Ð·": 1479,
      "ĠÐ¿Ð°Ð´ÐµÐ½Ð¸Ñı": 1480,
      "Ð°Ð»Ðµ": 1481,
      "ĠÑĦÐ¾Ð½Ðµ": 1482,
      "ĠÐ¡Ð±": 1483,
      "Ð¾ÑĢÐ¾ÑĤ": 1484,
      "17": 1485,
      "ÑĢÑĥÐ¿": 1486,
      "Ð·Ð¸Ð°ÑĤÑģÐºÐ¸Ðµ": 1487,
      "ĠÐºÐ¾Ð¼Ð¿Ð°Ð½Ð¸Ñı": 1488,
      "ĠÐ°ÐºÑĤÐ¸Ð²": 1489,
      "Ð¾Ð³Ð½Ð¾Ð·": 1490,
      "Ð°Ð¿": 1491,
      "ÑģÐºÐ¸Ñħ": 1492,
      "ÑģÑĤÐ²Ð¾": 1493,
      "Ð³Ð¾Ð´": 1494,
      "Ð¿Ð¾Ð»": 1495,
      "ÑģÐ¾Ð²Ð¾Ð¼": 1496,
      "Ð¸Ð»Ð¸": 1497,
      "ĠÑģÐºÐ¾Ð»ÑĮÐ·ÑıÑī": 1498,
      "ĠÑĥÑĤÑĢÐ°": 1499,
      "Ð²ÐµÑĢÑħ": 1500,
      "ÑģÑĤÐ°Ð½Ð¾Ð²Ð»": 1501,
      "ĠÐ´Ð¾Ð»Ð³Ð¾ÑģÑĢÐ¾Ñĩ": 1502,
      "ÑĥÐ´": 1503,
      "18": 1504,
      "Ð´Ð½ÐµÐ²": 1505,
      "Ð¸ÑĤÐ°Ð¹ÑĤÐµ": 1506,
      "Ð¸Ñħ": 1507,
      "ĠÐŁÐ¾": 1508,
      "13": 1509,
      "ÑĥÑīÐµÑģÑĤÐ²ÐµÐ½": 1510,
      "ĠÐ¿ÑıÑĤ": 1511,
      "ÑĨÑĭ": 1512,
      "Ð¸Ð¹": 1513,
      "Ð°Ð±": 1514,
      "ĠÐŀÑĤ": 1515,
      "ÑĢÐ°Ñī": 1516,
      "Ð¾ÑĢÑĤ": 1517,
      "Ð¸Ð½Ð°Ð¼Ð¸": 1518,
      "ĠÐ¿Ð¾Ð»Ñĥ": 1519,
      "ĠÐ¦Ðĳ": 1520,
      "ĠÐ³Ð°Ð·": 1521,
      "ĠÐ¼Ð°ÐºÑģÐ¸Ð¼ÑĥÐ¼": 1522,
      "ĠÐ§Ð¸ÑĤÐ°Ð¹ÑĤÐµ": 1523,
      "ĠÐ·Ð°ÐºÑĢÑĭÑĤÐ¸Ðµ": 1524,
      "ĠÑģÑĢÐµÐ´Ð½ÐµÐ¹": 1525,
      "ĠÐ²ÑĢÐµÐ¼": 1526,
      "ĠÑĪ": 1527,
      "ĠÐ´Ð¸Ð²Ð¸Ð´ÐµÐ½Ð´Ð¾Ð²": 1528,
      "ĠÐ¿ÑıÑĤÐ½Ð¸": 1529,
      "ĠÐ¿ÑĢÐ¾Ð¸Ð·": 1530,
      "26": 1531,
      "rd": 1532,
      "Ð°Ð»ÑİÑĤ": 1533,
      "Ġt": 1534,
      "ĠÑįÐºÑģÐ¿": 1535,
      "ĠÐ´Ð½ÐµÐ²Ð½Ð¾Ð¼": 1536,
      "ĠÑĨÐµÐ½Ñĭ": 1537,
      "ĠÐ¸ÑĤÐ¾Ð³": 1538,
      "ÑĢÐ¸ÑĤ": 1539,
      "ĠÐ¸Ð½Ð´Ð¸ÐºÐ°ÑĤÐ¾ÑĢ": 1540,
      "ĠÐ´Ð¸Ð²Ð¸Ð´ÐµÐ½Ð´Ñĭ": 1541,
      "rdv": 1542,
      "Ġrdv": 1543,
      "Ð¸Ðµ": 1544,
      "Ð½Ð°ÐºÐ¾": 1545,
      "Ġ18": 1546,
      "Ð½Ð¸Ðµ": 1547,
      "Ð¸Ð»": 1548,
      "ĠÐ¸Ð½Ð´ÐµÐºÑģÑĭ": 1549,
      "ĠÐ·Ð°ÐºÑĢÐµ": 1550,
      "Ð°Ñģ": 1551,
      "ĠÐ´Ð¸Ð½Ð°Ð¼Ð¸": 1552,
      "ĠÑģÑĢÐµÐ´Ð½ÐµÑģÑĢÐ¾Ñĩ": 1553,
      "ÑĥÐ±Ð»Ð¸": 1554,
      "ĠÑĢÐ°Ð¹": 1555,
      "ĠÑģÐ¸Ð³Ð½Ð°Ð»": 1556,
      "Ð¿ÑĢÐ°Ð²Ð»ÐµÐ½": 1557,
      "Ð¾Ð½Ñĭ": 1558,
      "ĠÐ²Ð·": 1559,
      "Ð´Ñĥ": 1560,
      "ĠÐ½ÐµÑĦÑĤÐ¸": 1561,
      "ĠÑĢÐ°ÑģÐ¿": 1562,
      "ĠÐ½ÐµÐ´ÐµÐ»Ð¸": 1563,
      "Ġ50": 1564,
      "ĠÐ¿ÑĢÐ¾Ð´Ð°Ð²": 1565,
      "ĠÐ°Ð½Ð°Ð»Ð¸ÑĤÐ¸": 1566,
      "Ġï¸ı": 1567,
      "ĠÑĥÑĢÐ¾Ð²Ð½Ð¸": 1568,
      "27": 1569,
      "ĠÑģÐ°Ð½Ðº": 1570,
      "ĠÐ²ÑĭÑĢÐ¾ÑģÐ»Ð¸": 1571,
      "24": 1572,
      "ĠÐ²ÑĤÐ¾ÑĢ": 1573,
      "Ð°ÑĤÑĮÑģÑı": 1574,
      "Ð½Ð¸Ð¼": 1575,
      "ĠÐľÐ¾ÑģÐ±": 1576,
      "ĠÐ¸Ð¼Ð¿": 1577,
      "ĠÑĥÐºÐ°Ð·": 1578,
      "ÑİÑīÐ¸": 1579,
      "Ð¾Ð¿Ð¾Ð»": 1580,
      "ÑĪÐµÐ³Ð¾": 1581,
      "ĠÐ¸Ð½ÑĦ": 1582,
      "22": 1583,
      "Ð¾Ð½Ð¾Ð¼Ð¸": 1584,
      "ÑĪÐµÐ½Ð¸Ðµ": 1585,
      "ÐµÑĩ": 1586,
      "ÐµÑĢÐ±": 1587,
      "ĠÐļÐ°Ðº": 1588,
      "ĠÐ¸Ð½ÑĤ": 1589,
      "ĠÐ°ÐºÑĨÐ¸Ñı": 1590,
      "Ð¾Ð»ÑĮÐºÐ¾": 1591,
      "ĠÑĥÑĤ": 1592,
      "ÐµÑĢÑı": 1593,
      "28": 1594,
      "ĠÐ½ÐµÑĤ": 1595,
      "ĠÑģÐºÐ¾Ð»ÑĮÐ·ÑıÑīÐµÐ¹": 1596,
      "ĠÐ´Ð°": 1597,
      "ĠÐ´ÐµÐ½ÑĮ": 1598,
      "Ð¾ÑıÑĤ": 1599,
      "ĠÐ½ÑĥÐ¶Ð½Ð¾": 1600,
      "ÑĩÐµÑĢÐ°": 1601,
      "ÐµÐ²ÑĢÐ°": 1602,
      "ÑĭÐ²Ð°ÐµÑĤ": 1603,
      "MA": 1604,
      "ĠÐ¿Ð¾ÐºÑĥÐ¿Ð°ÑĤÐµÐ»ÐµÐ¹": 1605,
      "ĠÑĤÐ¾": 1606,
      "ĠÐŁÐ¾Ñģ": 1607,
      "ĠÑĢÐ°Ð·Ð²": 1608,
      "ĠÐºÐ¾Ð½ÑĨ": 1609,
      "Ð¾ÑĢÐ¸ÑĤ": 1610,
      "ĠÐ°ÐºÑĨÐ¸Ñİ": 1611,
      "Ð¸ÑĢÐ¶Ð¸": 1612,
      "ÑĢÑĥÑĩ": 1613,
      "ÐµÐ½ÑĨÐ¸": 1614,
      "al": 1615,
      "Ð¾Ð¼ÐµÐ½ÑĤ": 1616,
      "an": 1617,
      "29": 1618,
      "ĠÐ¼Ð¾Ð¼ÐµÐ½ÑĤ": 1619,
      "ĠÑģÑĩÐµÑĤ": 1620,
      "Ð»Ð°Ð´": 1621,
      "est": 1622,
      "ĠÐ´Ð¾ÑģÑĤÐ¸Ð³": 1623,
      "ĠÐ¼Ð¸Ð½": 1624,
      "ĠÑģÐ²Ð¾": 1625,
      "ĠÑģÐ¼": 1626,
      "ĠÐ±Ð¾Ðº": 1627,
      "ĠÐ´Ð°Ð»ÑĮ": 1628,
      "ĠÐ²Ð¾": 1629,
      "ĠÐĲÐ·Ð¸Ð°ÑĤÑģÐºÐ¸Ðµ": 1630,
      "ĠÐ¿Ð°": 1631,
      "ÑĦÑĦ": 1632,
      "ÑĢÑĥÐºÑĤÑĥ": 1633,
      "Ð½ÐµÑĦ": 1634,
      "ĠÑģÐ»Ð¾Ð¼": 1635,
      "ĠÐ´Ð½Ñı": 1636,
      "ÑĢÐ°Ð¹": 1637,
      "ÑĩÐµÑģÐºÐ°Ñı": 1638,
      "ĠÐ²ÑĭÐ³Ð»ÑıÐ´ÐµÐ»": 1639,
      "ÐľÐļ": 1640,
      "ĠÑģÐ¸Ð»ÑĮ": 1641,
      "vest": 1642,
      "ĠÐ¿Ð»Ñİ": 1643,
      "ĠG": 1644,
      "ĠÑĩÐ¸": 1645,
      "ÑĪÐ»Ð¸": 1646,
      "ÑģÑĤÐ¾ÑĢÐ¸": 1647,
      "ĠÐ¾ÑĤÑĩÐµÑĤ": 1648,
      "Ð¾Ð²ÑĭÑħ": 1649,
      "Ð¸Ð´": 1650,
      "Ð¼Ð°Ð»ÑĮ": 1651,
      "ĠÐ¿ÑĢÐ¸Ð±ÑĭÐ»ÑĮ": 1652,
      "ĠÑĥÐ¼ÐµÑĢ": 1653,
      "ÑģÐ¿ÐµÐº": 1654,
      "ĠÐ¿Ð¾Ð¿": 1655,
      "ĠÐ´Ð¾ÑĢ": 1656,
      "ĠÐ·Ð¾Ð½Ðµ": 1657,
      "ĠÐ¼Ð°ÐºÑģÐ¸Ð¼ÑĥÐ¼Ð°": 1658,
      "Ð¼Ð¸ÑĢÐ¾Ð²": 1659,
      "ĠÐ¾Ð¶Ð¸Ð´": 1660,
      "ĠÐ¿ÑĢÐ¾ÑĪÐ»Ð¾Ð¹": 1661,
      "ÑģÑĤÐ²Ð°": 1662,
      "ĠÐ²Ð°Ð»ÑİÑĤ": 1663,
      "Ð²ÐµÐ´": 1664,
      "ĠÑģÐ½Ð¸Ð¶ÐµÐ½Ð¸Ñı": 1665,
      "invest": 1666,
      "Ñĳ": 1667,
      "Ð±Ð¸": 1668,
      "ĠÑĦÐµÐ²ÑĢÐ°": 1669,
      "ĠÑįÐºÐ¾Ð½Ð¾Ð¼Ð¸": 1670,
      "ĠÑĩÐµÐ¼": 1671,
      "Ġ24": 1672,
      "ĠÐµÑģÐ»Ð¸": 1673,
      "21": 1674,
      "ĠÐ±ÑĥÐ´ÑĥÑĤ": 1675,
      "ĠÐºÐ¾Ð½Ñģ": 1676,
      "ÑıÑīÐ¸": 1677,
      "ĠÐ¸ÑģÑĤÐ¾ÑĢÐ¸": 1678,
      "Ð¿Ð°": 1679,
      "23": 1680,
      "ÑıÑĤÑģÑı": 1681,
      "ÑĢÑĥÑİÑĤ": 1682,
      "ĠÐŃÑĤÐ¾": 1683,
      "ĠÐ¢ÐµÑħÐ½Ð¸": 1684,
      "ĠÐ²ÑģÐµÑħ": 1685,
      "ĠÐ²Ñģ": 1686,
      "ÑĩÐ°ÑģÐ¾Ð²Ð¾Ð¼": 1687,
      "ÑĢÑĥÐµÑĤ": 1688,
      "ĠÐ¿ÐµÑĢÑģÐ¿ÐµÐº": 1689,
      "ĠÐ¾Ð¶Ð¸Ð´Ð°": 1690,
      "ÑĤÐ¾Ð³Ð¸": 1691,
      "ÐµÐ½ÑĤÐ¸": 1692,
      "ĠÑĢÑĭÐ½ÐºÐ¸": 1693,
      "ÐµÐ²ÐµÑĢ": 1694,
      "ĠÐ½ÐµÐ³": 1695,
      "ĠÐ²ÑĭÑģÑĤÑĥÐ¿": 1696,
      "ĠÑģÐ¾ÑģÑĤÐ°Ð²Ð¸Ð»Ð°": 1697,
      "Ð½ÐµÐ¼": 1698,
      "Ð³Ð»ÑıÐ´": 1699,
      "Ð²Ð°ÐµÑĤ": 1700,
      "ÐµÑĢÐ¾Ð²": 1701,
      "ÐµÐ»Ñı": 1702,
      "ÑĢÐ°Ð±Ð¾ÑĤ": 1703,
      "ĠÑģÐ¼Ð¾ÑĤ": 1704,
      "ĠÑĨÐµÐ»ÑĮ": 1705,
      "ĠÐĺÑĤÐ¾Ð³Ð¸": 1706,
      "ĠÐ¿ÑĢÐ¸Ð±": 1707,
      "Ð»ÑİÑĩÐµ": 1708,
      "ĠÑģÐ¾Ðº": 1709,
      "Ð´Ð½ÐµÐ²Ð½Ð¾Ð¹": 1710,
      "ĠÐ¾Ð±ÑĬÐµÐ¼": 1711,
      "ĠÐµÑģÑĤÑĮ": 1712,
      "on": 1713,
      "ĠÐºÐ¾Ð¼Ð¿Ð°Ð½Ð¸Ð¹": 1714,
      "ĠÐ¿Ð»ÑİÑģÐµ": 1715,
      "ĠÑįÑĤÐ¾Ð³Ð¾": 1716,
      "),": 1717,
      "Ð¾Ð²ÑĭÐ¹": 1718,
      "ĠÑģÐµÐ¹ÑĩÐ°Ñģ": 1719,
      "ĠÑģÑĤÑĢÑĥÐºÑĤÑĥ": 1720,
      "ĠÐ¿Ð¾ÑģÑĤÐ°": 1721,
      "ĠÐ½ÐµÐ³Ð°ÑĤÐ¸Ð²": 1722,
      "er": 1723,
      "ÑĩÐµÑĢÐµÐ´": 1724,
      "ĠÐ¿ÑĢÐ¾Ð³Ð½Ð¾Ð·": 1725,
      "ĠÐ¿Ð¾Ð·Ð¸": 1726,
      "ĠÐ¯": 1727,
      "ÑĥÑīÐµÑģÑĤÐ²ÐµÐ½Ð½Ð¾": 1728,
      "ÐºÐ¾ÑĢ": 1729,
      "ĠÑĥÑĢÐ¾Ð²ÐµÐ½ÑĮ": 1730,
      "80": 1731,
      "ĠÐ·Ð½Ð°Ñĩ": 1732,
      "ĠÐºÐ¾ÑĢÑĢÐµÐº": 1733,
      "ĠÐ¸ÑĤÐ¾Ð³Ð°Ð¼": 1734,
      "Ġ000": 1735,
      "ĠÐŁÐ¾ÐºÐ°": 1736,
      "ĠÐĵÐ°Ð·Ð¿ÑĢÐ¾Ð¼Ð°": 1737,
      "ĠÐ¸Ð½Ð²ÐµÑģÑĤÐ¾ÑĢÐ¾Ð²": 1738,
      "ÐºÑĤ": 1739,
      "Ġ(+": 1740,
      "Ð¾Ð½Ñĥ": 1741,
      "ĠÐ±ÑĭÑĤÑĮ": 1742,
      "ĠÑģÐ²Ðµ": 1743,
      "ĠÐŀÐ´": 1744,
      "ĠÐ´ÐµÐº": 1745,
      "ÑİÑī": 1746,
      "Ð°Ð¼Ð¸": 1747,
      "ĠÐ»ÑĥÑĩ": 1748,
      "ÑĢÐ¾Ð¿": 1749,
      "Ð°Ð»ÑģÑı": 1750,
      "ĠÐ²Ð¾Ð»": 1751,
      "Ð¸Ð·Ð½ÐµÑģ": 1752,
      "ÑĦÐ¾ÑĢÐ¼Ð¸ÑĢÐ¾Ð²": 1753,
      "ĠÐ·Ð°ÐºÑĢÑĭÑĤÐ¸Ñı": 1754,
      "ÐµÑĢÐ²": 1755,
      "ÐµÑĢÑĭ": 1756,
      "ĠÐľÐ¸Ð½": 1757,
      "Ð»Ð°Ð±": 1758,
      "ĠÐ²ÐµÑĢÐ¾ÑıÑĤ": 1759,
      "ĠÐºÐ¾ÑĤÐ¾ÑĢÑĭÐµ": 1760,
      "ĠÑģÑĨÐµÐ½Ð°ÑĢÐ¸Ð¹": 1761,
      "Ð¸ÑĤÑĥ": 1762,
      "ĠÑģÐ´ÐµÐ»": 1763,
      "Ð°Ð»Ð¾ÑģÑĮ": 1764,
      "ĠÑģÐ°Ð¼": 1765,
      "ĠÐ±Ð°Ð½Ðº": 1766,
      "ĠÐ¾ÑģÑĤÐ°ÐµÑĤÑģÑı": 1767,
      "ĠÐ½ÐµÑĦÑĤ": 1768,
      "ĠÐ¿Ð¾Ð´ÑĬÐµÐ¼": 1769,
      "ÑĢÐ°Ð½Ñı": 1770,
      "60": 1771,
      "ÑģÑĤÑĢÐ¸": 1772,
      "ĠÑĩÐµÑĤ": 1773,
      "Ð°Ð»Ð°ÑģÑĮ": 1774,
      "ĠÑĥÐ¼ÐµÑĢÐµÐ½Ð½Ð¾": 1775,
      "ĠÑģÐ½Ð¸Ð¶Ð°": 1776,
      "Ð½Ð¸Ñħ": 1777,
      "Ð»Ð¸Ð³Ð°": 1778,
      "Ð¿ÑĢÐ¾Ð´": 1779,
      "ĠEMA": 1780,
      "ÑĢÐ°Ð·": 1781,
      "Ð´ÐµÑĤ": 1782,
      "ĠÐ½ÐµÐ´ÐµÐ»ÑĮÐ½Ð¾Ð¼": 1783,
      "ĠÐ¾Ð±Ð»Ð°ÑģÑĤÐ¸": 1784,
      "ÑĥÑģÐµ": 1785,
      "ĠÐ´ÐµÐºÐ°Ð±": 1786,
      "ĠÐ¡ÐµÐ²ÐµÑĢ": 1787,
      "Ð°ÑİÑĤ": 1788,
      "Ð½ÐµÑĢ": 1789,
      "ĠÐ²Ð¾ÑģÑģÑĤÐ°Ð½Ð¾Ð²Ð»": 1790,
      "ĠÐ¿ÑĢÐ¾Ð´Ð¾Ð»Ð¶Ð°": 1791,
      "Ð¾ÑĢÐ½Ð¸Ðº": 1792,
      "ĠÑĢÐ°Ð·Ð½Ð¾": 1793,
      "ĠÐ¾ÑĩÐµÑĢÐµÐ´": 1794,
      "ĠÐ±Ð¸Ð·Ð½ÐµÑģ": 1795,
      "ĠÐ¿Ð¾ÑĤÐµÐ½ÑĨÐ¸": 1796,
      "ĠÐ³ÑĢÐ°ÑĦÐ¸ÐºÐ°": 1797,
      "Ð½Ð°Ð¿ÑĢÐ°Ð²Ð»ÐµÐ½": 1798,
      "ĠÐ²Ð·Ð³Ð»ÑıÐ´": 1799,
      "ĠÑĢÐ°Ð·Ð½Ð¾Ð½Ð°Ð¿ÑĢÐ°Ð²Ð»ÐµÐ½": 1800,
      "ĠÑĦÐ°Ðº": 1801,
      "ĠÐ¿ÑĢÐ¾ÑĪÐ»Ð¾": 1802,
      "Ð²Ð¸Ð»": 1803,
      "ĠÐ²ÑĢÐµÐ¼Ñı": 1804,
      "ĠÐºÑĢÐ¸": 1805,
      "ĠÐºÐ¾Ð½ÑģÐ¾Ð»Ð¸": 1806,
      "Ð½Ð¸Ð·": 1807,
      "ĠÐ¿ÑĢÐ¾Ð¸Ð·Ð²Ð¾Ð´": 1808,
      "ĠÐ¿ÑĢÐ¾Ð´Ð°Ð²ÑĨ": 1809,
      "Ð¼ÐµÐ½": 1810,
      "Ġ2020": 1811,
      "ĠÐ¾ÐºÐ°Ð·": 1812,
      "ĠÐ¡Ð±ÐµÑĢÐ±": 1813,
      "Ġ25": 1814,
      "ĠÐ¾Ð¿ÑĢÐµÐ´ÐµÐ»": 1815,
      "ĠÐ¿ÑĢÐµÐ¸Ð¼": 1816,
      "ĠÑĢÐµÐºÐ¾ÑĢ": 1817,
      "ĠÐ¾Ð½": 1818,
      "Ð·Ð°ÑĨÐ¸Ð¸": 1819,
      "90": 1820,
      "ĠÐ¸Ð¼Ð¿ÑĥÐ»ÑĮ": 1821,
      "ÐĻ": 1822,
      "ĠÐ¼ÐµÑģÑıÑĨÐµÐ²": 1823,
      "ÐµÐ¿": 1824,
      "ĠÑĢÐµÐ°Ð»Ð¸": 1825,
      "70": 1826,
      "ÑģÑĤÑĢÐ¾": 1827,
      "ĠÐķÐ²": 1828,
      "ĠÐ¿Ð¾Ð·Ð²": 1829,
      "ĠÐĹÐ°": 1830,
      "ĠÑĢÐ¸ÑģÐºÐ¸": 1831,
      "ĠÐ²ÑĩÐµÑĢÐ°": 1832,
      "Ð½Ð¸ÑĤ": 1833,
      "Ð¾ÐºÐ°Ð»ÑĮ": 1834,
      "Ð¾Ð²ÑĭÐµ": 1835,
      "ÑĪÐµÐ¹": 1836,
      "ĠÐ·Ð°Ð¼": 1837,
      "ĠÑĢÐµÐ·ÑĥÐ»ÑĮÑĤÐ°ÑĤÑĭ": 1838,
      "ĠÐ°ÐºÑĨÐ¸Ð¾Ð½": 1839,
      "%).": 1840,
      "ÑĥÐ½": 1841,
      "ĠÑĦÐ¾ÑĢ": 1842,
      "ĠÐ²ÑĭÐ¿Ð»Ð°ÑĤ": 1843,
      "ĠÐ²Ð²ÐµÑĢÑħ": 1844,
      "ĠÑĢÐµÐºÐ¾ÑĢÐ´": 1845,
      "ĠP": 1846,
      "ĠÐ¾ÑĤÑģÐºÐ¾Ðº": 1847,
      "ÑģÐºÐ¾Ð¼": 1848,
      "Ð°Ð¿Ð°Ð·": 1849,
      "ĠÑģÐ½Ð¸Ð¶ÐµÐ½Ð¸Ðµ": 1850,
      "ĠÐĺÐ½Ð´ÐµÐºÑģ": 1851,
      "Ð¸ÑĤÑĥÐ°": 1852,
      "ĠÐŀÐ´Ð½Ð°ÐºÐ¾": 1853,
      "ĠÐ·Ð°Ð¿": 1854,
      "ĠÐ±Ð»Ð¸Ð¶Ð°Ð¹ÑĪÐ¸Ðµ": 1855,
      "ÑıÐ·": 1856,
      "ĠÐ´Ð°Ð»ÑĮÐ½ÐµÐ¹": 1857,
      "ĠÐ¿ÑĢÐ¾Ð´Ð°Ð²ÑĨÐ¾Ð²": 1858,
      "ĠÐ²Ðµ": 1859,
      "ĠÐ´Ð¸Ð°Ð¿Ð°Ð·": 1860,
      "Ð°ÐºÐ¸": 1861,
      "ĠÐ¼Ð¸Ð½ÑĥÑģÐµ": 1862,
      "ĠÐłÐ¾ÑģÑģÐ¸Ð¹": 1863,
      "ĠÐºÐ»ÑİÑĩÐµ": 1864,
      "Ð½ÐµÑĦÑĤÑĮ": 1865,
      "ĠÐºÐ¾ÑĢÑĢÐµ": 1866,
      "ĠÐ½Ð¸Ñģ": 1867,
      "Ð°Ð»Ð¾": 1868,
      "ÑĭÑĤ": 1869,
      "ĠÐ¿ÑĢÐ¸Ð±ÑĭÐ»Ð¸": 1870,
      "Ð£ÑĢÐ¾Ð²Ð½Ð¸": 1871,
      "Ð¾Ð»ÐµÑĤ": 1872,
      "ÐµÐ´ÐµÐ»ÑĮ": 1873,
      "ĠÐ¿ÑĢÐµÐ¸Ð¼ÑĥÑīÐµÑģÑĤÐ²ÐµÐ½Ð½Ð¾": 1874,
      "Ð¿Ð¸ÑĤ": 1875,
      "ĠÑģÐ¾ÑħÑĢÐ°Ð½Ñı": 1876,
      "ĠÐ³ÑĢÐ°Ð½Ð¸": 1877,
      "ĠÐºÑĢÑĥÐ¿": 1878,
      "ĠÐĿÐ¾ÑĢÐ½Ð¸Ðº": 1879,
      "ĠÐ±Ð¾ÐºÐ¾Ð²Ð¸": 1880,
      "ÐºÐ°Ð½": 1881,
      "ĠÐļÐ¾Ð¼Ð¿Ð°Ð½Ð¸Ñı": 1882,
      "ĠÐ²Ð½Ð¸Ð·": 1883,
      "ĠÐĶÐ»Ñı": 1884,
      "Ð¾ÑĢÐµ": 1885,
      "75": 1886,
      "ĠÐ¿Ð¾Ð·Ð¸ÑĤÐ¸Ð²Ð½ÑĭÐ¹": 1887,
      "ĠÐ¿ÑĢÐµÐ´ÑĭÐ´ÑĥÑīÐµÐ¹": 1888,
      "ĠÐ½Ð°ÑĩÐ°Ð»Ð°": 1889,
      "ĠÐŁÐ¾ÑģÐ»Ðµ": 1890,
      "Ð¢Ð¡": 1891,
      "ĠÑĤÐµÑĢ": 1892,
      "ĠÐ²ÑĭÐºÑĥ": 1893,
      "ÑĢÐ°Ð¹Ð²ÐµÑĢ": 1894,
      "ĠÐ¿ÑĢÐ¸Ð±Ð°": 1895,
      "ĠÐºÐ¾ÑĢÑĢÐµÐºÑĨÐ¸Ð¸": 1896,
      "ĠÐ§ÑĤÐ¾": 1897,
      "ĠÐ²ÑĭÐ¿": 1898,
      "ĠÐ¿Ð¾Ð»ÑĥÐ³Ð¾Ð´": 1899,
      "ĠÐ²Ð¾Ð·Ð¾Ð±": 1900,
      "Ð¸Ð¸": 1901,
      "ĠÐ»ÑĥÑĩÑĪÐµ": 1902,
      "ĠT": 1903,
      "Ð´Ð°ÐµÑĤ": 1904,
      "ĠÐ¾ÐºÑĤ": 1905,
      "ĠÐ´Ð¸Ð²Ð¸Ð´ÐµÐ½Ð´Ð°": 1906,
      "ĠÐ´ÑĢÑĥ": 1907,
      "ÑĭÐ²Ð°ÑİÑĤ": 1908,
      "ÑĢÐµÐºÑĤÐ¾ÑĢ": 1909,
      "ĠÑĢÐ°Ð¹Ð¾Ð½Ðµ": 1910,
      "Ð¾Ð±ÑĭÑĤÐ¸": 1911,
      "ĠÐ¿Ð¾Ð²": 1912,
      "ĠÐ²Ð°Ð¶": 1913,
      "âĢ¢": 1914,
      "ĠÑĤÑĢÐµÐ½Ð´Ð°": 1915,
      "ÑĭÐ¼": 1916,
      "ĠÐ¿Ð¾Ð·Ð²Ð¾Ð»": 1917,
      "ĠÐ¤ÑĮÑİÑĩÐµÑĢÑģÑĭ": 1918,
      "ĠÐ²Ð¾ÑģÑħÐ¾Ð´ÑıÑī": 1919,
      "ĠÐ¿Ð»Ð°Ð½Ð¸": 1920,
      "Ð¾ÑģÑĤÑĮ": 1921,
      "ĠÐķÑģÐ»Ð¸": 1922,
      "ĠÐ¿Ð¾ÑĤÐµÑĢÑı": 1923,
      "ĠÑģÐ»ÐµÐ´ÑĥÑİ": 1924,
      "ĠÐ³Ð¾Ð²": 1925,
      "Ð½ÐµÑĦÑĤÐ¸": 1926,
      "ĠÑģÑĦÐ¾ÑĢÐ¼Ð¸ÑĢÐ¾Ð²": 1927,
      "ĠÑĤÐµÑħÐ½Ð¸ÑĩÐµÑģÐºÐ¸Ñħ": 1928,
      "ĠÑģÑĤÑĢÐ°": 1929,
      "ĠÑĥÐ²ÐµÐ»Ð¸ÑĩÐ¸": 1930,
      "ÑģÐ¼Ð¾ÑĤ": 1931,
      "ĠÐºÐ²Ð°ÑĢÑĤÐ°Ð»": 1932,
      "ĠÑĢÐ°ÑģÑĤÑĥÑī": 1933,
      "ÑĩÐµÑģÐºÐ¾Ð¹": 1934,
      "ĠÐ¼ÐµÐ½": 1935,
      "ÐŃ": 1936,
      "Ð¾Ñī": 1937,
      "ĠÐµÐ³Ð¾": 1938,
      "ĠÐ·Ð°Ñı": 1939,
      "ĠÐ¶Ðµ": 1940,
      "ĠÐ¡ÐµÐ²ÐµÑĢÑģÑĤ": 1941,
      "ĠA": 1942,
      "Ġ23": 1943,
      "Ð¿ÑĢÐ¸": 1944,
      "Ð¼ÐµÑĢÐ¸": 1945,
      "ÑĢÐµÐ´Ð¸ÑĤ": 1946,
      "ĠÐºÐ¾ÑĤÐ¾ÑĢÑĭÐ¹": 1947,
      "ÑĢÐ¸ÑĤÐ¾ÑĢÐ¸": 1948,
      "ÑĢÐµÐ±": 1949,
      "ĠÐ¾Ð¿Ð¸Ñģ": 1950,
      "ĠÐ½ÐµÐ¹ÑĤÑĢÐ°Ð»ÑĮÐ½ÑĭÐ¹": 1951,
      "ĠÐ¸Ð½Ð´Ð¸ÐºÐ°ÑĤÐ¾ÑĢÐ¾Ð²": 1952,
      "Ġ+": 1953,
      "ÑĥÐ¼": 1954,
      "ĠÑĢÐ°Ð½ÐµÐµ": 1955,
      "ĠÑĢÐ°ÑģÑĤÐµÑĤ": 1956,
      "ÑĢÐµÑĤÑĮ": 1957,
      "Ð»Ð°Ð²": 1958,
      "ĠÐ¿Ð¾Ð»ÑĥÑĩ": 1959,
      "ĠÑģÑĤÐ¾Ð¸Ð¼": 1960,
      "ĠÐºÐ¾Ð¼": 1961,
      "ĠÐ´Ð¾Ð»Ð»Ð°": 1962,
      "ĠÐ¼Ð½": 1963,
      "ĠÐ±ÑĭÐ»Ð°": 1964,
      "ĠÐ¿ÑĢÐ¾Ð±Ð¾": 1965,
      "Ġ26": 1966,
      "ĠÐ¾ÑĤÐ¼ÐµÑĤÐºÐ¸": 1967,
      "ÐµÑĤÐµ": 1968,
      "PO": 1969,
      "ĠÐ¿ÑĢÐµÐ²Ñĭ": 1970,
      "ĠÐ´ÑĢÐ°Ð¹Ð²ÐµÑĢ": 1971,
      "ĠÐ¿ÑĢÐ¾Ñģ": 1972,
      "ÐµÑĤÐ°Ð»": 1973,
      "ÑĢÑĮ": 1974,
      "Ð»ÐµÐ´": 1975,
      "ĠÐ¿ÐµÑĢÐ²ÑĥÑİ": 1976,
      "ĠÑĤÐµÐ¼": 1977,
      "ĠÐ¾Ð¿Ð¸ÑģÐ°Ð½Ð¸Ðµ": 1978,
      "ĠÐ²ÑĭÑĢÑĥÑĩ": 1979,
      "ĠÐŁÐ¾Ð´ÑĢÐ¾Ð±Ð½Ð¾Ðµ": 1980,
      "ÑĥÑĤÐ¸": 1981,
      "ĠÐ¸Ñħ": 1982,
      "Ð¾Ð»Ð¾ÑĤ": 1983,
      "ĠÐ°ÐºÑĤÑĥ": 1984,
      "ĠÐ´Ð¾ÑħÐ¾Ð´Ð½Ð¾ÑģÑĤÑĮ": 1985,
      "ĠÑĤÐ¾ÑĢÐ³Ð¾Ð²Ð°Ð»Ð¸ÑģÑĮ": 1986,
      "ĠÐºÐ°Ð¿Ð¸ÑĤ": 1987,
      "Ð²Ð»ÑıÐµÑĤ": 1988,
      "ÐµÑĢÑĮ": 1989,
      "ro": 1990,
      "ĠÑģÐµÐº": 1991,
      "ÐµÐ½Ð½Ð¾ÑģÑĤÐ¸": 1992,
      "ÑģÑĤÐ¾Ð¹": 1993,
      "ĠÐ¿Ð¾ÑģÑĤÐ°Ð²": 1994,
      "ĠÑĦÐ¸": 1995,
      "Ġ100": 1996,
      "ĠÐ¼Ñĭ": 1997,
      "Ð½Ð´ÐµÐºÑģ": 1998,
      "ĠÐĽÑĥ": 1999,
      "Ð¢Ðł": 2000,
      "ĠÑĤÐµÑĢÑĢÐ¸ÑĤÐ¾ÑĢÐ¸": 2001,
      "lo": 2002,
      "ĠÐ¾Ð±Ð»Ð¸Ð³Ð°": 2003,
      "ĠÑģÑĤÐ°Ð²ÐºÐ¸": 2004,
      "ĠÐºÑĥÑĢ": 2005,
      "ĠÐĺÐ½Ð´": 2006,
      "ĠÐ´Ð¸ÑĢÐµÐºÑĤÐ¾ÑĢ": 2007,
      "ĠÑĤÑĭ": 2008,
      "ĠÑģÐ¾Ð¾Ð±": 2009,
      "ĠÐ±Ð°ÑĢ": 2010,
      "ÑĥÐ¶Ðµ": 2011,
      "ÐµÑĤÐ°": 2012,
      "ÑĢÐ¸ÐµÐ½ÑĤÐ¸": 2013,
      "ĠÐ¿Ð¾Ñĩ": 2014,
      "up": 2015,
      "ĠÐ¾Ð±Ð»Ð°ÑģÑĤÑĮ": 2016,
      "ĠÐºÐ¾Ð½ÑģÐ¾Ð»Ð¸Ð´Ð°": 2017,
      "ĠC": 2018,
      "ĠÐĲÐ¢Ðł": 2019,
      "Ð¼ÐµÑĢÐ¸ÐºÐ°Ð½": 2020,
      "ĠÑģÐ¸ÑĤÑĥÐ°": 2021,
      "Ð½ÐµÐ³Ð¾": 2022,
      "ĠÐ¿ÑĢÐ¾Ð´Ð°": 2023,
      "ÑĤÐ¾ÑĢÐ°": 2024,
      "ĠÐĽÑĥÐºÐ¾Ð¹": 2025,
      "ĠÐĳÑĥÐ¼Ð°Ð³Ð°": 2026,
      "ĠÐ¿Ð¾Ð½": 2027,
      "ĠÑģÐ½Ð¸Ð·Ð¸Ð»Ð¸ÑģÑĮ": 2028,
      "ĠÐ¿ÑĢÐ¾ÑĤÐ¸Ð²": 2029,
      "ĠÑħÑĥÐ¶Ðµ": 2030,
      "ĠÐĺÐ½Ð´ÐµÐºÑģÑĭ": 2031,
      "Ð»Ð¸Ñı": 2032,
      "ÑĪÐ¸Ñħ": 2033,
      "ÑĨÑĥ": 2034,
      "ĠÐ¿ÐµÑĢÑģÐ¿ÐµÐºÑĤÐ¸": 2035,
      "ĠÑĩÐµÑĤÐ²ÐµÑĢ": 2036,
      "Ġ28": 2037,
      "ĠÑĢÐ°Ð·Ð½Ð¾Ð½Ð°Ð¿ÑĢÐ°Ð²Ð»ÐµÐ½Ð½Ð¾": 2038,
      "ĠÑĦÐ°ÐºÑĤÐ¾ÑĢ": 2039,
      "ÐµÐ¼Ð¾Ð½": 2040,
      "ĠÐ¶Ð´": 2041,
      "Ð½Ð³": 2042,
      "ÑģÑĤÐ²Ñĥ": 2043,
      "ÑĥÑģÑĤÐ¸": 2044,
      "ĠÑĨÐµÐ»ÐµÐ¹": 2045,
      "ÑıÐ±ÑĢÐµ": 2046,
      "ĠÐ¢ÐµÑħÐ½Ð¸ÑĩÐµÑģÐºÐ°Ñı": 2047,
      "ĠÐ¾ÑĩÐµÑĢÐµÐ´ÑĮ": 2048,
      "ĠÐ¿ÑĢÐ¾Ð±Ð¾Ð¹": 2049,
      "ĠÐ½ÐµÑĦÑĤÑı": 2050,
      "Ð¹ÑĤÐ¸": 2051,
      "ÐµÑĢÐµÐ´": 2052,
      "ĠÐ¾Ð±ÑĬ": 2053,
      "ĠÑĥÑĢÐ¾Ð²Ð½ÐµÐ¹": 2054,
      "ĠÑĤÐµÑĢÑĢÐ¸ÑĤÐ¾ÑĢÐ¸Ð¸": 2055,
      "ÐµÐ¼Ð¾Ð½ÑģÑĤÑĢÐ¸": 2056,
      "ĠÐ½ÐµÐ´ÐµÐ»ÑĮÐ½Ð¾Ð¹": 2057,
      "ĠF": 2058,
      "ÐŀÐ¡": 2059,
      "Ġ27": 2060,
      "ĠÑıÐ½": 2061,
      "ÑĢÐ°ÑĤÐµÐ³": 2062,
      "ĠÐ¿Ð¾ÑĤÑĢÐµÐ±": 2063,
      "ĠÐ´Ð²Ð¸Ð¶ÐµÐ½Ð¸Ðµ": 2064,
      "ĠÐ¡ÑĢÐµÐ´": 2065,
      "ÑĤÑĢ": 2066,
      "ĠÐ´Ð²Ð¸Ð¶ÐµÐ½Ð¸Ñı": 2067,
      "Ð½Ñİ": 2068,
      "ĠÑįÐºÑģÐ¿Ð¾ÑĢÑĤ": 2069,
      "ĠÐ´ÐµÐºÐ°Ð±ÑĢÑı": 2070,
      "ĠÐ·Ð°ÐºÑĢÑĭÑĤÐ¸Ð¸": 2071,
      "ĠÑĢÐ¾ÑģÑģÐ¸Ð¹ÑģÐºÐ¸Ñħ": 2072,
      "Ð¸Ð½ÑĮ": 2073,
      "ÐºÐ¾ÑĦÑĦ": 2074,
      "ĠÐ·Ð°ÐºÑĢÐµÐ¿": 2075,
      "31": 2076,
      "ĠÑıÐ½Ð²Ð°": 2077,
      "ÑĢÐµÐ¹": 2078,
      "ĠÑĥÑĩÐ°": 2079,
      "ĠÐ¾Ð¿ÑĥÐ±Ð»Ð¸": 2080,
      "ĠÐ·Ð°ÐºÑĢÑĭ": 2081,
      "ĠÑĩÐ°ÑģÐ¾Ð²": 2082,
      "Ð¸Ð½ÑĮÐºÐ¾ÑĦÑĦ": 2083,
      "ĠÐ¿Ð¾Ð»Ð¸ÑĤÐ¸": 2084,
      "ĠÑĥÐ´": 2085,
      "ĠÐ½Ð¸ÑģÑħÐ¾Ð´ÑıÑī": 2086,
      "ĠÐ»Ð¾ÐºÐ°Ð»ÑĮ": 2087,
      "ĠÑĥÐ¿Ð°Ð»Ð¸": 2088,
      "Ġ11": 2089,
      "ĠÐ¼Ð¸Ð½Ð¸Ð¼ÑĥÐ¼Ð¾Ð²": 2090,
      "ĠÑĦÐ¾Ð½Ð´": 2091,
      "ĠÑģÐ²ÐµÑĩÐ¸": 2092,
      "ĠÐ¿Ð¾Ñı": 2093,
      "ĠÐ½Ð°Ð±": 2094,
      "ÑĨÐµ": 2095,
      "Ð»Ð¸Ð·Ð¸": 2096,
      "ĠÐ²ÑĭÑħÐ¾Ð´": 2097,
      "ĠÐ¿ÑıÑĤÐ½Ð¸ÑĨÑĭ": 2098,
      "Ð¢Ðĳ": 2099,
      "ÑĪÐ¸Ð¹": 2100,
      "ÐĶÐĴ": 2101,
      "ĠÐĳÐ»Ð¸Ð¶Ð°Ð¹": 2102,
      "ĠÐĴÐ¢Ðĳ": 2103,
      "ÑĢÐ°ÑĤÐºÐ¾ÑģÑĢÐ¾Ñĩ": 2104,
      "ĠÐ¥": 2105,
      "ĠÐ´Ð¾ÑĢÐ¾Ð³": 2106,
      "ĠÐ¢Ð¸Ð½ÑĮÐºÐ¾ÑĦÑĦ": 2107,
      "Ð´ÐµÐ½ÑĤ": 2108,
      "ĠÐ¾Ð±Ð½Ð¾Ð²": 2109,
      "ĠÐµÐµ": 2110,
      "ÑģÐ¸Ð»": 2111,
      "ĠÐ²ÑĭÐ³Ð»ÑıÐ´ÐµÐ»Ð°": 2112,
      "Ġ20": 2113,
      "ĠÐ¼Ð°ÐºÑģÐ¸Ð¼Ð°Ð»ÑĮ": 2114,
      "ÐµÑĤÐ°Ð»Ð»": 2115,
      "ÐµÑĨ": 2116,
      "ĠÐ±Ð°ÑĢÑĢÐµ": 2117,
      "ĠÐ¾ÑĤÐºÑĢÑĭÑĤÐ¸": 2118,
      "ĠÐ¾ÑĢÐ¸ÐµÐ½ÑĤÐ¸": 2119,
      "ĠÐ¼Ð¸ÑĢÐ¾Ð²": 2120,
      "ĠÐ¿Ð¾Ð²ÑĭÑĪ": 2121,
      "ÑĢÐ¾Ð²Ð°Ð½": 2122,
      "ĠÐ¼Ð¸Ð½Ð¸Ð¼ÑĥÐ¼Ð°": 2123,
      "ÐµÐ´ÐµÐ»ÑĮÐ½Ð¸Ðº": 2124,
      "Ðķ": 2125,
      "ĠÑĤÐ¾Ð³Ð¾": 2126,
      "ĠÐĿÐ¾Ð²": 2127,
      "ĠÐ¢Ð°Ðº": 2128,
      "ĠM": 2129,
      "ĠÐłÐĶÐĴ": 2130,
      "ĠÐ¿Ð¾ÑĢÑĤ": 2131,
      "35": 2132,
      "ĠÐ¡ÐŁ": 2133,
      "Ð½Ð¸Ñı": 2134,
      "Ð·Ð¾Ð²": 2135,
      "Ð½Ð°Ð»Ð°": 2136,
      "Ð¾Ð³Ð»Ð°": 2137,
      "ĠÐ¾ÑĤÐºÑĢÑĭ": 2138,
      "ĠÐ°ÐºÑĨÐ¸ÑıÑħ": 2139,
      "ĠÐ¼Ð°ÐºÑģÐ¸Ð¼ÑĥÐ¼Ð°Ñħ": 2140,
      "ĠÐ²Ð¾Ð·Ð²": 2141,
      "Ġ29": 2142,
      "ĠÐ¿Ð¾Ð½ÐµÐ´ÐµÐ»ÑĮÐ½Ð¸Ðº": 2143,
      "ÑĩÐµÑģÐºÐ¸Ðµ": 2144,
      "Ð»Ð¾ÑĤ": 2145,
      "ĠÐ¿ÑĢÐ¾Ð¹": 2146,
      "ĠÐ¸Ð½ÑĦÐ»Ñı": 2147,
      "ĠÐ½Ð°Ð¿ÑĢÐ°": 2148,
      "ĠÐ¿Ð¾ÑĤÐµÐ½ÑĨÐ¸Ð°Ð»": 2149,
      "ĠÐµÐ²": 2150,
      "ĠÑģÐ¾Ð±ÑĭÑĤÐ¸": 2151,
      "ĠÐ¿ÐµÑĢÐµÐ¿ÑĢÐ¾Ð´": 2152,
      "ĠÑģÐ¾Ð·": 2153,
      "Ð¶Ð´Ñĥ": 2154,
      "ĠÐ´Ð¾Ð¿": 2155,
      "Ð¾Ð³Ð¸": 2156,
      "ĠÐŁÐ¾Ð´Ð´ÐµÑĢÐ¶": 2157,
      "ÑĢÐ°Ð¼": 2158,
      "Ð¡Ð¤Ðŀ": 2159,
      "Ð·Ð¸Ð´ÐµÐ½ÑĤ": 2160,
      "ÑĭÐ²Ð°ÐµÑĤÑģÑı": 2161,
      "ĠÐ³Ðµ": 2162,
      "55": 2163,
      "ĠÐľÐ¡Ð¤Ðŀ": 2164,
      "ĠÑģÐ¼Ð¾ÑĤÑĢÐµÑĤÑĮ": 2165,
      "ÐºÑĥÐ¿Ð»": 2166,
      "ĠÐ´ÐµÐ¼Ð¾Ð½ÑģÑĤÑĢÐ¸": 2167,
      "ĠÐ¿ÑĢÐ¸Ð¾ÑĢÐ¸ÑĤ": 2168,
      "Ð»Ð°Ð¹": 2169,
      "Ð»Ð»Ð¸": 2170,
      "ÐļÐŀ": 2171,
      "Ð¾ÑģÐ¾Ð±": 2172,
      "ĠÐ·Ð¾Ð½Ñĭ": 2173,
      "ĠÐĿÐ¾ÑĢÐ½Ð¸ÐºÐµÐ»Ñı": 2174,
      "ĠÐ½Ð°Ð±Ð»Ñİ": 2175,
      "ĠÐ·Ð°ÐºÑĢÐµÐ¿Ð»": 2176,
      "ĠÐ³Ð¾ÑĢÐ¸Ð·Ð¾Ð½ÑĤÐµ": 2177,
      "Ð°Ð½Ð¸Ð¸": 2178,
      "Ð¾Ð¿Ð¾Ð»Ð¸ÑĤÐ¸": 2179,
      "Ð»Ð¾": 2180,
      "ĠÐ¿ÑĢÐ¾Ð±Ð¾Ñı": 2181,
      "ĠÑįÑĤÐ¾ÑĤ": 2182,
      "ÑħÐ¾Ð´Ð¸ÑĤ": 2183,
      "ĠÑĤÐ¾Ð»ÑĮÐºÐ¾": 2184,
      "Ġ(-": 2185,
      "ĠÐ°Ð¿ÑĢÐµ": 2186,
      "ÐµÑĢÐµÐ·": 2187,
      "Ð½ÐµÑĤ": 2188,
      "ĠÐ¿Ð¾Ð»Ð¾Ð¶Ð¸ÑĤÐµÐ»ÑĮ": 2189,
      "ĠÑĢÐ°ÑģÑĤÑĥÑĤ": 2190,
      "ĠÐ½ÐµÐ´ÐµÐ»Ðµ": 2191,
      "ĠÑĤÐ¾Ð¼": 2192,
      "ĠÐ¿Ð¾Ð¿ÑĭÑĤ": 2193,
      "ĠÐ²Ðº": 2194,
      "ÑĪÐµÐ»": 2195,
      "ÑĦÐ¸ÑĨÐ¸": 2196,
      "Ð½ÑĥÑĤÑĮ": 2197,
      "ĠÐ±Ð°Ð½ÐºÐ¾Ð²": 2198,
      "Ð¾ÑĢÐ¾Ð¶": 2199,
      "ĠÑĢÐ°Ð±Ð¾ÑĤ": 2200,
      "ĠÑİ": 2201,
      "ÑĥÐ´Ð°": 2202,
      "Ð¼ÐµÑī": 2203,
      "ĠÐķÐ²ÑĢÐ¾Ð¿": 2204,
      "ĠÐ½Ð°ÑĩÐ°Ð»Ðµ": 2205,
      "ĠÐ³ÐµÐ¾Ð¿Ð¾Ð»Ð¸ÑĤÐ¸": 2206,
      "ĠÐ½Ð°Ð»": 2207,
      "ĠÐ¯Ð½Ð´ÐµÐºÑģ": 2208,
      "ĠÑĢÐ°ÑģÑģ": 2209,
      "ĠÑģÐ°Ð½ÐºÑĨÐ¸Ð¹": 2210,
      "ĠÐ´Ð¸ÑĢÐµÐºÑĤÐ¾ÑĢÐ¾Ð²": 2211,
      "ĠÐ¼ÐµÐ¶Ð´Ñĥ": 2212,
      "ÑĪÐ»Ð°": 2213,
      "ÑĦÐ»Ð¾ÑĤ": 2214,
      "ÑĥÑĤÑĮ": 2215,
      "ĠÑģÐ¾ÑħÑĢÐ°Ð½": 2216,
      "ĠÐ»ÐµÑĤ": 2217,
      "ĠÐ¿ÐµÑĢÐµÐ¿ÑĢÐ¾Ð´Ð°Ð½": 2218,
      "ĠÐ¿Ð¾Ð¼": 2219,
      "ĠÑģÑĤÑĢÐ°ÑĤÐµÐ³": 2220,
      "ĠÑįÑĤÐ¸": 2221,
      "ÑĤÑĭ": 2222,
      "Ð»ÐµÑĤ": 2223,
      "ĠÑģÑĩÐ¸ÑĤ": 2224,
      "ĠÐ¸Ð½ÑĤÐµÑĢÐµ": 2225,
      "ÐļÐŀÐĻ": 2226,
      "Ð²Ð°ÑĤÑĮÑģÑı": 2227,
      "ĠÐ´Ð¾Ð»Ð³Ð¾ÑģÑĢÐ¾ÑĩÐ½Ð¾Ð¹": 2228,
      "Ð£ÐļÐŀÐĻ": 2229,
      "Ð£ÐļÐŀÐĻÐĽ": 2230,
      "ĠÐľÐ¾ÑģÐĳ": 2231,
      "ĠÐ¾ÑĨÐµÐ½": 2232,
      "Ð»Ð°Ð¹Ð½": 2233,
      "ĠÐ¿ÐµÑĢÐµÐºÑĥÐ¿Ð»": 2234,
      "Ð»ÐµÐ½": 2235,
      "ĠÐĳÐ°Ð½Ðº": 2236,
      "ĠÑĥÐºÐ°Ð·ÑĭÐ²Ð°ÐµÑĤ": 2237,
      "ĠÐ¿ÑĢÐ¸Ð¾ÑĢÐ¸ÑĤÐµÑĤÐµ": 2238,
      "ĠH": 2239,
      "ÑģÐµÐ´": 2240,
      "ĠÐºÐ¾Ð½ÐµÑĨ": 2241,
      "ĠÑģÐ¾ÑģÑĤÐ°Ð²": 2242,
      "Ð¾Ð³Ð´Ð°": 2243,
      "ÑģÑĤÐ°Ñı": 2244,
      "ĠÐ¸Ð¼Ð¿ÑĥÐ»ÑĮÑģ": 2245,
      "ĠÐ³Ð°Ð·Ð°": 2246,
      "ĠÐ¿ÑıÑĤÐ½Ð¸ÑĨÑĥ": 2247,
      "ĠÑĥÑĤÑĢÐ¾Ð¼": 2248,
      "65": 2249,
      "ÑħÐ¾Ð´ÑıÑīÐ¸": 2250,
      "ĠÐ¾Ð¿ÑĢÐµÐ´ÐµÐ»ÑıÑĤÑĮ": 2251,
      "ĠÑĢÐµÐ·ÑĥÐ»ÑĮÑĤÐ°ÑĤ": 2252,
      "40": 2253,
      "ĠÐ¡ÐµÐ¹ÑĩÐ°Ñģ": 2254,
      "ĠÐ²ÑĭÐ³Ð»ÑıÐ´": 2255,
      "ĠÑįÑĤÐ¾Ð¹": 2256,
      "ĠÐ¿Ð¾ÑĩÑĤÐ¸": 2257,
      "ĠÐºÑĢÐµÐ´Ð¸ÑĤ": 2258,
      "Ð»ÐµÐºÑĤ": 2259,
      "ĠÐ§Ð¸": 2260,
      "Ð²ÑĪÐµÐ³Ð¾": 2261,
      "ĠÑĥÐ²ÐµÐ»Ð¸Ñĩ": 2262,
      "ĠÑĩÐµÑĢÐµÐ·": 2263,
      "ĠÑĤÐµÑħ": 2264,
      "ĠÐ¡Ð¾Ð²": 2265,
      "ĠÐķÐ¡": 2266,
      "ĠÑĢ": 2267,
      "Ð½Ð¾Ð²Ð»ÐµÐ½Ð¸Ñı": 2268,
      "ĠÐ¿ÑĢÐ¾ÑģÐ°Ð´": 2269,
      "Ð°Ð¹Ð¼": 2270,
      "ĠÐ·Ð°Ð²ÐµÑĢ": 2271,
      "Ð¿Ð¾Ð»Ð½": 2272,
      "Ð¸Ð½Ðµ": 2273,
      "ĠÐľÐ¾ÑģÐĳÐ¸ÑĢÐ¶Ð¸": 2274,
      "ĠÐ±Ð°ÑĢÑĢÐµÐ»ÑĮ": 2275,
      "Ð½Ð°Ñĩ": 2276,
      "ĠÐ²ÑĤÐ¾ÑĢÐ½Ð¸Ðº": 2277,
      "ĠÑĥÑģÐº": 2278,
      "ĠÐłÐ¾ÑģÐ½ÐµÑĦÑĤÑĮ": 2279,
      "Ð»Ð½": 2280,
      "ÐµÐ³Ð°Ð·": 2281,
      "ĠÐ¾Ð±Ð¾ÑĢÐ¾ÑĤ": 2282,
      "Ð½Ð¸ÑĤÐµÐ»ÑĮ": 2283,
      "ĠÑĥÐº": 2284,
      "ĠÐļÐ¸ÑĤ": 2285,
      "ĠÑĤÐµ": 2286,
      "ĠÑĤÐµÐ½Ð´": 2287,
      "ĠIPO": 2288,
      "ÑĢÐ°ÑīÐµÐ½Ð¸Ðµ": 2289,
      "ĠÐ¿Ð¾ÑĢÑĤÑĦ": 2290,
      "ĠÑĤÑĢÐ»Ð½": 2291,
      "ÑĤÐ¾Ð¼": 2292,
      "ĠÐ¡ÑĤ": 2293,
      "ĠÐ¿Ð»Ð°Ð½Ð¸ÑĢÑĥÐµÑĤ": 2294,
      "ÑĢÑıÐ´": 2295,
      "ĠÑģÑĤÐ°ÑĤÑĮ": 2296,
      "ĠÐ½Ð¾Ð²Ð¾ÑģÑĤ": 2297,
      "ĠÐ±Ð»Ð°": 2298,
      "ÑĢÐ°Ð¶": 2299,
      "Ð½ÑıÑı": 2300,
      "Ð»Ð°Ð´ÑĭÐ²Ð°ÐµÑĤÑģÑı": 2301,
      "ĠÐĺÐ½Ð´Ð¸": 2302,
      "ÑĪÐ°Ñı": 2303,
      "ĠÐ¿ÑĢÐµÐ¾Ð´": 2304,
      "85": 2305,
      "ĠÐ¿ÑĢÐ¾Ð±Ð¸ÑĤ": 2306,
      "ĠÐ³Ð´Ðµ": 2307,
      "ĠÐŀÑģ": 2308,
      "ĠÐłÑĥÑģ": 2309,
      "ĠO": 2310,
      "ĠÑĤÐµÐ½Ð´ÐµÐ½": 2311,
      "ÑĥÐ»Ñı": 2312,
      "ĠÐ¡Ð±ÐµÑĢÐ±Ð°Ð½ÐºÐ°": 2313,
      "ĠÑģÑĤÐ¾Ð¸ÑĤ": 2314,
      "ĠÐ¾Ð¶Ð¸Ð´Ð°Ð½Ð¸Ñı": 2315,
      "ĠÐ´ÐµÐ»": 2316,
      "ĠÐ¼ÐµÑĤÐ°Ð»Ð»": 2317,
      "ĠÐ³Ð¾Ñģ": 2318,
      "ĠÑĢÐ¸ÑģÐºÐ¾Ð²": 2319,
      "ĠÐ¾Ð¿ÑĥÐ±Ð»Ð¸ÐºÐ¾Ð²": 2320,
      "ĠÑģÐ»Ð¾Ð¼Ð°": 2321,
      "ĠÐľÐ°Ð³": 2322,
      "Ð¾ÑĢÐ°Ñı": 2323,
      "ĠÐ°Ð½Ð°Ð»Ð¸ÑĤÐ¸ÐºÐ¾Ð²": 2324,
      "ĠÐ¼Ð¾Ð¼ÐµÐ½ÑĤÐµ": 2325,
      "ĠÐ¡ÐµÐ³Ð¾Ð´Ð½Ñı": 2326,
      "ĠÑĢÐ°Ð·Ð¼": 2327,
      "ĠÐ½Ð¾Ð²ÑĭÑħ": 2328,
      "ĠÐ±ÑĭÐ»Ð¸": 2329,
      "ĠÐ½Ð°ÑħÐ¾Ð´ÑıÑĤÑģÑı": 2330,
      "ĠÐľÐ¾ÑģÐ±Ð¸ÑĢÐ¶Ð¸": 2331,
      "ĠÐ¾ÑĤÑģÐºÐ¾ÐºÐ°": 2332,
      "ĠÑĤÐ°Ð¹Ð¼": 2333,
      "Ð¾Ð²Ð°": 2334,
      "Ð¾Ð²Ð¾Ð³Ð¾": 2335,
      "ĠÐ²Ð»Ð¸Ñı": 2336,
      "Ġ31": 2337,
      "ĠÐºÐ¾ÑĤÐ¾ÑĢÐ°Ñı": 2338,
      "ĠÐºÐ²Ð°ÑĢÑĤÐ°Ð»Ðµ": 2339,
      "ĠÑĢÐ°Ð·Ð²Ð¸ÑĤÐ¸": 2340,
      "Ġ55": 2341,
      "ÑĩÐ¸ÑĤÑĭÐ²Ð°": 2342,
      "ĠÐ´Ð¾Ð»Ð¶": 2343,
      "ÐµÑĤÐ¸": 2344,
      "ĠÐ¿ÑĢÐ¸Ð²Ð»": 2345,
      "ĠÐĶÐ¾": 2346,
      "ĠÐĽÐ£ÐļÐŀÐĻÐĽ": 2347,
      "ĠâĢĵ": 2348,
      "ĠÑĤÐ°Ð¹Ð¼ÑĦ": 2349,
      "ĠÑģÐ¿ÑĢÐ¾Ñģ": 2350,
      "ĠÐ¡Ð¸": 2351,
      "ĠÑģÐ»ÐµÐ´Ð¸Ð¼": 2352,
      "ĠÐ½Ð°Ð´": 2353,
      "ÐŀÐ¡ÐĲ": 2354,
      "ÑıÑħ": 2355,
      "Ð²Ñĥ": 2356,
      "45": 2357,
      "Ð»ÑĥÑĩ": 2358,
      "ÑĥÑģÐºÐ°": 2359,
      "ĠÐ¸Ð½ÑĤÐµÑĢÐµÑģ": 2360,
      "ĠÐ²ÑĭÑģÑĤÑĥÐ¿Ð°ÐµÑĤ": 2361,
      "ĠÑĤÐ°Ð¹Ð¼ÑĦÑĢÐµÐ¹": 2362,
      "ĠÑģÑĤÐ¾ÑĢÐ¾Ð½Ðµ": 2363,
      "ÑĩÐµÑģÐºÐ¸Ð¹": 2364,
      "ĠÐ·Ð¾Ð»Ð¾ÑĤ": 2365,
      "ĠÑĨÐµÐ½Ðµ": 2366,
      "ĠÐ¿ÑĥÐ±Ð»Ð¸": 2367,
      "ĠÐ²ÑĭÑĢÐ¾ÑģÐ»Ð°": 2368,
      "ĠÐ°ÐºÑĨÐ¸ÑıÐ¼": 2369,
      "ÐµÐ¿ÐµÑĢÑĮ": 2370,
      "ÑĢÑĥÐ·": 2371,
      "ĠÐºÑĢÐ°ÑĤÐºÐ¾ÑģÑĢÐ¾Ñĩ": 2372,
      "ĠÐ²Ð¾ÑģÑģÑĤÐ°Ð½Ð¾Ð²Ð»ÐµÐ½Ð¸Ñı": 2373,
      "ĠÐ¾Ð±ÑĬÑı": 2374,
      "Ġ300": 2375,
      "ĠÐ½ÐµÐ´ÐµÐ»Ñİ": 2376,
      "ti": 2377,
      "ÑģÑıÑĩ": 2378,
      "ĠÐºÐ¾Ð½ÑģÐ¾Ð»Ð¸Ð´Ð°ÑĨÐ¸Ð¸": 2379,
      "ÑİÐ´": 2380,
      "ĠÑģÐ¿Ð¾ÑģÐ¾Ð±": 2381,
      "ĠÑģÐ»ÐµÐ´ÑĥÑİÑī": 2382,
      "ĠÐºÑĢÑĥÐ¿Ð½ÐµÐ¹": 2383,
      "Ð°Ð½Ð½ÑĭÐ¹": 2384,
      "ĠÐłÐ¾ÑģÑģÐ¸Ñı": 2385,
      "om": 2386,
      "ĠÐļÐ¾ÑĤÐ¸ÑĢÐ¾Ð²": 2387,
      "ĠÐ´Ð¸Ð²Ð¸Ð´ÐµÐ½Ð´Ð½Ð¾Ð¹": 2388,
      "ÑħÑĥÐ´": 2389,
      "ĠÐ¾ÑģÐ»Ð°Ð±": 2390,
      "ÐºÐ°Ð¼": 2391,
      "ÑıÐ¼Ð¸": 2392,
      "ĠÐłÐ¾ÑģÐ½ÐµÑĦÑĤÐ¸": 2393,
      "DA": 2394,
      "ĠÐ¾ÑģÑĤ": 2395,
      "ĠÐ¡ÐµÐ²ÐµÑĢÑģÑĤÐ°Ð»Ð¸": 2396,
      "Ġ40": 2397,
      "ĠÐ´ÐµÐ½": 2398,
      "ĠÐ±Ð¾Ð»ÑĮÑĪ": 2399,
      "95": 2400,
      "ÑĤÐµÑĢ": 2401,
      "ĠÐ²Ð¸Ð´": 2402,
      "ĠÐļÐ¾ÑĤÐ¸ÑĢÐ¾Ð²ÐºÐ¸": 2403,
      "ĠÑĢÐ°Ð·Ð°": 2404,
      "ĠÐºÑĢÐ¸Ð²Ð°Ñı": 2405,
      "ĠÐ±Ð¸Ð·Ð½ÐµÑģÐ°": 2406,
      "Ð¸ÑĢÐ¶Ðµ": 2407,
      "ĠÑģÐ¸Ð³Ð½Ð°Ð»Ð¾Ð¼": 2408,
      "ĠÐ´Ð»Ð¸": 2409,
      "ĠÐ±ÑĭÐ»Ð¾": 2410,
      "roup": 2411,
      "ĠÐ½Ð°Ð»Ð¾Ð³": 2412,
      "ÐµÐ½Ð½ÑĭÑħ": 2413,
      "Ġ21": 2414,
      "ĠÐ²ÑģÐµÐ³Ð¾": 2415,
      "ÑģÑĤÑĢÐ°": 2416,
      "ĠÐºÐ°ÑĢÑĤÐ¸Ð½Ðµ": 2417,
      "ĠÐ²Ð¾Ð·Ð¼Ð¾Ð¶Ð½Ð¾ÑģÑĤÑĮ": 2418,
      "ĠÐ¼Ð°ÐºÑģÐ¸Ð¼ÑĥÐ¼Ð¾Ð²": 2419,
      "ĠÐ¿ÑĢÐ¾Ð´Ð°Ð¶": 2420,
      "ĠÑĥÑĢÐ¾Ð²Ð½ÑıÐ¼Ð¸": 2421,
      "ĠÑģÐ¾Ð¿ÑĢÐ¾ÑĤÐ¸": 2422,
      "ĠÐłÑĭ": 2423,
      "Ġâ": 2424,
      "Ð¿Ñĭ": 2425,
      "ĠÐ²Ð½ÑĥÑĤ": 2426,
      "ĠÑĦÐ¾ÑĢÐ¼Ð¸": 2427,
      "Ð±Ð°Ð½Ðº": 2428,
      "Ð¾Ð¿Ð¾Ð»Ð½Ð¸ÑĤÐµÐ»ÑĮ": 2429,
      "ĠÐ´Ð¾Ð±Ñĭ": 2430,
      "ĠÐ¾ÑĤÐºÐ°ÑĤ": 2431,
      "ÐºÐ¸Ñħ": 2432,
      "Ð°ÑĤÐµÐ¼": 2433,
      "ÑĢÐ¸ÑĨ": 2434,
      "ĠÑĢÐ°Ð·Ð²Ð¾ÑĢÐ¾ÑĤ": 2435,
      "Ð»Ð¾ÑģÑĮ": 2436,
      "ĠÑĢÐ¾ÑģÑģÐ¸Ð¹ÑģÐºÐ¾Ð³Ð¾": 2437,
      "ĠÐºÐ¾Ð½ÑĨÐ°": 2438,
      "ÑĢÐ¾Ð¹": 2439,
      "ĠÐ¾ÑĤÑĢÐ¸ÑĨ": 2440,
      "ĠÑĥÐ»ÑĥÑĩ": 2441,
      "ÑģÑģ": 2442,
      "Ð¹Ð´": 2443,
      "ĠÑģÑĤÐ¾ÑĢÐ¾Ð½Ñĭ": 2444,
      "ĠGroup": 2445,
      "ĠÑįÐ»ÐµÐºÑĤ": 2446,
      "ĠÐĳÐ»Ð¸Ð¶Ð°Ð¹ÑĪÐ¸Ðµ": 2447,
      "ÑĨÐµÐ½ÑĤ": 2448,
      "ÑİÑīÐ¸Ñħ": 2449,
      "ĠÐłÐ¾ÑģÑģÐ¸Ð¹ÑģÐºÐ¸Ð¹": 2450,
      "Ð¸Ð»Ð¸ÑģÑĮ": 2451,
      "ĠÑĥÑħÑĥÐ´": 2452,
      "ĠÐºÐ¾ÑĤÐ¸ÑĢÐ¾Ð²Ð¾Ðº": 2453,
      "ĠÐ¾Ð±Ñī": 2454,
      "ĠÑģÐºÐ»Ð°Ð´ÑĭÐ²Ð°ÐµÑĤÑģÑı": 2455,
      "ĠÐ¼Ð°Ñı": 2456,
      "ĠÐ¾ÑĤÑĢÐ¸ÑĨÐ°ÑĤÐµÐ»ÑĮ": 2457,
      "ĠÐ¾Ð½Ð»Ð°Ð¹Ð½": 2458,
      "ĠÐ¾Ð½Ð¸": 2459,
      "Ð´ÐµÑĢÐ¶Ð¸": 2460,
      "ÑħÐ¾Ð´ÑıÑīÐ¸Ð¹": 2461,
      "ĠÑģÐ»Ð°": 2462,
      "ĠÐ¾Ð±Ñģ": 2463,
      "Ð»ÐµÐ½Ð¸Ðµ": 2464,
      "Ð´Ð°ÐµÑĤÑģÑı": 2465,
      "Ð²Ð°ÐµÑĤÑģÑı": 2466,
      "ĠÐ´ÑĢÑĥÐ³Ð¸": 2467,
      "ĠÐ°ÐºÑĤÐ¸Ð²Ð¾Ð²": 2468,
      "Ð»ÐµÐ½Ð¸Ñı": 2469,
      "ĠÐ¾ÑĤÐºÑĢÐ¾": 2470,
      "ĠÐ´ÐµÐ¼Ð¾Ð½ÑģÑĤÑĢÐ¸ÑĢÑĥÑİÑĤ": 2471,
      "ĠÐ¸Ð½Ð¾": 2472,
      "ÑģÑĤÐ°Ð½": 2473,
      "ĠÐ¡Ð°Ð¼": 2474,
      "ÑĩÐ¸Ð²": 2475,
      "ĠÐ¸Ð½Ð¾ÑģÑĤÑĢÐ°Ð½": 2476,
      "ĠÐºÐ¾ÑĢÑĢÐµÐºÑĨÐ¸Ñı": 2477,
      "Ġ22": 2478,
      "ĠÑĢÐµÐ³Ñĥ": 2479,
      "ter": 2480,
      "ÑģÑĤÐ¾Ñı": 2481,
      "Ð¿Ð¾ÑĤ": 2482,
      "ĠÑĢÐµÐ°Ðº": 2483,
      "BI": 2484,
      "ĠÐ²ÑĭÐ³Ð»ÑıÐ´ÐµÐ»Ð¸": 2485,
      "ĠÐĸ": 2486,
      "Ð¾Ð²Ð¾Ð¼": 2487,
      "Ð¾Ð±Ð¸": 2488,
      "ĠÐ¸ÑİÐ»Ñı": 2489,
      "ÑĤÐ¾Ð¼Ñĥ": 2490,
      "Ð¾Ð±ÑĢÐµ": 2491,
      "ĠÑĦÑĮÑİÑĩÐµÑĢ": 2492,
      "ÑĭÐ²Ð°ÑĤÑĮ": 2493,
      "ĠÐ·Ð¾Ð½Ñĥ": 2494,
      "ĠÑģÐ½Ð¸Ð·": 2495,
      "ber": 2496,
      "ĠÐ°ÐºÑĤÑĥÐ°Ð»ÑĮ": 2497,
      "ĠU": 2498,
      "ĠÐłÐ¾ÑģÑĤ": 2499,
      "ĠÐ¿Ð»Ð°ÑĤ": 2500,
      "ĠÐ¿Ð°Ð´Ð°": 2501,
      "ĠÑĨÐµÐ»ÑĮÑİ": 2502,
      "ÐŀÐĴ": 2503,
      "Ð±Ð¸Ð»ÑĮ": 2504,
      "Ð´ÐµÐ¼": 2505,
      "ĠÐ½Ð¾Ð²ÑĭÐµ": 2506,
      "ĠÑģÑĤÐ¾Ð¸Ð¼Ð¾ÑģÑĤÐ¸": 2507,
      "ĠÐ²Ð½ÐµÑĪ": 2508,
      "ĠÐºÑĥÐ¿": 2509,
      "ĠÐ¿Ð¾Ð·Ð¸ÑĨÐ¸Ð¹": 2510,
      "ĠÐľÐ¸Ð½ÑĦÐ¸": 2511,
      "ĠÐ¿ÐµÑĢÐµÐ¿ÑĢÐ¾Ð´Ð°Ð½Ð½Ð¾ÑģÑĤÐ¸": 2512,
      "ÑĢÐ¾Ð³Ð½Ð¾Ð·": 2513,
      "ÑĥÐ½Ð´Ð°": 2514,
      "ÑİÐ´Ð¶": 2515,
      "ÐµÐ½Ð½Ð¾ÑģÑĤÑĮ": 2516,
      "ĠÐłÑĭÐ½": 2517,
      "Ð»Ð¾Ðº": 2518,
      "ĠÐ¾Ð´Ð½Ð°ÐºÐ¾": 2519,
      "ĠÑģÐ¸ÑĤÑĥÐ°ÑĨÐ¸Ð¸": 2520,
      "ĠÑĢÐ°Ð·Ð¼ÐµÑĢÐµ": 2521,
      "ĠÐ´Ð¸Ð½Ð°Ð¼Ð¸ÐºÑĥ": 2522,
      "ÐµÐ»Ðµ": 2523,
      "ĠÐ¼Ð½Ð¾Ð³": 2524,
      "Ð¸Ð»Ð°": 2525,
      "ĠÑĦÐµÐ²ÑĢÐ°Ð»Ñı": 2526,
      "Ð½Ð¸ÐºÐ¾Ð²": 2527,
      "Ġ2025": 2528,
      "ĠÐ»Ð¸Ð´": 2529,
      "ÑĥÐ½Ð´Ð°Ð¼ÐµÐ½ÑĤ": 2530,
      "Ġ2019": 2531,
      "ĠÑģÐ½Ð¸Ð¶Ð°ÐµÑĤÑģÑı": 2532,
      "ĠÑĤÑĭÑģ": 2533,
      "ĠÐ½Ð¾ÑıÐ±ÑĢÑı": 2534,
      "ĠÑĦÐµÐ²ÑĢÐ°Ð»Ðµ": 2535,
      "ĠÐ¿ÐµÑĢÐµÐ´": 2536,
      "ĠÐ·Ð°ÑģÐµÐ´": 2537,
      "ĠÑĨÐ¸": 2538,
      "Ð´Ð¾": 2539,
      "ÑĢÐ°Ñģ": 2540,
      "Ð»Ð¸Ð·": 2541,
      "ĠÐ´Ð»Ð¸Ð½": 2542,
      "Ġ35": 2543,
      "ĠÑģÐ²Ñı": 2544,
      "ĠÐ¼ÐµÑģÑıÑĩ": 2545,
      "ĠÐ³Ð¾ÑĤ": 2546,
      "Ð½Ð¾Ð²Ð¾ÑģÑĤÐ¸": 2547,
      "ĠÐ¿ÑĢÐµÐ´Ð¿Ð¾Ð»": 2548,
      "Ð¾ÑĢÐ¾": 2549,
      "ĠÐ¾ÑģÐ½Ð¾Ð²Ð½Ð¾Ð¼": 2550,
      "ÑĥÑĢÐ³": 2551,
      "ĠÐ´Ð²Ñĥ": 2552,
      "ĠÐ²ÑĭÐºÑĥÐ¿": 2553,
      "Ð¾Ð³ÑĢÐ°Ð¼": 2554,
      "ĠÑģÑĢÐµÐ´Ð½ÐµÐ¼": 2555,
      "ĠÐ¿ÐµÑĢÑģÐ¿ÐµÐºÑĤÐ¸Ð²Ðµ": 2556,
      "ĠÐ¿ÑĢÐ¾Ð´Ð°Ð¶Ð¸": 2557,
      "ĠÑĥÑģÑĤÐ°Ð½Ð¾Ð²Ð»": 2558,
      "ĠÐ¸ÑİÐ½Ñı": 2559,
      "ĠÑĤÐ¾Ð½": 2560,
      "Ð¾Ð¿Ð°Ñģ": 2561,
      "ÑįÑĢÐ¾": 2562,
      "ĠÑģÐ¾Ð¾Ð±Ñī": 2563,
      "ĠÐŁÑĥÑĤÐ¸": 2564,
      "ĠÑģÑĥÐ¼": 2565,
      "ĠÐ´ÐµÐ¿": 2566,
      "ĠÐ¾ÐºÑĤÑıÐ±ÑĢÑı": 2567,
      "ÑĥÐ½Ð´Ð°Ð¼ÐµÐ½ÑĤÐ°Ð»ÑĮ": 2568,
      "ÑįÑĢÐ¾ÑĦÐ»Ð¾ÑĤ": 2569,
      "ÑģÑĥÑĤ": 2570,
      "ĠÐ½ÐµÑģÐº": 2571,
      "ĠÐ¡ÑĢÐµÐ´Ð½ÐµÑģÑĢÐ¾Ñĩ": 2572,
      "%)": 2573,
      "ĠÐ¿Ð¾Ð·Ð²Ð¾Ð»Ñı": 2574,
      "ÑģÑĤÐµÐ¼": 2575,
      "ĠÑĢÐ°Ð¹Ð¾Ð½": 2576,
      "ĠÑĥÐºÑĢÐµ": 2577,
      "Ð»ÑıÑĤÐ¾ÑĢ": 2578,
      "ÑĢÐ°Ð²Ð¸ÑĤÐµÐ»ÑĮ": 2579,
      "Ð¾Ð¶Ð´": 2580,
      "ÑĨÐµÐ½Ð¸": 2581,
      "ĠÐĲÐº": 2582,
      "ĠÑģÐ»Ð¾Ð¶": 2583,
      "ĠÐ¼ÐµÐ½ÐµÐµ": 2584,
      "ÐµÑģÐ¿": 2585,
      "Ġ38": 2586,
      "ĠÐłÐ°Ð½": 2587,
      "ĠÑĢÑĥÐ±Ð»ÑĮ": 2588,
      "ÑĪÐµÐµ": 2589,
      "ĠÐļÐ¸ÑĤÐ°Ð¹": 2590,
      "ĠÐĶÐ¾Ð»Ð³Ð¾ÑģÑĢÐ¾Ñĩ": 2591,
      "ÑģÑĤÐ°ÑĤ": 2592,
      "ĠÐ¿Ð¾ÐºÐ°Ð·Ð°ÑĤÐµÐ»": 2593,
      "ĠÑĥÑĩÐµÑĤ": 2594,
      "ĠÐ¡Ð¾Ð¿ÑĢÐ¾ÑĤÐ¸Ð²Ð»ÐµÐ½Ð¸Ñı": 2595,
      "ĠÐ¿Ð¾Ð»ÑĥÐ³Ð¾Ð´Ð¸Ðµ": 2596,
      "ĠÐ¸Ð½ÑĦÐ»ÑıÑĨÐ¸Ð¸": 2597,
      "ÑĥÐµÑĤÑģÑı": 2598,
      "Ð¾Ð·Ð¸ÑĤ": 2599,
      "ÑĩÐ¸Ð»Ð¸": 2600,
      "ĠÑģÑĤÐ¾ÑĢÐ¾Ð½Ñĥ": 2601,
      "ĠÐŁÐ¾Ð´Ð´ÐµÑĢÐ¶ÐºÐ¸": 2602,
      "ÑģÐ¼Ð¾ÑĤÑĢÑı": 2603,
      "ĠÐ¸Ð½Ð²ÐµÑģÑĤÐ¾ÑĢÑĭ": 2604,
      "Ð½ÑİÑİ": 2605,
      "BIT": 2606,
      "ĠâĤ": 2607,
      "ĠÐ½Ð¾Ð²ÑĭÐ¹": 2608,
      "ĠÐ´Ð°Ð»ÑĮÐ½ÐµÐ¹ÑĪÐµÐ³Ð¾": 2609,
      "BITDA": 2610,
      "ĠÐ´Ð½ÐµÐ¹": 2611,
      "ĠÐ²ÐµÑĢÐ½Ñĥ": 2612,
      "ĠÐ²Ð¾Ð¿ÑĢÐ¾Ñģ": 2613,
      "ĠÑĦÐ¾Ð½Ð°": 2614,
      "ĠÐºÐ¾Ð½ÑĨÐµ": 2615,
      "ĠÑģÑĤÑĢÑĥÐºÑĤÑĥÑĢÐ°": 2616,
      "ĠÐłÐ°Ð½ÐµÐµ": 2617,
      "ÐµÐ½Ð¾": 2618,
      "ĠÐ´Ð½Ð¸": 2619,
      "ÑģÑĤÐ°Ð½Ð¾Ð²": 2620,
      "ĠÐ²Ð¿": 2621,
      "ĠÐ¿ÑĢÐ¾ÑĨÐµÐ½ÑĤ": 2622,
      "ÑĤÐ¾Ð²": 2623,
      "ĠÑĢÐµÐºÐ¾Ð¼ÐµÐ½Ð´": 2624,
      "ÑĭÐ³": 2625,
      "Ð½Ð¾Ð²ÑĮ": 2626,
      "ĠÐ¿Ð¾ÑģÐ»ÐµÐ´Ð½Ð¸Ðµ": 2627,
      "ĠÐºÐ°Ð½Ð°Ð»Ð°": 2628,
      "Ð¼Ñĭ": 2629,
      "ĠÐ¸ÑģÑĤÐ¾ÑĩÐ½Ð¸Ðº": 2630,
      "ĠÐ´Ð¸Ð½Ð°Ð¼Ð¸ÐºÐ¸": 2631,
      "Ð»Ð°Ð²Ð°": 2632,
      "ĠÐ½ÐµÐ³Ð°ÑĤÐ¸Ð²Ð½ÑĭÐ¹": 2633,
      "ĠÑįÐ½ÐµÑĢ": 2634,
      "ĠÐľÐ¸Ð½ÑĦÐ¸Ð½": 2635,
      "Ð²Ð°Ð»": 2636,
      "ĠÐ´Ð¾Ð¿Ð¾Ð»Ð½Ð¸ÑĤÐµÐ»ÑĮ": 2637,
      "ÑģÐºÑĥÑİ": 2638,
      "Ġ34": 2639,
      "ĠÑģÐ¸Ð»": 2640,
      "ĠÐĶÐ¸": 2641,
      "ĠÐ´Ð¾ÑĢÐ¾Ð¶": 2642,
      "ĠÐĺÐ·": 2643,
      "Ġ57": 2644,
      "ĠÐ½Ð°ÑĢÐ°": 2645,
      "ĠÐ½Ð°ÑĪ": 2646,
      "ĠÐ¿ÑĢÐ¸Ð²Ð»ÐµÐº": 2647,
      "Ð²ÐµÑĢÐ¶": 2648,
      "ĠÐ±Ð°Ð½ÐºÐ°": 2649,
      "ÑįÑĤÐ¾Ð¼Ñĥ": 2650,
      "ÐłÐ¡": 2651,
      "ĠÐ±Ð¸ÑĢÐ¶Ð¸": 2652,
      "38": 2653,
      "ĠÐ³Ð¾Ð²Ð¾ÑĢ": 2654,
      "ÑİÑīÐ¸Ð¹": 2655,
      "ĠÐ´ÐµÐ½ÐµÐ¶": 2656,
      "Ð¸Ðº": 2657,
      "ÑĥÑģÑĤ": 2658,
      "ĠÑģÑĢÐµÐ´Ñĥ": 2659,
      "ĠÑĤÐ¾ÑĢÐ³Ð¾Ð²ÑĭÐ¹": 2660,
      "ĠÐ¿Ð¾Ð·Ð¸ÑĨÐ¸Ð¸": 2661,
      "ĠÐ°ÐºÑĤÐ¸": 2662,
      "ĠÐ¸Ð·Ð¼ÐµÐ½": 2663,
      "ĠÐ²ÑĭÐ³Ð»ÑıÐ´Ð¸ÑĤ": 2664,
      "Ð¾Ð²Ð°Ð»": 2665,
      "ĠÐ³Ð»": 2666,
      "Ð²ÐµÐ»": 2667,
      "ĠÐ²Ð±": 2668,
      "Ð¼ÐµÐ½ÑĤÐ°ÑĢÐ¸": 2669,
      "Ð½Ð¾ÑģÑĤÑĮÑİ": 2670,
      "ĠÐĲÐ»": 2671,
      "ĠÐľÐ¾ÑģÐºÐ¾Ð²ÑģÐºÐ¾Ð¹": 2672,
      "ÐĽÐľÐļ": 2673,
      "ĠÐľÐ¢Ð¡": 2674,
      "ĠÐĿÐĽÐľÐļ": 2675,
      "ĠÐ°ÐºÑĨÐ¸Ð¾Ð½ÐµÑĢÐ¾Ð²": 2676,
      "ĠÐ¿ÑĢÐ¾Ð´Ð¾Ð»Ð¶Ð°ÐµÑĤ": 2677,
      "ĠÐ²Ð½Ð¾Ð²ÑĮ": 2678,
      "ĠÑģÐ¼Ðµ": 2679,
      "ĠÑĢÐµÐ³Ð¸": 2680,
      "ÑģÑĤÐ²Ð¸Ðµ": 2681,
      "ĠÐºÐ»Ð¸": 2682,
      "ÑĢÐ³": 2683,
      "ÑĢÐ°ÑĤÑĮ": 2684,
      "ĠÐ±ÑİÐ´Ð¶": 2685,
      "ĠÐ¸Ð½Ð´ÐµÐºÑģÐ°": 2686,
      "ĠÐ´Ð¸Ð²Ð¸Ð´ÐµÐ½Ð´Ð°Ð¼": 2687,
      "ĠÐ¼ÐµÐ´": 2688,
      "ĠÐ¿ÑĢÐ¾Ð´Ð¾Ð»Ð¶ÐµÐ½Ð¸Ñı": 2689,
      "ĠÐ´Ð¸Ð°Ð¿Ð°Ð·Ð¾Ð½": 2690,
      "zon": 2691,
      "ĠÑĤÑĢÐµÐ½Ð´Ðµ": 2692,
      "ĠÐ°Ð½Ð°Ð»Ð¸ÑĤÐ¸ÐºÐ¸": 2693,
      "ĠÑģÐ¼Ð¾Ð³": 2694,
      "ĠÐ¶Ð´Ð°ÑĤÑĮ": 2695,
      "Ð½ÑĥÑĤÑĮÑģÑı": 2696,
      "ĠÑģÐ¾ÐºÑĢÐ°Ñī": 2697,
      "ĠÐ¸Ð´Ðµ": 2698,
      "ĠÐºÐ¾Ð¿": 2699,
      "os": 2700,
      "Ð¸Ð»Ð°ÑģÑĮ": 2701,
      "ĠÐ´ÐµÑĪÐµ": 2702,
      "Ð½Ð¾Ñĩ": 2703,
      "ĠÑĢÐµÑĪÐµÐ½Ð¸Ðµ": 2704,
      "ĠÐ·Ð°ÐºÐ¾Ð½": 2705,
      "ĠÑĤÐµÐºÑĥÑīÐµÐ³Ð¾": 2706,
      "ĠÑģÐ½Ð¸Ð¶Ð°ÑİÑĤÑģÑı": 2707,
      "ĠÑĩÐµÑĤÐ²ÐµÑĢÐ³": 2708,
      "ĠÐŁÐ¾Ð»": 2709,
      "ÑĳÑĤ": 2710,
      "Ð²Ð¸Ð»Ð°": 2711,
      "ÑĢÑĥÑĩÐºÐ°": 2712,
      "Ð¸Ð´Ðµ": 2713,
      "Ð¼Ð°ÑĤ": 2714,
      "ĠÐ¿Ð¾Ð´ÑĬÐµÐ¼Ð°": 2715,
      "ĠÐ´Ð²ÑĥÑħ": 2716,
      "ĠÐ±ÐµÐ·Ð¾Ð¿Ð°Ñģ": 2717,
      "ĠÐĿÐ¾": 2718,
      "ĠÐ²ÑĭÐ¿Ð»Ð°ÑĤÑĭ": 2719,
      "Ð°Ð¹Ð´": 2720,
      "ĠW": 2721,
      "ĠÐ½Ð¸Ð·": 2722,
      "Ð¸Ñı": 2723,
      "ĠÑĤÐ¾Ð¿": 2724,
      "ÑĢÑĥÐµÑĤÑģÑı": 2725,
      "ĠV": 2726,
      "ÐºÐ¾Ð½": 2727,
      "ĠÐ½Ð°Ð¿": 2728,
      "ĠÐ¨": 2729,
      "ĠÐ´Ð²Ð°": 2730,
      "ÑĢÐ¾Ð²Ð°ÑĤÑĮÑģÑı": 2731,
      "ĠÑģÑĤÐ°Ð±Ð¸Ð»ÑĮ": 2732,
      "ĠÐĴÑĭÑĢÑĥÑĩÐºÐ°": 2733,
      "ĠÐ²ÑĭÑģÐ¾ÐºÐ¾Ð¹": 2734,
      "ĠÑģÐ°Ð½ÐºÑĨÐ¸Ð¸": 2735,
      "ĠÐ¿Ð¾Ð»Ð¾Ð²": 2736,
      "ÐļÑĢÐ°ÑĤÐºÐ¾ÑģÑĢÐ¾ÑĩÐ½Ð°Ñı": 2737,
      "en": 2738,
      "Ġ2014": 2739,
      "ÐµÐ½Ð½ÑĭÐµ": 2740,
      "ĠÐ²Ð±Ð»Ð¸Ð·Ð¸": 2741,
      "ĠÑĢÐ¾ÑģÑĤÑĥ": 2742,
      "ÑĢÐ°ÑĤÐ¸": 2743,
      "ÐµÐ½ÑĤÐ¾Ð²": 2744,
      "Ð³Ð¾ÑĤ": 2745,
      "ĠÑģÑĤÐ°Ð»Ð¸": 2746,
      "ĠÐ¿ÑĢÐµÐ²ÑĭÑģÐ¸Ð»": 2747,
      "ÐºÑĤÐ¾Ð²": 2748,
      "Ġ36": 2749,
      "ĠÐ½ÐµÐ¼": 2750,
      "ĠÐ¾Ð¿ÑĤÐ¸": 2751,
      "ĠÑĤÑĢÐ¸": 2752,
      "ĠÑĤÐµÐºÑĥÑīÐ¸Ñħ": 2753,
      "ĠÐ¸Ð¿Ð¾ÑĤ": 2754,
      "ÐµÐ´Ð¶": 2755,
      "Ð½Ð¾Ð»": 2756,
      "ĠÐ¿ÑĢÐ¸Ð¼ÐµÑĢ": 2757,
      "ĠÑģÐ½Ð¸Ð·Ð¸Ð»ÑģÑı": 2758,
      "ĠÑĢÐ°ÑģÐ¿ÑĢÐ¾Ð´": 2759,
      "et": 2760,
      "ÑıÐ½": 2761,
      "ĠÑĥÑĩÐ°ÑģÑĤ": 2762,
      "74": 2763,
      "ÑĢÑĭÑĤÐ¸Ðµ": 2764,
      "ĠÑĢÐ°ÑģÐ¿Ð¾Ð»": 2765,
      "ÐłÐ¾Ñģ": 2766,
      "ÐĽÐł": 2767,
      "ĠÐłÐ¢Ð¡": 2768,
      "ĠÑĩÐ°ÑģÑĤÑĮ": 2769,
      "ÑĤÐ¾ÑĢÐ³": 2770,
      "ÑģÑĤÐ²Ðµ": 2771,
      "ĠÑģÑĢÐ°Ð²": 2772,
      "ÑİÐ½": 2773,
      "ĠÐ¾Ð±ÑĢÐ°ÑĤ": 2774,
      "Ġ45": 2775,
      "ĠÐºÐ¾Ð½ÑĤÑĢ": 2776,
      "ĠÑģÐ¾ÑģÑĤÐ°Ð²Ð»ÑıÐµÑĤ": 2777,
      "Ð´ÐµÑģÑĮ": 2778,
      "ĠÐ´Ð¾ÑģÑĤÐ¸Ð¶": 2779,
      "ĠÑĥÑģÐ¿": 2780,
      "ĠÑĢÐ¾ÑģÑģÐ¸Ð¹ÑģÐºÐ¾Ð¼": 2781,
      "Ð²ÑĭÐµ": 2782,
      "Ð½Ð¸Ð¼Ð°": 2783,
      "ĠÐĽÑĥÐºÐ¾Ð¹Ð»Ð°": 2784,
      "ĠÐ¡ÐŁÐĵ": 2785,
      "ĠÐ½Ð¸ÑģÑħÐ¾Ð´ÑıÑīÐµÐ³Ð¾": 2786,
      "ĠÐ°Ð¼ÐµÑĢÐ¸ÐºÐ°Ð½": 2787,
      "ĠÐ°Ð¿ÑĢÐµÐ»Ñı": 2788,
      "ÐµÑĤÑĮ": 2789,
      ".âĢ¢": 2790,
      "Ð¸Ð²": 2791,
      "ĠÐ¿ÑĢÐ¸Ð±Ð°Ð²Ð¸": 2792,
      "Ð¿Ð¾ÑĢÐ°": 2793,
      "ĠÐľÑĭ": 2794,
      "ĠÐ¿ÑĢÐ¾Ð´Ð¾Ð»Ð¶Ð¸": 2795,
      "ĠÐ´ÐµÐ¿Ð¾Ð·Ð¸ÑĤ": 2796,
      "ĠÑĢÐ°Ð·Ð¼ÐµÑī": 2797,
      "ĠÐ§Ð¸ÑģÑĤÐ°Ñı": 2798,
      "37": 2799,
      "ĠÐĴÐ¾Ð·": 2800,
      "ĠÑĩÐ°ÑģÐ¾Ð²Ð¾Ð¼": 2801,
      "ÐĽÐłÐŀÐ¡ÐĲ": 2802,
      "ĠÑĪÐ°Ð½": 2803,
      "ÐµÑĪ": 2804,
      "Ð°Ð»ÑĮÐ½Ð¾": 2805,
      "ÑĢÐ°ÑĦÐ¸Ðº": 2806,
      "ÑģÐºÐ°Ð·": 2807,
      "ĠÑĥÐ³": 2808,
      "ĠÐ½Ð¸Ðº": 2809,
      "Ð³ÑĢÑĥÐ·": 2810,
      "ĠÐ¼Ð°ÑĢÑĤÐ°": 2811,
      "ĠÑģÐºÐ¾Ð»ÑĮÐ·ÑıÑīÐ¸": 2812,
      "ĠÐ½Ð°Ð¿ÑĢÐ°Ð²Ð»ÐµÐ½": 2813,
      "ĠÐ½ÐµÐ¾Ð±": 2814,
      "ĠÐ±ÑĭÑģÑĤÑĢÐ¾": 2815,
      "ĠÐ¾Ð¶Ð¸Ð´Ð°ÐµÑĤÑģÑı": 2816,
      "ÑĩÐµÑģÐºÐ¾Ð³Ð¾": 2817,
      "Ð¾ÑīÐ°Ð´": 2818,
      "Ð½Ð¾Ð²Ð°": 2819,
      "ĠÐ¿ÐµÑĢÐµÐºÑĥÐ¿Ð»ÐµÐ½Ð½Ð¾ÑģÑĤÐ¸": 2820,
      "84": 2821,
      "le": 2822,
      "ĠÐ¾ÑĢÐ³": 2823,
      "ĠÐ³Ñį": 2824,
      "ĠÑĤÐ°Ð¹Ð¼ÑĦÑĢÐµÐ¹Ð¼Ðµ": 2825,
      "Ð°Ð½Ð¾Ð²": 2826,
      "ĠÑĥÐ²ÐµÑĢ": 2827,
      "ÑģÐºÐ¸Ð¼": 2828,
      "ĠÐ¾ÑĤÐºÐ°ÑĤÐ°": 2829,
      "ĠÐ¿ÐµÑĢÐµÐ³": 2830,
      "ĠÑĩÑĥÑĤÑĮ": 2831,
      "ĠÑĤÐµÑģÑĤ": 2832,
      "ÑģÑĤÑĢÐµ": 2833,
      "ĠÐ¤ÐłÐ¡": 2834,
      "ĠÐ½Ð¸Ñħ": 2835,
      "ĠÑĢÐ°ÑģÑĩÐµÑĤ": 2836,
      "ĠÑĩÐ°ÑģÑĤ": 2837,
      "ÐºÑĤÐ¸": 2838,
      "Ð¾ÑĢÑĤÐ°": 2839,
      "ÑħÐ¾Ð´Ð¸Ð¼": 2840,
      "ĠÐ¿ÑĢÐ¾Ð´Ñĥ": 2841,
      "ÐµÑĩÐµÐ½Ð¸Ðµ": 2842,
      "ĠÐ²ÐµÑĢÐ¾ÑıÑĤÐ½Ð¾ÑģÑĤÑĮ": 2843,
      "ĠÐ¿ÑĢÐµÐ´ÑĭÐ´ÑĥÑīÐ¸Ð¹": 2844,
      "ĠÐ³Ð»Ð°Ð²": 2845,
      "Ð»ÐµÐ¼": 2846,
      "ĠÐ¢ÐµÐºÑĥÑī": 2847,
      "ĠÐ¾ÑģÐ½Ð¾Ð²Ð½ÑĭÐµ": 2848,
      "ĠÑģÐ»Ð°Ð±": 2849,
      "ĠâĤ½": 2850,
      "ÑĬÑİÐ½": 2851,
      "ÑĬÑİÐ½ÐºÑĤÑĥ": 2852,
      "ĠÐ¾ÑĤÐ½Ð¾Ñģ": 2853,
      "ĠÑĩÐ°ÑģÐ¾Ð²Ð¾Ð³Ð¾": 2854,
      "ĠÐ±Ð°Ð·": 2855,
      "ĠÐŃÐº": 2856,
      "ĠÐ¿ÑĢÐ¾Ð¹Ð´ÐµÑĤ": 2857,
      "Ð¾Ð²Ð°Ð½Ð¸Ñı": 2858,
      "ĠÑĢÐµÐºÐ¾ÑĢÐ´Ð½ÑĭÑħ": 2859,
      "ĠÑĥÑĩÐµÑĤÐ¾Ð¼": 2860,
      "ĠÐºÐ¾ÑĢÐ¾ÑĤ": 2861,
      "ÑĤÐµÐ³Ð°Ð·": 2862,
      "ÐµÐ»ÐµÐ½": 2863,
      "ĠÐĲÐ½Ð°Ð»Ð¸ÑĤÐ¸": 2864,
      "ĠÐĵÑĢÐ°ÑĦÐ¸Ðº": 2865,
      "ĠÐ¿Ð¾Ð´ÑĤ": 2866,
      "ĠÐ¿Ð°Ð´ÐµÐ½Ð¸Ðµ": 2867,
      "):": 2868,
      "ĠÑģÑĥÑīÐµÑģÑĤÐ²ÐµÐ½": 2869,
      "Ð²Ð¸Ð´ÐµÐ½Ð´": 2870,
      "ĠÐĺÐ½Ð²ÐµÑģÑĤÐ¸ÑĨÐ¸Ð¹": 2871,
      "ĠÑĩÐ¸ÑģÐ»": 2872,
      "ĠÐ·Ð°Ð¼ÐµÐ´": 2873,
      "ĠÐ¾Ð½Ð°": 2874,
      "ĠÑģÑĨÐµÐ½Ð°ÑĢÐ¸Ñı": 2875,
      "ĠÐ¿Ð°Ð´Ð°ÐµÑĤ": 2876,
      "ĠOzon": 2877,
      "ĠÐ¾Ð¿ÐµÑĢÐ°ÑĨÐ¸Ð¾Ð½": 2878,
      "ĠÑĤÐ¾ÑĢÐ³Ð¸": 2879,
      "ĠÐĶÐ¾Ð»Ð³Ð¾ÑģÑĢÐ¾ÑĩÐ½ÑĭÐ¹": 2880,
      "ĠÐ¾Ð³ÑĢÐ°Ð½Ð¸Ñĩ": 2881,
      "ĠÐ¢Ð¾ÑĢÐ³": 2882,
      "Ð»Ð¾ÐºÐ¸": 2883,
      "ĠÑģÐ¾Ð±": 2884,
      "ĠÐ´Ð°Ð¶Ðµ": 2885,
      "ĠÐĳÐ°Ð½ÐºÐ°": 2886,
      "ĠÐ¿Ð»Ð¾ÑīÐ°Ð´": 2887,
      "ĠÐ³Ð¾Ð²Ð¾ÑĢÐ¸ÑĤ": 2888,
      "ĠÐ²ÑĭÑģÐ¾ÐºÐ¸Ñħ": 2889,
      "ĠÐ¡Ð±ÐµÑĢÐ±Ð°Ð½Ðº": 2890,
      "ĠÐ¾ÑĤÑĢÐ°": 2891,
      "Ð¾Ð¿ÑĢÐ¸": 2892,
      "ĠÐľÐ¾ÑģÐ±Ð¸ÑĢÐ¶Ð°": 2893,
      "ĠÐ£ÑĩÐ¸ÑĤÑĭÐ²Ð°": 2894,
      "ĠÑģÐ¾ÑħÑĢÐ°Ð½Ð¸": 2895,
      "ĠÐ½ÐµÐ¹ÑĤÑĢÐ°Ð»ÑĮÐ½Ð¾Ð¹": 2896,
      "ĠÐĲÐ¼ÐµÑĢÐ¸ÐºÐ°Ð½": 2897,
      "ĠÐĲÑįÑĢÐ¾ÑĦÐ»Ð¾ÑĤ": 2898,
      "ĠÐºÐ¾Ð½ÑĬÑİÐ½ÐºÑĤÑĥ": 2899,
      "ĠÑĥÑģÑĤÐ°Ð½Ð¾Ð²Ð»ÐµÐ½": 2900,
      "ĠÐ´Ð°ÐµÑĤ": 2901,
      "Ð´Ð°ÐµÐ¼": 2902,
      "ĠÐ¾ÑĢÐ³Ð°Ð½Ð¸": 2903,
      "ĠÐ²ÑĤÐ¾ÑĢÐ¾Ð¹": 2904,
      "ĠÐ®": 2905,
      "ĠÐ¾Ð±ÑĢÐ°Ð·": 2906,
      "ĠÐľÐ¾ÑģÐ±Ð¸ÑĢÐ¶Ðµ": 2907,
      "ĠÐ¸Ð½ÑĤÐµÑĢÐ²": 2908,
      "ĠÐ½Ð°Ð´Ðµ": 2909,
      "ÐºÐ¸Ðµ": 2910,
      "ĠÐ¿ÑĢÐµÐ¾Ð´Ð¾Ð»": 2911,
      "Ð¾Ñħ": 2912,
      "ÐµÑĢÐ²Ð¸": 2913,
      "ÐĺÐ½": 2914,
      "ĠÐ¾ÑģÑĤÐ°ÑİÑĤÑģÑı": 2915,
      "ĠÐ¾ÑģÐ½Ð¾Ð²Ð½Ð¾Ð¹": 2916,
      "Ð½Ð¸ÐºÐ¸": 2917,
      "ÑĥÐ´Ð°ÑĢ": 2918,
      "Ð¸Ð±": 2919,
      "ĠÐ¾ÑĨÐµÐ½Ð¸": 2920,
      "ĠÑģÐ¾Ð±ÑĭÑĤÐ¸Ñı": 2921,
      "ĠÑĢÐ°ÑģÑģÑĩÐ¸ÑĤ": 2922,
      "Ð°Ð»ÐµÐµ": 2923,
      "ĠÐºÐ»ÑİÑĩÐµÐ²Ð¾Ð¹": 2924,
      "ĠÐ¿Ð¾Ð»Ð¾Ð¶Ð¸ÑĤÐµÐ»ÑĮÐ½Ð¾Ð¹": 2925,
      "Ð¸ÑĢÐ¾Ðº": 2926,
      "ĠÐ½ÐµÐ´ÐµÐ»ÑĮÐ½Ð¾Ð³Ð¾": 2927,
      "ĠÑĤÐ¾Ð½Ð½": 2928,
      "ĠÑģÑĤÐ°ÑĢ": 2929,
      "ĠÑıÐ½Ð²Ð°ÑĢÑı": 2930,
      "ĠÐŁÑĥÑĤÐ¸Ð½": 2931,
      "ĠX": 2932,
      "ĠÐ´Ð°Ð½Ð½ÑĭÐµ": 2933,
      "ĠÐ¿ÐµÑĢÑģÐ¿ÐµÐºÑĤÐ¸Ð²": 2934,
      "Ð°Ð½Ð°": 2935,
      "Ð²ÐµÐ´Ð»Ð¸": 2936,
      "ĠÐºÑĥÑĢÑģ": 2937,
      "Ð¸ÑĤÐµÐ»": 2938,
      "Ð¸ÑģÐº": 2939,
      "Ð¡Ðĳ": 2940,
      "ĠÐ¾Ð¿ÑĥÑģÑĤÐ¸": 2941,
      "ĠÐĲÐ½Ð°Ð»Ð¸ÑĤÐ¸ÐºÐ¸": 2942,
      "ĠÐĲÐĽÐłÐŀÐ¡ÐĲ": 2943,
      "ĠÑĢÐµÐ·ÑĥÐ»ÑĮÑĤÐ°ÑĤÐ¾Ð²": 2944,
      "ÑĢÑĥÐ±": 2945,
      "Ð°ÑĤÐ¸Ð»ÑĮ": 2946,
      "ĠÐ¸Ð½Ð´Ð¸ÐºÐ°ÑĤÐ¾ÑĢÑĭ": 2947,
      "ĠÐ²Ð²ÐµÐ´": 2948,
      "ĠÐłÑĭÐ½Ð¾Ðº": 2949,
      "ol": 2950,
      "ĠÐĽÑĥÐºÐ¾Ð¹Ð»": 2951,
      "ÐµÐ½Ðµ": 2952,
      "ĠÐ´Ð¾ÑģÑĤÑĥÐ¿": 2953,
      "ĠÑįÐºÐ¾Ð½Ð¾Ð¼Ð¸ÐºÐ¸": 2954,
      "ĠÐ´Ð°Ð½Ð½ÑĭÐ¼": 2955,
      "ĠÐ²Ð½Ð¸Ð¼": 2956,
      "Ð°ÑĢÑĤ": 2957,
      "Ð¾ÑĩÐ½Ð¾": 2958,
      "Ð°ÐºÐ¸Ðµ": 2959,
      "ĠÐŁÑĢÐ¾Ð´": 2960,
      "ĠÑģÑĤÑĢÐ°Ð½Ñĭ": 2961,
      "Ð¾Ð»ÑĮÐ·Ñĥ": 2962,
      "ĠÑįÑĦÑĦ": 2963,
      "ÑĩÐ°ÑģÐ¾Ð²": 2964,
      "ĠÐ½Ð°Ð·": 2965,
      "ĠÐ¿ÑĢÐ¸Ð¼ÐµÑĢÐ½Ð¾": 2966,
      "Ð¶Ð½": 2967,
      "ĠÑģÐ¼ÐµÑĪ": 2968,
      "ĠÐľÐľÐļ": 2969,
      "ĠÐľÐ¸Ð½Ð¸": 2970,
      "ĠÐºÐ¸ÑĤÐ°Ð¹": 2971,
      "Ð²Ð°ÑİÑĤ": 2972,
      "ĠÐºÐ¾ÑĢÐ¿Ð¾ÑĢÐ°": 2973,
      "Ġ39": 2974,
      "ĠÐ¿ÐµÑĢÐ²Ð¾Ð¹": 2975,
      "ĠÐĺÐ½ÑĤÐµÑĢ": 2976,
      "ĠÐ¿Ð¾Ð³": 2977,
      "ĠÑģÑĤÑĢÐ°Ð½": 2978,
      "ĠÐ¸Ð¼": 2979,
      "ĠÐŁÑĥÐ»ÑĮ": 2980,
      "ĠÑĩÐµÐ³Ð¾": 2981,
      "Ġ65": 2982,
      "ÑĪÐ¸Ð¼": 2983,
      "ĠÑĤÐµÑĩÐµÐ½Ð¸Ðµ": 2984,
      "ĠÐ½Ð¸Ð¶": 2985,
      "Ð°Ð»ÑĮÐ½ÑĭÐ¹": 2986,
      "ĠÐ²ÑĭÑĢÑĥÑĩÐºÐ¸": 2987,
      "Ð¾Ð»Ñı": 2988,
      "ĠÑģÑĢÐ°Ð²Ð½": 2989,
      "Ð°Ðµ": 2990,
      "ĠÐĴÐ¾": 2991,
      "Ð¼Ð°ÑĤÑĢÐ¸": 2992,
      "Ð¦": 2993,
      "ĠÐ²ÐµÐ´": 2994,
      "ĠÑĥÐ´ÐµÑĢÐ¶": 2995,
      "Ð²Ð¾Ð·": 2996,
      "ĠÑĤÐµÑĢÑı": 2997,
      "ĠÐ½ÐµÑģÐºÐ¾Ð»ÑĮÐºÐ¾": 2998,
      "ĠÐ¿ÑĢÐ¾Ð³ÑĢÐ°Ð¼": 2999,
      "ĠÑģÐµÑĢÐµÐ´": 3000,
      "ĠÑģÑĤÐ°Ð²ÐºÑĥ": 3001,
      "ĠÑĥÐ´Ð°Ð»Ð¾ÑģÑĮ": 3002,
      "berg": 3003,
      "ĠÑĢÐ¾ÑģÑģÐ¸Ð¹ÑģÐºÐ¾Ð¹": 3004,
      "ÑıÑĤÐ¸": 3005,
      "ÑĢÑĥÐ´": 3006,
      "ĠÑģÐ¾Ð³Ð»Ð°": 3007,
      "ĠEBITDA": 3008,
      "Ġ56": 3009,
      "48": 3010,
      "ĠÐ¿Ð¾ÐºÐ°Ð·ÑĭÐ²Ð°ÑİÑĤ": 3011,
      "ĠÑĥÑģÑĤÐ¾Ð¹": 3012,
      "ĠÐ°ÐºÑĨÐ¸ÐµÐ¹": 3013,
      "ĠÐµÐ´Ð¸": 3014,
      "ĠÐ²Ð¾Ð·Ð¾Ð±Ð½Ð¾Ð²Ð»ÐµÐ½Ð¸Ñı": 3015,
      "ĠÐ¿ÑĢÐ¾Ð¼": 3016,
      "ÐĵÐ°Ð·Ð¿ÑĢÐ¾Ð¼": 3017,
      "ĠD": 3018,
      "ĠBlo": 3019,
      "Ð¿ÑĢÐ¾": 3020,
      "ĠÑģÑĢÐµÐ´ÑģÑĤÐ²": 3021,
      "Ð°ÐµÐ¼": 3022,
      "ĠÐ¿ÐµÑĢÐ²ÑĭÐ¹": 3023,
      "Ð¼ÐµÐ½ÑĤÐ°": 3024,
      "ĠÑģÑĤÐ°Ð½ÐµÑĤ": 3025,
      "ĠÐºÐ°ÑĩÐµ": 3026,
      "Ð¸ÑģÐºÐ¸": 3027,
      "ÐµÐ½Ð½Ð¾Ð¹": 3028,
      "Ġ400": 3029,
      "ĠÐĹÐ°ÑĤÐµÐ¼": 3030,
      "omberg": 3031,
      "ÐµÐ½Ð½Ð¾Ð³Ð¾": 3032,
      "ĠÐ¿ÑĢÐ¾ÑħÐ¾Ð´Ð¸ÑĤ": 3033,
      "ĠÐĵÐ»Ð°Ð²": 3034,
      "Ð¼Ð°ÑĢ": 3035,
      "ĠÐ¡ÐĶ": 3036,
      "ĠÐ¸ÑģÑĤÐ¾ÑĢÐ¸ÑĩÐµÑģÐºÐ¸Ñħ": 3037,
      "78": 3038,
      "ĠBloomberg": 3039,
      "RU": 3040,
      "ĠÐ¿ÑĢÐ¾Ð´Ð¾Ð»Ð¶Ð°ÑİÑĤ": 3041,
      "Ð¾Ð¿ÑĢÐ¸ÑıÑĤ": 3042,
      "Ð³Ð¾Ð¿ÑĢÐ¸ÑıÑĤ": 3043,
      "ĠÐĲÐ·Ð¸": 3044,
      "ĠÐ¿Ð¾Ð´Ð¾ÑĢÐ¾Ð¶": 3045,
      "Ð²Ð»ÐµÐ½Ð¸ÐµÐ¼": 3046,
      "ĠÑģÐµÑģÑģÐ¸Ñİ": 3047,
      "ĠÐ´Ð¾ÑĢÐ¾Ð³Ñĥ": 3048,
      "ĠÑĤÐµÐ¿ÐµÑĢÑĮ": 3049,
      "Ð»ÐµÐ²": 3050,
      "ĠÐ³Ð¾ÑģÑĥÐ´Ð°ÑĢ": 3051,
      "ĠÐ±Ð¾ÐºÐ¾Ð²Ð¸ÐºÐ°": 3052,
      "Ð¸ÑĤÐµ": 3053,
      "ÑıÐ±ÑĢÑĮ": 3054,
      "ĠÐ²Ð¾ÑģÑħÐ¾Ð´ÑıÑīÐµÐ³Ð¾": 3055,
      "ĠÑĦÐ¸Ðº": 3056,
      "ĠÐ¾Ð±Ð»Ð¸Ð³Ð°ÑĨÐ¸Ð¹": 3057,
      "ĠÑĤÐµÐ½Ð´ÐµÐ½ÑĨÐ¸Ð¸": 3058,
      "Ġ60": 3059,
      "ĠÐ´Ð½ÐµÐ²Ð½Ð¾Ð¹": 3060,
      "ĠÐŁÐ¾ÑģÐ»ÐµÐ´": 3061,
      "Ð½ÐµÑĦÑĤÐµÐ³Ð°Ð·": 3062,
      "ĠÑģÐ¾ÑħÑĢÐ°Ð½ÐµÐ½Ð¸Ð¸": 3063,
      "ĠÐ¸Ð½ÑĦÐ»ÑıÑĨÐ¸Ñı": 3064,
      "ĠÐ¾ÑĤÑĢÐ¸ÑĨÐ°ÑĤÐµÐ»ÑĮÐ½Ð¾Ð¹": 3065,
      "ĠÐ½ÐµÐ¾Ð±ÑħÐ¾Ð´Ð¸Ð¼": 3066,
      "ÑĨÐ°": 3067,
      "ĠÐ½Ð¾Ð²Ð¾ÑģÑĤÐ¸": 3068,
      "Ġ75": 3069,
      "ĠÑģÐ´ÐµÐ»ÐºÐ¸": 3070,
      "79": 3071,
      "ÑįÐº": 3072,
      "ĠÐ¿Ð¾Ð´Ð½Ñı": 3073,
      "ĠÐ¿Ð¾Ð´Ð´ÐµÑĢÐ¶ÐºÑĥ": 3074,
      "ĠÐŀÑģÐ½Ð¾Ð²": 3075,
      "ÐĲÐ¢": 3076,
      "ĠÑĢÐ°ÑģÑĤÑĥÑīÐµÐ³Ð¾": 3077,
      "ĠÐļÐ¸ÑĤÐ°Ñı": 3078,
      "ĠÐ¿Ð¾Ð´Ð¿": 3079,
      "ĠÐ±ÑĥÐ´ÑĥÑī": 3080,
      "ÑĩÐ½Ð¾": 3081,
      "ĠÑĤÐ°ÐºÐ¾Ð¹": 3082,
      "ÐµÐ½Ð½ÑĭÐ¹": 3083,
      "ĠÐ¿Ð¾ÐºÑĥÐ¿ÐºÐ¸": 3084,
      "ĠÐ¿Ð¾Ð»Ð¸ÑĤÐ¸ÐºÐ¸": 3085,
      "ĠÑħÐ¾ÑĢÐ¾": 3086,
      "ĠÐ¾Ð´Ð¸Ð½": 3087,
      "ĠÐ¿Ð¾ÑģÑĤÐ°Ð²Ð¾Ðº": 3088,
      "ĠÐºÐ¾Ð¼Ð¼ÐµÐ½ÑĤÐ°ÑĢÐ¸": 3089,
      "ĠÑĨÐµÐ»Ð¾Ð¼": 3090,
      "ĠÐ½Ð°ÑħÐ¾Ð´Ð¸Ð»Ð¸ÑģÑĮ": 3091,
      "ÑģÑĤÐ°Ð½ÑĨÐ¸Ð¸": 3092,
      "ÑĢÐ¸Ð¼": 3093,
      "ĠÑĢÐ°ÑģÑħÐ¾Ð´": 3094,
      "Ð°Ð½Ð¸Ð¹": 3095,
      "ĠÑĤÑĢÐµÐ±": 3096,
      "ĠÑĤÐ¾ÑĢÐ³ÑĥÐµÑĤÑģÑı": 3097,
      "ĠÐĲÐ¼ÐµÑĢÐ¸ÐºÐ°Ð½ÑģÐºÐ¸Ðµ": 3098,
      "ĠÐŁÐ¾ÑĤ": 3099,
      "Ð½ÑıÑĤÑĮ": 3100,
      "Ġ600": 3101,
      "ÑģÑģÐ¸Ð¸": 3102,
      "Ð¾Ð»Ð¸ÑĩÐµ": 3103,
      "ÑģÐ²": 3104,
      "ĠÐĿÐ¾Ð²Ð°ÑĤ": 3105,
      "ĠÐ¿ÑĥÐ½": 3106,
      "ÑįÐ½ÐµÑĢ": 3107,
      "Ð¤ÐĹ": 3108,
      "ĠÐ¸Ð¼Ðµ": 3109,
      "ĠÐĴÑĩÐµÑĢÐ°": 3110,
      "Ð²Ð»ÐµÐ½Ð¸Ð¸": 3111,
      "ÐµÑĢÐ²ÑĭÐµ": 3112,
      "ĠÑİÐ°Ð½": 3113,
      "ĠÑģÐ»Ð°Ð±Ð¾": 3114,
      "Ð´Ñĭ": 3115,
      "ĠÑħÐ¾ÑĤ": 3116,
      "ĠÐłÐ¡Ðĳ": 3117,
      "ĠÐºÐ¾ÑĢÐ¿Ð¾ÑĢÐ°ÑĤÐ¸Ð²": 3118,
      "ĠÐłÐ¡ÐĳÐ£": 3119,
      "ĠÐ·Ð°Ð²Ð¸": 3120,
      "ĠÐ¾ÑĤÑģÑĥÑĤ": 3121,
      "ĠÑģÑĤÐ¾Ð¸Ð¼Ð¾ÑģÑĤÑĮ": 3122,
      "ĠÑģÐ¾ÑģÑĤÐ¾Ñı": 3123,
      "ĠÐ²Ð¾Ð·Ð²ÑĢÐ°ÑīÐµÐ½Ð¸Ðµ": 3124,
      "ÐµÐºÑĥÐ»Ñı": 3125,
      "ĠÑģÐ¼Ð¾Ð³Ð»Ð¸": 3126,
      "ĠÐ²ÐµÑĢÑħ": 3127,
      "Ð¾Ð²Ð¾ÑĢ": 3128,
      "ĠÐ´Ð¾Ð±": 3129,
      "ĠÐ¿Ð¾ÑģÑĤ": 3130,
      "Ð½Ð¸Ð¸": 3131,
      "ĠÐ´Ð¾Ð»Ð»Ð°ÑĢÐ°": 3132,
      "Ġ66": 3133,
      "76": 3134,
      "ĠÐ¿ÑĢÐ¾ÐµÐºÑĤ": 3135,
      "ĠÐĺÐ½Ð´Ð¸ÐºÐ°ÑĤÐ¾ÑĢ": 3136,
      "ĠÐ½ÐµÐ¼Ð½Ð¾Ð³Ð¾": 3137,
      "Ð¾Ð²ÑĭÐ¼": 3138,
      "Ð½Ð¸ÑĨÐ¸": 3139,
      "ĠÐ¿ÑĢÐµÐ¶": 3140,
      "ĠÑģÐ¾ÑħÑĢÐ°Ð½ÑıÐµÑĤÑģÑı": 3141,
      "ĠÐ¼Ð°ÐºÑģÐ¸Ð¼Ð°Ð»ÑĮÐ½Ð°Ñı": 3142,
      "ĠÐ½Ð°ÑĩÐ°Ð»Ð¾": 3143,
      "ÑĢÐµÐ·Ð¸Ð´ÐµÐ½ÑĤ": 3144,
      "Ð»Ð¸Ñĩ": 3145,
      "ĠÑģÐºÐ¾ÑĢ": 3146,
      "ÐµÑĪÐµ": 3147,
      "ĠÑģÐ½Ð¾Ð²Ð°": 3148,
      "Ð¾Ð½Ð°Ð»ÑĮ": 3149,
      "ĠÐ¾ÐºÑĤÑıÐ±ÑĢÐµ": 3150,
      "ĠÐ¿ÑĢÐ¾ÑģÐ°Ð´ÐºÐ¸": 3151,
      "ĠÐ¾Ð¶Ð¸Ð´Ð°ÐµÐ¼": 3152,
      "ÑĪÑĮ": 3153,
      "Ġ70": 3154,
      "ĠÐºÐ°Ð¿Ð¸ÑĤÐ°Ð»Ð¸": 3155,
      "ÑĭÐ¼Ð¸": 3156,
      "Ð¿Ð¾": 3157,
      "ĠÐ²Ð¾Ð»Ð½Ñĭ": 3158,
      "ĠÐ²ÐµÑĢÐ½ÑĥÑĤÑĮÑģÑı": 3159,
      "ÑĢÐ°ÑģÑĤ": 3160,
      "Ð»ÑĮÑģÐºÐ¸Ð¹": 3161,
      "Ġ48": 3162,
      "ĠÐ·Ð°ÐºÑĢÐµÐ¿Ð¸ÑĤÑĮÑģÑı": 3163,
      "ĠÐ²Ð½ÑĥÑĤÑĢÐ¸": 3164,
      "ĠÐ¿ÑĢÐ¸Ð²Ð»ÐµÐºÐ°ÑĤÐµÐ»ÑĮ": 3165,
      "ĠÐŀÐ¤ÐĹ": 3166,
      "ĠÐ²ÑĭÐ¿ÑĥÑģÐº": 3167,
      "ĠÐ¾Ð±ÑģÑĥÐ¶": 3168,
      "Ġ58": 3169,
      "ÑİÑīÐ¸Ðµ": 3170,
      "ĠÐ·Ð°ÑıÐ²": 3171,
      "ĠÐŁÑĢÐ¾Ð¼": 3172,
      "ĠÐ±Ð»Ð°Ð³Ð¾Ð¿ÑĢÐ¸ÑıÑĤ": 3173,
      "Ð°Ð½Ð¸Ñİ": 3174,
      "ĠÐ²Ð¾Ð·Ð¾Ð±Ð½Ð¾Ð²": 3175,
      "ÐŃÐļ": 3176,
      "Ð½Ð¸ÑĤÐ°": 3177,
      "ĠÑģÐ¿ÐµÐºÑĥÐ»Ñı": 3178,
      "ĠÐ½Ð¾Ð²Ð¾Ð³Ð¾": 3179,
      "ĠÐ½Ð°ÑģÑĤÑĢÐ¾": 3180,
      "ĠÐ¢Ð°ÐºÐ¶Ðµ": 3181,
      "ĠÑĦÐ¾Ð½ÐĲ": 3182,
      "ĠÑģÐ»ÐµÐ´ÑĥÑİÑīÐ¸": 3183,
      "ĠÑĤÐ¾Ñĩ": 3184,
      "ĠÑĦÐ¾Ð½ÐĲÐ·Ð¸Ð°ÑĤÑģÐºÐ¸Ðµ": 3185,
      "ĠÐ·Ð°ÑĤ": 3186,
      "Ð°Ð»ÑĮÐ½ÑĭÑħ": 3187,
      "ĠÐ´ÐµÑĪÐµÐ²Ðµ": 3188,
      "ĠÐ´ÐµÑĢÐ¶": 3189,
      "ĠÐ¿Ð¾ÐºÑĥÐ¿Ð°ÑĤÐµÐ»Ð¸": 3190,
      "ĠÐŁÐ¾ÐºÑĥÐ¿": 3191,
      "Ð»ÑİÑĩÐ°": 3192,
      "Ð¿Ð¾Ð»Ð½ÐµÐ½Ñĭ": 3193,
      "ĠÐļÐ¾Ð½": 3194,
      "ĠÑģÐ²Ð¾Ð¸": 3195,
      "ĠL": 3196,
      "ĠÐĴÑĭÑģÐ¾Ðº": 3197,
      "ĠÑĤÐµÑģÑĤÐ¸": 3198,
      "ĠÑĢÐµÑĪ": 3199,
      "ĠÐ´Ð¸ÑģÑĤÐ°Ð½ÑĨÐ¸Ð¸": 3200,
      "ĠÐ´Ð¾ÑĢÐ¾Ð¶Ð°ÐµÑĤ": 3201,
      "ĠÑģÐ²ÐµÑĢÑħ": 3202,
      "Ð´Ð°Ð²": 3203,
      "ĠÑģÑĤÐ°Ð»": 3204,
      "MI": 3205,
      "ĠÐ·Ð¾Ð½Ð°": 3206,
      "ĠÐ´Ð¾ÑģÑĤÐ°ÑĤ": 3207,
      "ĠÐ±Ð°Ð½": 3208,
      "ĠÐ¿ÑĢÐ¸Ð½Ñı": 3209,
      "ĠÑģÐ¾ÐºÑĢÐ°ÑĤÐ¸": 3210,
      "Ġ49": 3211,
      "ĠÐ½Ð°Ð±Ð»ÑİÐ´Ð°ÐµÑĤÑģÑı": 3212,
      "ĠÐ¡ÐµÐ²ÐµÑĢÑģÑĤÐ°Ð»ÑĮ": 3213,
      "ĠÑģÐ¼ÐµÑĪÐ°Ð½Ð½ÑĭÐ¹": 3214,
      "ĠÐ¾Ð±Ñĭ": 3215,
      "Ð¸ÑĤÐµÐ»ÐµÐ¹": 3216,
      "ĠÐŃÐºÑģÐ¿": 3217,
      "ĠÐ¿ÑĢÐ¸Ð¾ÑģÑĤÐ°": 3218,
      "ĠÐ°ÐºÑĤÐ¸Ð²Ñĭ": 3219,
      "ÑģÐ¸Ð»Ð¸": 3220,
      "ĠÐ¸Ð¿Ð¾ÑĤÐµÐº": 3221,
      "ÐĺÐ½Ð²ÐµÑģÑĤÐ¸": 3222,
      "Ð·Ð½Ð°Ñĩ": 3223,
      "Ð¡Ðļ": 3224,
      "ĠÐºÐ¾Ð³Ð´Ð°": 3225,
      "ĠÐ·Ð°ÑĢÐ°Ð±Ð¾ÑĤ": 3226,
      "32": 3227,
      "ÑĢÐ¾Ð¼Ðµ": 3228,
      "ĠÑĪÐ°Ð½ÑģÑĭ": 3229,
      "ĠÐ½Ð¾Ð²Ð¾Ð¹": 3230,
      "ĠÐ¾Ð±Ð½Ð¾Ð²Ð¸Ð»Ð¸": 3231,
      "ĠÐ¾ÑĤÐ½Ð¾ÑģÐ¸ÑĤÐµÐ»ÑĮÐ½Ð¾": 3232,
      "ĠÐ¿Ð»Ð°Ð½": 3233,
      "ĠÐ²ÐµÑĩÐµÑĢ": 3234,
      "ĠÐ±Ð¾ÐºÐ¾Ð²Ð¸ÐºÐµ": 3235,
      "ĠÐµÐ²ÑĢÐ¾": 3236,
      "ĠÑģÐ¾Ð·Ð´": 3237,
      "ĠÐ¸Ð½Ð¸ÑĨÐ¸": 3238,
      "ĠÐ¿Ð¾Ð´ÐµÑĪÐµ": 3239,
      "ĠÐĵÐľÐļ": 3240,
      "ĠÑĦÑĥÐ½Ð´Ð°Ð¼ÐµÐ½ÑĤÐ°Ð»ÑĮ": 3241,
      "Ð²ÐµÑĢÐ´Ð¸": 3242,
      "ĠÐ£Ðº": 3243,
      "ĠII": 3244,
      "ĠÐ½Ð¾Ð²Ð¾ÑģÑĤÐµÐ¹": 3245,
      "Ð¸ÑģÐ¾Ðº": 3246,
      "ĠÑģÐµÑĢÐ²Ð¸": 3247,
      "ĠÑĢÐµÐ°Ð»Ð¸Ð·Ð¾Ð²": 3248,
      "ĠÐ½Ð°Ñģ": 3249,
      "ĠÐ¼ÑģÐº": 3250,
      "ĠÑģÑĢÐµÐ´Ð½ÐµÑģÑĢÐ¾ÑĩÐ½ÑĭÐ¹": 3251,
      "Ð³ÐµÑĤÐ¸": 3252,
      "ĠÑģÐ¿ÑĢÐ°": 3253,
      "ĠÐŁÑĢÐ¾Ð³Ð½Ð¾Ð·": 3254,
      "ĠÐ°ÐºÑĨÐ¸ÑıÐ¼Ð¸": 3255,
      "ĠÐłÐ°Ð·": 3256,
      "ÑħÐ°": 3257,
      "ĠÐĴÐĴ": 3258,
      "Ð±Ð¾Ð»ÑĮ": 3259,
      "ĠÐ·Ð´ÐµÑģÑĮ": 3260,
      "ĠÐŀÐ¶Ð¸": 3261,
      "ĠÐ²ÑĭÑĢÑĥÑĩÐºÐ°": 3262,
      "ĠÑģÐ¾Ð¾Ð±ÑīÐ¸": 3263,
      "ĠÐ¾Ð¿ÑĥÐ±Ð»Ð¸ÐºÐ¾Ð²Ð°Ð»Ð°": 3264,
      "Ð±Ð°ÑĢ": 3265,
      "ĠÐ´Ð¾ÑĢÐ¾Ð³Ð°": 3266,
      "ĠÐļÑĢÐ¸": 3267,
      "ĠÐ±Ð¸ÑĢÐ¶Ð°": 3268,
      "ĠÑģÑĤÑĢÑĥÐºÑĤÑĥÑĢÑĭ": 3269,
      "ĠÐ¿ÑĢÐ¾ÑĤÐ¾ÑĢÐ³": 3270,
      "ĠÐ½Ð°ÑĩÐ°ÑĤÑĮ": 3271,
      "ĠÐ¿ÑĢÐ¾ÑĪÐ»Ð¾Ð³Ð¾": 3272,
      "Ð°Ð»ÑĮÐ½ÑĭÐµ": 3273,
      "ĠÐ´Ð°Ð²Ð»ÐµÐ½Ð¸Ðµ": 3274,
      "Ġ54": 3275,
      "ĠÑĥÐ¿ÑĢÐ°": 3276,
      "ĠÐ¡Ð±ÐµÑĢ": 3277,
      "Ð½Ð¸Ð¶": 3278,
      "Ð±Ð¾ÑĢ": 3279,
      "ĠÑĦÐ¸Ð½Ð°Ð½ÑģÐ¾Ð²ÑĭÑħ": 3280,
      "ÑĩÐ¸Ð»": 3281,
      "ĠÑĪÐ¸ÑĢÐ¾Ðº": 3282,
      "ĠÑįÐºÑģÐ¿ÐµÑĢ": 3283,
      "ĠÐľÐ°Ð³Ð½Ð¸ÑĤÐ°": 3284,
      "Ð¾Ð²Ð¾Ð»ÑĮ": 3285,
      "ĠÑĥÐºÐ°Ð·ÑĭÐ²Ð°ÑİÑĤ": 3286,
      "ĠÐĴÐĴÐŁ": 3287,
      "ĠÑĥÐºÑĢÐµÐ¿Ð»": 3288,
      "77": 3289,
      "Ġ59": 3290,
      "ĠÑĤÐµÑħÐ½Ð¸ÑĩÐµÑģÐºÐ°Ñı": 3291,
      "ĠÐ½Ð°ÑĪÐµÐ¹": 3292,
      "Ð¸Ð½Ð°ÑĢÐ°": 3293,
      "ĠÐ¡Ð°Ð¼Ð¾Ð»ÐµÑĤ": 3294,
      "ĠÐŃÑĤ": 3295,
      "Ð¸Ð½Ñĭ": 3296,
      "ĠÐ¿Ð¾Ð²ÑĭÑĪÐµÐ½Ð¸Ñı": 3297,
      "ĠÐ¼Ð°ÐºÑģÐ¸Ð¼ÑĥÐ¼Ñĭ": 3298,
      "Ð°Ð½Ñĭ": 3299,
      "ĠÐ·ÐµÐ»ÐµÐ½": 3300,
      "Ð°Ð½Ð½ÑĭÑħ": 3301,
      "ĠÐ¾Ð±Ð»Ð¸Ð³Ð°ÑĨÐ¸Ð¸": 3302,
      "ĠÐŁÐµÑĢ": 3303,
      "ĠÑģÑĤÑĢÐ¾": 3304,
      "ÐµÑĢÐ¸Ð¾Ð´": 3305,
      "Ð¾ÑĨÐµÐ½": 3306,
      "ĠÐ¸Ð³": 3307,
      "ĠÐ½ÐµÑģÐ¼Ð¾ÑĤÑĢÑı": 3308,
      "ĠÐºÐ²": 3309,
      "ĠÑĩÐ¸ÑģÑĤÐ¾Ð¹": 3310,
      "ĠÐ½Ð¸ÐºÐµÐ»ÑĮ": 3311,
      "ĠÐ¿Ð¾Ð´Ð´ÐµÑĢÐ¶Ð¸": 3312,
      "ÑĢÐ°Ð²Ð¸ÑĤÐµÐ»ÑĮÑģÑĤÐ²Ð¾": 3313,
      "Ð½Ð°ÑĢÐ¾Ð´": 3314,
      "ĠÐ¯Ð½Ð´ÐµÐºÑģÐ°": 3315,
      "ĠÐµÐ´Ð¸Ð½Ð¾Ð¹": 3316,
      "ce": 3317,
      "ĠÐ¿Ð¾Ð»ÑĥÑĩÐ¸ÑĤÑĮ": 3318,
      "ĠÐ¿Ð¾Ð·Ð²Ð¾Ð»ÑıÐµÑĤ": 3319,
      "ĠÐ¡Ð¸Ð½Ð°ÑĢÐ°": 3320,
      "Ġ46": 3321,
      "ĠÐ²Ð¾Ð»Ð°ÑĤÐ¸Ð»ÑĮ": 3322,
      "ĠÐºÐ¾Ð¼Ð¿": 3323,
      "ĠÐ³Ð¾ÑĤÐ¾Ð²": 3324,
      "Ð¸Ð³": 3325,
      "Ð°Ð¶Ð¸": 3326,
      "ĠÐºÑĢÑĥ": 3327,
      "ĠÐĺÐ½Ð²Ðµ": 3328,
      "ĠÑĢÐ¾Ð·": 3329,
      "Ð°Ð»ÐµÐ½": 3330,
      "ĠÐ¢ÐµÐ¼": 3331,
      "ĠÐľÐ¸Ð½Ð¸Ð¼ÑĥÐ¼": 3332,
      "ĠÐ½ÐµÐº": 3333,
      "ĠÑĢÐ°ÑģÐº": 3334,
      "ĠÐºÐ°Ð¶": 3335,
      "Ġ@": 3336,
      "ÑģÐµÑĩ": 3337,
      "Ġ64": 3338,
      ");": 3339,
      "ĠÐ¾Ð±ÐµÑģÐ¿": 3340,
      "ĠÑģÐ²ÑıÐ·": 3341,
      "ĠÐ¸ÑİÐ½Ðµ": 3342,
      "ad": 3343,
      "ÐĿÐ°": 3344,
      "ĠÑģÑĤÐ°Ð²Ð¾Ðº": 3345,
      "ĠÑĥÑģÐºÐ¾ÑĢÐ¸": 3346,
      "ĠÐŁÐ¾Ð·": 3347,
      "ĠÐłÐ¾ÑģÑģÐ¸Ð¹ÑģÐºÐ¸Ðµ": 3348,
      "Ð°ÐµÑĤÑģÑı": 3349,
      "ÑĪÐ¸Ð½": 3350,
      "Ġ80": 3351,
      "ĠÑĤÐµÑħÐ½Ð¸ÑĩÐµÑģÐºÐ¾Ð¹": 3352,
      "ĠÐĲÐºÑĨÐ¸Ð¾Ð½": 3353,
      "ĠÑĢÑĥÐ±ÐµÐ¶": 3354,
      "Ġ68": 3355,
      "ĠÑģÐ¿ÑĢÐ¾ÑģÐ°": 3356,
      "ĠÑģÐ¾Ð¿ÑĢÐ¾ÑĤÐ¸Ð²Ð»ÐµÐ½Ð¸Ðµ": 3357,
      "ĠÑĦÐ°ÐºÑĤÐ¾ÑĢÑĭ": 3358,
      "Ġ43": 3359,
      "ĠÐ´ÑĢÐ°Ð¹Ð²ÐµÑĢÐ¾Ð²": 3360,
      "ĠJ": 3361,
      "ĠÐ½Ð°Ð¹Ð´": 3362,
      "ÑģÑĤÐµ": 3363,
      "ĠÐ¼ÐµÑģÑıÑĨÐ°": 3364,
      "Ð¿ÐµÑĢÐ¸Ð¾Ð´": 3365,
      "ÑħÐ¾Ð´Ð°": 3366,
      "Ð¸Ð½Ð°Ð»ÑĮ": 3367,
      "ĠÑĢÐµÐ°Ð»Ð¸Ð·": 3368,
      "ĠÐĶÐ¸Ð²Ð¸Ð´ÐµÐ½Ð´": 3369,
      "ÑĢÐ°Ð±": 3370,
      "Ð¿ÑĢÐ¸Ð¼ÐµÑĢ": 3371,
      "ĠÑĥÑĢÐ¾Ð²Ð½ÑıÐ¼": 3372,
      "ĠÐ¿Ð¾ÑįÑĤÐ¾Ð¼Ñĥ": 3373,
      "ĠÑģÐ½Ð¸Ð·Ð¸Ð»Ð°ÑģÑĮ": 3374,
      "ÑİÑīÐµÐ³Ð¾": 3375,
      "ĠÐ¾ÑĢÐ¸ÐµÐ½ÑĤÐ¸ÑĢÑĭ": 3376,
      "ĠÐ´Ð»Ð¸Ð½Ð½ÑĭÑħ": 3377,
      "ĠÐ¿ÑĢÐ¸Ð±Ð°Ð²Ð¸Ð²ÑĪÐµÐ³Ð¾": 3378,
      "ĠÐ¿Ð¾Ð»ÑĮÐ·Ñĥ": 3379,
      "ĠÑģÑĥÐ´": 3380,
      "ÑģÑĤÐ²ÐµÐ½Ð½ÑĭÑħ": 3381,
      "ĠÑĢÐµÐ°Ð»Ð¸Ð·Ð°ÑĨÐ¸Ð¸": 3382,
      "ĠÐ·Ð°Ð¼ÐµÑĤ": 3383,
      "ÑĢÐ¾Ð²Ð°Ð»Ð¸": 3384,
      "ĠÐ¿Ð¾ÑĪÐ»Ð¸": 3385,
      "ĠÐ²ÐºÐ»ÑİÑĩ": 3386,
      "ĠÐ²Ð¾ÑģÑģÑĤÐ°Ð½Ð¾Ð²Ð»ÐµÐ½Ð¸Ðµ": 3387,
      "ĠÐ²ÑĭÐ¿Ð»Ð°": 3388,
      "ĠÐ»Ð¸ÑĪÑĮ": 3389,
      "Ð°ÑĢÑı": 3390,
      "ÑĥÐ³": 3391,
      "ÐµÐ½ÑĤÐ°": 3392,
      "ĠÐ¼Ð°ÑĢÑĤÐµ": 3393,
      "ĠÑĢÐ¾ÑģÑģÐ¸Ð¹ÑģÐºÐ¸Ðµ": 3394,
      "ĠÐºÐ°Ð½Ð°Ð»": 3395,
      "ĠÐ¿Ð¾ÑģÐ»ÐµÐ´Ð½Ð¸Ð¹": 3396,
      "ÐŀÐĴÐĲÐ¢": 3397,
      "ĠÑĢÐ°ÑģÑĤÐ¸": 3398,
      "ÑģÑĤÑĢÑĥÐºÑĤÑĥ": 3399,
      "ĠÐ¿ÑĢÐµÐ·Ð¸Ð´ÐµÐ½ÑĤ": 3400,
      "ĠÑģÐ¿ÑĢÐ°Ð²ÐµÐ´Ð»Ð¸": 3401,
      "ÐŀÐĴÐĲÐ¢ÐŃÐļ": 3402,
      "ÐµÐ½Ð½ÑĭÐ¼": 3403,
      "ĠÐ´ÐµÑĪÐµÐ²ÐµÐµÑĤ": 3404,
      "ĠÐ¿ÑĢÐ¾Ð´Ð¾Ð»Ð¶Ð¸ÑĤÑĮ": 3405,
      "Ð¾Ð¿ÑĢÐ¾Ð²": 3406,
      "ĠÑĢÑĭÐ½ÐºÐ°Ñħ": 3407,
      "Ð¶Ð½ÐµÐ¼Ñĥ": 3408,
      "ĠÐ±Ð»Ð¸Ð·": 3409,
      "ĠÐºÐ°ÑĢÑĤÐ¸Ð½Ñĥ": 3410,
      "ĠÐ£ÐºÑĢÐ°": 3411,
      "ĠÐ°ÐºÑĨÐ¸Ð¾Ð½ÐµÑĢÐ°": 3412,
      "ĠÐºÑĢÐ°Ñģ": 3413,
      "ĠÐĲÐ·Ð¸Ð¸": 3414,
      "ĠÐŀÑĤÐº": 3415,
      "ĠÐ³Ð¾Ð²Ð¾ÑĢÐ¸ÑĤÑĮ": 3416,
      "ĠÑģÑĤÐ°ÑĢÑĤ": 3417,
      "ĠÑĤÐµÐºÑĥÑīÐµÐ¹": 3418,
      "ĠÐ¿Ð¾Ð·Ð¸ÑĤÐ¸Ð²Ð½ÑĭÐ¼": 3419,
      "ĠÑĢÐ¾ÑģÑģÐ¸Ð¹ÑģÐºÐ¸Ð¹": 3420,
      "ĠÐ²Ð¾ÑģÑħÐ¾Ð´ÑıÑīÐ¸Ð¹": 3421,
      "ĠÐ¡Ð»ÐµÐ´": 3422,
      "ĠÑĩÐ°ÑģÑĤÐ¸": 3423,
      "ĠÑģÐµÐºÑĤÐ¾ÑĢÐ°": 3424,
      "ĠÐ¾ÑĤÐ½Ð¾ÑĪÐµÐ½Ð¸Ð¸": 3425,
      "ĠÐ°ÐºÑĤÑĥÐ°Ð»ÐµÐ½": 3426,
      "Ð¿ÑĢÐµÐ¶Ð½ÐµÐ¼Ñĥ": 3427,
      "ÑĢÐµÐ½Ð´": 3428,
      "ÐµÐºÐ¾Ð¼": 3429,
      "ĠÐ¸Ð½Ð²ÐµÑģÑĤÐ¾ÑĢÐ°Ð¼": 3430,
      "ĠÐ¦ÐµÐ»ÑĮ": 3431,
      "ĠÑįÐ»ÐµÐºÑĤÑĢÐ¾": 3432,
      "Ð³Ð¾Ð´Ð°ÑĢÑı": 3433,
      "36": 3434,
      "ĠÐĿÐ¾ÑĢÐ¸": 3435,
      "ĠÐ¸Ð½Ð´Ð¸ÐºÐ°ÑĤ": 3436,
      "ĠÑģÐµÐ±": 3437,
      "ĠÐĽÐ£ÐļÐŀÐĻÐĽÐ°": 3438,
      "ĠÐ¿Ð¾Ð»Ð¾Ð²Ð¸Ð½Ðµ": 3439,
      "ĠÐ¿Ð¾ÑıÐ²Ð¸": 3440,
      "ĠÑħÐ¾Ð´": 3441,
      "ĠÐ½ÐµÐ±Ð¾Ð»ÑĮ": 3442,
      "ĠÐ¾ÑĤÐºÐ°Ð·": 3443,
      "Ð¾ÑĤÐ¾ÑĢ": 3444,
      "ĠÐ¾Ð±Ð½Ð¾Ð²Ð»": 3445,
      "Ð½ÑıÑĤ": 3446,
      "ÑĨÐ¸Ð»": 3447,
      "ĠÐ¿ÑĢÐ¾Ð´Ð¾Ð»Ð¶ÐµÐ½Ð¸Ðµ": 3448,
      "ĠÐ¿Ð¾Ð´Ð½Ð¸Ð¼Ð°": 3449,
      "ĠÐ³ÑĢÐ°Ð½Ð¸ÑĨÑĭ": 3450,
      "Ð´Ð¸Ð½Ð³": 3451,
      "Ð·Ð°ÑĨÐ¸Ñı": 3452,
      "ĠÐ»Ñİ": 3453,
      "ÑģÑĤÐ²ÑĥÐµÑĤ": 3454,
      "ĠÐ¼Ð¸ÑĢÐ¾Ð²ÑĭÑħ": 3455,
      "ÑģÑĤÐ°Ð²": 3456,
      "Ġ44": 3457,
      "ĠÑģÐ¼Ð¾ÑĤÑĢÐ¸Ð¼": 3458,
      "ĠÐ³Ð»ÑĥÐ±": 3459,
      "ĠÐ³ÑĢÑĥÐ¿": 3460,
      "ĠÐ±ÑĥÐ¼Ð°Ð³Ñĥ": 3461,
      "ĠÐľÐ°ÐºÑģÐ¸": 3462,
      "ĠÑĤÐ°ÐºÐ¸": 3463,
      "ĠÐ¾ÑĤÑĩÐ¸ÑĤ": 3464,
      "ĠÑģÐ¿ÑĥÑģÐº": 3465,
      "ĠÐ²Ð½Ð¸Ð¼Ð°Ð½Ð¸Ðµ": 3466,
      "ĠÐĵÑĢÑĥÐ¿": 3467,
      "ĠÐ¡Ð±ÐµÑĢÐ°": 3468,
      "RUB": 3469,
      "ĠÑįÐ¼Ð¸ÑĤ": 3470,
      "Ð¸ÐºÐµ": 3471,
      "ĠÑĤÐ¾Ð²Ð°": 3472,
      "ÐµÐ¶Ð°": 3473,
      "ĠÐ¿Ð¾Ð·Ð²Ð¾Ð»Ð¸ÑĤ": 3474,
      "ÐºÐ²": 3475,
      "ÑĦÐ°Ðº": 3476,
      "ĠÐ¿ÑĢÐµÐ´Ð¿ÑĢÐ¸": 3477,
      "ĠÑģÐ¾ÑģÑĤÐ°Ð²Ð¸ÑĤ": 3478,
      "Ð½Ð¸Ñĩ": 3479,
      "ĠÐ¡Ð¾Ð²ÐµÑĤ": 3480,
      "ĠÐ¿ÑĢÐµÐ´Ð¿Ð¾Ð»Ð¾Ð¶": 3481,
      "ĠÐ½Ð°Ð¼": 3482,
      "ĠÐĴÐ»Ð°": 3483,
      "ĠÐ¿Ð¾ÑĤÐµÑĢÑıÐ»Ð°": 3484,
      "tic": 3485,
      "ĠÑĥÑħÑĥÐ´ÑĪ": 3486,
      "RE": 3487,
      "Ð´ÐµÐ»ÑĮ": 3488,
      "ĠÐ»Ð¸Ðº": 3489,
      "ĠÐļÑĢÐ¾Ð¼Ðµ": 3490,
      "ĠÐ½Ð°ÑĩÐ°Ð»Ð¸": 3491,
      "ĠÐ·ÐµÐ»ÐµÐ½Ð¾Ð¹": 3492,
      "ĠÐ¿ÑĢÐ¾Ð¸Ð·Ð¾": 3493,
      "ĠÐĴÐ¾Ð·Ð¼Ð¾Ð¶": 3494,
      "ĠÐĲÐºÑĨÐ¸Ð¾Ð½ÐµÑĢÑĭ": 3495,
      "ĠÐĿÐ¾ÑĢÐ¸Ð»ÑĮÑģÐºÐ¸Ð¹": 3496,
      "DV": 3497,
      "ÐĺÐĻ": 3498,
      "ĠÐ¿ÐµÑĢÑģÐ¿ÐµÐºÑĤÐ¸Ð²Ð°": 3499,
      "ĠÐ´Ð°Ð»ÑĮÑĪÐµ": 3500,
      "ĠÐ³ÐµÐ¾Ð¿Ð¾Ð»Ð¸ÑĤÐ¸ÑĩÐµÑģÐºÐ¾Ð¹": 3501,
      "ĠÐłÑĥÐ±": 3502,
      "Ġ47": 3503,
      "ĠÑĢÐ°Ð·Ð²Ð¸": 3504,
      "ĠÐ¿ÑĢÐ¸Ð¾Ð±ÑĢÐµ": 3505,
      "33": 3506,
      "Ð½Ð¾ÑĨÐµÐ½": 3507,
      "ÑĥÑĤÐ¾Ñĩ": 3508,
      "ĠÐ²Ð°Ð»ÑİÑĤÑĭ": 3509,
      "ĠÐķÐ²ÑĢÐ¾Ð¿Ðµ": 3510,
      "Ð¾Ð¶Ðµ": 3511,
      "ĠÐ¿Ð¾Ð²ÑĭÑĪÐµÐ½Ð¸Ðµ": 3512,
      "ĠÐŁÐ¾Ñĩ": 3513,
      "ÑģÐ»ÐµÐ´": 3514,
      "ĠÐ¿Ð¾Ð´Ð¾ÑĢÐ¾Ð¶Ð°Ð»Ð¸": 3515,
      "ĠÐ¿ÐµÑĢÐ²ÑĭÑħ": 3516,
      "ÐºÑĤÑĭ": 3517,
      "ÑĢÐ¾Ð¿ÐµÐ¹": 3518,
      "ĠÐ¿Ð¾ÐºÑĥÐ¿Ð°ÑĤÑĮ": 3519,
      "ĠÐ¿ÑĢÐµÐ´ÑģÑĤÐ°Ð²": 3520,
      "ĠÑĢÐµÐºÐ¾Ð¼ÐµÐ½Ð´Ð¾Ð²Ð°Ð»": 3521,
      "Ð¾Ð½Ð´": 3522,
      "ĠÐ¿Ð¾Ð»ÑĥÐ³Ð¾Ð´Ð¸Ð¸": 3523,
      "ĠÐ²Ð½ÐµÑĪÐ½ÐµÐ³Ð¾": 3524,
      "ĠRe": 3525,
      "ĠÐ´Ð½ÐµÐ²Ð½Ð¾Ð³Ð¾": 3526,
      "ĠÐ¿ÑĢÐ¾Ð±Ð»ÐµÐ¼": 3527,
      "ĠÐ¿Ð¾Ð´Ð½Ð¸Ð¼": 3528,
      "ĠÐ´Ð¸Ð°Ð¿Ð°Ð·Ð¾Ð½Ðµ": 3529,
      "Ð½Ð¾Ð»Ð¾Ð³Ð¸": 3530,
      "ĠÐ½Ð°Ð¿ÑĢÐ°Ð²Ð»ÐµÐ½Ð½Ð¾ÑģÑĤÑĮ": 3531,
      "ĠÐºÐ¾ÑĢÐ¾ÑĤÐºÐ¾Ð¹": 3532,
      "Ð°Ð³Ð°ÐµÑĤ": 3533,
      "ĠÑĢÑĭÐ½Ð¾Ñĩ": 3534,
      "ĠÐ´Ð¸Ð²ÐµÑĢ": 3535,
      "ĠÐ·Ð½Ð°ÑĩÐ¸ÑĤÐµÐ»ÑĮÐ½Ð¾": 3536,
      "ĠÐ²ÑĩÐµÑĢÐ°ÑĪ": 3537,
      "ĠÐ¿ÑĢÐ¾ÑĤÐ¾ÑĢÐ³Ð¾Ð²": 3538,
      "ÑĮÐ³Ð¾ÑĤ": 3539,
      "ĠÐ¿ÑĢÐ¾Ð¸Ð·Ð²Ð¾Ð´ÑģÑĤÐ²Ð°": 3540,
      "ÑĥÐµÑĤ": 3541,
      "ĠÐ¿ÑĥÐ±Ð»Ð¸ÐºÐ°": 3542,
      "ÑıÐ·ÑĮ": 3543,
      "ÐĲÐ¡": 3544,
      "ĠÑģÐµÐºÑĤÐ¾ÑĢ": 3545,
      "ÑģÑģÐ¸Ñı": 3546,
      "ĠÑĥÑģÑĤÐ¾Ð¹ÑĩÐ¸Ð²": 3547,
      "ĠÐ°Ð²ÑĤÐ¾Ð¼": 3548,
      "ĠÑĢÐ°ÑģÑģÐºÐ°Ð·": 3549,
      "ĠÐ´ÑĢÑĥÐ³Ð¸Ñħ": 3550,
      "Ð¹ÑĤÐµ": 3551,
      "Ġ37": 3552,
      "ĠÐ¿Ð¾Ð»Ð½Ð¾ÑĨÐµÐ½": 3553,
      "ĠÐ½ÑĥÐ¶ÐµÐ½": 3554,
      "ĠÑģÑĤÑĢÐ°ÑĤÐµÐ³Ð¸Ð¸": 3555,
      "ÑĥÑİÑīÐ¸": 3556,
      "ĠÑĢÐ¾ÑģÑĤÐ¾Ð¼": 3557,
      "ĠÐµÐ²ÑĢÐ¾Ð¿ÐµÐ¹": 3558,
      "ĠÐ½Ð¸Ð¶Ð½ÐµÐ¹": 3559,
      "ÑĥÑİÑī": 3560,
      "ÑģÐ²ÑıÐ·ÑĮ": 3561,
      "./": 3562,
      "86": 3563,
      "ĠÐºÐ¾Ð»Ð¸ÑĩÐµ": 3564,
      "82": 3565,
      "ĠÐ´Ð¾ÑģÑĤÐ°ÑĤÐ¾ÑĩÐ½Ð¾": 3566,
      "ÑģÑĤÐµÐ¹": 3567,
      "ÑĩÐµÐ½ÑĮ": 3568,
      "39": 3569,
      "ĠÐ¿ÑĢÐ¾Ð³Ð½Ð¾Ð·Ñĭ": 3570,
      "ĠÐ½Ð°ÑĩÐ¸Ð½Ð°": 3571,
      "ĠÐ°Ð»": 3572,
      "ĠÑĤÐ¾ÑĢÐ³Ð¾Ð²ÑĥÑİ": 3573,
      "ĠÑĢÐ°Ð·Ð²Ð¸ÑĤÐ¸Ñı": 3574,
      "ĠÑģÑĢÐ°Ð²Ð½ÐµÐ½Ð¸Ñİ": 3575,
      "un": 3576,
      "ÑģÐºÐ¾Ð¼Ñĥ": 3577,
      "Ð°Ð½Ñģ": 3578,
      "Ġ90": 3579,
      "ĠÑĨÐ¸ÑĦ": 3580,
      "Ð½Ð°Ð´": 3581,
      "ĠÐĿÑĥÐ¶": 3582,
      "Ġ800": 3583,
      "ĠÐºÐ¾Ð½ÑĨÑĥ": 3584,
      "ĠÐ¦ÐµÐ»Ðµ": 3585,
      "ÑĤÐµÑģÑĤÐ¸": 3586,
      "Ð¸Ð´ÑĢÐ¾": 3587,
      "ĠÑĩÐ¸ÑģÐ»Ðµ": 3588,
      "ĠÐºÐ°Ð¿Ð¸ÑĤÐ°Ð»Ð°": 3589,
      "ĠÐ¸Ð½ÑĤÐµÑĢÐ²Ð°Ð»Ðµ": 3590,
      "ĠÐŁÑĢÐµÐ´": 3591,
      "ÐºÐ¸Ð¹": 3592,
      "ĠÐ¿Ð¾ÑĤÐ¾Ðº": 3593,
      "ĠÐºÑĢÐ°ÑĤÐºÐ¾ÑģÑĢÐ¾ÑĩÐ½Ð¾Ð¹": 3594,
      "ĠÐ²ÑĭÑĢÐ°Ð¶": 3595,
      "ĠÑģÐ¾Ð²ÐµÑĤ": 3596,
      "ĠÐºÑĢÐ°ÑģÐ½Ð¾Ð¹": 3597,
      "ÐµÑĢÐ°Ñħ": 3598,
      "ÑģÐµÑĤÐ¸": 3599,
      "ĠÑģÑĢÐµÐ´Ð¸": 3600,
      "ĠÑĥÑĩÐ°ÑģÑĤÐ¸": 3601,
      "ĠÐ½ÐµÑĦÑĤÐµ": 3602,
      "ĠÐ´Ð¸Ð²Ð¸Ð´ÐµÐ½Ð´Ð°Ð¼Ð¸": 3603,
      "ĠÐ¿ÐµÑĢÑģÐ¿ÐµÐºÑĤÐ¸Ð²Ñĭ": 3604,
      "ĠÐŁÑĢÐ¾Ð¼ÑģÐ²ÑıÐ·ÑĮ": 3605,
      "ĠÐ¿Ð¾Ð´ÑĢÑıÐ´": 3606,
      "Ġ2009": 3607,
      "ĠÐ´Ð¾Ð»Ð»Ð°ÑĢ": 3608,
      "ĠÐ¸Ð´ÐµÐ¸": 3609,
      "ÑģÐ¾": 3610,
      "ĠÐ²ÐµÑģÑĮ": 3611,
      "ĠÑģÐ²ÑıÐ·Ð°": 3612,
      "ĠÐ¦ÐµÐ»ÐµÐ²Ð°Ñı": 3613,
      "Ġ170": 3614,
      "ĠÑĥÑĤÑĢÐµÐ½": 3615,
      "ĠÐ½Ð°Ð¿ÑĢÐ°Ð²Ð»ÐµÐ½Ð¸Ð¸": 3616,
      "ĠÐ¼ÐµÑģÑıÑĩÐ½Ð¾Ð¼": 3617,
      "ĠÑģÐ´ÐµÑĢÐ¶Ð¸": 3618,
      "ĠÐŁÑĢÐ¾Ð¼ÑģÐ²ÑıÐ·ÑĮÐ±Ð°Ð½Ðº": 3619,
      "ĠÑĥÑĢÐ¾Ð²Ð½Ñİ": 3620,
      "ĠÐºÐ²Ð°ÑĢÑĤÐ°Ð»Ð°": 3621,
      "ĠÑıÐ½Ð²Ð°ÑĢÐµ": 3622,
      "ĠÐ¾Ð±ÑıÐ·": 3623,
      "ĠÐ²Ð¾Ð»Ð½Ð°": 3624,
      "ÑĥÑĢÐ³ÑĥÑĤ": 3625,
      "ĠÐŁÑĢÐ¾Ð±": 3626,
      "ĠÐ¾Ð±Ð½Ð¾Ð²Ð»ÐµÐ½Ð¸Ñı": 3627,
      "ĠÐ¿ÑĢÐ¾ÑĤÐµÑģÑĤÐ¸": 3628,
      "ÐĵÐ¸Ð´ÑĢÐ¾": 3629,
      "ĠÐ¼Ð½Ð¾Ð³Ð¾Ð»ÐµÑĤ": 3630,
      "ĠÐŀÐŁ": 3631,
      "ĠÐĺÐ½Ð²ÐµÑģÑĤÐ¸ÑĨÐ¸Ð¸": 3632,
      "ĠÐ¦ÐµÐ½Ñĭ": 3633,
      "ÑĭÐ²": 3634,
      "Ð¾Ð¿ÑĢÐµÐ´ÐµÐ»": 3635,
      "ĠÐ·Ð½Ð°ÑĩÐ¸ÑĤ": 3636,
      "ĠÑģÐ½Ð¸Ð¶ÐµÐ½Ð¸ÐµÐ¼": 3637,
      "ĠÐ´ÑĢÑĥÐ³": 3638,
      "Ð¼ÐµÐ½Ð¸": 3639,
      "ĠÑģÐ¾ÑģÑĤÐ°Ð²Ð¸ÑĤÑĮ": 3640,
      "ÑĥÑīÐ¸Ð¹": 3641,
      "ĠÑģÐ¸Ð³Ð½Ð°Ð»Ð¾Ð²": 3642,
      "ĠÑĥÐ»ÑĥÑĩÑĪ": 3643,
      "ÐµÐºÑĤÐ°": 3644,
      "ĠÐ¾Ð±Ð¾Ð·": 3645,
      "ĠÐµÐ¶": 3646,
      "ĠÑĥÑĢÐ¾Ð²Ð½ÑıÑħ": 3647,
      "ÐºÐ»Ð°": 3648,
      "ÑģÑĤÑĢÐ¾Ð¹": 3649,
      "%),": 3650,
      "Ð°Ð»ÑĮÐ½Ð¾Ð¹": 3651,
      "ĠÐĹÐ°Ðº": 3652,
      "ĠÐ¾Ð¿ÑĤÐ¸Ð¼Ð¸": 3653,
      "ĠÐºÐ¾ÑĤÐ¾ÑĢÑĭÑħ": 3654,
      "ĠÐ¸Ð¼Ð¿Ð¾ÑĢÑĤ": 3655,
      "ÐºÑĥÐ¿": 3656,
      "Ð°ÑĤÐµÐ»Ð¸": 3657,
      "ĠÐ²ÑĭÑģÐ¾ÐºÐ¸Ðµ": 3658,
      "ĠÐ¾ÑĤÐºÑĢÐ¾ÐµÑĤÑģÑı": 3659,
      "ĠÑĢÑĭÐ½ÐºÐ¾Ð¼": 3660,
      "ĠÐľÐ°Ð³Ð½Ð¸ÑĤ": 3661,
      "ĠÐ¾ÑĤÐºÑĢÐ¾ÐµÑĤ": 3662,
      "ĠÐ½Ð°ÑĩÐ°Ð»": 3663,
      "ĠÐłÐµ": 3664,
      "Ġ67": 3665,
      "ĠÐ·Ð°ÐºÑĢÐµÐ¿Ð¸Ð»Ð°ÑģÑĮ": 3666,
      "ĠÐ±Ð¾ÐºÐ¾Ð²Ð¸Ðº": 3667,
      "ĠÑģÑĤÑĢÐ°ÑĤÐµÐ³Ð¸": 3668,
      "ĠÑģÑĢÐµÐ´Ð½Ð¸Ñħ": 3669,
      "ĠÑģÑĢÐµÐ´Ð½ÐµÑģÑĢÐ¾ÑĩÐ½Ð¾Ð¹": 3670,
      "ĠÑģÐ¿ÐµÐºÑĥÐ»ÑıÑĤÐ¸Ð²": 3671,
      "ĠÐ³Ð»ÑĥÐ±Ð¾Ðº": 3672,
      "Ð°Ð½Ð´": 3673,
      "ĠÐ¾ÑĤÐºÑĢÑĭÑĤÐ¸Ðµ": 3674,
      "ĠÐ»ÑĮÐ³Ð¾ÑĤ": 3675,
      "ĠÐºÐ¾Ð¼Ð¼ÐµÐ½ÑĤÐ°ÑĢÐ¸Ð¸": 3676,
      "ÑĩÑĮ": 3677,
      "ĠÐ²Ð¾Ð·Ð»Ðµ": 3678,
      "ĠÐ¾Ð´Ð¾Ð±": 3679,
      "ĠÐ´Ð¾ÑģÑĤÐ¸Ð³Ð½ÑĥÑĤ": 3680,
      "ĠÐºÐ»ÑİÑĩÐµÐ²": 3681,
      "ĠÐ²ÑĭÐºÑĥÐ¿Ð°": 3682,
      "UM": 3683,
      "ĠÐ¿Ð¾Ð´ÐµÑĪÐµÐ²ÐµÐ»Ð¸": 3684,
      "ĠÐ¾ÑĤÑĢÐ°Ð±Ð¾ÑĤ": 3685,
      "il": 3686,
      "ĠÐ½Ð°Ð²ÐµÑĢÑħ": 3687,
      "ĠÑĨÐµÐ»ÐµÐ²": 3688,
      "ÐºÐ°Ñı": 3689,
      "ĠÐłÐ": 3690,
      "ĠÐĺÐĺ": 3691,
      "Ġ150": 3692,
      "ĠÐ¸Ð½Ð´ÐµÐº": 3693,
      "as": 3694,
      "ot": 3695,
      "ĠIn": 3696,
      "MIUM": 3697,
      "REMIUM": 3698,
      "ÑĩÐ°ÐµÑĤ": 3699,
      "ĠÑģÑĩÐ¸ÑĤÐ°ÑİÑĤ": 3700,
      "ĠÐ´Ð¾ÑģÑĤÐ¸Ð¶ÐµÐ½Ð¸Ñı": 3701,
      "ÑĦÐ°": 3702,
      "ĠÐŀÐ±Ð¾ÑĢÐ¾ÑĤ": 3703,
      "ĠÐ¿Ð¾ÑĤÑĢÐµÐ±Ð¸ÑĤÐµÐ»ÑĮ": 3704,
      "ĠÑįÑĤÐ¸Ñħ": 3705,
      "ĠÐ²ÑģÐµÐ¼": 3706,
      "ĠÐ¿ÑĢÐµÐ´Ð¿Ð¾Ð»Ð¾Ð¶Ð¸ÑĤÑĮ": 3707,
      "ĠÐ¼ÐµÑĢÐµ": 3708,
      "ĠÐ¡Ð¾": 3709,
      "ĠÐ¿Ð¾Ð´Ð´ÐµÑĢÐ¶ÐºÐ¾Ð¹": 3710,
      "ĠÑģÐ¾Ð²ÐµÑĤÐ°": 3711,
      "ĠÐ¾Ð±ÑĢÐ°Ð·Ð¾Ð¼": 3712,
      "ĠÐłÑĥÐ±Ð»ÑĮ": 3713,
      "87": 3714,
      "ĠÑģÑĢÐ¾Ðº": 3715,
      "ĠÐºÐ¾Ð½ÑĤÑĢÐ°": 3716,
      "ÑĭÐ²Ð°ÐµÐ¼": 3717,
      "ĠÐ¾ÑĤÑĩÐµÑĤÐ½Ð¾ÑģÑĤÑĮ": 3718,
      "ĠÐ²Ð¿ÐµÑĢÐ²ÑĭÐµ": 3719,
      "ĠÑĢÐ°ÑģÑģÑĩÐ¸ÑĤÑĭÐ²Ð°ÑĤÑĮ": 3720,
      "ĠÐºÐ°Ð¶Ð´": 3721,
      "ĠÑģÑĤÑĢÐµÐ¼": 3722,
      "ĠÑĨÐµÐ½Ñĥ": 3723,
      "ĠÐ¿Ð¾Ð´Ð´ÐµÑĢÐ¶ÐºÐ°": 3724,
      "Ġ180": 3725,
      "ĠÐ»Ð¸ÐºÐ²Ð¸Ð´": 3726,
      "ĠÑįÐºÑģÐ¿Ð¾ÑĢÑĤÐ°": 3727,
      "ĠÐ´ÑĢÐ°Ð¹Ð²ÐµÑĢÐ¾Ð¼": 3728,
      "ĠÐ²ÐµÑĢÐ½ÑĥÐ»Ð¸ÑģÑĮ": 3729,
      "ÑĩÑĥ": 3730,
      "ĠÑĢÐµÑĪÐµÐ½Ð¸Ñı": 3731,
      "ĠÑĢÐµÐ¹ÑĤÐ¸": 3732,
      "ĠÐļÐ¾Ð¼": 3733,
      "ĠÐºÐ¾ÑĢÐ¸Ð´": 3734,
      "ÐķÐļ": 3735,
      "ĠÐĿÐŀÐĴÐĲÐ¢ÐŃÐļ": 3736,
      "Ð²Ð¸Ð¶Ð¸Ð¼": 3737,
      "ĠÐ½ÐµÑĦÑĤÑıÐ½Ð°Ñı": 3738,
      "Ð½ÑĮ": 3739,
      "ÑģÐºÐ¾": 3740,
      "ĠÐļÐ°ÐºÐ¸Ðµ": 3741,
      "ĠÐ½Ð°Ð±Ð»ÑİÐ´": 3742,
      "ĠÐ¸ÑģÐºÐ»ÑİÑĩÐ°": 3743,
      "Ð¾Ð²Ð°Ð½Ð¸Ðµ": 3744,
      "ĠÐ¦ÐµÐ»Ð¸": 3745,
      "ÑĢÐ°Ð·Ñĥ": 3746,
      "ĠÑģÑĤÐ°Ð²ÐºÐ°": 3747,
      "ĠÐ¾ÑĤÑĭÐ³": 3748,
      "ĠÐ¼Ð°Ñģ": 3749,
      "Ġ110": 3750,
      "Ġ700": 3751,
      "ĠÐ²ÑĭÐ¿Ð»Ð°ÑĤÐ¸ÑĤÑĮ": 3752,
      "ĠÑĢÐµÐ´": 3753,
      "ĠÐ¸Ð¼Ð¿ÑĥÐ»ÑĮÑģÐ°": 3754,
      "ĠÐ¼ÐµÐ½ÐµÐ´Ð¶": 3755,
      "ĠÑģÐ²ÐµÑĢÑħÑĥ": 3756,
      "Ð¸Ð±Ð¾Ð»ÐµÐµ": 3757,
      "ĠÑģÐ»ÐµÐ´ÑĥÑİÑīÐµÐ¹": 3758,
      "ĠÑĤÐ°ÐºÐ¾Ð³Ð¾": 3759,
      "ĠÑģÑĦÐ¾ÑĢÐ¼Ð¸ÑĢÐ¾Ð²Ð°Ð½": 3760,
      "ĠÐ¿ÐµÑĢÐµÐ³ÑĢÐµ": 3761,
      "Ġup": 3762,
      "ÑĪÐµÐ¼": 3763,
      "ĠÑĩÐ¸ÑģÑĤ": 3764,
      "ĠÐ¿Ð¾Ð´Ð¿Ð¸Ñģ": 3765,
      "ĠÐ¿Ð¾Ð²Ð¾Ð´": 3766,
      "ĠÐ·Ð°Ð²ÐµÑĢÑĪÐ¸": 3767,
      "ĠÑģÑĤÑĢÐ¾Ð¸ÑĤÐµÐ»ÑĮ": 3768,
      "Ð½Ð°Ð²": 3769,
      "ĠÐ´Ð¸ÑģÐº": 3770,
      "ĠÐĲÐ»ÐµÐºÑģ": 3771,
      "ĠÐ£ÑĩÐ¸ÑĤÑĭÐ²Ð°Ñı": 3772,
      "ĠÐ¿Ð°Ðº": 3773,
      "ÐµÑĢÐ¾ÑıÑĤ": 3774,
      "ÐºÐ¾Ð²Ð¾Ð´": 3775,
      "ĠÑĢÐµÐ³ÑĥÐ»ÑıÑĤÐ¾ÑĢ": 3776,
      "ÑĢÐ¾Ð²Ð°Ð½Ð¸Ðµ": 3777,
      "ÐºÑĥÐµÑĤ": 3778,
      "ĠÐ¸Ñģ": 3779,
      "ĠÐ´Ð¸Ð½Ð°Ð¼Ð¸ÐºÐ°": 3780,
      "ĠÐ¿ÑĢÑıÐ¼": 3781,
      "83": 3782,
      "ĠÑģÐµÐ½ÑĤÑıÐ±ÑĢÐµ": 3783,
      "Ð³ÐµÐ½": 3784,
      "ĠÐ±Ð»Ð¸Ð¶Ð°Ð¹ÑĪÐµÐµ": 3785,
      "ĠÑģÑĩÐ¸ÑĤÐ°ÐµÑĤ": 3786,
      "ĠÐ±ÑİÐ´Ð¶ÐµÑĤ": 3787,
      "ĠÑģÐ´ÐµÑĢÐ¶": 3788,
      "ÑĨÐ¸Ð»Ð»ÑıÑĤÐ¾ÑĢ": 3789,
      "ĠÐŀÐŁÐķÐļ": 3790,
      "ĠÑģÑĭ": 3791,
      "ĠÐ²Ð½Ðµ": 3792,
      "ĠÑĤÑĢÐ°Ð½": 3793,
      "ÑİÑīÐ¸Ð¼": 3794,
      "ĠÑĤÐµÑĢÑıÐµÑĤ": 3795,
      "ÐºÑĥÑĢ": 3796,
      "ĠÑģÐ¼Ð¾Ð³ÑĥÑĤ": 3797,
      "ĠÐ±Ð»Ð°Ð³Ð¾Ð´Ð°ÑĢÑı": 3798,
      "ĠÐĺÐ½ÑĤÐµÑĢÑĦÐ°Ðº": 3799,
      "ĠÐ½Ð°Ðº": 3800,
      "ĠÑĤÐ¾ÑĢÐ³Ð¾Ð²ÐĿÐ°": 3801,
      "ĠÑĤÑĭÑģÑıÑĩ": 3802,
      "300": 3803,
      "Ð¯": 3804,
      "ĠÑģÐ¸ÑģÑĤÐµÐ¼": 3805,
      "ĠÐ¿Ð¾ÑĤÐµÑĢÑıÐ»Ð¸": 3806,
      "ĠÐ¿Ð¾ÑģÑĤÐ°Ð²ÐºÐ¸": 3807,
      "ĠÐ·Ð°Ð²ÐµÑĢÑĪ": 3808,
      "ĠÐĳÐ¾Ð»ÐµÐµ": 3809,
      "ÑħÐ¾Ð´Ð½Ð¾ÑģÑĤÑĮ": 3810,
      "ĠÑģÐ²ÑıÐ·Ð¸": 3811,
      "Ð¾Ð½Ñĩ": 3812,
      "ĠÐ²Ð¾Ð·Ð¼Ð¾Ð¶Ð½Ð¾ÑģÑĤÐ¸": 3813,
      "ĠÐ¿ÑĢÐ¸Ð¾ÑģÑĤÐ°Ð½Ð¾Ð²": 3814,
      "ÑģÐ¸ÑĤ": 3815,
      "ÑĤÑĮÑģÑı": 3816,
      "ĠÑĥÐ¿Ð°Ð»": 3817,
      "ĠÐĿÐ¾ÑĢÐ½Ð¸ÐºÐµÐ»ÑĮ": 3818,
      "ĠÐ²ÐµÑĢÑĪÐ¸Ð½": 3819,
      "ĠÐ¡ÑĥÑĢÐ³ÑĥÑĤ": 3820,
      "ĠÑĨÐµÐ»ÑıÐ¼Ð¸": 3821,
      "ĠÐ´Ð¾ÑģÑĤÐ¸Ð³Ð»Ð¸": 3822,
      "Ð¿ÑĢÐ¾Ð´Ñĥ": 3823,
      "ĠÐ¿Ð¾Ð²ÑĤÐ¾ÑĢ": 3824,
      "ĠÐ¡Ð¾Ð²ÐºÐ¾Ð¼": 3825,
      "ĠÐ¿Ð¾ÑĢÑĤÑĦÐµÐ»ÑĮ": 3826,
      "Ð²Ð¾": 3827,
      "ĠÑĥÑģÑĤÐ°Ð½Ð¾Ð²": 3828,
      "ĠÐºÐ°ÐºÐ¸Ðµ": 3829,
      "ĠÑģÐ¾Ð·Ð´Ð°ÐµÑĤ": 3830,
      "ĠÐ¿ÑĢÐµÐ´ÑĭÐ´ÑĥÑīÐµÐ³Ð¾": 3831,
      "ĠÐľÐµÐ¶": 3832,
      "ÐµÐ¶ÑĥÑĤÐ¾Ñĩ": 3833,
      "ĠÑģÐ²Ð¾Ð¸Ñħ": 3834,
      "ĠÐ·Ð°ÐºÑĢÐµÐ¿Ð»ÐµÐ½Ð¸ÐµÐ¼": 3835,
      "ĠâĤ½/": 3836,
      "ĠÑģÐ¾Ð±ÑĢÐ°Ð½Ð¸": 3837,
      "Ð´ÐµÐ½Ð¸Ñı": 3838,
      "ĠÐ²Ð»Ð°": 3839,
      "ĠÐ¸ÑİÐ»Ðµ": 3840,
      "ĠÐºÐ¾ÑĢÑĢÐµÐºÑĨÐ¸Ð¾Ð½": 3841,
      "ĠÐ½Ð°Ð´ÐµÐ¶": 3842,
      "ĠÐ²ÑĭÑħÐ¾Ð´Ð°": 3843,
      "ĠÐ°ÐºÑĤÐ¸Ð²Ð°": 3844,
      "ĠÐ³ÑįÐ¿": 3845,
      "44": 3846,
      "Ð¸Ð¡": 3847,
      "ÑıÐ¶": 3848,
      "ÐµÐ½Ñģ": 3849,
      "ĠÐ½ÐµÐµ": 3850,
      "ĠÑįÑĤÐ°": 3851,
      "ĠÑģÐ»ÐµÐ´Ð¸ÑĤÑĮ": 3852,
      "ĠÐ·Ð½Ð°ÑĩÐµÐ½Ð¸Ðµ": 3853,
      "ĠÐľÐµÐ¶Ð´Ñĥ": 3854,
      "ĠÐ¼ÐµÑģÑĤ": 3855,
      "ĠÐ¿ÑĢÐ¾Ð´Ð¾Ð»Ð¶Ð¸Ð»Ð¸": 3856,
      "ĠMA": 3857,
      "ĠÐ½ÐµÐ¾Ð¿ÑĢÐµÐ´ÐµÐ»": 3858,
      "ĠÐ³Ð¾Ð´Ð¾Ð²Ð¾Ð¹": 3859,
      "ĠÐ¢ÐµÑħÐ½Ð¸ÑĩÐµÑģÐºÐ¸Ðµ": 3860,
      "ĠÑģÐ¾ÐºÑĢÐ°ÑĤ": 3861,
      "Ð¦Ðĳ": 3862,
      "ÐµÐ²Ð¾Ð¹": 3863,
      "ĠÑģÐ¾ÑĤ": 3864,
      "ĠÐ½ÐµÐ´Ð²Ð¸Ð¶Ð¸Ð¼": 3865,
      "Ð°Ð¿Ð¸ÑĤ": 3866,
      "Ð½Ð°Ð²Ð»Ð¸": 3867,
      "ĠÐ¿ÐµÑĢÐµÑĪÐ»Ð¸": 3868,
      "ÑĢÐ¾Ð·": 3869,
      "ÐµÐ»Ð°": 3870,
      "ĠÐ²Ð¾Ð·Ð¾Ð±Ð½Ð¾Ð²Ð»": 3871,
      "ĠÐŀÑĤÐºÑĢÑĭÑĤÐ¸Ðµ": 3872,
      "Ð°Ð³ÑĢÐ¾": 3873,
      "ĠÐĵÐ¾Ñģ": 3874,
      "ĠÐºÐ°ÑĩÐµÑģÑĤÐ²Ðµ": 3875,
      "ĠÐ½ÐµÐºÐ¾ÑĤÐ¾ÑĢ": 3876,
      "ĠÐ¿Ð»Ð°": 3877,
      "ÑĢÐµÐµ": 3878,
      "ĠÐ¿ÑĢÐ¾Ð¸Ñģ": 3879,
      "ĠÐ¿ÐµÑĢÐ²Ð¾Ð³Ð¾": 3880,
      "ic": 3881,
      "Ð°ÑĢÐ°": 3882,
      "ĠÐ²Ð»Ð¾Ð¶": 3883,
      "ÑĤÐ¸Ðº": 3884,
      "ĠÐ³Ð»Ð°Ð²Ð°": 3885,
      "ĠÐ³Ð¾Ð´Ð¾Ð²ÑĭÑħ": 3886,
      "ĠÐ²ÑĭÐ¿Ð¾Ð»Ð½": 3887,
      "ĠÐ¿ÐµÑĢÐ²Ð°Ñı": 3888,
      "ĠÑģÐ²ÐµÑĩÐ°": 3889,
      "ĠÐ´Ð¸Ð°Ð¿Ð°Ð·Ð¾Ð½Ð°": 3890,
      "ĠÑĢÐ¾ÑģÑģÐ¸Ð¹ÑģÐºÐ°Ñı": 3891,
      "ĠÑģÑĤÐ°Ð²ÐºÐµ": 3892,
      "ĠÐłÑĥÑģÐĵÐ¸Ð´ÑĢÐ¾": 3893,
      "ÐºÐ¾ÑĢÐµÐµ": 3894,
      "ĠÐŁÐ¾ÑĩÐµÐ¼Ñĥ": 3895,
      "of": 3896,
      "ĠÐĴÑĭÑģÐ¾ÐºÐ¸Ðµ": 3897,
      "ĠÐŁÐ¾Ð·Ð¸ÑĤÐ¸Ð²": 3898,
      "ĠÑģÐ¾Ð±ÑģÑĤÐ²ÐµÐ½": 3899,
      "Ð¾Ð»Ð´Ð¸Ð½Ð³": 3900,
      "ĠÐ½Ð°ÑĢÐ°ÑīÐ¸": 3901,
      "56": 3902,
      "ĠY": 3903,
      "ÑĦÐ¸ÑĢ": 3904,
      "ĠÐ¿Ð¾Ð´Ð´ÐµÑĢÐ¶Ð°ÑĤÑĮ": 3905,
      "ĠHe": 3906,
      "ĠÐ´Ð¾Ð³": 3907,
      "ĠÐ½Ð°Ð³ÑĢÑĥÐ·": 3908,
      "ÑĪÐ»Ð¾": 3909,
      "Ð½ÐµÑĤÑģÑı": 3910,
      "Ð·Ð¾ÑĢ": 3911,
      "Ġ203": 3912,
      "ĠÑĦÐ¸ÐºÑģÐ°": 3913,
      "ĠÐłÐ¾Ð¼": 3914,
      "ĠÐ¸Ð·Ð¼ÐµÐ½Ð¸": 3915,
      "ĠIT": 3916,
      "ters": 3917,
      "ĠÐ¾ÑĤÑģÐµÑĩ": 3918,
      "ĠÐ¸Ð½Ð²ÐµÑģÑĤ": 3919,
      "Ð´Ð°ÑİÑĤ": 3920,
      "Ð²ÑĭÐ¿Ð¾Ð»Ð½ÐµÐ½Ñĭ": 3921,
      "ĠÐ¼ÐµÑĤÐ°Ð»Ð»Ñĭ": 3922,
      "ÐµÐ¶Ð¸": 3923,
      "ĠÐĴÐ¸Ðº": 3924,
      "ĠÐŁÑĢÐ°Ð²Ð¸ÑĤÐµÐ»ÑĮÑģÑĤÐ²Ð¾": 3925,
      "ÐĳÐļ": 3926,
      "ĠÐ·Ð½Ð°ÑĩÐ¸ÑĤÐµÐ»ÑĮ": 3927,
      "ĠÐ²ÐµÑĢÑħÐ½ÐµÐ¹": 3928,
      "ĠÐŃÑĤÐ¾ÑĤ": 3929,
      "ÑĩÐµÑģÐºÑĥÑİ": 3930,
      "ĠÐ¼Ð¸Ð½Ð¸Ð¼ÑĥÐ¼Ñĭ": 3931,
      "ĠÑģÐ²Ð¾ÐµÐ¹": 3932,
      "ĠÐ·Ð°ÐºÑĢÐµÐ¿Ð»ÐµÐ½Ð¸Ñı": 3933,
      "ÑĪÑĥÑİ": 3934,
      "ĠÐŁÐ¾ÑĤÐµÐ½ÑĨÐ¸": 3935,
      "ĠÐºÐ°Ð¿Ð¸ÑĤÐ°Ð»Ð¸Ð·Ð°ÑĨÐ¸Ð¸": 3936,
      "ĠÐ¡ÑĤÐ¾": 3937,
      "ĠÑĤÐ¾ÑĢÐ³Ð¾Ð²Ð¾Ð³Ð¾": 3938,
      "ĠÐĹÐ°Ð¿": 3939,
      "ÑĦÐµÑĢ": 3940,
      "ĠÐ¿Ð¾ÐºÑĥÐ¿ÐºÑĥ": 3941,
      "ĠÐ°ÐºÑĤÐ¸Ð²Ð¸": 3942,
      "ĠÐ¿ÑĢÐ¾ÑħÐ¾Ð´": 3943,
      "ĠÐ¾Ð´Ð½Ð¾Ð¹": 3944,
      "72": 3945,
      "ÐºÐ°Ð¶": 3946,
      "ÑĥÑģÐºÐ°ÐµÑĤÑģÑı": 3947,
      "ĠÐ¿Ð¾ÐºÐ°Ð·Ð°ÑĤÐµÐ»Ð¸": 3948,
      "ĠÐ¿Ð¾Ð´ÑĤÐ²ÐµÑĢÐ¶": 3949,
      "ĠÐĺÐ½Ð²ÐµÑģÑĤÐ¾ÑĢ": 3950,
      "ĠÑģÐµÐ³": 3951,
      "ĠÐ¥Ð¾Ð´": 3952,
      "ĠÑģÐ»Ð¾Ð¶Ð½Ð¾": 3953,
      "ĠÐ¿ÑĥÐ½ÐºÑĤÐ¾Ð²": 3954,
      "ĠÐĴÐ¸ÐºÑĤÐ¾ÑĢ": 3955,
      "68": 3956,
      "ĠÐ¡Ð¿": 3957,
      "ĠÐºÐ¾ÑĤÐ¾ÑĢÐ¾Ð³Ð¾": 3958,
      "ÑĢÐµÐºÑĤÐ¸ÑĢÐ¾Ð²": 3959,
      "Ð²Ð°ÑĤ": 3960,
      "ĠÐ²Ð¸Ð´Ðµ": 3961,
      "ĠÐ¢ÐµÐ¿ÐµÑĢÑĮ": 3962,
      "ÑİÑīÐµÐ¹": 3963,
      "ÑĢÐµÐ½Ð¸Ñı": 3964,
      "ĠÐ¼Ð¾Ð³": 3965,
      "ĠÑĢÑĥÐºÐ¾Ð²Ð¾Ð´": 3966,
      "ĠÐļÑĥÑĢ": 3967,
      "ĠÐ½ÐµÑĦÑĤÐµÐ³Ð°Ð·": 3968,
      "ĠÐ²Ð¾Ð·Ð²ÑĢÐ°Ñī": 3969,
      "ĠÑģÐ»Ð°Ð±Ð¾ÑģÑĤÑĮ": 3970,
      "Ð°Ð½Ð½ÑĭÐ¼": 3971,
      "92": 3972,
      "94": 3973,
      "ÑģÑıÑĤ": 3974,
      "2022": 3975,
      "ĠÐ¿ÑĢÐ¾Ð´Ð°Ð²ÑĨÑĭ": 3976,
      "ĠÐºÐ»Ð¸ÐµÐ½ÑĤÐ¾Ð²": 3977,
      "ĠÐ¿ÑĢÐ°Ð²": 3978,
      "ĠÐ¼ÐµÐ½ÑĮ": 3979,
      "ÑįÐºÐ°": 3980,
      "CD": 3981,
      "ÐµÐ»ÐµÐºÐ¾Ð¼": 3982,
      "ĠÐ¼Ð¾Ñī": 3983,
      "Ð¾Ð¼Ð¿Ð°Ð½Ð¸Ð¸": 3984,
      "ĠÑģÑĨÐµÐ½Ð°ÑĢÐ¸Ð¸": 3985,
      "ÐºÑĤÐ°": 3986,
      "Ð±Ð»Ð¾ÐºÐ¸": 3987,
      "ĠÑģÑĢÐµÐ´Ð½ÐµÑģÑĢÐ¾ÑĩÐ½Ð¾Ð³Ð¾": 3988,
      "ĠÑįÐ½ÐµÑĢÐ³ÐµÑĤÐ¸": 3989,
      "ĠÐ¿ÑĢÐ°ÐºÑĤÐ¸": 3990,
      "ĠÐŁÐ¾ÐºÐ°Ð·": 3991,
      "Ð»Ð¾Ð¼": 3992,
      "ing": 3993,
      "ĠÐ¯Ð¿Ð¾": 3994,
      "Ð¾Ð½ÐºÐ¾Ð½": 3995,
      "ĠÑĢÐµÐ·ÑĥÐ»ÑĮÑĤÐ°ÑĤÐ°": 3996,
      "Ð¾Ð»ÐµÑĤÑĮ": 3997,
      "ĠÐ¿Ð¾Ð¿ÑĭÑĤÐºÐ¸": 3998,
      "ĠÑĥÑģÐºÐ¾ÑĢÐµ": 3999,
      "Ð¾Ð²Ð¾Ð»ÑĮÐ½Ð¾": 4000,
      "ĠMACD": 4001,
      "ĠÐļÐ°Ð¿Ð¸ÑĤ": 4002,
      "ĠÐ¿ÐµÑĢÐµÑģ": 4003,
      "ĠÐ¿Ð¾ÑģÑĤÐµÐ¿": 4004,
      "ÑĦÑĤ": 4005,
      "ĠÐ¡ÐŁÐĳ": 4006,
      "bot": 4007,
      "ĠÐ¾ÑĤÐ¼Ðµ": 4008,
      "aly": 4009,
      "81": 4010,
      "EX": 4011,
      "Ð²ÑĭÐ¼": 4012,
      "ĠÐ´Ð¾ÑģÑĤÐ¸Ð³Ð»Ð°": 4013,
      "ĠÐ¸ÑģÑĤÐ¾ÑĢÐ¸ÑĩÐµÑģÐºÐ¸Ð¹": 4014,
      "ĠÐ²Ð½ÑĥÑĤÑĢÐµÐ½": 4015,
      "at": 4016,
      "ĠÐ¿ÑĢÐµÐ¾Ð´Ð¾Ð»ÐµÑĤÑĮ": 4017,
      "ÑģÐ°Ð¹Ð´": 4018,
      "ĠÐ´Ð¸Ð²Ð¸Ð´ÐµÐ½Ð´Ð½Ð°Ñı": 4019,
      "ĠÑģÐ¸Ð»ÑĮÐ½Ð¾": 4020,
      "ĠÑĩÐ¸ÑģÑĤÐ°Ñı": 4021,
      "ĠÐ¾Ð¶Ð¸Ð´Ð°ÐµÑĤ": 4022,
      "uters": 4023,
      "ĠÑģÐ¸Ð»Ðµ": 4024,
      "ĠÐ´Ð¾ÑħÐ¾Ð´Ð½Ð¾ÑģÑĤÑĮÑİ": 4025,
      "ĠVK": 4026,
      "ĠÐ¾Ð¿ÑĥÑģÑĤÐ¸Ð»Ð¸ÑģÑĮ": 4027,
      "ĠReuters": 4028,
      "ĠÐ¿ÑĢÐ¾Ð±Ð¸Ð»Ð¸": 4029,
      "ĠÑĥÑģÐ¿ÐµÑĪ": 4030,
      "ral": 4031,
      "ĠÐŁÑĢÐ¾Ð³Ð½Ð¾Ð·Ñĭ": 4032,
      "ĠÐĽÐ¾ÐºÐ°Ð»ÑĮ": 4033,
      "ĠÐ·Ð°ÑıÐ²Ð¸Ð»": 4034,
      "ĠÐłÐĳÐļ": 4035,
      "ĠÐ¼Ð¸Ð»Ð»Ð¸": 4036,
      "ĠÑģÐµÑĢÐµÐ´Ð¸Ð½Ðµ": 4037,
      "ĠÑĩÐ»ÐµÐ½": 4038,
      "ĠÐ²Ð¾ÑģÑħÐ¾Ð´ÑıÑīÐµÐ¼": 4039,
      "ĠÐ²Ð»Ð¸ÑıÐ½Ð¸Ðµ": 4040,
      "Ð°ÑĢÐ³": 4041,
      "ĠÐĲÐ»ÑĮ": 4042,
      "ÐĴÐ½ÐµÑĪÐ½Ð¸Ð¹": 4043,
      "ÑĢÐ¾Ð²Ð°Ð½Ð½Ð°Ñı": 4044,
      "ĠÐ¡ÑĢÐµÐ´Ð½ÐµÑģÑĢÐ¾ÑĩÐ½ÑĭÐ¹": 4045,
      "62": 4046,
      "ĠÐ¾ÑĩÐµÐ½ÑĮ": 4047,
      "ĠÐ´Ð¾Ð²Ð¾Ð»ÑĮÐ½Ð¾": 4048,
      "ĠÐ¢ÑĢÐ°Ð½Ñģ": 4049,
      "Ġ160": 4050,
      "ĠÑĢÐ°ÑģÑģÐ¼Ð°ÑĤÑĢÐ¸": 4051,
      "ĠÐ¿Ð¾ÑĢÑĤÑĦÐµÐ»Ñı": 4052,
      "ĠÑĩÐµÐ»": 4053,
      "ĠÑħÐ¾Ð´Ðµ": 4054,
      "ĠÑĩÐ°ÑģÐ¾Ð²Ð¸ÐºÐµ": 4055,
      "ĠÐ¸Ð½Ð¾ÑģÑĤÑĢÐ°Ð½Ð½ÑĭÑħ": 4056,
      "ĠÐ¿Ð°Ð´Ð°ÑİÑīÐ¸Ð¹": 4057,
      "ĠÐ¾Ð±ÑıÐ·Ð°ÑĤÐµÐ»ÑĮ": 4058,
      "54": 4059,
      "Ð½ÐµÐ½Ð¸Ðµ": 4060,
      "ÑĩÐ½ÑĭÑħ": 4061,
      "ÐµÐ½ÑĤÐ°Ð±": 4062,
      "ÑĤÐ¾ÑĢÐµ": 4063,
      "ĠÐ¿Ð¾Ð½ÐµÐ´ÐµÐ»ÑĮÐ½Ð¸ÐºÐ°": 4064,
      "ÑĩÐ°ÑģÐ¾Ð²Ð¾Ð¹": 4065,
      "ĠÐĵÐ»Ð°Ð²Ð½Ð¾Ðµ": 4066,
      "it": 4067,
      "ĠÐ»ÑİÐ±": 4068,
      "Ð¾Ð²Ð°Ð»Ð°": 4069,
      "ÐµÐ½ÑĤÐ°Ð±ÐµÐ»ÑĮ": 4070,
      "ĠÐºÑĥÐ±": 4071,
      "ĠÑĥÐ´Ð°": 4072,
      "ÐµÑĢÐ°Ð»ÑĮ": 4073,
      "ĠÑģÐ¾ÑħÑĢÐ°Ð½ÑıÑİÑĤÑģÑı": 4074,
      "66": 4075,
      "ÑħÐ¾Ð¶Ð´": 4076,
      "analy": 4077,
      "ÐµÑĢÑĮÐµÐ·": 4078,
      "ĠÐ¾ÑĨÐµÐ½ÐºÐ¸": 4079,
      "ÐºÐ½Ð¾Ð²": 4080,
      "ÐµÐºÑĤÐ¸Ð²": 4081,
      "Ð²Ð¸Ð»Ð¸": 4082,
      "ĠÐŁÐµÑĢÐµ": 4083,
      "ĠÐ±ÑĥÐ¼Ð°Ð³Ð°Ð¼": 4084,
      "ĠÐ°Ð²Ð³ÑĥÑģÑĤÐµ": 4085,
      "analytic": 4086,
      "ÑĩÐ½ÑĭÐ¹": 4087,
      "RDV": 4088,
      "ĠÑĥÐ²Ð¸Ð´": 4089,
      "ĠÐ¿ÑĢÐ¾Ð³Ð½Ð¾Ð·Ð¸": 4090,
      "ĠÐ½Ð°Ð¼ÐµÑĢ": 4091,
      "ĠÐĺÑģÑĤÐ¾ÑĩÐ½Ð¸Ðº": 4092,
      "ĠÐ·Ð¾Ð»Ð¾ÑĤÐ°": 4093,
      "ĠÐłÐ¾Ð¼Ð°Ð½Ð¾Ð²": 4094,
      "88": 4095,
      "ĠÐ¾ÑĤÐ¼ÐµÑĤÐºÐ°": 4096,
      "ĠÐ´ÐµÐºÐ°Ð±ÑĢÐµ": 4097,
      "ĠÑĥÐ²ÐµÐ»Ð¸ÑĩÐ¸Ð»Ð°ÑģÑĮ": 4098,
      "ĠÑģÐºÐ¾Ð»ÑĮÐ·ÑıÑīÐ¸Ñħ": 4099,
      "Ġ450": 4100,
      "ĠÐ½Ð°Ð¹Ð´ÐµÐ½Ð°": 4101,
      "ĠÐºÐ¾Ð½ÑģÐ¾Ð»Ð¸Ð´Ð¸": 4102,
      "ÐµÑĢÐ¾Ð¼": 4103,
      "ĠÑĢÑĭÐ½ÐºÑĥ": 4104,
      "ĠÐ¾ÑģÐ½Ð¾Ð²Ð½ÑĭÑħ": 4105,
      "ĠÐ¿Ð¾ÑģÐ»ÐµÐ´Ð½Ð¸Ñħ": 4106,
      "rals": 4107,
      "ÑģÑĤÐ²Ð¸Ð¸": 4108,
      "ĠÐĲÑįÑĢÐ¾ÑĦÐ»Ð¾ÑĤÐ°": 4109,
      "ĠÑģÐ¼Ð¾Ð¶": 4110,
      "ĠÐ´Ð²Ð¸": 4111,
      "ÑģÐ»Ð¾": 4112,
      "Ð¸Ð½ÑĤ": 4113,
      "ĠÑįÐºÐ¾Ð½Ð¾Ð¼Ð¸ÐºÐµ": 4114,
      "ĠÐ°Ð»Ð¼Ð°": 4115,
      "ÑĢÐ°ÑģÑĤÑĢÑĥÐºÑĤÑĥ": 4116,
      "ÑĢÐ¾Ð²Ð°Ð»": 4117,
      "ĠÐľÐµÑĩ": 4118,
      "ĠÐ¿ÑĢÐ¾Ð¸Ð·Ð²Ð¾Ð´ÑģÑĤÐ²Ð¾": 4119,
      "ĠUrals": 4120,
      "ĠÐ²ÑĭÐ¿Ð»Ð°ÑĩÐ¸": 4121,
      "ÑģÑĤÐ²ÐµÐ½Ð½Ð¾": 4122,
      "ĠÐ¿ÑĢÐ¸Ð±Ð°Ð²Ð»ÑıÐµÑĤ": 4123,
      "ĠÐ¿Ð¸": 4124,
      "ĠÐ±Ð»Ð¸Ð¶Ð°Ð¹ÑĪÐµÐ¹": 4125,
      "ĠÐ´Ð¾Ð»Ð³Ð¾ÑģÑĢÐ¾ÑĩÐ½ÑĭÐµ": 4126,
      "ĠÐ²Ð»Ð¸ÑıÐµÑĤ": 4127,
      "ÑĢÑĥÐ±ÐµÐ¶": 4128,
      "unter": 4129,
      "ÑĭÑĪÐ»": 4130,
      "Ð½Ð¸ÐºÐ°": 4131,
      "ĠÑĦÐ°Ð·": 4132,
      "ÑĨÐ¸ÑıÑħ": 4133,
      "ĠÑģÐ½Ð¸Ð¶ÐµÐ½Ð¸Ñİ": 4134,
      "ĠÐºÑĢÐ¸Ð¿": 4135,
      "lob": 4136,
      "ĠÐ´ÑĢÑĥÐ³Ð¸Ðµ": 4137,
      "ĠÐŁÑĢÐ¾Ð±Ð¾Ð¹": 4138,
      "ĠHead": 4139,
      "73": 4140,
      "ĠÐ²Ð½ÐµÑĪÐ½Ð¸Ð¹": 4141,
      "ĠÐ±ÐµÑĢ": 4142,
      "ÑĪÐ¸ÑģÑĮ": 4143,
      "ĠÑĢÐ°ÑģÑģÐ¼Ð¾ÑĤ": 4144,
      "ĠÐ½ÐµÑĢÐµÐ·Ð¸Ð´ÐµÐ½ÑĤ": 4145,
      "ĠÑĢÐµÐ¹ÑĤÐ¸Ð½Ð³": 4146,
      "lobal": 4147,
      "64": 4148,
      "ÐºÐ°Ð¼Ð¸": 4149,
      "Ð²Ð»ÐµÐ½Ð¸Ñİ": 4150,
      "Ġ32": 4151,
      "ĠÐ¾Ð¿ÐµÑĢÐ°ÑĨÐ¸Ð¾Ð½Ð½ÑĭÐµ": 4152,
      "ĠÑģÐ¾ÑĤÑĢÑĥÐ´": 4153,
      "ĠGlobal": 4154,
      "Ð¸Ð»ÑĮ": 4155,
      "ĠÐ·ÐµÑĢ": 4156,
      "Ð¾ÑģÐ»ÐµÐ´": 4157,
      "ĠÐ¼ÐµÐ¶Ð´ÑĥÐ½Ð°ÑĢÐ¾Ð´": 4158,
      "ĠÐ¾Ð¿ÑĥÐ±Ð»Ð¸ÐºÐ¾Ð²Ð°Ð»": 4159,
      "Ð½Ð°Ð´Ð»Ðµ": 4160,
      "ĠÐ½ÐµÑĦÑĤÐµÐ¿ÑĢÐ¾Ð´Ñĥ": 4161,
      "ĠÐļÐ»ÑİÑĩÐµ": 4162,
      "ĠÑĥÑĢÐ¾Ð²Ð½ÐµÐ¼": 4163,
      "ĠÐ½Ð¾Ð²ÑĥÑİ": 4164,
      "ĠÑĥÑĤÐ²ÐµÑĢÐ´Ð¸": 4165,
      "ĠÐ´Ð¾Ð±ÑĭÑĩÐ¸": 4166,
      "ĠÐ¾ÑĤÑĢÐ°ÑģÐ»Ð¸": 4167,
      "ĠÐ¾Ð±Ð¾Ð·Ð½Ð°Ñĩ": 4168,
      "ĠÐĺÐ½Ð²ÐµÑģÑĤÐ¾ÑĢÑĭ": 4169,
      "..": 4170,
      "ĠÐ½Ð°Ð¸Ð±Ð¾Ð»ÐµÐµ": 4171,
      "ÑģÑĤÐ¾ÑıÑī": 4172,
      "ĠÑĤÑĢÐµÑħ": 4173,
      "Ð¿Ð¸": 4174,
      "ĠÐ¢ÑĥÑĢ": 4175,
      "ĠÑĢÐµÐºÐ¾Ð¼ÐµÐ½Ð´Ð°ÑĨÐ¸Ð¸": 4176,
      "ÐĵÐļ": 4177,
      "ĠÐ²ÐºÐ»Ð°Ð´": 4178,
      "Ð¼Ð°ÑĢÐºÐµÑĤ": 4179,
      "Ð³ÑĢÐ¾": 4180,
      "ĠÐ²ÐµÑĢÐ¾ÑıÑĤÐ½Ð¾": 4181,
      "ĠÐ¡ÑĥÑĢÐ³ÑĥÑĤÐ½ÐµÑĦÑĤÐµÐ³Ð°Ð·": 4182,
      "ĠÐ·Ð°Ð½Ð¸": 4183,
      "Ð°Ð³Ð¸": 4184,
      "ĠÐ¿ÑĢÐ¸Ð½Ð°Ð´Ð»Ðµ": 4185,
      "Ð¤Ð¸Ð½Ð°": 4186,
      "ĠÐ³ÑĢÐ°Ð½Ð¸ÑĨÐµ": 4187,
      "ĠÑģÐ¾ÐºÑĢÐ°ÑīÐµÐ½Ð¸Ñı": 4188,
      "Ð½Ð³Ð°": 4189,
      "ĠÐ·Ð°ÑĢÑĥÐ±ÐµÐ¶": 4190,
      "ÐµÐ³ÑĢÐ¸": 4191,
      "ĠÐ´Ð¾ÑħÐ¾Ð´Ð¾Ð²": 4192,
      "ĠÑĤÐ°ÐºÐ¸Ñħ": 4193,
      "Ð¾Ð½ÐºÐ¾Ð½Ð³": 4194,
      "ÑĪÐµÐ´": 4195,
      "ĠÑĢÐµÐ·ÐºÐ¾": 4196,
      "ĠÐ´Ð¸Ð²ÐµÑĢÐ³ÐµÐ½": 4197,
      "ĠÑģÑĤÐ°Ð»Ð¾": 4198,
      "RDVP": 4199,
      "ĠÐ¿Ð¾Ð»Ð½Ð¾ÑģÑĤÑĮÑİ": 4200,
      "ĠÐ¾ÐºÐ¾Ð½Ñĩ": 4201,
      "ĠÑģÐ²Ð¾Ñİ": 4202,
      "ĠÑĦÐ¾ÑĢÐ¼Ð¸ÑĢÐ¾Ð²Ð°Ð½Ð¸Ñı": 4203,
      "RDVPREMIUM": 4204,
      "ĠÑĢÐ°Ð·Ð¼ÐµÑĢ": 4205,
      "RDVPREMIUMbot": 4206,
      "TF": 4207,
      "ĠÐ¡Ð¾Ð±ÑĭÑĤÐ¸": 4208,
      "Ð½ÑĥÐ²": 4209,
      "ĠÐ³ÐµÐ¾Ð¿Ð¾Ð»Ð¸ÑĤÐ¸ÑĩÐµÑģÐºÐ¸Ñħ": 4210,
      "ĠÑĤÑıÐ½": 4211,
      "ĠÑģÑĤÐ°Ð»Ð°": 4212,
      "ĠÐ¸Ð½ÑĦÑĢÐ°ÑģÑĤÑĢÑĥÐºÑĤÑĥ": 4213,
      "ĠÐ¾ÑģÐ»Ð°Ð±Ð»ÐµÐ½Ð¸Ðµ": 4214,
      "ĠÐĸÐ¸Ð¡": 4215,
      "ÑĢÑĥÐµÐ¼": 4216,
      "Ð°Ð½ÑĤ": 4217,
      "Ð°ÑĤÐ¸ÑģÑĤÐ¸": 4218,
      "ĠÐķÑģÑĤÑĮ": 4219,
      "ĠÐ¾ÑĤÑģÐºÐ¾": 4220,
      "ĠTe": 4221,
      "ĠÐ·Ð¾Ð»Ð¾ÑĤÐ¾": 4222,
      "ĠÐ±ÑİÐ´Ð¶ÐµÑĤÐ°": 4223,
      "ĠÐŁÐ¾Ð»Ñİ": 4224,
      "ĠÐĲÐ»ÑĮÑĦÐ°": 4225,
      "89": 4226,
      "ĠÐ´ÐµÐ²": 4227,
      "ĠÐ·Ð°ÑģÐµÐ´Ð°Ð½Ð¸Ðµ": 4228,
      "ÐµÑģÑıÑĩ": 4229,
      "Ð°Ð½Ð°Ð»Ð¸ÑĤÐ¸": 4230,
      "Ð¾Ð¹ÑĤÐ¸": 4231,
      "ĠÐ²ÐµÑĢÑĤÐ¸Ðº": 4232,
      "ĠÐ¿Ð¾ÐºÐ°Ð·Ð°ÑĤÐµÐ»ÑĮ": 4233,
      "ÑĢÐ°Ð±Ð°ÑĤ": 4234,
      "Ð±Ð¸ÑĢÐ°": 4235,
      "ĠÐºÑĢÑĥÐ¿Ð½ÐµÐ¹ÑĪÐ°Ñı": 4236,
      "ĠÑĢÑıÐ´": 4237,
      "ÐµÑĨÐ¸": 4238,
      "ĠÑģÑĭÑĢÑĮ": 4239,
      "Ð¾Ð»ÑĮÐºÑĥ": 4240,
      "ĠÑģÑĢÐµÐ´Ñĭ": 4241,
      "ĠÐ±Ð°Ð»": 4242,
      "ĠÐ³ÑĢÐ°Ð½Ð¸ÑĨ": 4243,
      "ĠÐ´Ð°Ð²": 4244,
      "Ġ42": 4245,
      "ĠÑģÐµÐ³Ð¾Ð´Ð½ÑıÑĪ": 4246,
      "ĠÐļÑĢÐ¸Ð²Ð°Ñı": 4247,
      "Ð²Ð°ÐµÐ¼": 4248,
      "ĠÐ¿ÑĢÐ¸Ð·Ð½Ð°": 4249,
      "Ġ900": 4250,
      "ĠÐ¿ÑĢÐ¾Ð´Ð¾Ð»Ð¶Ð¸ÑĤ": 4251,
      "ĠÑĢÐ°Ð·Ð²Ð¸ÑĤÐ¸Ðµ": 4252,
      "ĠÐ¡Ð¾Ð±ÑĭÑĤÐ¸Ñı": 4253,
      "ĠÐºÑĢÐ°Ð¹": 4254,
      "Ð´ÐµÑĢÐ¶ÐºÐ¸": 4255,
      "ĠÐºÑĤÐ¾": 4256,
      "ĠÑĦÐ°ÐºÑĤÐ¾ÑĢÐ¾Ð¼": 4257,
      "Ð½Ð¸Ð¶ÐµÐ½Ð¸Ðµ": 4258,
      "ĠÐ¾Ð´Ð¾Ð±ÑĢÐ¸": 4259,
      "Ð½Ð°Ð»Ð¸Ð·Ð¸": 4260,
      "ĠÐ¿Ð¾ÐºÑĥÐ¿Ð¾Ðº": 4261,
      "ĠÑĦÐµÐ²ÑĢÐ°Ð»ÑĮ": 4262,
      "ĠÐļÐ¸ÑĤÐ°Ðµ": 4263,
      "osi": 4264,
      "ĠÑĨÐ¸ÑĦÑĢÐ¾Ð²": 4265,
      "Hunter": 4266,
      "ÑģÐ½Ð¾": 4267,
      "ÑĨÐ¸Ð¾Ð½Ð°Ð»ÑĮ": 4268,
      "ÑģÐºÐ¾Ðµ": 4269,
      "ank": 4270,
      "63": 4271,
      "ĠÐ·Ð½Ð°ÑĩÐµÐ½Ð¸Ñı": 4272,
      "ÑĢÐ¾ÑģÑĤ": 4273,
      "ĠÑģÑĢÐµÐ´Ð½ÑıÑı": 4274,
      "ĠÐ¿ÑĢÐ¾Ð¼ÐµÐ¶ÑĥÑĤÐ¾Ñĩ": 4275,
      "ÑĨÐ¸Ð»Ð»ÑıÑĤÐ¾ÑĢÑĭ": 4276,
      "ĠHeadHunter": 4277,
      "Ð¾Ð»Ð»": 4278,
      "ÑĢÐ¾ÑģÐ»Ð°": 4279,
      "ĠÐºÑĢÐ¸Ð·Ð¸": 4280,
      "ĠÑģÑĥÐ¼Ð¼Ñĥ": 4281,
      "ĠÐ´Ð²ÑĥÑħÐ»ÐµÑĤ": 4282,
      "ĠÐ¼Ð½Ð¾Ð³Ð¾Ð»ÐµÑĤÐ½Ð¸Ð¹": 4283,
      "Ð²Ð°Ð»Ð¸": 4284,
      "ĠÐłÐµÐ·": 4285,
      "ĠÐ½Ð¾ÑıÐ±ÑĢÐµ": 4286,
      "Ġ33": 4287,
      "ĠÑĤÐ¾ÑĢÐ³Ð°Ñħ": 4288,
      "Ð°ÑĤÐµÐ»ÐµÐ¹": 4289,
      "ĠÐ¼Ð½ÐµÐ½Ð¸Ñİ": 4290,
      "ĠÐ»Ð¸Ð´ÐµÑĢÐ°Ñħ": 4291,
      "ĠÐĶÐ°": 4292,
      "ĠÐ¸ÑģÐ¿Ð¾Ð»": 4293,
      "ÐĳÐ°Ð½Ðº": 4294,
      "ĠÐĿÐ¾Ð²Ð°ÑĤÑįÐºÐ°": 4295,
      "69": 4296,
      "ve": 4297,
      "ÐµÑī": 4298,
      "ĠÐĶÐ°Ð»ÐµÐµ": 4299,
      "ĠÐ¼Ð¸ÑĢÐµ": 4300,
      "Ð°ÐºÐ¸Ð¼": 4301,
      "ĠÐ²ÐµÑĢÑĤÐ¸ÐºÐ°Ð»ÑĮÐ½Ð¾": 4302,
      "ÑĭÑĤÐ°": 4303,
      "Ð²Ð°ÑİÑĤÑģÑı": 4304,
      "ÑĥÑĤÑģÑı": 4305,
      "ĠÑĢÑĭÐ½ÐºÐ¾Ð²": 4306,
      "ĠÐ¢Ð°ÑĤ": 4307,
      "ĠÑĢÐ°Ð·ÑĢÐ°Ð±Ð¾ÑĤ": 4308,
      "ĠÐļÐ°Ð·": 4309,
      "ĠÑĥÐ²ÐµÐ»Ð¸ÑĩÐ¸ÑĤÑĮ": 4310,
      "Ð¸Ð½Ñĥ": 4311,
      "Ð¿Ð¾Ð»Ð½Ðµ": 4312,
      "ÑģÐ¸ÑĤÑĮ": 4313,
      "ĠÐ·Ð°Ð¿Ð°Ð´": 4314,
      "ĠÐ¾ÑģÑĤÐ°Ð»Ð¸ÑģÑĮ": 4315,
      "59": 4316,
      "ĠÑģÐµÐºÑĤÐ¾ÑĢÐµ": 4317,
      "ĠÐ±ÐµÑĢÑĥÑīÐ¸Ð¹": 4318,
      "ÐµÐ³ÑĢÐ¸ÑĢÐ¾Ð²Ð°Ð½Ð½Ð°Ñı": 4319,
      "ĠÐ½ÐµÐ³Ð¾": 4320,
      "ĠÐ¾ÑĤÐ»Ð¸Ñĩ": 4321,
      "ÐĶÐł": 4322,
      "ĠÐ²ÑĭÐ¹ÑĤÐ¸": 4323,
      "ĠÑĢÐµÐµÑģÑĤ": 4324,
      "ĠCo": 4325,
      "Ð±ÑĭÐ»ÑĮ": 4326,
      "ĠÐ¦ÐµÐ»ÑĮÑİ": 4327,
      "Ð°Ð½Ð°Ð»Ð¸ÑĤÐ¸ÐºÐ°": 4328,
      "ĠÐ¿Ð¾Ðº": 4329,
      "ÐµÐºÐ²Ð°ÑĢÑĤ": 4330,
      "ĠÐ½ÐµÐ±Ð¾Ð»ÑĮÑĪ": 4331,
      "ÐµÐ½ÑģÑĥÑģ": 4332,
      "ĠÐĶÐ¾Ð»Ñı": 4333,
      "ĠÐ½Ð¾ÑĢ": 4334,
      "ĠÑģÐµÑĢÑĮÐµÐ·": 4335,
      "ĠÑĤÐ¾ÑĢÐ³Ð¾Ð²ÑĭÑħ": 4336,
      "ĠÐ´Ð¾Ð»Ñİ": 4337,
      "ĠÑģÐ¸Ð»ÑĮÐ½ÑĭÐ¹": 4338,
      "ĠÐ¾Ð¶Ð¸Ð´Ð°Ð½Ð¸Ð¹": 4339,
      "Ð¾Ð±Ð¸Ð»ÐµÐ¹": 4340,
      "600": 4341,
      "ĠÑģÐºÐ¾ÑĢÐµÐµ": 4342,
      "Ð·Ð¼": 4343,
      "Ġ350": 4344,
      "ĠÐ¾ÑģÑĤÐ°Ð½Ð¾Ð²": 4345,
      "ĠÐ¿Ð¾Ð´Ð½ÑıÐ»Ð¸ÑģÑĮ": 4346,
      "ĠÐµÐ¶ÐµÐºÐ²Ð°ÑĢÑĤ": 4347,
      "ÑĤÐ¸Ð¹": 4348,
      "ÐµÐ³Ð°ÑĤÐ¸Ð²": 4349,
      "ĠÐ´Ð¾Ð»Ð¸": 4350,
      "Ġ109": 4351,
      "ĠÐ¿Ð¾Ð»Ð¾Ð³": 4352,
      "Ð¸Ð·Ð²Ð¾Ð´": 4353,
      "ĠÐ¾Ð³ÑĢÐ°Ð½Ð¸ÑĩÐ¸": 4354,
      "2023": 4355,
      "ĠÐ´ÐµÐ½ÑĮÐ³Ð¸": 4356,
      "ĠÐ¸Ð·Ð¼ÐµÐ½ÐµÐ½Ð¸Ð¹": 4357,
      "ĠÐ¼ÐµÐ´Ð²Ðµ": 4358,
      "ĠÑĢÐ°ÑģÐ¿Ð¾Ð»Ð¾Ð¶": 4359,
      "ĠÐļÐ°Ð¿Ð¸ÑĤÐ°Ð»": 4360,
      "ĠÑģÑĢÐµÐ´ÑģÑĤÐ²Ð°": 4361,
      "Ð²ÑĪÐµÐ³Ð¾ÑģÑı": 4362,
      "ĠÐĸÐ´ÐµÐ¼": 4363,
      "47": 4364,
      "ĠÐ¿ÑĢÐ¾Ðº": 4365,
      "ĠÑįÑĤÐ¾Ð¼Ñĥ": 4366,
      "Ð¼Ð°Ð»ÑĮÐ½Ð¾": 4367,
      "ĠÐ¿Ð¾Ð´Ð½Ð¸Ð¼Ð°ÐµÑĤÑģÑı": 4368,
      "ÐµÑģÑĤÐ¸": 4369,
      "ĠÐ´Ð¾ÑħÐ¾Ð´Ñĭ": 4370,
      "ĠÑĢÐ°ÑģÑĪÐ¸": 4371,
      "ĠÑģÐ°Ð½ÐºÑĨÐ¸Ð¾Ð½": 4372,
      "ĠÐ¿Ð¾ÑıÐ²": 4373,
      "ĠÑģÐ»Ð°Ð±Ñĭ": 4374,
      "ĠÐ¿ÑĢÐ¾ÑĨÐµÐ½ÑĤÐ½ÑĭÑħ": 4375,
      "ĠÑģÐ¾ÑħÑĢÐ°Ð½Ð¸ÑĤÑĮ": 4376,
      "ĠÐĴÐ»Ð°Ð´Ð¸": 4377,
      "ĠÑĥÐ²Ð¸Ð´ÐµÑĤÑĮ": 4378,
      "Ð´ÑĥÑĤ": 4379,
      "ĠÐ¿ÑĢÐµÐ´Ð»Ð°": 4380,
      "ĠÐ¿ÑĢÐ¾ÑģÑĤÑĢÐ°Ð½": 4381,
      "Ð°Ð¹ÑĤÐµ": 4382,
      "Ð¤Ðļ": 4383,
      "ÐºÐ°Ð·Ð°": 4384,
      "ĠÐ¿ÑĢÐ¸Ñĩ": 4385,
      "ĠÐ´Ð¾Ð»Ð³Ð¾ÑģÑĢÐ¾ÑĩÐ½Ð°Ñı": 4386,
      "ĠÑģÐ¸Ð³Ð½Ð°Ð»Ð°": 4387,
      "52": 4388,
      "Ð¶ÑĮ": 4389,
      "ÐŁÐ¾Ð´": 4390,
      "ĠÐ±ÑĥÐ¼Ð°Ð³Ð°Ñħ": 4391,
      "ĠÐ½ÐµÐ´ÐµÐ»ÑĮÐ½Ð°Ñı": 4392,
      "ĠÐ±Ð¾ÐºÐ¾Ð²Ð¾Ð¹": 4393,
      "ĠÐºÑĥÐ¿Ð¸ÑĤÑĮ": 4394,
      "ĠÐ¼ÐµÐ½ÑĮÑĪÐµ": 4395,
      "ÐµÐ½Ð½Ð°Ñı": 4396,
      "Ð±Ð¸Ð½Ð°": 4397,
      "Ð°ÐºÑĨÐ¸Ñİ": 4398,
      "ĠÐ´Ð¸Ð²": 4399,
      "ĠÐ¿ÑĢÐ¾Ð¹ÑĤÐ¸": 4400,
      "ĠÐºÑĢÑĥÐ¿Ð½ÐµÐ¹ÑĪÐ¸Ñħ": 4401,
      "ĠÐĲÐŀ": 4402,
      "ĠÐ¢Ð°ÐºÐ¸Ð¼": 4403,
      "ĠÐ·Ð°Ð¼ÐµÑĤÐ½Ð¾": 4404,
      "ĠÐŁÑĢÐµ": 4405,
      "ĠÐĿÐĶ": 4406,
      "ĠÑįÑĦÐ¸": 4407,
      "ĠÐ¿ÑĢÐ¸Ð»Ð¾Ð¶": 4408,
      "Ð¾Ð¼Ð¸ÑĨÐ¸": 4409,
      "ĠÐ´Ð°Ð²Ð»ÐµÐ½Ð¸ÐµÐ¼": 4410,
      "ÑįÐ½ÐµÑĢÐ³Ð¾": 4411,
      "ĠÐ±Ð°Ð½ÐºÐ¸": 4412,
      "OEX": 4413,
      "ia": 4414,
      "ÑģÐºÐ¾Ð»ÑĮÐºÑĥ": 4415,
      "ĠÐ·Ð°Ð¿Ð»": 4416,
      "ĠÐ¿Ð¾ÑģÐºÐ¾Ð»ÑĮÐºÑĥ": 4417,
      "ĠÐ¡Ð°Ð½Ðº": 4418,
      "ÐľÐĺ": 4419,
      "ÑıÑĤÑĮÑģÑı": 4420,
      "ĠÐ¿Ð¾ÑĤÐµÑĢÑıÐ»": 4421,
      "ĠÐ°Ð¿ÑĢÐµÐ»Ðµ": 4422,
      "ĠÐ²ÑĤÐ¾ÑĢÐ½Ð¸ÐºÐ°": 4423,
      "ĠÐ²Ð¸Ð´Ð¸Ð¼": 4424,
      "ĠÑĢÐ°Ð·Ð¼ÐµÑīÐµÐ½Ð¸Ñı": 4425,
      "43": 4426,
      "ÐºÐ»ÑİÑĩ": 4427,
      "ĠÐ³Ð¾Ð´Ð¾Ð¼": 4428,
      "ĠÑĥÑĩÐ°ÑģÑĤÐ½Ð¸ÐºÐ¾Ð²": 4429,
      "Ð¶Ð¸ÑĤ": 4430,
      "ÑģÑĤÐ°Ð½Ð°Ð²Ð»Ð¸": 4431,
      "ĠÐ¿Ð¾ÐºÐ°Ð·Ð°Ð»Ð¸": 4432,
      "ĠÐŀÐ¶Ð¸Ð´Ð°ÐµÐ¼": 4433,
      "Ð¸Ð¼Ð¸": 4434,
      "Ð´Ð°Ð½": 4435,
      "Ð½Ð¸Ñİ": 4436,
      "Ð¶Ð¸Ð¼": 4437,
      "Ġ53": 4438,
      "ĠÐ¾ÑģÐ¾Ð±": 4439,
      "ĠÐºÑĥÑĢÑģÐ°": 4440,
      "ĠÐ½ÐµÐ´Ð°Ð²": 4441,
      "ĠÐŀÐ½": 4442,
      "ĠÑĩÐµÑĤÐ²ÐµÑĢÐ³Ð°": 4443,
      "ĠÑģÐ½Ð¸Ð·Ñĥ": 4444,
      "58": 4445,
      "CS": 4446,
      "ĠÐ¿ÑĢÐµÐ´ÐµÐ»": 4447,
      "ĠÐºÐ¾Ð¼Ð¼": 4448,
      "ÐµÐ½ÑģÐ¸": 4449,
      "ĠÐ¡ÑĦÐ¾ÑĢÐ¼Ð¸ÑĢÐ¾Ð²": 4450,
      "Ð²Ð»ÑıÑİÑĤ": 4451,
      "ĠÐ´ÐµÑĦÐ¸ÑĨÐ¸": 4452,
      "ĠÐ¾Ð´Ð½Ñĥ": 4453,
      "ĠÐ¼Ð¸ÑĢÐ¾Ð²Ð¾Ð¹": 4454,
      "ĠÑģÐµÐ±Ñı": 4455,
      "ĠÐ¼Ð¾Ð´": 4456,
      "ĠÐ²ÑĭÐ¿Ð»Ð°ÑĤÑĥ": 4457,
      "ĠÑģÐµÐ·": 4458,
      "ĠÐ´Ð°Ð»ÐµÐµ": 4459,
      "ÐµÑĤÐµÑĢÐ±": 4460,
      "ÑĩÐ¸Ð»Ð°": 4461,
      "ĠÑģÑĤÑĢÐ°Ð½Ð°": 4462,
      "91": 4463,
      "ĠÐ·Ð°Ð²Ð¾Ð´": 4464,
      "ĠÐĴÐ·": 4465,
      "Ġ5000": 4466,
      "ĠÐĺÐ½ÑĦ": 4467,
      "ĠÐĵÐ»Ð°Ð²Ð°": 4468,
      "ĠÐ´Ð¾Ð¿ÑĥÑģÐºÐ°ÐµÑĤÑģÑı": 4469,
      "ĠÐ¾ÑģÐ»Ð°Ð±Ð»ÐµÐ½Ð¸Ñı": 4470,
      "ĠÐ³ÑĢÑĥÐ¿Ð¿Ñĭ": 4471,
      "ĠÐ²Ð¾Ð·Ð¼Ð¾Ð¶ÐµÐ½": 4472,
      "ĠÐ¾ÑĤÐ¼ÐµÑĤÐºÑĥ": 4473,
      "ba": 4474,
      "ed": 4475,
      "ĠÑģÐµÐ½ÑĤÐ¸": 4476,
      "ĠÐ²Ð¾Ð¿ÑĢÐ¾ÑģÑĭ": 4477,
      "ĠÑĢÐ¾Ð·Ð½Ð¸Ñĩ": 4478,
      "ĠÑģÐµÐ³Ð¼ÐµÐ½ÑĤ": 4479,
      "ĠÐ³Ð¾Ð»": 4480,
      "Ð°Ð½Ð´ÐµÐ¼": 4481,
      "ĠÐ°ÐºÑĤÐ¸Ð²Ð½Ð¾ÑģÑĤÑĮ": 4482,
      "ĠÐ·Ð°ÑıÐ²Ð¾Ðº": 4483,
      "ĠÐĵÐ¾ÑģÐ´Ñĥ": 4484,
      "ÐºÐ¾Ð³Ð¾": 4485,
      "ÐŀÐł": 4486,
      "Ð²Ð°ÑĢ": 4487,
      "ĠÐ¿Ð¾Ð¼Ð¾Ñī": 4488,
      "ÐµÐ½ÐµÑģÑģ": 4489,
      "ĠÐ·Ð°ÑĢÐ°Ð±Ð¾ÑĤÐ°ÑĤÑĮ": 4490,
      "ÑħÐ°ÑģÑĤÐ¸": 4491,
      "49": 4492,
      "ĠÐ¿Ð¾ÑģÑĤÑĥÐ¿": 4493,
      "Ð¾Ð±Ð¾Ð´": 4494,
      "ĠÐ¿ÑĢÐµÐº": 4495,
      "ÑģÑĤÐ¾ÑĢÐ¾Ð¶": 4496,
      "Ð³Ð¸Ð¸": 4497,
      "ĠÑģÐ°Ð¼ÑĭÑħ": 4498,
      "ĠÐ´ÐµÐ»Ð°ÑĤÑĮ": 4499,
      "ÑĥÐº": 4500,
      "Ð³Ð³": 4501,
      "ĠÑĢÐµÑĨÐµ": 4502,
      "ÐĲÐ³ÑĢÐ¾": 4503,
      "ĠÐ¾ÐºÐ°Ð·Ð°Ð»Ð¸ÑģÑĮ": 4504,
      "ÐµÐ½ÐµÑģÑģÐ°Ð½Ñģ": 4505,
      "57": 4506,
      "Ð½Ð¸Ð¼Ð¸": 4507,
      "ĠÐ·Ð°Ñī": 4508,
      "Ð¡Ð±": 4509,
      "ĠÐ·Ð°Ð¿ÑĥÑģÐº": 4510,
      "ĠÑĢÐµÐ½ÑĤÐ°Ð±ÐµÐ»ÑĮ": 4511,
      "ĠÑĢÐµÐ°ÐºÑĨÐ¸Ñı": 4512,
      "ĠÑģÐºÐ¾ÑĢÑĢÐµÐºÑĤÐ¸ÑĢÐ¾Ð²": 4513,
      "ĠÐ¾Ð±ÑĭÐºÐ½Ð¾Ð²": 4514,
      "dex": 4515,
      "ĠÐ²Ð¿Ð¾Ð»Ð½Ðµ": 4516,
      "ĠÐ·Ð°ÑĤÐµÐ¼": 4517,
      "ÐµÐ¹Ð»": 4518,
      "ĠÐ¤ÑĥÐ½Ð´Ð°Ð¼ÐµÐ½ÑĤÐ°Ð»ÑĮ": 4519,
      "ĠÐłÐ¾ÑģÑģÐ¸Ñİ": 4520,
      "ĠÐ¿ÑĢÐ¾Ð±Ð¸Ð²": 4521,
      "ĠÐ´Ð¾Ð»Ð³Ð¾ÑģÑĢÐ¾ÑĩÐ½Ð¾Ð¼": 4522,
      "ĠÐ²ÑĭÐ³Ð»ÑıÐ´ÑıÑĤ": 4523,
      "ĠÐĺÐĺÐ¡": 4524,
      "ĠÑĩÐµÐ»Ð¾Ð²": 4525,
      "ap": 4526,
      "ÐµÐ½Ð½ÑĥÑİ": 4527,
      "Ð¾Ð½Ð¾Ð²": 4528,
      "ĠÐ´Ð°Ð½Ð½ÑĭÑħ": 4529,
      "ÐŁÐĺ": 4530,
      "ĠÐ²ÐµÑģ": 4531,
      "ĠÐ¿Ð¾ÑĤÑĢÐµÐ±ÑĥÐµÑĤÑģÑı": 4532,
      "ĠÑĦÑĮÑİÑĩÐµÑĢÑģ": 4533,
      "ĠÐŁÐ¾ÑĤÐµÐ½ÑĨÐ¸Ð°Ð»": 4534,
      "ÑĭÑĢÐµ": 4535,
      "ĠÐ²Ð°ÑĢÐ¸": 4536,
      "ĠÐ²ÑĭÑĢÐ°ÑģÑĤ": 4537,
      "ĠÑĥÐ´Ð¾Ð±ÑĢÐµ": 4538,
      "Ð¿Ð»Ð¸": 4539,
      "ÐµÐ³Ð¸": 4540,
      "ĠÐĺÐ¢": 4541,
      "ĠÑĥÐ¶ÐµÑģÑĤÐ¾Ñĩ": 4542,
      "ĠÐ³Ð»Ð¾Ð±": 4543,
      "ĠÐºÐ¾Ñģ": 4544,
      "ĠÑģÑĤÐ°ÑĤÐ¸ÑģÑĤÐ¸": 4545,
      "ĠÑģÐ¸ÑĤÑĥÐ°ÑĨÐ¸Ñı": 4546,
      "ĠÑĢÐ°ÑģÑħÐ¾Ð´Ð¾Ð²": 4547,
      "ĠÐºÐ¾ÑĢÑĢÐµÐºÑĨÐ¸Ñİ": 4548,
      "ĠÑĦÐ¸Ð³Ñĥ": 4549,
      "ĠÐ¿Ð¾Ð±": 4550,
      "Ð°Ð½Ð¸ÐµÐ¼": 4551,
      "Ð»ÑıÑĨÐ¸Ð¸": 4552,
      "ĠÐ²ÑĭÐ·": 4553,
      "ĠÐ³ÑĢÐ°ÑĦÐ¸Ðº": 4554,
      "ĠÑģÐ¾ÐºÑĢÐ°ÑĤÐ¸ÑĤÑĮ": 4555,
      "Ð°ÑĢÐ³ÐµÑĤ": 4556,
      "Ð°Ð·Ð¸": 4557,
      "ĠÐ°Ð³": 4558,
      "Ġ74": 4559,
      "ĠÐĿÐµÑģÐ¼Ð¾ÑĤÑĢÑı": 4560,
      "ĠÐ´Ð¾Ð»Ñı": 4561,
      "ĠÐ¾Ð¶Ð¸Ð´Ð°ÑĤÑĮ": 4562,
      "Ð»Ð¾Ð½": 4563,
      "ĠÐ¿Ð¾Ð»Ð¾Ð³Ð¾Ð³Ð¾": 4564,
      "61": 4565,
      "ÑĥÐ·": 4566,
      "ĠÐ´Ð¸Ð²Ð¸Ð´ÐµÐ½Ð´Ð½ÑĭÑħ": 4567,
      "ĠÐŁÑĥÐ»ÑĮÑģÐµ": 4568,
      "ĠÑĢÐµÐ´Ð¾Ð¼Ð¸ÑĨÐ¸": 4569,
      "ĠÐºÐ°ÑĢÑĤÐ¸Ð½Ñĭ": 4570,
      "ĠÐ½Ð¸ÑģÑħÐ¾Ð´ÑıÑīÐ¸Ð¹": 4571,
      "ĠÑĤÐ¾Ð¿Ð»Ð¸": 4572,
      "ÑĥÐ´Ð¸": 4573,
      "ĠÑģÐ¿ÐµÑĨÐ¸": 4574,
      "ĠÑĢÐµÐ³ÑĥÐ»Ñı": 4575,
      "ĠÑģÐ¼Ð¾Ð¶ÐµÑĤ": 4576,
      "ĠÐ²Ð¾ÑģÑģÑĤÐ°Ð½Ð¾Ð²": 4577,
      "ĠÐ¿ÑĢÐ¾Ð´Ð°Ð¶Ðµ": 4578,
      "Ð¸ÑĤÐµÐ»Ð¸": 4579,
      "ĠÐ±Ð»Ð¾ÐºÐ¸": 4580,
      "ĠÐ»Ð¾ÐºÐ°Ð»ÑĮÐ½Ð¾Ð³Ð¾": 4581,
      "ĠÐ·Ð°ÐºÑĢÐµÐ¿Ð»ÐµÐ½Ð¸Ðµ": 4582,
      "ÐºÑģÐ¸": 4583,
      "ĠÐ²ÑģÑĤÑĢÐµ": 4584,
      "ĠÐ²ÑĭÐ´ÐµÐ»": 4585,
      "Ð´Ð¾ÑħÐ¾Ð´Ð½Ð¾ÑģÑĤÑĮ": 4586,
      "ck": 4587,
      "Ð°ÑİÑĤÑģÑı": 4588,
      "ĠÐĴÐµÑĢÐ¾ÑıÑĤ": 4589,
      "ĠÐĿÐµÐ´ÐµÐ»ÑĮ": 4590,
      "ĠÐĲÐ¤Ðļ": 4591,
      "ĠÐ¿ÑĢÐ¾Ð±Ð¾Ðµ": 4592,
      "ĠUS": 4593,
      "Ð¼Ð°ÑĢÐºÐµÑĤÐ°": 4594,
      "ĠÑģÐ¾Ð¾ÑĤÐ²ÐµÑĤÑģÑĤÐ²ÐµÐ½Ð½Ð¾": 4595,
      "li": 4596,
      "Ð¼ÐµÑĤ": 4597,
      "ĠÑģÐºÐ°Ð·": 4598,
      "ĠÑĤÑĢÐ°": 4599,
      "Ġ41": 4600,
      "ÐĿÐł": 4601,
      "ĠÑģÐ¸Ð³Ð½Ð°Ð»Ð¸Ð·Ð¸": 4602,
      "Ð¤Ð¸Ð½Ð°Ð¼Ð°": 4603,
      "no": 4604,
      "ĠÐ²ÑĭÐ±": 4605,
      "ĠÐ¿ÑĢÐ¾Ð²ÐµÐ´ÐµÑĤ": 4606,
      "Ð°ÑĤÐ¸Ð²Ñĥ": 4607,
      "ĠÐ¿ÐµÑĢÐµÐºÑĥÐ¿Ð»ÐµÐ½Ð½Ð¾ÑģÑĤÑĮ": 4608,
      "ÑĢÐºÑĤÐ¸": 4609,
      "ĠÐŁÐ¾ÑįÑĤÐ¾Ð¼Ñĥ": 4610,
      "ĠÐ´Ð¾Ð»Ð¶Ð½Ñĭ": 4611,
      "ĠÐºÐ¾Ð½ÐºÑĥÑĢ": 4612,
      "ĠÐ¾ÑĢÐ¸ÐµÐ½ÑĤÐ¸ÑĢÐ¾Ð¼": 4613,
      "ĠÐ¿Ð°Ð´Ð°ÑİÑĤ": 4614,
      "ĠÑĥÑĩÐ¸ÑĤÑĭÐ²Ð°": 4615,
      "ĠÑĦÐ¸Ð½Ð°Ð½": 4616,
      "ĠÐ±ÑĥÐ¼Ð°Ð³Ð°": 4617,
      "ĠÐ´ÑĢÐ°Ð¹Ð²ÐµÑĢÑĭ": 4618,
      "Ð¾ÑĨÐ¸": 4619,
      "ÐµÑĢÐ¼": 4620,
      "ĠÐ¸Ð½Ð´Ð¸ÐºÐ°ÑĤÐ¾ÑĢÐµ": 4621,
      "ĠÑģÐ¼ÐµÑģÑĤ": 4622,
      "ĠÑģÑĥÑīÐµÑģÑĤÐ²ÐµÐ½Ð½Ð¾": 4623,
      "ĠÐ²ÑĭÑĪÐ»Ð°": 4624,
      "ĠÐ¡ÐľÐĺ": 4625,
      "ĠÑĢÑĥÐ±ÐµÐ¶Ð°": 4626,
      "ĠÐ¿ÑĢÐµÐ¼Ð°ÑĢÐºÐµÑĤÐ°": 4627,
      "ĠÐ¿ÑĢÐ¾ÑĪÐ»Ð¾Ð¼": 4628,
      "ĠÐ¾ÑģÐ½Ð¾Ð²Ð½Ð°Ñı": 4629,
      "Ð½ÑĥÐ»Ð¸ÑģÑĮ": 4630,
      "Ð¾Ð»Ð¾ÑĤÐ¾": 4631,
      "ĠÐ·Ð°ÑģÐµÐ´Ð°Ð½Ð¸Ñı": 4632,
      "Ġ130": 4633,
      "ĠÐ»Ð¸ÑģÑĤÐ¸": 4634,
      "ĠÐ°Ð²ÑĤ": 4635,
      "ĠÐ³ÑįÐ¿Ð°": 4636,
      "93": 4637,
      "MOEX": 4638,
      "ĠÐ¼Ð¾Ð½": 4639,
      "Ð¼Ð¸Ð½Ð¸": 4640,
      "ĠÐ±ÑĥÐ¼Ð°Ð³Ðµ": 4641,
      "ĠÐ¿Ð¾Ð»Ð¾Ð¶Ð¸ÑĤÐµÐ»ÑĮÐ½ÑĥÑİ": 4642,
      "ĠÐ¿ÑĢÐ¾Ð¸Ð·Ð¾ÑĪÐ»Ð¾": 4643,
      "Ð°Ð½Ð¾": 4644,
      "ĠÑģÐµÑĤÐ¸": 4645,
      "ĠÐĲÐ²": 4646,
      "120": 4647,
      "Ð½Ð¸Ð¿ÑĢÐ¾": 4648,
      "Ð²ÐµÑģÑĤ": 4649,
      "ÑĢÑĥÐ¶": 4650,
      "ĠÑģÐ¿Ð¸ÑģÐ¾Ðº": 4651,
      "ĠÑģÑĢÐµÐ´Ð½ÐµÑģÑĢÐ¾ÑĩÐ½Ð¾Ð¼": 4652,
      "ĠÐºÐ»ÑİÑĩÐµÐ²ÑĭÐµ": 4653,
      "ĠÐ½Ð°ÐºÐ¾Ð¿": 4654,
      "Ġ2030": 4655,
      "ĠÐ¿Ð¾Ð»ÑĮÐ·Ð¾Ð²": 4656,
      "Ð¾Ð²ÑĥÑİ": 4657,
      "ÑĪÑĤÐ°": 4658,
      "Ð°Ð»ÑĮÐ½Ð¾Ð³Ð¾": 4659,
      "99": 4660,
      "ĠÐ·Ð°Ð¿Ð°": 4661,
      "ĠÑĩÐµÐ»Ð¾Ð²ÐµÐº": 4662,
      "ĠÐ²Ð°Ð¼Ð¸": 4663,
      "ÐµÐ¼ÑģÑı": 4664,
      "ĠÐ¿Ð¾ÑģÐ»ÑĥÐ¶": 4665,
      "ĠÐ´Ð¸Ð²Ð¸Ð´ÐµÐ½Ð´Ð½Ð¾Ð³Ð¾": 4666,
      "ĠÐ¶Ð¸Ð»ÑĮ": 4667,
      "ĠÐ²ÑĭÐ¿Ð»Ð°ÑĤÐ°": 4668,
      "ĠÐļÐ¾Ð½Ñģ": 4669,
      "Ð¿ÑĢÐ¾Ð³Ð½Ð¾Ð·": 4670,
      "ÑĪÐ¸ÑĢ": 4671,
      "Ð²Ð»ÐµÐ½Ð¸Ð¹": 4672,
      "Ġ63": 4673,
      "ĠÐŃÑĤÐ¸": 4674,
      "ÑĨÐµÐ½Ð°ÑĢÐ¸Ð¹": 4675,
      "ĠÐ°ÐºÑĤÐ¸Ð²Ð½Ð¾": 4676,
      "ĠÑģÐ¾Ð¾Ð±ÑīÐ¸Ð»": 4677,
      "ĠÐºÐ¾Ð¼Ð¸": 4678,
      "ĠÐ¼Ð°Ðµ": 4679,
      "ĠÑĢÐµÐ¶Ð¸Ð¼": 4680,
      "ĠÑģÐ¿Ð¾ÑģÐ¾Ð±ÑģÑĤÐ²Ð¾Ð²Ð°ÑĤÑĮ": 4681,
      "ĠÐºÑĢÑĥÐ³": 4682,
      "ĠÐ¿ÑĢÐ¾Ð¸ÑģÑħÐ¾Ð´Ð¸ÑĤ": 4683,
      "ĠÐłÐµÐ½ÐµÑģÑģÐ°Ð½Ñģ": 4684,
      "Ð¸Ð½Ð°Ð¼": 4685,
      "ĠÐ·Ð°Ð¿ÑĢÐµÑĤ": 4686,
      "Ġ125": 4687,
      "ĠÐ¾ÑĤÑĩÐµÑĤÐ½Ð¾ÑģÑĤÐ¸": 4688,
      "ĠÐ¸Ð´ÐµÑĤ": 4689,
      "ÑĥÐ»ÑĮÑĤÐ¸": 4690,
      "ĠÐŀÐ¿Ð¾ÑĢÐ°": 4691,
      "ĠÑįÑĦÑĦÐµÐºÑĤ": 4692,
      "ĠÑħÐ¾ÑĤÑı": 4693,
      "ĠÐļÐ¸": 4694,
      "ÑīÐ¸Ð¹": 4695,
      "ĠÑĩÐ°ÑģÑĤÐ½ÑĭÑħ": 4696,
      "gi": 4697,
      "ĠÐļÑĢÐ°ÑĤÐºÐ¾ÑģÑĢÐ¾Ñĩ": 4698,
      "ĠÐ¿ÐµÑĢÐµÐ²Ð¾Ð·": 4699,
      "ĠÐ¿Ð¾ÑģÐ»ÐµÐ´Ð½ÑİÑİ": 4700,
      "ĠÑģÐ¸Ð³Ð½Ð°Ð»Ñĭ": 4701,
      "ho": 4702,
      "ĠÑģÑĦ": 4703,
      "Ð±Ð°": 4704,
      "ĠÐ°Ð²Ð¸": 4705,
      "Ġ52": 4706,
      "ĠÐĹÐ½Ð°Ñĩ": 4707,
      "ĠÐ½ÐµÐ´Ð²Ð¸Ð¶Ð¸Ð¼Ð¾ÑģÑĤÐ¸": 4708,
      "ĠÑģÐ²Ð¾Ð¹": 4709,
      "ĠÐ¾Ñī": 4710,
      "ĠÑĤÐµÐºÑĥÑīÐµÐ¼Ñĥ": 4711,
      "ĠÑģÐ¸Ð»ÑĮÐ½Ð¾Ð³Ð¾": 4712,
      "ĠÐ¿Ð°ÐºÐµÑĤ": 4713,
      "ĠÐ¾ÑĤÐ¼ÐµÑĩÐ°": 4714,
      "ĠÐ´Ð²Ð¸Ð³": 4715,
      "Ġ115": 4716,
      "ĠÑĨÐµÐ½ÑĤÑĢÐ°": 4717,
      "ĠÐĵÐĶÐł": 4718,
      "ĠÐ²ÑĭÐºÑĥÐ¿Ð»": 4719,
      "ĠÑģÐ»Ð°Ð±ÐµÐµ": 4720,
      "ĠÐĲÐ»ÐµÐºÑģÐ°Ð½Ð´": 4721,
      "ĠÐ¾ÑģÑĤÐ¾ÑĢÐ¾Ð¶": 4722,
      "ÑĢÐµÐ³Ð¸": 4723,
      "ĠÐºÐ¾ÑĤÐ¾ÑĢÐ¾Ðµ": 4724,
      "ĠÑĩÐµÑĤÑĭÑĢÐµ": 4725,
      "ÐŁÐ¾Ð´Ð´ÐµÑĢÐ¶ÐºÐ¸": 4726,
      "42": 4727,
      "ĠÐ²ÑĭÐ³Ð¾Ð´": 4728,
      "ĠÑĢÑĥÐ±Ð»ÐµÐ²": 4729,
      "ĠÐ¿ÑĢÐ¾ÑĨÐµ": 4730,
      "ĠÑģÐ»Ð¾Ð²": 4731,
      "Ð¾ÑģÑĤÐ¾Ðº": 4732,
      "ĠÐŀÑĤÑĩÐµÑĤ": 4733,
      "ĠÑĥÐ²ÐµÐ»Ð¸ÑĩÐµÐ½Ð¸Ðµ": 4734,
      "Ð²Ð»ÑıÑĤÑĮ": 4735,
      "ĠÐ¿ÑĢÐ¸Ð·": 4736,
      "ĠÑģÐ¼Ð¾Ð³Ð»Ð°": 4737,
      "ĠÑĦÐ¾ÑĢÐ¼Ð¸ÑĢÑĥÑİÑĤ": 4738,
      "ĠÐ²ÑĭÐ¿Ð»Ð°ÑĩÐ¸Ð²Ð°ÑĤÑĮ": 4739,
      "Ð±Ð¸Ð½Ð°ÑĢ": 4740,
      "ÑĢÑıÑĤ": 4741,
      "ĠÐ¿Ð¾ÑĩÐµÐ¼Ñĥ": 4742,
      "ĠÐ¿Ð¾Ð¼Ð¾Ð³": 4743,
      "ĠÐ¡Ð¸ÑģÑĤÐµÐ¼": 4744,
      "ĠÑģÐ¸Ð»Ñĥ": 4745,
      "ĠÐĵÑĢÑĥÐ¿Ð¿Ð°": 4746,
      "ĠÑĥÑĤÑĢÐµÐ½Ð½ÐµÐ¹": 4747,
      "ĠÐ¿ÑĢÐµÐ¾Ð´Ð¾Ð»ÐµÐ½Ð¸Ðµ": 4748,
      "ĠTech": 4749,
      "he": 4750,
      "Ð±Ð¸Ð»Ð¸": 4751,
      "ÐŀÐļ": 4752,
      "Ð¾ÑĤÐµÑħ": 4753,
      "ĠÐ¿ÐµÑĢÐ²Ð¾Ðµ": 4754,
      "ĠÐºÐ¾Ð½ÑĤÑĢÐ¾Ð»Ð¸": 4755,
      "ÐµÑĤÐµÑĢÐ±ÑĥÑĢÐ³": 4756,
      "ra": 4757,
      "Ð¡Ð¾Ð¿ÑĢÐ¾ÑĤÐ¸Ð²Ð»ÐµÐ½Ð¸Ñı": 4758,
      "ÐºÐ¸Ð¼": 4759,
      "ÑĦÐ¸ÐºÑģÐ¸": 4760,
      "ĠÐ½ÐµÑĦÑĤÑıÐ½ÑĭÑħ": 4761,
      "ĠÐ¡ÑĤÐ°ÑĢÑĤ": 4762,
      "ĠÐ´Ð¸ÑģÐºÐ¾Ð½": 4763,
      "ÑĢÐ¾Ð²Ð°Ð½Ð½ÑĭÑħ": 4764,
      "ĠÑĢÐµÐ·ÑĥÐ»ÑĮÑĤÐ°ÑĤÐµ": 4765,
      "ĠÐ¸Ð½Ð´ÐµÐºÑģÐµ": 4766,
      "is": 4767,
      "Ð¾ÐºÑĥ": 4768,
      "Ð¾Ð½Ð¾Ð¹": 4769,
      "ĠÐ¿Ð¾Ð´Ð´ÐµÑĢÐ¶ÐºÐµ": 4770,
      "ĠÐ¿ÑĢÐ°ÐºÑĤÐ¸ÑĩÐµÑģÐºÐ¸": 4771,
      "SC": 4772,
      "ĠÐ¾Ð¿Ð°Ñģ": 4773,
      "ĠÐºÐ°Ð¿Ð¸ÑĤÐ°Ð»": 4774,
      "ĠÐ¿Ð¾ÑģÑĤÐµÐ¿ÐµÐ½Ð½Ð¾": 4775,
      "ÑĢÑĭÐ²": 4776,
      "ĠÐ¾Ð¿ÑĥÑģÑĤ": 4777,
      "ĠÐĿÐµÐ³Ð°ÑĤÐ¸Ð²": 4778,
      "ĠÐ¿ÐµÑĢÐ²Ð¾Ð¼": 4779,
      "ĠÐ¿Ð¾Ð·Ð²Ð¾Ð»ÑıÑİÑĤ": 4780,
      "67": 4781,
      "Ð²Ð°Ð½Ð¸Ñı": 4782,
      "ĠÐ·Ð°ÑĦÐ¸ÐºÑģÐ¸": 4783,
      "Ð¶ÐµÐ´Ð½ÐµÐ²": 4784,
      "ĠÐ´Ð°Ð½Ð½ÑĭÐ¹": 4785,
      "ĠÐ¾ÑĤÐ¼ÐµÐ½": 4786,
      "ĠÐķÑīÐµ": 4787,
      "ĠÐ´Ð¸Ð²Ð¸Ð´ÐµÐ½Ð´Ð°Ñħ": 4788,
      "ĠÐ¾Ð±ÑĢÐ°ÑĤÐ¸ÑĤÑĮ": 4789,
      "Ð¥": 4790,
      "Ð¶Ñĥ": 4791,
      "ĠÐ¿ÑĢÐ¸Ð±Ð°Ð²Ð¸Ð»": 4792,
      "ÑĥÐ»ÑıÑĢ": 4793,
      "ÐµÐ½Ð½Ð¾Ð¼": 4794,
      "ĠÐ¾ÑĤÐºÑĢÑĭÑĤÐ¸Ð¸": 4795,
      "ĠÐ²ÐµÑĩÐµÑĢÐ½ÐµÐ¹": 4796,
      "ÑĥÐ»Ð»Ð¸": 4797,
      "ĠÐ¼Ð°Ð»": 4798,
      "ĠÑĥÐ´ÐµÑĢÐ¶Ð¸": 4799,
      "ĠÑĦÐ¸ÑĪ": 4800,
      "ĠÑĤÑĢÐµÐ±ÑĥÐµÑĤÑģÑı": 4801,
      "ÑĢÑıÐ¶": 4802,
      "ĠÐ²ÑĭÑģÑĤÑĥÐ¿Ð¸ÑĤÑĮ": 4803,
      "ÑĤÑĢÐµÐ½Ð´": 4804,
      "ĠÑĨÐ¸ÐºÐ»Ð°": 4805,
      "ĠÐ¿ÑĭÑĤÐ°": 4806,
      "ĠÐ¡Ð½Ð¸Ð¶ÐµÐ½Ð¸Ðµ": 4807,
      "ĠÐ¼Ð¾Ð¼ÐµÐ½ÑĤÑĥ": 4808,
      "ĠÑĤÐµÑħÐ½Ð¾Ð»Ð¾Ð³Ð¸": 4809,
      "ĠÐŁÐ¾ÐºÑĥÐ¿Ð°ÑĤÐµÐ»Ð¸": 4810,
      "ÐºÑĢÐµÐ´Ð¸ÑĤ": 4811,
      "ÐµÐ½ÑĤÑĭ": 4812,
      "ĠÐ¶Ð´ÐµÑĤ": 4813,
      "Ġ2017": 4814,
      "ĠÑĢÐ°Ð·Ð½Ð¾Ð½Ð°Ð¿ÑĢÐ°Ð²Ð»ÐµÐ½Ð½ÑĥÑİ": 4815,
      "ĠÐ¸Ð¿Ð¾ÑĤÐµÐºÐ¸": 4816,
      "ĠÑģÐ´ÐµÐ»Ð¾Ðº": 4817,
      "ĠÐ¿Ð¾Ð¿ÑĭÑĤÐºÐ°": 4818,
      "ĠÐ¸Ð½Ð¸ÑĨÐ¸Ð°ÑĤÐ¸Ð²Ñĥ": 4819,
      "ĠÐ¿ÑĥÑĤÐ¸": 4820,
      "ĠÑĢÐ°ÑģÑĤÑĥÑīÐµÐ¼": 4821,
      "41": 4822,
      "53": 4823,
      "ĠÐ¡ÐµÐ³": 4824,
      "ÑħÐ¾Ð´ÑıÑĤ": 4825,
      "ĠÐĿÐ¾Ð²ÑĭÐ¹": 4826,
      "ĠÑģÐ¾ÑģÑĤÐ¾": 4827,
      "ĠÐ¿Ð¾Ð·Ð¸ÑĤÐ¸Ð²Ð½ÑĭÐµ": 4828,
      "ĠÑģÐ»ÐµÐ´ÑĥÑİÑīÐ¸Ðµ": 4829,
      "Ð¾Ð¿ÑĢÐ¾Ð²Ð¾Ð´": 4830,
      "Ġ51": 4831,
      "ÑĨÐ¸Ð¾Ð½Ð½ÑĭÐµ": 4832,
      "Ġ140": 4833,
      "ĠÐ¾ÑĤÑĩÐµÑĤÐ°": 4834,
      "ĠÑĢÐµÐ°ÐºÑĨÐ¸Ñİ": 4835,
      "ĠÐ¿ÑĢÐ¸Ð½Ð°Ð´Ð»ÐµÐ¶Ð¸ÑĤ": 4836,
      "ÐµÐ½Ð½Ð¾Ðµ": 4837,
      "ĠÐ²ÑĭÐ¿Ð»Ð°ÑĤÐµ": 4838,
      "ĠPol": 4839,
      "ĠÑĤÐµÐ¼Ð¿Ñĭ": 4840,
      "ĠÑĤÐµÐ½Ð´ÐµÐ½ÑĨÐ¸Ñı": 4841,
      "ĠÐ¸Ð½Ð¸ÑĨÐ¸Ð°ÑĤÐ¸": 4842,
      "ĠÐ¿ÑĢÐ¾ÑĤÐ¾ÑĢÐ³Ð¾Ð²ÐºÐ¸": 4843,
      "ÑĥÐ»ÑĮÑĤÐ¸Ð¿Ð»Ð¸": 4844,
      "Ð¾ÑĢÐ¾Ð´": 4845,
      "Ġ250": 4846,
      "ĠÐĳÐµÐ»": 4847,
      "ĠÐ°Ð½Ð°Ð»": 4848,
      "ÑĪÐ¸Ð¹ÑģÑı": 4849,
      "ĠÑĦÐ¸ÐºÑģÐ°ÑĨÐ¸Ð¸": 4850,
      "ĠÑĢÑĥÐºÐ¾Ð²Ð¾Ð´Ð¸ÑĤÐµÐ»ÑĮ": 4851,
      "ĠÐ½ÐµÑĢÐµÐ·Ð¸Ð´ÐµÐ½ÑĤÐ¾Ð²": 4852,
      "71": 4853,
      "ĠÐ¿ÑĢÐµÐ´Ð»Ð¾Ð¶ÐµÐ½Ð¸Ñı": 4854,
      "ĠÐ±Ð»Ð°Ð³Ð¾Ð¿ÑĢÐ¸ÑıÑĤÐ½Ð¾Ð¹": 4855,
      "ĠÐľÐľ": 4856,
      "ÑģÐ¸Ð¼": 4857,
      "ÑįÐ¼Ð¸": 4858,
      "Ġ124": 4859,
      "ĠÐ²ÑĢÐµÐ¼ÐµÐ½Ð¸": 4860,
      "ĠÐ¸Ð·Ð¼ÐµÐ½ÐµÐ½Ð¸Ñı": 4861,
      "ĠÐ±ÑĥÐ´ÑĥÑīÐµÐ¼": 4862,
      "ÑĩÐ½ÑĭÐ¼": 4863,
      "ĠÐ¼Ð½Ð¾Ð³Ð¾": 4864,
      "ĠÐ¡Ð¸ÑĤÑĥÐ°": 4865,
      "ĠÐ¡ÑĨÐµÐ½Ð°ÑĢÐ¸Ð¹": 4866,
      "ĠÑĦÐ¸Ð½Ð°Ð½ÑģÐ¾Ð²ÑĥÑİ": 4867,
      "Ð·Ð°ÑĨÐ¸Ñİ": 4868,
      "ĠÑģÑĩÐµÑĤÐ°": 4869,
      "ĠÐ¾Ð±ÑĬÐµÐ¼Ñĭ": 4870,
      "ĠÐ³ÑĢÐ°Ð½Ð¸ÑĨÐ°": 4871,
      "ĠÐ¾ÑīÑĥÑĤÐ¸": 4872,
      "ĠÐĲÐ½": 4873,
      "ÑīÐ¸ÐºÐ¾Ð²": 4874,
      "ĠÐ¿ÑĢÐ¾Ð±Ð¾ÐµÐ¼": 4875,
      "ĠÐ£ÑĩÐ¸ÑĤÑĭÐ²Ð°ÐµÐ¼": 4876,
      "ĠÐ½ÐµÐ¾Ð±ÑħÐ¾Ð´Ð¸Ð¼Ð¾": 4877,
      "ĠÐ½Ð°ÑģÐµÐ»": 4878,
      "nolo": 4879,
      "ÑıÐ³": 4880,
      "ĠÐ²ÑĭÐ¿Ð¾Ð»": 4881,
      "ĠÐ³Ð¾Ð´Ñĭ": 4882,
      "ĠÐ¿Ð¾ÐºÐ°Ð·ÑĭÐ²Ð°ÐµÑĤ": 4883,
      "ĠÐ²Ð°Ð»ÑİÑĤÐ½Ð¾Ð¹": 4884,
      "ĠÐĶÐ¾ÑģÑĤÑĥÐ¿": 4885,
      "ĠÑģÑĤÐ°ÑĢÑĤÐ¾Ð²Ð°Ð»Ð°": 4886,
      "ĠÐ·Ð°Ð½Ð¸Ð¼Ð°": 4887,
      "ÐµÑģ": 4888,
      "ĠÐ²Ð¸": 4889,
      "ĠÑĥÑĪÐ»Ð¸": 4890,
      "ĠÐĳÐ¾Ð»ÑĮ": 4891,
      "170": 4892,
      "ĠÑĪÐ°Ð³": 4893,
      "ÐĺÐ½Ð²ÐµÑģÑĤÐ¸ÑĨÐ¸Ð¹": 4894,
      "ĠUSD": 4895,
      "Ð§": 4896,
      "Ð¿ÑıÑĤ": 4897,
      "ĠÐ¿ÑĢÐ¸Ð²ÐµÑģÑĤÐ¸": 4898,
      "ĠÐĿÐ°Ð±Ð¸": 4899,
      "ĠÐ²Ð¾ÑģÑģÑĤÐ°Ð½Ð°Ð²Ð»Ð¸": 4900,
      "ĠÐ¾ÑģÑĤÐ°Ð²Ð°ÑĤÑĮÑģÑı": 4901,
      "ĠÐ°ÐºÑĤÐ¸Ð²Ð½Ð¾ÑģÑĤÐ¸": 4902,
      "ĠÑģÐ¾ÑħÑĢÐ°Ð½ÑıÑİÑĤ": 4903,
      "ĠÐĿÐ°Ð±Ð¸ÑĥÐ»Ð»Ð¸": 4904,
      "ĠÐ¿ÑĢÐ°Ð²Ð¸ÑĤÐµÐ»ÑĮ": 4905,
      "Ð°Ð½Ð½Ð°Ñı": 4906,
      "ĠÐ¿ÑĢÐ¾ÑĪÐµÐ´": 4907,
      "ĠÐĵÐµÑĢÐ¼": 4908,
      "ĠÐłÐ°Ñģ": 4909,
      "ĠÐ¿Ð¾Ð·Ð¸ÑĤÐ¸Ð²Ð½Ð¾": 4910,
      "ĠÐ¾Ð¶Ð¸Ð´Ð°Ð½Ð¸Ð¸": 4911,
      "ĠÐºÐ¾Ð½ÑĬÑİÐ½ÐºÑĤÑĥÑĢÑĭ": 4912,
      "ĠÐ²Ð»Ð°Ð´": 4913,
      "ĠÐ°Ð¿": 4914,
      "ĠÑĢÐ°ÑģÑĤÑĥÑīÐ¸Ð¹": 4915,
      "ĠÑģÐ¾Ð¾Ð±ÑīÐ°ÐµÑĤ": 4916,
      "ĠÐ½Ð°Ð¿ÑĢÐ¸Ð¼ÐµÑĢ": 4917,
      "Ð¾ÑĢÑĮ": 4918,
      "ÑĨÐ¸ÑıÐ¼": 4919,
      "ĠÐĺÐ¼Ð¿": 4920,
      "ĠÑĢÐ°ÑģÐ¿Ð¸ÑģÐºÐ¸": 4921,
      "ĠÐ·Ð½Ð°ÑĩÐµÐ½Ð¸Ð¹": 4922,
      "ĠÐ¿ÑĢÐ¾Ð¼ÑĭÑĪÐ»": 4923,
      "ĠÑĢÐµÐ³Ð¸Ð¾Ð½Ð°": 4924,
      "ĠÐŃÐºÑģÐ¿Ð¾ÑĢÑĤ": 4925,
      "ĠÑįÐºÑģÐ¿ÐµÑĢÑĤÑĭ": 4926,
      "ĠÑĤÑıÐ½ÐµÑĤÑģÑı": 4927,
      "ĠÐ¡Ð¸ÑĤÑĥÐ°ÑĨÐ¸Ñı": 4928,
      "ĠÑģÑĤÐ¸": 4929,
      "Ð°ÑģÑĤÑĮ": 4930,
      "ĠÐľÐ¾Ð¶": 4931,
      "ÐĴÐĳ": 4932,
      "ĠÑĤÐ¾ÑĩÐºÐ¸": 4933,
      "ĠÐ¿ÑĢÐµÐ´Ð¿ÑĢÐ¸ÑıÑĤÐ¸": 4934,
      "ĠÐºÐ¾Ð»Ð¸ÑĩÐµÑģÑĤÐ²Ð¾": 4935,
      "ĠÑĩÐ»ÐµÐ½Ð°Ð¼": 4936,
      "Ð»ÑĥÐ±": 4937,
      "ĠÑĢÐ°Ð·Ð²ÐµÑĢ": 4938,
      "ÐµÐ´ÐµÑĢÐ°Ð»ÑĮ": 4939,
      "ĠÑģÑĢÐµÐ´Ð½ÑİÑİ": 4940,
      "ĠÑģÐµÐ½ÑĤÑıÐ±ÑĢÑĮ": 4941,
      "ĠÐ²ÑĭÑģÐ¾ÐºÐ°Ñı": 4942,
      "ĠÑģÐ½Ð¸Ð·Ð¸Ð²ÑĪÐµÐ³Ð¾ÑģÑı": 4943,
      "ĠÐºÐ¾Ð½ÑĤÑĢÐ¾Ð»Ñı": 4944,
      "500": 4945,
      "Ð¼Ð±Ð°ÑĢ": 4946,
      "ĠÑĤÐ¾Ð¶Ðµ": 4947,
      "ĠÐ¾ÑĤÐ´ÐµÐ»ÑĮ": 4948,
      "ĠÐ¾Ð±ÑĢÐ°Ñī": 4949,
      "ĠÑĢÐ°Ð·Ð²Ð¾ÑĢÐ¾ÑĤÐ°": 4950,
      "ĠÐ½Ð°ÑĪÐµÐ¼": 4951,
      "ĠÐ¯Ð¿Ð¾Ð½Ð¸Ð¸": 4952,
      "ĠTechnolo": 4953,
      "Ð¼Ð±Ð°ÑĢÐ³Ð¾": 4954,
      "96": 4955,
      "ÑĢÐ°ÑģÑĤÐ¸": 4956,
      "Ð¾Ð±Ð¸Ð»Ð¸": 4957,
      "ĠÐ¿ÑĢÐ¸ÑĤ": 4958,
      "ĠÐ¿ÑĢÐ¸Ð²ÐµÐ»": 4959,
      "ĠÑĤÑĢÐµÑĤÐ¸Ð¹": 4960,
      "ĠÐ´Ð¾Ð»Ð³Ð¾ÑģÑĢÐ¾ÑĩÐ½ÑĭÑħ": 4961,
      "ĠÑģÑĤÑĢÑĥÐºÑĤÑĥÑĢÐ¾Ð¹": 4962,
      "ĠÐ°ÐºÑĤÑĥÐ°Ð»ÑĮÐ½Ñĭ": 4963,
      "Ð½Ð¾Ð»Ð¾Ð³": 4964,
      "ym": 4965,
      "ÐµÐ½ÑĮÑİ": 4966,
      "Ð½Ð¾ÑģÑĤÐµÐ¹": 4967,
      "ĠÑĢÐ°Ð·Ð´ÐµÐ»": 4968,
      "ĠÑĢÑĭÐ²": 4969,
      "ers": 4970,
      "ĠÑĦÑĮÑİÑĩÐµÑĢÑģÑĭ": 4971,
      "ĠÐŃÐºÑģÐ¿ÐµÑĢ": 4972,
      "ÑĢÐ°Ð»Ð¸": 4973,
      "ÑģÐºÐ¸Ð¼Ð¸": 4974,
      "ĠÑĤÐµÑħÐ½Ð¸ÑĩÐµÑģÐºÑĥÑİ": 4975,
      "ĠÐ¼Ð°ÐºÑģÐ¸Ð¼ÑĥÐ¼Ð°Ð¼": 4976,
      "ĠÐºÐ¾ÑĢÐ¿Ð¾ÑĢÐ°ÑĤÐ¸Ð²Ð½ÑĭÑħ": 4977,
      "ĠÐ¾ÑīÑĥÑĤÐ¸Ð¼": 4978,
      "ĠÑĤÐ°ÐºÐ¾Ð¼": 4979,
      "ĠÑģÐ¼ÐµÐ½Ð¸": 4980,
      "ĠÐ¶Ð´ÑĥÑĤ": 4981,
      "gies": 4982,
      "51": 4983,
      "ĠÐ³Ð¾Ð´Ð¾Ð²Ð¾Ð¼": 4984,
      "ÑģÐ»Ñĥ": 4985,
      "ÐĲÐĽ": 4986,
      "ĠÑģÑĤÐ°Ð±Ð¸Ð»Ð¸": 4987,
      "ĠÐ¿Ð¾ÑĤÐ¾Ð»": 4988,
      "ĠÐ¿Ð¾Ð»Ð¸ÑĤÐ¸ÐºÑĥ": 4989,
      "ÑĥÐ²": 4990,
      "ÑĦÐ¸Ð½Ð°": 4991,
      "ĠÐ¿ÑĢÐ¾Ð²ÐµÑģÑĤÐ¸": 4992,
      "ĠÐ±ÑĥÐ¼Ð°Ð³Ð°Ð¼Ð¸": 4993,
      "ĠÐ²ÑĢÐµÐ¼ÐµÐ½Ð½Ð¾": 4994,
      "Ġ240": 4995,
      "ĠÐ¾ÑĤÐºÑĢÑĭÑĤÐ¸Ñİ": 4996,
      "Ð¾Ð±Ð¾ÑĢÐ¾ÑĤ": 4997,
      "Ġ157": 4998,
      "ĠÐ§ÑĥÑĤÑĮ": 4999,
      "ĠÐĿÑĥÐ¶Ð½Ð¾": 5000,
      "ĠÐ²ÑĭÑĢÐ°Ð¶ÐµÐ½Ð¸Ð¸": 5001,
      "ĠÐºÐ¾ÑĢÐ¸Ð´Ð¾ÑĢ": 5002,
      "da": 5003,
      "ĠÑĢÐ¸ÑĤ": 5004,
      "ĠÐ¿Ð¾Ð´Ð½ÑıÑĤÑĮ": 5005,
      "ĠÐ¸Ð½Ð²ÐµÑģÑĤÐ¸ÑĨÐ¸Ð¾Ð½Ð½ÑĭÑħ": 5006,
      "ĠÐ¿Ð¾Ð²ÐµÑģÑĤ": 5007,
      "ĠÐ½Ð¸ÑģÑħÐ¾Ð´ÑıÑīÐµÐ¼": 5008,
      "ĠÐ»Ð¾ÐºÐ°Ð»ÑĮÐ½ÑĭÑħ": 5009,
      "ĠÐ¿ÑĢÐ¾ÑģÐ°Ð´ÐºÐ°": 5010,
      "ÑĥÑĢÐ³Ð¸": 5011,
      "ĠÐ¶Ð´ÐµÐ¼": 5012,
      "ĠÑĢÐ°ÑģÑħÐ¾Ð´Ñĭ": 5013,
      "ĠÐĿÐ¾Ð²Ð°ÑĤÑįÐº": 5014,
      "ÐĺÐ½Ð²ÐµÑģÑĤÐ¸ÑĨÐ¸Ð¸": 5015,
      "ĠÐ´Ð²ÑĥÑħÐ»ÐµÑĤÐ½Ð¸Ð¹": 5016,
      "ÑĢÐ°Ð»": 5017,
      "ĠÑĢÐµÑĪÐ¸": 5018,
      "ĠÐ´Ð¸Ð²Ð¸Ð´ÐµÐ½Ð´Ð½ÑĥÑİ": 5019,
      "ĠÐ¿Ð¾Ð¿ÑĥÐ»ÑıÑĢ": 5020,
      "ĠCN": 5021,
      "ĠÐ¾ÑĤÑĢÐ¸ÑĨÐ°ÑĤÐµÐ»ÑĮÐ½ÑĥÑİ": 5022,
      "ĠÐ¾Ð±ÐµÑģÐ¿Ðµ": 5023,
      "ĠÐľÐľÐĴÐĳ": 5024,
      "pp": 5025,
      "ĠÐ¸ÑģÐºÐ»ÑİÑĩÐ°ÐµÑĤÑģÑı": 5026,
      "ĠÐ¼Ð°ÑģÑĪÑĤÐ°": 5027,
      "46": 5028,
      "ĠK": 5029,
      "ĠÐłÐŀÐ¡": 5030,
      "ĠÐ¿ÑĢÐµÐ´Ð¿": 5031,
      "ĠÐ´Ð¾Ð¿ÑįÐ¼Ð¸": 5032,
      "98": 5033,
      "ÑĢÐ¾Ð²Ð°Ð½Ð½ÑĭÐµ": 5034,
      "ÐŀÐĵ": 5035,
      "ĠÐ¿ÑĢÐ¾Ð±Ð¸ÑĤÑĮ": 5036,
      "Ġ2016": 5037,
      "ĠÐ·Ð°ÐºÑĢÑĭÐ»Ð°ÑģÑĮ": 5038,
      "ĠÐĴÐ»Ð°Ð´Ð¸Ð¼Ð¸": 5039,
      "ÑħÐ°ÑģÑĤÐ¸Ðº": 5040,
      "ĠÑģÐµÐ¼": 5041,
      "ĠÐ¼ÑĥÐ»ÑĮÑĤÐ¸Ð¿Ð»Ð¸": 5042,
      "ĠÐ¾ÑĤÐ¼ÐµÑĤÐ¾Ðº": 5043,
      "ĠÑĢÐ°ÑģÐ¿Ð¾Ð»Ð°Ð³Ð°ÐµÑĤ": 5044,
      "ĠÐ¡Ð¾Ð²ÐºÐ¾Ð¼ÑĦÐ»Ð¾ÑĤ": 5045,
      "ĠÐĿÐ°Ñĩ": 5046,
      "ĠÑĢÐ°ÑģÑĪÐ¸ÑĢ": 5047,
      "ĠÐ´Ð²Ð¸Ð¶ÐµÐ½Ð¸Ñİ": 5048,
      "%);": 5049,
      "ĠÐ¾Ð³ÑĢÐ°Ð½Ð¸ÑĩÐµÐ½Ð¸Ð¹": 5050,
      "ĠÑĥÑĩÐ°ÑģÑĤÐ¸Ðµ": 5051,
      "ĠÑĥÐ¿Ð¾Ð¼Ð¸Ð½Ð°": 5052,
      "ÑĥÐ»ÑĮÑĤÐ°ÑĤÑĭ": 5053,
      "ĠÑĤÐ°Ð¹Ð¼ÑĦÑĢÐµÐ¹Ð¼Ð°": 5054,
      "Ð½ÐµÐ½Ð¸Ñı": 5055,
      "ÑĪÐ°": 5056,
      "ĠÐ¿ÑĢÐ¾Ð´Ð»": 5057,
      "ĠÑĨÐµÐ½Ð½ÑĭÑħ": 5058,
      "Ġ120": 5059,
      "ĠÐ½Ð°Ð¿ÑĢÐ°Ð²Ð»ÐµÐ½Ð¸Ñı": 5060,
      "ĠÑģÐ¾Ð±ÑĭÑĤÐ¸Ðµ": 5061,
      "ĠÑĤÐµÑģÑĤÐ°": 5062,
      "ĠÐļÐ°Ð·Ð°Ñħ": 5063,
      "ĠÐĶÐ¾ÑģÑĤÑĥÐ¿Ð½Ð¾": 5064,
      "ĠÐ½Ð¸Ð¼": 5065,
      "ÑĢÐµÑĤ": 5066,
      "ĠÑĤÐ¾Ð³Ð´Ð°": 5067,
      "Ġ134": 5068,
      "ĠÑĤÐ¾ÑĢÐ³Ð¾Ð²Ð°ÑĤÑĮÑģÑı": 5069,
      "ĠÑģÐ´ÐµÐ»Ð°ÑĤÑĮ": 5070,
      "ĠÑģÑĤÑĢÐ°Ñħ": 5071,
      "ĠÐ½Ð¾Ð²Ð¾ÑģÑĤÑıÑħ": 5072,
      "ĠÑĥÐºÑĢÐµÐ¿": 5073,
      "ĠÑĢÐ°ÑģÐ¿ÑĢÐ¾Ð´Ð°Ð¶Ð¸": 5074,
      "ĠÐ¿Ð¾Ð¼Ð¾ÑīÑĮÑİ": 5075,
      "ĠÐ²Ð¾ÑĤ": 5076,
      "ĠÑĥÐ¼": 5077,
      "ÑĢÑĥÑİÑīÐ¸Ñħ": 5078,
      "Ð²Ð¸ÑĢÑĥ": 5079,
      "ÑĪÐ¸Ð»Ð°ÑģÑĮ": 5080,
      "ĠÐ¿ÑĢÐµÐ´ÑĭÐ´ÑĥÑīÐ¸Ñħ": 5081,
      "ĠÑĦÐ¾ÑĢÐ¼Ð¸ÑĢÐ¾Ð²": 5082,
      "etal": 5083,
      "ĠÐ¿ÑĢÐ¾ÑģÑĤÑĢÐ°Ð½ÑģÑĤÐ²Ð¾": 5084,
      "ĠÐ·Ð°ÑīÐ¸ÑĤ": 5085,
      "ĠÑĤÑı": 5086,
      "Ġ102": 5087,
      "ĠÐ²ÑĭÑĪÐ»Ð¸": 5088,
      "ĠÐ¿ÑĢÐ¾ÑĪÐµÐ»": 5089,
      "ÐµÐ´Ð¸": 5090,
      "ĠÐļÐ¾ÑĢ": 5091,
      "ÐĲÐĹ": 5092,
      "ĠÐ¼ÐµÑģÑıÑĨÑĭ": 5093,
      "ĠÐ´Ð°Ð²Ð»ÐµÐ½Ð¸Ñı": 5094,
      "ĠÐ´Ð¾Ð»Ð¶ÐµÐ½": 5095,
      "ĠÐłÐ¾ÑģÑĤÐµÐ»ÐµÐºÐ¾Ð¼": 5096,
      "ĠÐ¿ÑĢÐ¸Ð½ÑıÐ»": 5097,
      "ĠÐĴÐ·Ð³Ð»ÑıÐ´": 5098,
      "ĠPolym": 5099,
      "ÑĩÐ½Ð¾Ð¹": 5100,
      "ĠÐ¿ÐµÑĢÐµÑĢÐ¾ÑģÐ»Ð°": 5101,
      "ĠÑģÑĤÑĢÐ°Ð½Ðµ": 5102,
      "ĠÑģÐµÑĢÐµÐ´Ð¸Ð½Ñĭ": 5103,
      "ĠÐ¼ÐµÐ´Ð²ÐµÐ¶ÑĮ": 5104,
      "be": 5105,
      "ĠÑģÐ±": 5106,
      "ĠÐ¿Ð¾ÑĤÐ¾ÐºÐ°": 5107,
      "ĠÑĥÐ±ÑĭÑĤÐ¾Ðº": 5108,
      "ĠÑħÐ¾": 5109,
      "ĠÐ¾ÑģÑĤÐ°Ð²": 5110,
      "ĠÐ¿ÑĢÐ¾Ð´Ð°Ð²Ð°ÑĤÑĮ": 5111,
      "ĠÐ¿ÑĢÐ¸Ð¾Ð±ÑĢÐµÑĤ": 5112,
      "ĠÑģÐ²ÑıÐ·Ð°Ð½Ð¾": 5113,
      "ÑĩÐ½Ð¾Ð³Ð¾": 5114,
      "ĠÐ¤Ð¾Ñģ": 5115,
      "ĠÐ´Ð¸Ð²Ð¸Ð´ÐµÐ½Ð´Ð½ÑĭÐ¹": 5116,
      "ĠÑģÑĨÐµÐ½Ð°ÑĢÐ¸ÐµÐ¼": 5117,
      "ĠÐ·Ð½Ð°ÑĩÐ¸Ð¼": 5118,
      "ĠÐľÐ¸Ð½ÑĦÐ¸Ð½Ð°": 5119,
      "ĠÐ¼ÐµÐ½ÐµÐ´Ð¶Ð¼ÐµÐ½ÑĤÐ°": 5120,
      "ÑħÐ²Ð°ÑĤ": 5121,
      "ĠÑĢÐ¾ÑģÑģÐ¸Ð¹ÑģÐºÑĥÑİ": 5122,
      "Ġ142": 5123,
      "ĠÐ¢Ð¾ÑĢÐ³Ð¾Ð²ÑĭÐ¹": 5124,
      "Ġ=": 5125,
      "ĠÐĴÐµÐ´": 5126,
      "ĠÐ²ÑĭÐ¸Ð³": 5127,
      "ĠÑģÐ¿ÑĥÑģÐºÐ°": 5128,
      "ĠÐ´Ð¾Ð»Ð³Ð¾ÑģÑĢÐ¾ÑĩÐ½ÑĭÐ¹": 5129,
      "ĠÐ¾Ð±ÑģÑĥÐ´": 5130,
      "ĠÐ¿Ð»Ð°Ð½Ð°": 5131,
      "ĠÐºÐ¾Ð¼Ð¼ÐµÐ½ÑĤÐ¸": 5132,
      "LT": 5133,
      "Ð±Ð°Ð½ÐºÐ°": 5134,
      "Ð¾Ð¹Ð´ÐµÑĤ": 5135,
      "ĠÐ¿ÑĢÐ¾ÐµÐºÑĤÐ°": 5136,
      "ĠÐłÑĥÑģÐ°Ð³ÑĢÐ¾": 5137,
      "ĠÐ´Ð¾Ð±ÑĭÑĩÑĥ": 5138,
      "ĠÐ¾ÑĤÑģÑĥÑĤÑģÑĤÐ²Ð¸Ðµ": 5139,
      "ĠÐ¿ÑĢÐ¾Ð²Ð¾Ð´Ð¸ÑĤ": 5140,
      "Ð¾Ð½Ð°Ð²Ð¸ÑĢÑĥ": 5141,
      "ĠÐ¿Ð¾ÑıÐ²Ð¸Ð»Ð°ÑģÑĮ": 5142,
      "ĠÑĤÑĢÐ°Ð½ÑģÐ¿": 5143,
      "Ð½Ð¸ÑĤÑĮ": 5144,
      "Ġ535": 5145,
      "ĠÐ¦ÐµÐ½ÑĤ": 5146,
      "ĠÑģÑĤÐ°ÑĢÑĤÐ°": 5147,
      "ĠÐ°Ð»Ð¼Ð°Ð·Ð¾Ð²": 5148,
      "ĠPolymetal": 5149,
      "ĠÐ³Ð³": 5150,
      "ĠÐ¿ÑĢÐ¾ÑģÑĤÐ¾": 5151,
      "Ð°ÑĤÐµÐ»ÑĮÐ½Ð¾": 5152,
      "ĠÑĥÐ²ÐµÐ»Ð¸ÑĩÐµÐ½Ð¸Ñı": 5153,
      "ĠÑįÑĦÑĦÐµÐºÑĤÐ¸Ð²": 5154,
      "Ð»Ð°ÑĤ": 5155,
      "ĠÐ³ÑĢÐ°Ð¶": 5156,
      "Ð½ÑĥÑĤÑģÑı": 5157,
      "ĠÐ¿ÑĢÐ¾Ð´Ð¾Ð»Ð¶Ð¸ÑĤÑģÑı": 5158,
      "ĠÐ¸Ð½Ð²ÐµÑģÑĤÐ¾ÑĢÑĥ": 5159,
      "ĠÐ´Ð¾Ð¿ÑĥÑģÐº": 5160,
      "ÑĥÐµÐ¼": 5161,
      "ĠÐ¾ÐºÐ°Ð¶": 5162,
      "Ð¡ÐµÐ²ÐµÑĢ": 5163,
      "ĠÐ·Ð°Ð¿ÑĥÑģÑĤÐ¸": 5164,
      "ĠÐºÐ°Ð½Ð°Ð»Ðµ": 5165,
      "ĠÑĤÐ¾Ð²Ð°ÑĢÐ¾Ð²": 5166,
      "ĠÐłÐŀÐ¡Ð¡": 5167,
      "ÐµÑĢÐ³": 5168,
      "Ð»Ð°Ð²Ñĭ": 5169,
      "ÑĩÐµÑģÐºÐ¸Ð¼": 5170,
      "old": 5171,
      "ĠÐ³Ð¾ÑģÑĥÐ´Ð°ÑĢÑģÑĤÐ²Ñĥ": 5172,
      "ĠÐ¿ÐµÑĢÐµÑģÐµÐº": 5173,
      "\",": 5174,
      "Â¥": 5175,
      "ĠÑĥÑĩÐµ": 5176,
      "ĠÐ½ÐµÐ·Ð½Ð°Ñĩ": 5177,
      "ÐµÐ´Ð¸Ð½": 5178,
      "ĠÐ¤Ð¸Ð½Ð°Ð¼": 5179,
      "ĠÑĢÐ¾ÑģÑĤÐµ": 5180,
      "ÑĭÐ³ÑĢÑĭ": 5181,
      "ĠÑĥÑĩÐ¸ÑĤÑĭÐ²Ð°Ñı": 5182,
      "ĠÐ¾ÑĦÐ¸ÑĨÐ¸": 5183,
      "ĠÐ¦Ð¸": 5184,
      "ĠÐ¿ÐµÑĢÐµÐ²Ð¾Ð´": 5185,
      "ĠÐ¾Ð±ÑĬÑıÑģ": 5186,
      "osh": 5187,
      "ĠÑĢÐ°ÑģÐ¿ÑĢÐ¾Ð´Ð°Ð¶": 5188,
      "ĠÐºÐ¾Ð½ÑĬÑİÐ½ÐºÑĤÑĥÑĢÐ°": 5189,
      "ĠÐ´ÑĢÑĥÐ³Ð¾Ð¹": 5190,
      "Ð°ÑĢÐ°ÐºÑĤ": 5191,
      "ĠÐ¿Ð¾ÑģÐ»ÑĥÐ¶Ð¸ÑĤ": 5192,
      "97": 5193,
      "ÑĥÑİÑĤÑģÑı": 5194,
      "Ð±Ð½Ð¾Ð³Ð¾": 5195,
      "ĠÐ¿ÑĢÐµÐ¿ÑıÑĤ": 5196,
      "ĠÑħÐ°ÑĢÐ°ÐºÑĤ": 5197,
      "ĠÐ¸ÑĤÐ¾Ð³Ð¸": 5198,
      "ĠÐ¼Ð¾": 5199,
      "ĠÐ¼Ð°Ð³": 5200,
      "Ð¶ÐµÑģÑĤÐ²ÐµÐ½Ð½ÑĭÑħ": 5201,
      "ĠÐ¢ÐŀÐł": 5202,
      "ĠÐĺÐ½ÑĦÐ»ÑıÑĨÐ¸Ñı": 5203,
      "ĠÐĹÐ½Ð°ÑĩÐµÐ½Ð¸Ðµ": 5204,
      "«ÐĿ": 5205,
      "ÑĢÐ°Ð¼Ð¸": 5206,
      "ÑģÑĤÐ²Ð¾Ð¼": 5207,
      "Ð°Ð»ÑĮÐ½Ð°Ñı": 5208,
      "Ð¼ÐµÑģÑıÑĩ": 5209,
      "ÐĵÐŀÐĴ": 5210,
      "tive": 5211,
      "ĠÐ¿ÑĢÐ¾Ð´Ð°Ð¶Ñĥ": 5212,
      "ĠÐ¸Ð¼ÐµÐµÑĤ": 5213,
      "ÐĲÐ¡Ð¡": 5214,
      "Ð¯Ð½Ð´ÐµÐºÑģ": 5215,
      "ĠÑģÐ¾Ð¿ÑĢÐ¾Ð²": 5216,
      "ĠÐºÐ¾Ð¼Ð¿Ð°Ð½Ð¸Ñİ": 5217,
      "Ġ95": 5218,
      "ĠÐ¿Ð¾Ð»Ð¸ÑĤÐ¸ÐºÐµ": 5219,
      "ĠÐ¿ÐµÑĢÐµÐ³Ð¾Ð²Ð¾ÑĢ": 5220,
      "ĠÐ®Ð½Ð¸Ð¿ÑĢÐ¾": 5221,
      "ÐĺÐĻÐ¡Ðļ": 5222,
      "Ð¿ÑĢ": 5223,
      "ĠÐļÐ¾Ð¼Ð¿Ð°Ð½Ð¸Ð¸": 5224,
      "ĠÑĢÐµÐºÐ¾ÑĢÐ´Ð½ÑĭÐµ": 5225,
      "ĠÐ¿ÑĢÐµÐ²ÑĭÑĪ": 5226,
      "ĠÐłÐ«ÐĿ": 5227,
      "ĠÐĺÐ¢ÐŀÐĵ": 5228,
      "ÑĤÐµÐ¹": 5229,
      "hoosh": 5230,
      "ĠTechnologies": 5231,
      "ĠÐłÐŀÐ¡Ð¡ÐĺÐĻÐ¡Ðļ": 5232,
      "ĠÐ¢ÐŀÐłÐĵÐŀÐĴ": 5233,
      "ĠÑĤÐ°Ð¼": 5234,
      "Ġ165": 5235,
      "ĠÐ¸ÑģÑĤÐ¾ÑĩÐ½Ð¸ÐºÐ¾Ð²": 5236,
      "ĠWhoosh": 5237,
      "ĠÐłÐŀÐ¡Ð¡ÐĺÐĻÐ¡ÐļÐĺÐĻ": 5238,
      "ĠÐ¼ÐµÑĢÑĭ": 5239,
      "ĠÑĥÐ¿Ð°Ð»Ð°": 5240,
      "ĠÐ¾Ð¶Ð¸Ð´Ð°ÑİÑĤ": 5241,
      "ÐµÑĢÑĭÐ½Ð¾Ñĩ": 5242,
      "ĠÑģÐ¿Ð¾ÑģÐ¾Ð±Ð½Ñĭ": 5243,
      "ĠÑĦÑĮÑİÑĩÐµÑĢÑģÐ°": 5244,
      "ĠÐłÐ«ÐĿÐŀÐļ": 5245,
      "ÑĨÐµÐ²": 5246,
      "ĠÑĥÐ³Ð»Ñı": 5247,
      "ĠÐ¸Ð½Ð²ÐµÑģÑĤÐ¸ÑĢÐ¾Ð²Ð°ÑĤÑĮ": 5248,
      "ĠÐĿÐ¸": 5249,
      "ĠÑįÐ»ÐµÐºÑĤÑĢÐ¾Ð¼": 5250,
      "ĠÑĤÑĢÐ¸Ð³Ð³": 5251,
      "ĠÑįÐ»ÐµÐºÑĤÑĢÐ¾ÑįÐ½ÐµÑĢ": 5252,
      "ĠÐĺÐ¢ÐŀÐĵÐĺ": 5253,
      "Ð¡ÐŁ": 5254,
      "ĠÐľÐ½ÐµÐ½Ð¸Ðµ": 5255,
      "ĠÑĤÐ¾ÑĢÐ³Ð¾Ð²Ð»Ð¸": 5256,
      "ĠÑĢÐ¸ÑģÐºÐ°": 5257,
      "ĠÑģÐ¾Ð²ÐµÑĢÑĪ": 5258,
      "ĠÑģÑĤÐ¸Ð¼Ñĥ": 5259,
      "ĠÑģÐ½Ñı": 5260,
      "ĠÐ²ÑĭÑģ": 5261,
      "ĠÐ´Ð¾ÑĢÐ°Ð±Ð¾ÑĤ": 5262,
      "ĠIR": 5263,
      "ĠÐ¢Ð°ÐºÐ¾Ð¹": 5264,
      "Ð¸Ð´ÐµÐ¾": 5265,
      "ĠÐ¾ÑĤÑģÐºÐ¾ÑĩÐ¸Ð»Ð¸": 5266,
      "Ð¿Ð¾Ð´": 5267,
      "ĠÐ¿ÑĢÐ¾Ð´Ð¾Ð»Ð¶Ð°ÐµÑĤÑģÑı": 5268,
      "ÐŃÐ¡": 5269,
      "ĠÐ½Ð°ÑģÑĤÑĢÐ¾ÐµÐ½Ð¸Ñı": 5270,
      "Ð¾Ð²Ð°ÑĢ": 5271,
      "ĠÐ´Ð°Ð»": 5272,
      "Ð¾Ð»Ð»Ð°": 5273,
      "ĠÐ±ÐµÑģÐ¿": 5274,
      "ÑĢÐ¸ÑĦÐ¸": 5275,
      "ĠÐ¾Ð±Ð¼ÐµÐ½": 5276,
      "ÑģÑĤÐ²ÐµÐ½Ð½ÑĭÐµ": 5277,
      "ĠÐ¿Ð¾ÑĢÑıÐ´ÐºÐ°": 5278,
      "Ġ73": 5279,
      "ÑĢÐµÐ³Ð¸ÑģÑĤÑĢÐ¸": 5280,
      "Ð¿Ð¾Ð½": 5281,
      "ĠÐĵÐ°Ð·": 5282,
      "ĠÐ¶ÐµÐ»": 5283,
      "Ð¶Ð¸Ð½Ð°Ð»ÑĮ": 5284,
      "ĠÐºÐ¾": 5285,
      "ÑĢÑĥÑİÑĤÑģÑı": 5286,
      "ĠÐ·Ð°ÐºÑĥÐ¿": 5287,
      "ÑĩÐ¸ÐºÐ¾Ð²": 5288,
      "ĠApp": 5289,
      "ĠÐ²ÑĭÑģÑĤÑĥÐ¿Ð¸ÑĤ": 5290,
      "ĠÑģÐ¾ÐºÑĢÐ°ÑīÐµÐ½Ð¸Ðµ": 5291,
      "ĠÐ´Ð»Ð¸Ð½Ð½ÑĭÐµ": 5292,
      "ou": 5293,
      "Ð°Ð¼Ð°": 5294,
      "ÑĢÐµÐ¿": 5295,
      "ÐµÑĢÐºÐ¸": 5296,
      "Ġ118": 5297,
      "ĠÐ²ÑĭÐ´Ð°": 5298,
      "ÑĦÐ¾ÑĢÐ¼Ð¸": 5299,
      "ĠÐ¾Ð´Ð½Ð°": 5300,
      "ĠÑģÐºÐ¾Ð»ÑĮÐ·ÑıÑīÑĥÑİ": 5301,
      "ĠÐ´Ð¸Ð½Ð°Ð¼Ð¸ÐºÐµ": 5302,
      "ĠÐ¡Ð»ÐµÐ´ÑĥÑİÑī": 5303,
      "ÑĢÐ¾ÑģÑģÐ¸Ñı": 5304,
      "ĠÐĴÑģ": 5305,
      "ĠÐļÐĿÐł": 5306,
      "ĠÐ¢ÐĲÐ¡Ð¡": 5307,
      "ĠÐ¿ÐµÑĢÐµÐ¾ÑĨÐµÐ½": 5308,
      "ĠÐ¼Ð¸Ð½Ð¸Ð¼Ð°Ð»ÑĮ": 5309,
      "ĠÐ²ÑĤÐ¾ÑĢÐ¾Ð¼": 5310,
      "Ð²Ð¸Ð»ÐµÐ³Ð¸": 5311,
      "ĠÐ´Ð¾Ð±Ð°": 5312,
      "ĠÐ²Ð¾Ð»Ð°ÑĤÐ¸Ð»ÑĮÐ½Ð¾ÑģÑĤÑĮ": 5313,
      "ÑĥÐ³Ð¾Ð»ÑĮ": 5314,
      "Ð¾ÑģÐ»ÐµÐ´ÑģÑĤÐ²Ð¸Ð¸": 5315,
      "ĠÐ¿ÑĢÐµÐ´ÐµÐ»Ð°Ñħ": 5316,
      "ĠÑĥÑģÐ¸Ð»": 5317,
      "Ð¿Ð»Ð¾ÑĤ": 5318,
      "ĠÑįÐºÑģÑĤ": 5319,
      "Ġ88": 5320,
      "ĠÐ¿Ð¾Ð»ÑĥÐ³Ð¾Ð´Ð¸Ñı": 5321,
      "ĠÐ»Ð¸Ð´ÐµÑĢÐ¾Ð²": 5322,
      "ĠÐ¿ÑĥÐ±Ð»Ð¸ÐºÐ°ÑĨÐ¸Ð¸": 5323,
      "ĠÐ·Ð°Ð±Ð»Ð¾ÐºÐ¸": 5324,
      "ĠÐ²ÑĭÑĪÐµÐ»": 5325,
      "ÑģÐ¸Ð»Ð°": 5326,
      "Ð²Ð¸Ð´ÐµÑĤ": 5327,
      "ĠÐ¢ÑĢÐµÐ½Ð´": 5328,
      "ĠÐ¸ÑĤÐ¾Ð³Ðµ": 5329,
      "ĠÐŀÑģÑĨÐ¸Ð»Ð»ÑıÑĤÐ¾ÑĢÑĭ": 5330,
      "Ð²ÑĪÐ¸ÑģÑĮ": 5331,
      "ĠÐ²Ð¿Ð»Ð¾ÑĤ": 5332,
      "Ð·Ñı": 5333,
      "ÐµÐ»Ð¸ÑĤ": 5334,
      "ÑģÑĤÐ²ÑĥÑİÑīÐ¸": 5335,
      "ĠÑĦÐ¾Ð½Ð´Ð°": 5336,
      "ĠÐĹÐ°Ð¼": 5337,
      "ĠÑģÐ²Ð¾Ð±Ð¾Ð´": 5338,
      "Ð£Ð¡": 5339,
      "ĠIMOEX": 5340,
      "Ð¾Ð±Ð¸Ð»ÑĮ": 5341,
      "ĠÐ²Ð²ÐµÐ´ÐµÐ½Ð¸Ð¸": 5342,
      "ĠÑĥÐ´ÐµÑĢÐ¶Ð°ÑĤÑĮÑģÑı": 5343,
      "ĠÑģÐ²Ð¸Ð´ÐµÑĤ": 5344,
      "Ð¸ÑĤÐµÐ»Ñı": 5345,
      "ĠÑĢÑĥÐ±Ð»ÑıÑħ": 5346,
      "ĠÐ¿ÑĢÐ¾Ð´ÑĥÐºÑĨÐ¸Ð¸": 5347,
      "ĠÑĤÑĢÐµÐ¹Ð´": 5348,
      "ÐµÐ½ÑĮÐ³Ð¸": 5349,
      "ĠÐ¿ÑĢÐµÐ´Ð»Ð¾Ð¶Ð¸Ð»": 5350,
      "ĠÐ¡ÑĤÑĢÑĥÐºÑĤÑĥ": 5351,
      "ĠÐ±Ð¾Ð»ÑĮÑĪÐ¸Ð½": 5352,
      "Ð¿ÐµÑĢÐ¸Ð¾Ð´Ð½Ð¾Ð¹": 5353,
      "ĠÐĺÐ½ÑĤÐµÑĢÑĦÐ°ÐºÑģ": 5354,
      "ĠâĤ½/Â¥": 5355,
      "ĠÐľÐµÑĩÐµÐ»": 5356,
      "ĠÑĥÐ´Ð¾Ð±ÑĢÐµÐ½Ð¸Ð¹": 5357,
      "Ð¿Ð¾Ð¼": 5358,
      "ĠÐºÐ°ÑĤ": 5359,
      "ĠÐ¿ÑĢÐ¾Ñı": 5360,
      "ĠÐ³Ð¾Ð´Ð¾Ð²Ð¾Ð³Ð¾": 5361,
      "Ġ4000": 5362,
      "ĠÐ¶ÐµÑģÑĤ": 5363,
      "ĠÐ²Ð°Ð¶Ð½Ð¾": 5364,
      "ĠÑģÑĤÐ°Ð±Ð¸Ð»ÑĮÐ½ÑĭÐ¼Ð¸": 5365,
      "ĠÐ·Ð°Ð¼ÐµÐ´Ð»Ð¸": 5366,
      "ĠÐľÐ°ÐºÑģÐ¸Ð¼ÑĥÐ¼": 5367,
      "ositive": 5368,
      "ĠÐ½Ð¾Ð²Ð°Ñı": 5369,
      "ÐµÐ»ÑĮÐ·Ñı": 5370,
      "Ð¸ÑĤÐµÐ»ÑĮÐ½Ð¾Ð¹": 5371,
      "Ġ77": 5372,
      "ĠÐ¿Ð¾ÐºÑĥÐ¿ÐºÐµ": 5373,
      "ĠÑĦÐ¸ÐºÑģÐ¸": 5374,
      "ĠIII": 5375,
      "ĠÐ»Ð¸ÐºÐ²Ð¸Ð´Ð½Ð¾ÑģÑĤÐ¸": 5376,
      "ĠÐ¤ÑĥÐ½Ð´Ð°Ð¼ÐµÐ½ÑĤÐ°Ð»ÑĮÐ½ÑĭÐµ": 5377,
      "ĠÑģÐ²Ð¸Ð´ÐµÑĤÐµÐ»ÑĮ": 5378,
      "ĠÐ¾ÑģÐ½Ð¾Ð²Ð½ÑĭÐ¼": 5379,
      "ĠÐºÑĢÑĥÐ¿Ð½ÑĭÑħ": 5380,
      "ĠÐ³Ð¾Ð²Ð¾ÑĢÑıÑĤ": 5381,
      "ÑĥÑģÑĤÐ¸ÑĤÑĮ": 5382,
      "ĠÑĢÐ°ÑģÐºÑĢÑĭ": 5383,
      "ĠÐ¿ÑĢÐµÐ·Ð¸Ð´ÐµÐ½ÑĤÐ°": 5384,
      "ĠÐ±Ð°Ð»Ð°Ð½": 5385,
      "ĠÑģÑĢÐ°Ð·Ñĥ": 5386,
      "Ð±Ñĥ": 5387,
      "ÑĢÐ¾Ð²ÐµÐ½ÑĮ": 5388,
      "ĠÑĢÐ¾ÑģÑģÐ¸ÑıÐ½": 5389,
      "ĠÐĹÐ¾Ð»Ð¾ÑĤÐ¾": 5390,
      "ĠÑģÐ¼Ð¾ÑĤÑĢÑıÑĤ": 5391,
      "ĠPositive": 5392,
      "ĠÐµÐ²ÑĢÐ¾Ð¿ÐµÐ¹ÑģÐºÐ¾Ð¼": 5393,
      "ĠÐłÐµÑĪÐµÐ½Ð¸Ðµ": 5394,
      "ÑĩÐµÑģÐºÐ¾Ð¼Ñĥ": 5395,
      "ÐŁÐµÑĤÐµÑĢÐ±ÑĥÑĢÐ³": 5396,
      "Ð°ÑĤÐµÐ»ÑıÐ¼": 5397,
      "ĠÐºÐ¾Ð½Ð²ÐµÑĢ": 5398,
      "ÑĢÐ¾ÑģÐ°": 5399,
      "ĠÐ´Ð°Ð»ÑĮÐ½ÐµÐ¹ÑĪÐµÐ¼": 5400,
      "ĠFi": 5401,
      "ĠÐ¿ÑĥÐ±Ð»Ð¸ÐºÑĥÐµÑĤ": 5402,
      "Ð¾Ð´Ð¾Ð±Ñĭ": 5403,
      "ĠÐ¼Ð¾ÑĢ": 5404,
      "ĠÐ¼ÐµÑĤ": 5405,
      "ĠÐĿÐ¾Ð²ÑĭÐµ": 5406,
      "ÑĩÐ°ÑģÑĤ": 5407,
      "Ġ61": 5408,
      "ĠÐºÐ¾Ð½ÑģÐ¾Ð»Ð¸Ð´Ð°ÑĨÐ¸Ñİ": 5409,
      "ĠÐ¿ÑĢÐ¾ÑĤÐ¸Ð²Ð¾ÑĢÐµ": 5410,
      "ĠÐ´Ð¾Ð»Ð¶Ð½Ð°": 5411,
      "ĠÐļÑĥÑĢÑģ": 5412,
      "ÑĢÐ¸ÑĦÐ¸Ð½Ð³": 5413,
      "ÐµÐ»Ð¸ÑĤÐµÐ¹": 5414,
      "ĠÐ°Ð½": 5415,
      "Ð¾ÐºÑĥÐ¿Ð°ÑĤÑĮ": 5416,
      "ĠÐ²ÐµÐ±Ð¸Ð½Ð°ÑĢ": 5417,
      "ĠÐ¼ÐµÑĤÐ°Ð»Ð»Ð¾Ð²": 5418,
      "ĠÐºÐ¾Ð¼Ð¿Ð»": 5419,
      "ĠÐ¾ÑģÐ¾Ð±ÐµÐ½Ð½Ð¾": 5420,
      "ĠÐºÐ¾Ð¼Ð¼ÐµÐ½ÑĤÐ¸ÑĢÑĥÑİÑĤ": 5421,
      "ÑĩÑĳÑĤ": 5422,
      "Ð¼ÑĥÐ¼Ñĥ": 5423,
      "ĠÑģÐ°Ð¼ÑĭÐ¹": 5424,
      "ĠÐ§Ð¸ÑģÑĤ": 5425,
      "Ð±Ð°ÑĢÑĢ": 5426,
      "ĠÑģÐ´ÐµÑĢÐ¶Ð¸Ð²Ð°ÐµÑĤ": 5427,
      "ĠÐ´Ð¸Ð²ÐµÑĢÐ³ÐµÐ½ÑĨÐ¸Ñı": 5428,
      "ĠÐ²ÑĭÐºÑĥÐ¿Ð»ÐµÐ½Ð°": 5429,
      "ĠÑħÐ¾ÑĩÐµÑĤ": 5430,
      "Ð±ÑĢÐ¸ÑĦÐ¸Ð½Ð³": 5431,
      "ĠÐ±ÐµÐ½": 5432,
      "ĠÐ»Ð¾Ð³Ð¸": 5433,
      "ĠSPO": 5434,
      "ĠÑģÑĤÐ°Ð½": 5435,
      "ĠÐŁÑĢÐ¸Ð±ÑĭÐ»ÑĮ": 5436,
      "ĠÐ½Ð°Ð¿ÑĢÐ°Ð²Ð»ÐµÐ½Ð¸Ðµ": 5437,
      "ĠÑģÐ¾ÑħÑĢÐ°Ð½ÐµÐ½Ð¸Ñı": 5438,
      "ĠÐŀÐ¶Ð¸Ð´Ð°ÐµÐ¼ÑĭÐµ": 5439,
      "Ð¾Ð»Ðº": 5440,
      "ĠÐĴÐµÐ»Ð¸": 5441,
      "ĠÑĦÐ¸Ð½Ð°Ð½ÑģÐ¸": 5442,
      "Ð·Ð°ÑĤ": 5443,
      "ĠÐ°ÑĥÐº": 5444,
      "Ð¾Ð³ÑĢÐ°ÑĦÐ¸": 5445,
      "ÐĺÐĶ": 5446,
      "ĠÑģÑĢÐµÐ´Ð½Ð¸Ð¼Ð¸": 5447,
      "ĠÐ¼ÐµÑģ": 5448,
      "ĠÐ½ÐµÐ´ÐµÐ»ÑĮÐ½ÑĭÐ¹": 5449,
      "Ġ122": 5450,
      "ĠQ": 5451,
      "ÑĦÑĢÑĭ": 5452,
      "ĠÑĢÐ°Ð²": 5453,
      "ĠÐ¸Ð·Ð±": 5454,
      "ĠÑģÑĤÐ°Ð½Ð¾Ð²": 5455,
      "ÐłÐ¾ÑģÐ½ÐµÑĦÑĤÐµÐ³Ð°Ð·": 5456,
      "ĠÐºÑĢÑĥÐ³Ð»": 5457,
      "ĠÐ¿Ð»Ðµ": 5458,
      "Ġ2000": 5459,
      "ĠÑĥÑĩ": 5460,
      "ĠÑĢÐ°Ð±Ð¾": 5461,
      "ĠÑĢÐ°Ð·Ð³": 5462,
      "ĠÑĤÑĢÐµÑĥÐ³Ð¾Ð»ÑĮ": 5463,
      "ĠÑįÐ½ÐµÑĢÐ³Ð¾": 5464,
      "ĠÑĥÐ³Ð¾Ð»ÑĮ": 5465,
      "ĠÐ¿Ð¾Ð»Ð½Ð¾ÑĨÐµÐ½Ð½Ð¾Ð³Ð¾": 5466,
      "asda": 5467,
      "ĠÐ½ÐµÐ¾Ð¿ÑĢÐµÐ´ÐµÐ»ÐµÐ½Ð½Ð¾ÑģÑĤÑĮ": 5468,
      "ĠÐµÐ¶ÐµÐºÐ²Ð°ÑĢÑĤÐ°Ð»ÑĮÐ½ÑĭÐ¼Ð¸": 5469,
      "asdaq": 5470,
      "ÑģÑĤÑĢ": 5471,
      "ĠÐ²Ð²Ð¾Ð´": 5472,
      "ĠÐĳÑĭ": 5473,
      "ĠÐ¿ÐµÑĢÐ²ÑĭÐ¼": 5474,
      "ÐµÐ²ÑĭÐµ": 5475,
      "ĠÐ¿Ð¾Ð²ÑĭÑģÐ¸Ð»": 5476,
      "ĠÐ¼Ð°ÐºÑģÐ¸Ð¼Ð°Ð»ÑĮÐ½Ð¾Ð¹": 5477,
      "ĠÑĢÐ°Ð±Ð¾ÑĤÑĭ": 5478,
      "ĠÐ¿Ð»Ð°ÑĤÐµÐ¶": 5479,
      "ĠÐļÐ¾Ð½ÑģÐµÐ½ÑģÑĥÑģ": 5480,
      "ĠÑģÐ¾Ð¿": 5481,
      "ĠÐ²ÐµÐ»Ð¸": 5482,
      "ÐµÐ½Ð½ÑĭÐ¼Ð¸": 5483,
      "ĠÐ¼Ð°Ð¹": 5484,
      "Ð»Ð¸ÑĩÐ¸": 5485,
      "ĠNasdaq": 5486,
      "ĠÐ¾ÑĤÐ¼ÐµÑĤÐ¸Ð»": 5487,
      "ĠÐ±Ð¾Ð»ÑĮÑĪÐµÐ¹": 5488,
      "ĠÑĢÐ°ÑģÑħÐ¾Ð¶Ð´": 5489,
      "ĠÑĤÐµÐºÑĥÑīÐ¸Ð¹": 5490,
      "ĠÐ°Ð½Ð°Ð»Ð¸ÑĤÐ¸ÐºÐ°": 5491,
      "ĠÐ¿ÑĢÐ¾Ð³ÑĢÐ°Ð¼Ð¼Ñĭ": 5492,
      "ĠÐ½Ð°ÑģÐµÐ»ÐµÐ½Ð¸Ñı": 5493,
      "Ð¿Ð¾Ð²": 5494,
      "Ð»Ð¸ÑĨ": 5495,
      "ĠÑĤÐ°ÐºÐ¾Ðµ": 5496,
      "ĠPri": 5497,
      "ĠÐ¾Ð±Ð½Ð¾Ð²Ð¸ÑĤÑĮ": 5498,
      "ĠÐŁÑĥÐ»ÑĮÑģ": 5499,
      "ĠÐ¾ÑĤÐ»Ð¸ÑĩÐ°Ð»Ð°ÑģÑĮ": 5500,
      "Ð£Ð¡ÐĲÐĽ": 5501,
      "ĠÐ¡ÑĤÑĢÑĥÐºÑĤÑĥÑĢÐ°": 5502,
      "ÐµÑĩÐµ": 5503,
      "ĠÑĤÐ°ÑĢÐ³ÐµÑĤ": 5504,
      "ĠÐ¿Ð¾Ð½Ð¸": 5505,
      "ĠÑĢÐ°ÑģÐ¿Ð¸ÑģÐ¾Ðº": 5506,
      "ĠÑįÑĤÐ¸Ð¼": 5507,
      "ĠÐ½ÐµÑĦÑĤÐµÐ¿ÑĢÐ¾Ð´ÑĥÐºÑĤÑĭ": 5508,
      "220": 5509,
      "ÑĩÐ½ÑĭÐµ": 5510,
      "ĠÐ´Ð»": 5511,
      "ĠÐ¤Ð¾Ð½Ð´": 5512,
      "ĠÐ¾ÑĤÐ¼ÐµÑĩ": 5513,
      "ĠIV": 5514,
      "ĠÐ½ÐµÑģÐºÐ¾Ð»ÑĮ": 5515,
      "ĠÐºÑĢÐ°Ð¹Ð½Ðµ": 5516,
      "ÑĢÑĥÐ³": 5517,
      "ĠÐµÐ´": 5518,
      "ÑĪÐ¸Ð¼Ð¸": 5519,
      "ĠÐ£ÑĢÐ¾Ð²ÐµÐ½ÑĮ": 5520,
      "ĠÐ¿ÑĢÐ¾Ð´Ð¾Ð»Ð¶Ð¸ÑĤÑĮÑģÑı": 5521,
      "ĠÐ¾ÑĤÐºÑĢÑĭÑĤ": 5522,
      "ĠÐ¾Ð±ÑīÐµÑĢÑĭÐ½Ð¾Ñĩ": 5523,
      "ĠÐ¸Ð¼ÐµÐ½Ð½Ð¾": 5524,
      "ĠÐĿÐ°Ð±Ð¸ÑĥÐ»Ð»Ð¸Ð½Ð°": 5525,
      "ĠÐ·Ð¾Ð½Ð¾Ð¹": 5526,
      "ĠÐºÐ¾ÑĤÐ¾ÑĢÑĥÑİ": 5527,
      "Ð°ÑĢÐ¸ÑĦ": 5528,
      "ĠÐŁÐ¾ÑģÐ»ÐµÐ´Ð½ÑıÑı": 5529,
      "ow": 5530,
      "âĥ": 5531,
      "ĠÐ¿Ð°ÑĢÑĤ": 5532,
      "ĠÐ¤ÐĲÐ¡": 5533,
      "ÐłÑĥÑģ": 5534,
      "ï¸ıâĥ": 5535,
      "ÑĤÐ¾Ð²Ð°Ð»ÑİÑĤ": 5536,
      "ĠÑģÐ¸Ð»Ñĭ": 5537,
      "ĠÑģÐ»Ð¾Ð²Ð°Ð¼": 5538,
      "ï¸ıâĥ£": 5539,
      "Ð»Ñĥ": 5540,
      "Ġ260": 5541,
      "ĠÑĥÑħÐ¾Ð´": 5542,
      "ĠÑģÐ½Ð¸Ð¶Ð°ÑĤÑĮÑģÑı": 5543,
      "ĠÐ°ÐºÑĨÐ¸Ð¾Ð½ÐµÑĢÐ°Ð¼": 5544,
      "ĠÐ²Ð¾Ð·Ð¾Ð±Ð½Ð¾Ð²Ð»ÐµÐ½Ð¸Ðµ": 5545,
      "ĠÐ¾Ð±Ð¾Ð·Ð½Ð°ÑĩÐ¸ÑĤÑĮ": 5546,
      "ĠÐ·Ð°ÑĢÑĥÐ±ÐµÐ¶Ð½ÑĭÑħ": 5547,
      "ĠÐ¡Ð°Ð½ÐºÑĤ": 5548,
      "ĠÑģÐ¾Ð¿ÑĢÐ¾Ð²Ð¾Ð¶Ð´": 5549,
      "ĸÐĶ": 5550,
      "Ð´ÐµÐ½Ð¸Ðµ": 5551,
      "ĠÐ²ÑģÐ»ÐµÐ´": 5552,
      "Ð·Ð´": 5553,
      "ĠÐ·Ð°Ð»": 5554,
      "ĠÐ¡ÑĤÑĢÐ°": 5555,
      "ĠÐ¿ÑĢÐ¸Ð²ÐµÐ´": 5556,
      "Ġ71": 5557,
      "ĠÑģÐºÐ¾Ð»ÑĮÐ·ÑıÑīÐ°Ñı": 5558,
      "ĠÐºÐ»ÑİÑĩÐµÐ²ÑĭÑħ": 5559,
      "ĠÐ¿ÑĢÐµÐ´Ð»Ð°Ð³": 5560,
      "Ð²Ð°Ð»Ð°": 5561,
      "Ġ230": 5562,
      "ĠÐ¾Ð±Ð¾ÑĢ": 5563,
      "ĠÐĿÐŁ": 5564,
      "ĠÐ¿ÐµÑĢÐ²ÑĭÐ¼Ð¸": 5565,
      "ĠÐ¿Ð¾Ð»ÑĥÑĩÐ¸Ð»": 5566,
      "ÑĳÐ¼": 5567,
      "ĠÐ¾ÑĤÑģÐµÑĩÐºÐ¸": 5568,
      "ĠÐłÐµÐ·ÑĥÐ»ÑĮÑĤÐ°ÑĤÑĭ": 5569,
      "Ð²Ð°Ð½": 5570,
      "Ð½Ð°Ð»Ð¸Ð·": 5571,
      "ĠÐĳÐ°Ð½": 5572,
      "Ġ320": 5573,
      "Ð¼ÐµÑĩ": 5574,
      "ĠÑģÐ²Ð¾ÐµÐ³Ð¾": 5575,
      "ĠÐ·Ð°ÑģÐµÐ´Ð°Ð½Ð¸Ð¸": 5576,
      "ĠÑģÐºÐ¾Ð»ÑĮÐ·ÑıÑīÐ¸Ð¼Ð¸": 5577,
      "ÐĵÐ°Ð·Ð¿ÑĢÐ¾Ð¼Ð°": 5578,
      "id": 5579,
      "ĠÐ½Ð¾Ð²ÑĭÐ¼": 5580,
      "ĠÐłÐĲÐŀ": 5581,
      "ĠÐ´ÐµÐ²ÐµÐ»": 5582,
      "ĠÐłÐ¾ÑģÑģÐ¸ÐµÐ¹": 5583,
      "ĠÑģÐ»Ð¾Ð¼Ð»ÐµÐ½": 5584,
      "ĠÑĥÐ²ÐµÐ»Ð¸ÑĩÐ¸Ð»ÑģÑı": 5585,
      "ĠÐ»Ð¾ÐºÐ°Ð»ÑĮÐ½ÑĭÐ¹": 5586,
      "ĠÐ´ÐµÐ²ÐµÐ»Ð¾Ð¿": 5587,
      "ĠÑĥÑģÐ¸Ð»Ð¸": 5588,
      "ÑĢÑĥÑİÑīÐµÐ³Ð¾": 5589,
      "ĠÐ²ÑĭÑĢÐ°ÑģÑĤÐ¸": 5590,
      "Ġ72": 5591,
      "Ġ78": 5592,
      "ĠTCS": 5593,
      "ÑĤÑĢÐµÐ½Ð´Ð°": 5594,
      "ĠÑĥÑģÐºÐ¾ÑĢÐµÐ½Ð¸Ðµ": 5595,
      "Ð¼Ð¸Ð½Ð¸ÑģÑĤÑĢÐ°": 5596,
      "ĠÐ¿Ð¾Ð´Ð½ÑıÑĤÑĮÑģÑı": 5597,
      "ÑģÐºÐ¾Ð»ÑĮÐºÐ¾": 5598,
      "ĠÐ³Ð¾Ð½ÐºÐ¾Ð½Ð³": 5599,
      "ĠÐ¢ÑĢÐ°": 5600,
      "ĠÐłÑĭÐ½ÐºÐ¸": 5601,
      "ĠÑĩÐ°ÑģÑĤÐ½Ð¾ÑģÑĤÐ¸": 5602,
      "ĠÐŁÑĢÐ¾Ð´Ð¾Ð»": 5603,
      "ĠÐŃÐºÑģÐ¿ÐµÑĢÑĤÑĭ": 5604,
      "ĠÐ¿Ð°ÑĢ": 5605,
      "ÑĢÐ°Ð´": 5606,
      "ĠÐ·Ð°ÑģÑĤÑĢÐ¾Ð¹": 5607,
      "ĠÐĴÐ¿": 5608,
      "ĠÐĿÐ°Ð¿ÑĢÐ¸Ð¼ÐµÑĢ": 5609,
      "ĠÐĶÐ¸Ð²Ð¸Ð´ÐµÐ½Ð´Ñĭ": 5610,
      "ĠÑĥÐ¼ÐµÐ½ÑĮ": 5611,
      "ĠÑįÐºÑģÑĤÑĢÐµÐ¼": 5612,
      "BE": 5613,
      "ik": 5614,
      "Ġ220": 5615,
      "ĠÑĥÑĩÐ¸ÑĤ": 5616,
      "Ð¸Ð½Ð²ÐµÑģÑĤÐ¸": 5617,
      "ĠÐ°Ð½Ð°Ð»Ð¸ÑĤÐ¸Ðº": 5618,
      "ĠÐ¾ÐºÐ°Ð·Ð°Ð»ÑģÑı": 5619,
      "ĠÐłÐ¾Ð¼Ð°Ð½Ð¾Ð²ÑģÐºÐ¸Ð¹": 5620,
      "ĠÑĥÑĩÐµÐ±Ð½Ð¾Ð³Ð¾": 5621,
      "ĠÐ¾Ð±ÑĬÐµÐ¼Ð¾Ð²": 5622,
      "ĠÐ²Ð¾ÑģÑħÐ¾Ð´ÑıÑīÐµÐ¹": 5623,
      "ĠÐºÐ¾Ð¼Ð¼ÐµÑĢ": 5624,
      "ĠÐĿÐ¾Ð²Ð°Ðº": 5625,
      "ĠÑģÑĤÑĢÐ°ÑĤÐµÐ³Ð¸Ñİ": 5626,
      "VI": 5627,
      "ĠÐ¸Ð´": 5628,
      "ÑİÐ·": 5629,
      "Ð»Ð¸Ð¶Ðµ": 5630,
      "inan": 5631,
      "Ð°Ð´ÐµÐ½Ð¸Ðµ": 5632,
      "Ġ85": 5633,
      "ĠÐ¡ÑĢÐµÐ´Ð¸": 5634,
      "ĠÑħÐ°ÑĢÐ°ÐºÑĤÐµÑĢ": 5635,
      "Ð¾ÐºÐ¾Ð¹": 5636,
      "ĠÐ¿ÑĢÐ¸Ð²Ð¸Ð»ÐµÐ³Ð¸": 5637,
      "ĠÑĦÐ¾Ð½ÐĴÐ½ÐµÑĪÐ½Ð¸Ð¹": 5638,
      "ĠÐ½Ð°ÑĩÐ½ÐµÑĤ": 5639,
      "ĠÐºÐ¾ÑĢÐ¾Ð½Ð°Ð²Ð¸ÑĢÑĥ": 5640,
      "Ð¸Ð»Ð¾": 5641,
      "ÐµÑĩÑĮ": 5642,
      "ĠÐ¸ÑģÑĤÐ¾ÑĢÐ¸ÑĩÐµÑģÐºÐ¾Ð³Ð¾": 5643,
      "ĠÐŀÐ±Ð¾ÑĢÐ¾ÑĤÑĭ": 5644,
      "ĠÐļÑĢÐ°ÑĤÐºÐ¾ÑģÑĢÐ¾ÑĩÐ½ÑĭÐµ": 5645,
      "AZ": 5646,
      "ĠÐŁÑĢÐµÐ·Ð¸Ð´ÐµÐ½ÑĤ": 5647,
      "ÑģÐµÑĤÑĮ": 5648,
      "ĠÐ³Ð°Ð·Ð¾Ð²Ð¾Ð¼": 5649,
      "ĠÐ¼Ð¾Ð¼ÐµÐ½ÑĤÐ°": 5650,
      "ĠÐ¸Ð½Ð´Ð¸ÐºÐ°ÑĤÐ¾ÑĢÐ°": 5651,
      "ĠÑĢÐµÑĨÐµÑģÑģÐ¸Ð¸": 5652,
      "Ġc": 5653,
      "ĠÐ¾ÑĤÐµÑĩÐµ": 5654,
      "ĠÐ¿Ð¾Ð´Ð³Ð¾ÑĤ": 5655,
      "ĠÑĨÐµÐ»ÐµÐ²Ð¾Ð¹": 5656,
      "ĠÐ¼Ð¸ÑĢÐ°": 5657,
      "ĠÑĢÐ¸ÑĤÐµÐ¹Ð»": 5658,
      "ĠApple": 5659,
      "el": 5660,
      "ĠÐ³ÐµÐ½": 5661,
      "ÑĢÐ¾Ð²Ð°Ð»Ð°": 5662,
      "ĠÐ¿ÑĢÐ¾Ð¿": 5663,
      "Ġ62": 5664,
      "ĠÑĪÑĤÑĥ": 5665,
      "ĠÐ¾ÑĢÐ¸ÐµÐ½ÑĤÐ¸ÑĢÐ¾Ð²Ð°ÑĤÑĮÑģÑı": 5666,
      "ĠÐ¾ÐºÐ¾Ð½ÑĩÐ°Ð½Ð¸Ñı": 5667,
      "ĠÐ¡Ð¸ÑģÑĤÐµÐ¼Ð°": 5668,
      "ĠÐĶÐ°Ð»ÑĮ": 5669,
      "Ġ172": 5670,
      "ĠÐ¿Ð¾Ð»ÑĥÑĩÐ¸Ð»Ð¸": 5671,
      "ĠÐ¿ÑĢÐ¾ÑģÐ°Ð´ÐºÑĥ": 5672,
      "ĠÐ½Ð°Ð¿ÑĢÐ°Ð²": 5673,
      "ÐłÐ¾ÑģÑģÐµÑĤÐ¸": 5674,
      "ĠÑģÐ¿ÐµÐºÑĥÐ»ÑıÑĤÐ¸Ð²Ð½ÑĭÑħ": 5675,
      "oft": 5676,
      "Ð°ÑĨÐ¸Ð¸": 5677,
      "ÑģÑĤÑģÑı": 5678,
      "ĠÐ½Ð¾Ð¼": 5679,
      "ĠÐ¡ÑĤÐ°": 5680,
      "ĠBank": 5681,
      "1300": 5682,
      "ĠÐ¿Ð¾Ð²Ð»Ð¸Ñı": 5683,
      "ĠÐ¼ÐµÐ½Ñı": 5684,
      "ĠÐ¡Ð¸Ð³": 5685,
      "ĠâĢľ": 5686,
      "Ġ155": 5687,
      "ĠÐ¾ÑĤÑĩÐµÑĤÑĭ": 5688,
      "ĠÐ¾ÑĤÐºÑĢÑĭÐ²Ð°ÐµÑĤ": 5689,
      "ĠÐ½Ð°ÑĢÐ°ÑģÑĤ": 5690,
      "ĠÐĹÐ°ÐºÑĢÑĭÑĤÐ¸Ðµ": 5691,
      "ĠÐłÐĸÐĶ": 5692,
      "st": 5693,
      "Ð´Ð°ÑĤÑĮ": 5694,
      "Ð¾Ð²ÑģÐºÐ¾Ð¹": 5695,
      "ÑĨÐ¸ÑĦÑĢÑĭ": 5696,
      "ÑģÐºÐ¾ÑĢÐµ": 5697,
      "ĠÐ¼ÐµÑĢ": 5698,
      "Ġ1290": 5699,
      "ĠÐ¿Ð¾Ð·Ð¸ÑĤÐ¸Ð²Ð½Ð¾Ð¹": 5700,
      "ĠÑĢÐ°Ð±Ð¾ÑĤÐ°ÐµÑĤ": 5701,
      "ĠÐºÑĢÐµÐ´Ð¸ÑĤÐ¾Ð²": 5702,
      "ĠÐ±ÐµÐ·Ð¾Ð¿Ð°ÑģÐ½ÑĭÐµ": 5703,
      "ĠÐ¾Ð¿ÑĤÐ¸Ð¼Ð°Ð»ÑĮÐ½Ð¾": 5704,
      "ĠÐ¿Ð¾Ð´ÑĤÐ²ÐµÑĢÐ´Ð¸": 5705,
      "ĠÑģÐµÐ·Ð¾Ð½": 5706,
      "Ð°Ð½Ð½Ð¾Ð¹": 5707,
      "Ð¾Ð±Ð»Ð¸Ð³Ð°": 5708,
      "ĠÑĤÐ¾ÑĢÐ³Ð¾Ð²Ð°Ñı": 5709,
      "ĠÐľÐ¾ÑģÐºÐ²Ðµ": 5710,
      "ĠÐ²Ð·Ð»ÐµÑĤ": 5711,
      "ĠÐ¾ÐºÐ°Ð·ÑĭÐ²Ð°ÐµÑĤ": 5712,
      "ĠÐ²Ð°Ð¶Ð½ÑĭÐµ": 5713,
      "ĠÐ¿Ð¾ÑĤÐµÑĢÑıÐ²ÑĪÐµÐ³Ð¾": 5714,
      "ĠÐ´ÐµÐ½ÐµÐ¶Ð½Ð¾": 5715,
      "ĠÐ¢ÐµÐºÑĥÑīÐ°Ñı": 5716,
      "ĠÑĢÐ¾Ð·ÑĭÐ³ÑĢÑĭ": 5717,
      "ĠÑģÐµÐ½ÑĤÐ¸Ð¼ÐµÐ½ÑĤÐ°": 5718,
      "ĠÐ¿Ð¾Ð²ÐµÑģÑĤÐºÐµ": 5719,
      "ĠÑģÑĥ": 5720,
      "Ð¾Ð´Ð¾Ð»": 5721,
      "ĠÐ´Ð¾Ð»Ð³Ð¾ÑģÑĢÐ¾ÑĩÐ½Ð¾Ð³Ð¾": 5722,
      "ĠÐ²ÐµÑĢÐ¾ÑıÑĤÐ½ÑĭÐ¼": 5723,
      "ĠÐ¿Ð»Ð°Ð½Ð¸ÑĢÑĥÐµÑĤÑģÑı": 5724,
      "ĠÑģÑĤÐ°ÑĤÐ¸ÑģÑĤÐ¸ÐºÐ°": 5725,
      "Ð²Ð¾Ðµ": 5726,
      "ĠÐłÐ¸ÑģÐºÐ¸": 5727,
      "ĠÐ§ÑĤÐ¾Ð±Ñĭ": 5728,
      "Ġ92": 5729,
      "ĠÐ½ÑĥÐ¶Ð½Ñĭ": 5730,
      "ĠÐ²ÑģÑİ": 5731,
      "ĠÐ¸ÑģÑĤÐ¾ÑĩÐ½Ð¸ÐºÐ¸": 5732,
      "ĠÐºÑĢÐ¸Ð¿ÑĤÐ¾Ð²Ð°Ð»ÑİÑĤ": 5733,
      "ĠÐ²ÑģÑĤÑĥÐ¿": 5734,
      "ĠÐ·Ð°ÑĢÐµÐ³Ð¸ÑģÑĤÑĢÐ¸": 5735,
      "ĠÐ¾Ð¿ÐµÑĢÐµ": 5736,
      "Ġ330": 5737,
      "ĠÐ½Ð°ÑĩÐ°Ð»ÑģÑı": 5738,
      "ĠÐ·Ð°ÐºÑĢÑĭÑĤ": 5739,
      "ĠÑİÑĢÐ¸": 5740,
      "ĠÐŁÑĢÐ¾Ð´Ð°Ð¶Ð¸": 5741,
      "ĠÑįÐ¼Ð¸ÑĤÐµÐ½ÑĤÐ¾Ð²": 5742,
      "ĠÐ¿Ð¾ÑĤÑĢÐµÐ±Ð¸ÑĤÐµÐ»ÑĮÑģÐºÐ¸Ñħ": 5743,
      "ĠÐ¡ÑĥÑĢÐ³ÑĥÑĤÐ½ÐµÑĦÑĤÐµÐ³Ð°Ð·Ð°": 5744,
      "me": 5745,
      "Ð«": 5746,
      "ĠÐ¿ÑĢÐ¸Ð½ÑıÑĤ": 5747,
      "ĠÐ¿Ð¾Ð·Ð¸ÑĤÐ¸Ð²Ð½Ð°Ñı": 5748,
      "ĠÑĥÑĩÐ°ÑģÑĤÐ½Ð¸ÐºÐ¸": 5749,
      "ĠÐ½Ð¾ÑĢÐ¼": 5750,
      "Ð°ÐºÐ°Ñı": 5751,
      "ĠÐ¿ÐµÑĢÐµÐ¹ÑĤÐ¸": 5752,
      "ang": 5753,
      "ĠÑĥÐºÑĢÐµÐ¿Ð»ÐµÐ½Ð¸Ñı": 5754,
      "ĠÐ°Ð²ÑĤÐ¾Ð¼Ð¾Ð±Ð¸Ð»ÐµÐ¹": 5755,
      "Ð½Ð¸Ð»Ð¸": 5756,
      "Ġ111": 5757,
      "ÐļÐŁ": 5758,
      "ĠÐĴÐ°Ð¶": 5759,
      "ĠÐ¸ÑģÐ¿Ð¾Ð»ÑĮÐ·Ð¾Ð²Ð°ÑĤÑĮ": 5760,
      "ĠÐ¿Ð¾Ð²ÑĭÑģÐ¸ÑĤÑĮ": 5761,
      "ĠÐ¼ÐµÑĤÐ°Ð»Ð»ÑĥÑĢÐ³Ð¸": 5762,
      "ĠÐ¿Ð»Ð°ÑĤÑĦÐ¾ÑĢ": 5763,
      "ĠÐ¿ÑĢÐµÐ´Ð¿Ð¾Ð»Ð°Ð³Ð°ÐµÑĤ": 5764,
      "ĠÑģÐµÑĢÐ²Ð¸Ñģ": 5765,
      "ĠÑĨÐµÐ»ÐµÐ²ÑĥÑİ": 5766,
      "ĠÐĺÑģÑĤÐ¾ÑĩÐ½Ð¸ÐºÐ¸": 5767,
      "ĠÐ°Ð½Ð°Ð»Ð¾Ð³Ð¸": 5768,
      "ÑĢÐ¾ÑģÐ»Ð¾": 5769,
      "ĠÐ¿Ð¾Ñģ": 5770,
      "ĠÐŃÑĤÐ°": 5771,
      "ĠÑģÐ¸Ð»ÑĮÐ½ÐµÐµ": 5772,
      "ĠÐ´Ð¾Ð¿ÑĥÑģÐºÐ°ÐµÑĤ": 5773,
      "ĠÐŁÐ°Ð´ÐµÐ½Ð¸Ðµ": 5774,
      "ĠÐ³ÑĢÐ°ÑĦÐ¸ÐºÐ°Ñħ": 5775,
      "Ð°Ð²ÑĤÑĢÐ°": 5776,
      "ĠÑģÐ¸Ð»ÑĮÐ½ÑĭÐ¼": 5777,
      "ĠÐ¢ÐµÑħÐ½Ð¸ÑĩÐµÑģÐºÐ¸": 5778,
      "ĠÐ°ÐºÑĨÐ¸Ð¾Ð½ÐµÑĢÑĭ": 5779,
      "ĠÑĦÐ¾Ð½Ð´Ñĭ": 5780,
      "ĠÐ¿ÑĢÐ°Ð²Ð¾": 5781,
      "ĠÑģÐ»Ð°Ð±ÑĭÐ¹": 5782,
      "ĠÐ²ÑĭÑĢÐ°ÑģÑĤÐµÑĤ": 5783,
      "Ð°Ð´Ð°": 5784,
      "ÑĥÐ¼Ð°": 5785,
      "ĠÑĤÐ°ÑĢÐ¸ÑĦ": 5786,
      "âĢĿ": 5787,
      "ĠÐ³ÑĢÐ°ÑĦÐ¸ÐºÐ¾Ð¼": 5788,
      "050": 5789,
      "ĠÐ·Ð°Ð¿Ð°Ñģ": 5790,
      "ĠÐ¾Ð¿ÑĥÐ±Ð»Ð¸ÐºÑĥÐµÑĤ": 5791,
      "ĠÑĦÐ¾Ð½Ð´Ð¾Ð²Ð¾Ð¼": 5792,
      "ĠÐ¾ÑĤÑģÑĥÑĤÑģÑĤÐ²Ð¸Ñı": 5793,
      "ĠÐ¾Ð³ÑĢÐ°Ð½Ð¸ÑĩÐ¸Ð²Ð°ÐµÑĤ": 5794,
      "ĠÐĺÐ¼Ð¿ÑĥÐ»ÑĮ": 5795,
      "ĠÑĢÑĭÐ²Ð¾Ðº": 5796,
      "ĠÐ½ÐµÑģÐºÐ¾Ð»ÑĮÐºÐ¸Ñħ": 5797,
      "ĠÐ½Ð°ÑĨ": 5798,
      "ÑģÑģÐ¸Ñİ": 5799,
      "Ð¿Ð»Ð¾Ñħ": 5800,
      "ĠÑģÐ¾Ð²Ð¾ÐºÑĥÐ¿": 5801,
      "ĠÑĢÐµÐ³ÑĥÐ»Ð¸": 5802,
      "ĠÑĥÑģÐ¿ÐµÑĪÐ½Ð¾": 5803,
      "ĠÐĴÐ¾Ñģ": 5804,
      "ÐĺÐļ": 5805,
      "ĠÐ¡Ð¾Ñħ": 5806,
      "ĠÐ¿ÑĢÐ¸ÑħÐ¾Ð´": 5807,
      "ĠÐ½ÐµÐ´Ð¾": 5808,
      "ĠÐ¼Ð¸Ð½Ð¸Ð¼ÑĥÐ¼Ð°Ð¼": 5809,
      "ĠÐ´ÐµÐ¿Ð¾Ð·Ð¸ÑĤÐ°ÑĢ": 5810,
      "ÑĢÐ°Ñħ": 5811,
      "Ġ104": 5812,
      "ĠÑĨÐµÐ½Ð°Ð¼": 5813,
      "ĠÑģÐµÑģÑģÐ¸Ñı": 5814,
      "ĠÐ·Ð°Ð¼Ð¾ÑĢÐ¾Ð¶": 5815,
      "ĠÐ¾ÑĨÐµÐ½ÐºÐ°Ð¼": 5816,
      "ĠÐ¿ÑĢÐ¸Ð±Ð°Ð²Ð¸Ð»Ð¸": 5817,
      "ĠÐ¿Ð¾Ð±ÐµÐ´": 5818,
      "ĠÐ±Ð»Ð¾ÐºÐ¸ÑĢÑĥÑİÑīÐ¸Ñħ": 5819,
      "Ð°Ñĥ": 5820,
      "ĠÑģÑĥÐ±": 5821,
      "ĠÑģÐ¾Ð±Ð¸": 5822,
      "Ġ117": 5823,
      "Ġ158": 5824,
      "ĠÐŁÑĢÐ¾Ð¸Ð·Ð²Ð¾Ð´": 5825,
      "Ġ166": 5826,
      "Ġ2012": 5827,
      "ÑİÑīÐ°Ñı": 5828,
      "ĠÑģÐ»ÐµÐ´ÑĥÑİÑīÐµÐ¼": 5829,
      "ĠÐ¼Ð¸Ð»Ð»Ð¸Ð°ÑĢ": 5830,
      "ĠÐŁÑĢÐµÐ¾Ð´Ð¾Ð»": 5831,
      "ĠÑĢÐµÐ´Ð¾Ð¼Ð¸ÑĨÐ¸Ð»ÑıÑĨÐ¸Ð¸": 5832,
      "Ð¼Ð°ÑĢÑĤ": 5833,
      "ĠÑģÐ½Ð¸Ð¶ÐµÐ½Ð¸Ð¸": 5834,
      "Ġ93": 5835,
      "ĠÑĥÐ²ÐµÐ»Ð¸ÑĩÐ¸Ð»Ð°": 5836,
      "ÑĤÐµÑĢÐ½": 5837,
      "ĠÑĢÐµÐ°ÐºÑĨÐ¸ÐµÐ¹": 5838,
      "ĠÐ·Ð°Ð²Ð¸ÑģÐµÑĤÑĮ": 5839,
      "ĠÑģÐ½ÑıÑĤÐ¸": 5840,
      "Ð¼ÐµÐ½Ð°": 5841,
      "ĠÑĢÐ°Ð¼ÐºÐ¸": 5842,
      "ĠÑĢÐµÐ·ÐµÑĢ": 5843,
      "ĠÑģÑĦÐ¾ÑĢÐ¼Ð¸ÑĢÐ¾Ð²Ð°Ð»ÑģÑı": 5844,
      "ĠÑĥÐ²ÐµÐ»Ð¸ÑĩÐ¸Ð»": 5845,
      "ĠÐ¿Ð¾Ð²Ð¾Ð´Ñĥ": 5846,
      "ĠÑĤÐ°Ð¹Ð¼ÑĦÑĢÐµÐ¹Ð¼Ð°Ñħ": 5847,
      "ĠÑĤÑıÐ½ÑĥÐ²": 5848,
      "EBITDA": 5849,
      "RO": 5850,
      "ÐµÐ±": 5851,
      "ĠÑĥÑĪÐ»Ð°": 5852,
      "Ð½ÐµÐ´ÐµÐ»ÑĮ": 5853,
      "ĠÐĶÐ½ÐµÐ²": 5854,
      "ĠÐ¾ÑģÐµÐ½ÑĮÑİ": 5855,
      "Ġ7000": 5856,
      "ĠÐ¿ÑĢÐµÐ´Ð¿Ð¾Ð»Ð°Ð³": 5857,
      "ĠÐ¿Ð»Ð°Ð½Ðµ": 5858,
      "ĠÐ£ÐºÑĢÐ°Ð¸Ð½Ðµ": 5859,
      "ĠÐ´Ð¾Ð³Ð¾Ð²": 5860,
      "ĠÑĥÐ´Ð°ÑģÑĤÑģÑı": 5861,
      "ĠÑģÑĦÐµÑĢÐµ": 5862,
      "ĠFix": 5863,
      "SM": 5864,
      "Ð½Ð¸ÑĩÐµ": 5865,
      "ĠÐŀÐ½Ð¸": 5866,
      "ĠÐŁÐµÑĢÐ²": 5867,
      "ĠÑĦÐ¾Ðº": 5868,
      "ĠÑĢÐ¸ÑģÐºÐ¾Ð¼": 5869,
      "ĠÐ²Ð¾ÑģÐ¿ÑĢÐ¸": 5870,
      "ĠÐ²ÑĭÐ¿ÑĥÑģÐºÐ°": 5871,
      "ĠÑĦÐ°ÐºÑĤÐ¾ÑĢÐ¾Ð²": 5872,
      "ĠÑĦÐ¾Ð½Ð´Ð¾Ð²": 5873,
      "ĠÑĢÐ°Ð±Ð¾ÑĤÑĥ": 5874,
      "ĠÐķÐ²ÑĢÐ¾Ð¿Ñĥ": 5875,
      "ĠÐ¢ÑĢÐ°Ð½ÑģÐ½ÐµÑĦÑĤÐ¸": 5876,
      "ĠÑĤÑıÐ½ÑĥÐ²ÑĪÐ¸Ð¹ÑģÑı": 5877,
      "ĠÐ²Ð°ÑĪ": 5878,
      "Ð²Ð¸Ð¼": 5879,
      "ĠÐ²ÑĭÐ²Ð¾Ð´": 5880,
      "Ð¾Ð±ÑĢÐ°Ð·": 5881,
      "ÐµÑħÐ°Ð½Ð¸": 5882,
      "ĠÐĿÐ¾Ð²Ð¾ÑģÑĤÐ¸": 5883,
      "ĠÑĥÐ¿ÑĢÐ°Ð²Ð»Ñı": 5884,
      "ĠÐºÐ»ÑİÑĩÐµÐ²ÑĥÑİ": 5885,
      "ĠÐŁÐ¾ÐºÐ°Ð·Ð°ÑĤÐµÐ»ÑĮ": 5886,
      "ÑĤÐ¾Ð½": 5887,
      "ÑģÑĤÐ²Ð¸ÐµÐ¼": 5888,
      "Ð¾Ð¼Ð¿Ð°Ð½Ð¸Ð¹": 5889,
      "ĠÐ¿Ð¾ÑģÑĤÐ°Ð²Ð»ÐµÐ½": 5890,
      "ĠÐ½Ð°ÑĩÐ¸Ð½Ð°ÐµÑĤ": 5891,
      "ĠÑģÐ¾Ð±ÑĢÐ°Ð½Ð¸Ðµ": 5892,
      "ĠÑĢÐµÐ¶Ð¸Ð¼Ðµ": 5893,
      "ĠÐºÐ¾ÑĢÐ¾Ð½Ð°Ð²Ð¸ÑĢÑĥÑģÐ°": 5894,
      "ĠÐ¿ÑĭÑĤ": 5895,
      "ĠÐ³Ð¾Ð´Ð¾Ð²ÑĭÐµ": 5896,
      "ÐłÐĶ": 5897,
      "ĠÐ½Ð°ÑĩÐ°Ð»Ð°ÑģÑĮ": 5898,
      "ĠÐĺÐ½ÑĤÐµÑĢÑĦÐ°ÐºÑģÐ°": 5899,
      "ĠÐ³ÑĢÐ°Ð¶Ð´Ð°Ð½": 5900,
      "ke": 5901,
      "Ð¾Ð²Ð°Ð»Ð¸": 5902,
      "ĠÑĤÑĢÑĥ": 5903,
      "ĠÐĴÐ¾ÑģÑĤÐ¾Ðº": 5904,
      "Ð²Ð°Ð¹ÑĤÐµ": 5905,
      "ĠÐ¿ÑĢÐ¾ÑĤ": 5906,
      "ĠÐ½Ð¾Ð²Ð¾ÑģÑĤÑĮ": 5907,
      "ĠÐ¸Ð½ÑĤÐµÐ³ÑĢÐ¸ÑĢÐ¾Ð²Ð°Ð½Ð½Ð°Ñı": 5908,
      "ĠÐ²Ð°Ð¶Ð½ÑĭÑħ": 5909,
      "ĠÐºÐ¾Ð½ÑģÐ¾Ð»Ð¸Ð´Ð°ÑĨÐ¸Ñı": 5910,
      "ĠÐ´Ð½Ð¾": 5911,
      "Ġ116": 5912,
      "ĠÐ²ÑĭÑĢÐ¾ÑģÐ»Ð¾": 5913,
      "ĠÐ¾ÑĤÐ¼ÐµÐ½Ñĭ": 5914,
      "ĠÐķÐ³Ð¾": 5915,
      "ĠÑĢÐ°ÑģÐ¿ÑĢÐµÐ´ÐµÐ»": 5916,
      "ĠÐ¿Ð¾Ð¿ÑĭÑĤÐºÑĥ": 5917,
      "ĠÑĤÐµÑħÐ½Ð¾Ð»Ð¾Ð³": 5918,
      "ĠÐ½Ð°ÑģÑĤÑĢÐ¾ÐµÐ½Ð¸Ð¹": 5919,
      "ÐºÐ¾Ð±": 5920,
      "ĠÐ²Ð´": 5921,
      "Ġ595": 5922,
      "ĠÐĶÐ¶": 5923,
      "ĠÐºÐ¾ÑĤÐ¾ÑĢÐ¾Ð¼": 5924,
      "ĠÑģÐ¾Ð±ÑĭÑĤÐ¸Ð¹": 5925,
      "ĠÐ¡Ð¸Ð»ÑĮ": 5926,
      "Ð¸ÑģÐºÐ°": 5927,
      "ĠÐºÐ¾Ð½ÑĤÑĢÐ¾Ð»Ð¸ÑĢÑĥÑİÑīÐµÐ³Ð¾": 5928,
      "Ð¾Ð»Ð»Ð°ÑĢ": 5929,
      "ran": 5930,
      "ĠÐ¿Ð°Ð½Ð´ÐµÐ¼": 5931,
      "Ð±Ñģ": 5932,
      "Ð¶Ð°ÐµÐ¼": 5933,
      "ÑģÑģÐ¸Ð²": 5934,
      "ĠÑģÑĢÐµÐ´Ð½ÐµÑģÑĢÐ¾ÑĩÐ½ÑĭÐµ": 5935,
      "ĠÑĥÑĤÐ²ÐµÑĢÐ¶": 5936,
      "ÑİÑīÐµÐµ": 5937,
      "ĠÑĢÐµÐ°Ð»Ð¸Ð·Ð¾Ð²Ð°Ð»ÑģÑı": 5938,
      "ĠÑĦÐ¸Ð³ÑĥÑĢÐ°": 5939,
      "ĠÐ¶Ð¸Ð»ÑĮÑı": 5940,
      "ĠÐĴÐ»Ð°Ð´Ð¸Ð¼Ð¸ÑĢ": 5941,
      "ÐºÐ¾Ð±ÑĢÐ¸ÑĤ": 5942,
      "ÑĢÑıÐ¼": 5943,
      "ĠÐ½ÐµÐ»ÑĮÐ·Ñı": 5944,
      "ÐºÐ¸Ð¼Ð¸": 5945,
      "ĠÐ¤Ð¸": 5946,
      "ĠÑĦÐ¸Ð½Ð°Ð½ÑģÐ¾Ð²Ð¾Ð¹": 5947,
      "ÐŁÐ¾ÐºÑĥÐ¿Ð°ÑĤÑĮ": 5948,
      "ĠÐĵÐļ": 5949,
      "Ð°Ð²Ð¾ÑĢÐ¸ÑĤ": 5950,
      "ĠÐ²ÑĭÑģÐ¾ÐºÐ¸Ð¼": 5951,
      "ĠÐ¾ÑĩÐµÑĢÐµÐ´Ð½Ð¾Ð¹": 5952,
      "ĠÑĥÑģÐ¿ÐµÑħ": 5953,
      "ĠÐ¿Ð¾Ð´Ð´ÐµÑĢÐ¶Ð¸Ð²Ð°ÑĤÑĮ": 5954,
      "ĠÐ¿Ð¾Ð´Ð½Ð¸Ð¼Ð°Ð»Ð¸ÑģÑĮ": 5955,
      "ĠÐĴÐµÐ»Ð¸ÐºÐ¾Ð±ÑĢÐ¸ÑĤ": 5956,
      "SN": 5957,
      "Ð¶Ð´Ñĭ": 5958,
      "ĠÑĥÐºÐ°Ð·Ð°": 5959,
      "ĠÐ¿Ð¾Ð´ÑĢÐ°Ð·Ñĥ": 5960,
      "ĠSt": 5961,
      "ĠÐ´Ð°ÑİÑĤ": 5962,
      "ĠÐ¡Ð¸Ð³Ð½Ð°Ð»": 5963,
      "ĠÐ¿Ð¾Ð´ÑĢÐ°Ð·ÑĥÐ¼Ðµ": 5964,
      "ÑĥÐ±Ñĭ": 5965,
      "ĠÐ²Ð°Ð¼": 5966,
      "Ġ114": 5967,
      "ĠÐ¿ÑĢÐ¾Ð´Ð°ÑĤÑĮ": 5968,
      "ĠÐ±Ð°ÑĢÑĢÐµÐ»ÐµÐ¹": 5969,
      "ĠÐ´Ð¾Ð»Ð¶Ð½Ð¾": 5970,
      "ĠÐ¿Ð¾Ð´Ð´ÐµÑĢÐ¶Ð¸Ð²Ð°ÐµÑĤ": 5971,
      "ĠÐ°ÐºÑĤÐ¸Ð²Ð¸Ð·Ð°ÑĨÐ¸Ð¸": 5972,
      "ĠÑĥÑĤÐ²ÐµÑĢÐ´Ð¸Ð»Ð¸": 5973,
      "ĠÑĤÑĢÐ°Ð´Ð¸": 5974,
      "ĠÐ¼Ð¾Ð½ÐµÑĤ": 5975,
      "Ð²ÐºÐ¸": 5976,
      "ĠÐĴÐ°Ð»ÑİÑĤ": 5977,
      "ĠÑıÐ²": 5978,
      "ĠÐ¼Ð°ÑĢÐ¶Ð¸Ð½Ð°Ð»ÑĮ": 5979,
      "Ð»ÐµÐ²Ð¾Ð¹": 5980,
      "Ġ175": 5981,
      "ĠÐ¾Ð±ÐµÑģÐ¿ÐµÑĩ": 5982,
      "ĠÑģÐµÐ±Ðµ": 5983,
      "ĠÐ¼ÐµÑģÑĤÐ¾ÑĢÐ¾Ð¶": 5984,
      "ĠÐ¢ÑĢÐ°Ð¼Ð¿": 5985,
      "ÑĥÑģÐ»": 5986,
      "ÑĭÐ²Ð°ÑĤÑĮÑģÑı": 5987,
      "ÑĮÐµÑĢ": 5988,
      "ĠÐ¡Ð°": 5989,
      "ĠÑĥÑģÐ»ÑĥÐ³": 5990,
      "Ġ190": 5991,
      "ĠÐĹÐ´ÐµÑģÑĮ": 5992,
      "ĠÐºÐ¾ÑĤÐ¸ÑĢÐ¾Ð²ÐºÐ°Ð¼": 5993,
      "ĠEn": 5994,
      "Ġ2018": 5995,
      "ĠÐ½ÐµÐ³Ð°ÑĤÐ¸Ð²Ð½Ð¾": 5996,
      "ĠÐ¢Ð¾ÑĢÐ³Ð¸": 5997,
      "ĠÐŁÐ¾Ð»ÑİÑģ": 5998,
      "Ð¸Ñİ": 5999,
      "ÐµÐ¹Ñģ": 6000,
      "ĠÐ¡Ð¸Ð»": 6001,
      "ÑģÑĤÐ²ÐµÐ½Ð½ÑĭÐ¹": 6002,
      "ĠÐ´ÐµÑģÑı": 6003,
      "Ð¸ÑĤÐµÐ»ÑĮÐ½Ð¾Ðµ": 6004,
      "ĠÑĢÐµÐ·ÐµÑĢÐ²": 6005,
      "ĠÑģÐ¾ÑħÑĢÐ°Ð½ÑıÐµÐ¼": 6006,
      "ĠÐ¿Ð»Ð°ÑĤÐ¸ÑĤÑĮ": 6007,
      "ĠÐ¼ÐµÐ´Ð¸": 6008,
      "ĠÐ¸Ð¿Ð¾ÑĤÐµÑĩ": 6009,
      "ĠÐ³Ð»Ð°Ð²Ð½ÑĭÐ¹": 6010,
      "ĠÑģÐ¾Ð·Ð´Ð°ÑĤÑĮ": 6011,
      "ĠÐ·Ð°Ð²ÐµÑĢÑĪÐ¸Ð»Ð¸": 6012,
      "gan": 6013,
      "Ð¾Ð²Ð¾Ðµ": 6014,
      "ĠÑĥÐ¹ÑĤÐ¸": 6015,
      "ĠÐ¿Ð¾ÑģÑĤÑĢÐ¾": 6016,
      "ĠÑĦÐ¸Ð½Ð°Ð»ÑĮ": 6017,
      "ĠÑģÑĢÐµÐ´Ð½Ð¸Ðµ": 6018,
      "ĠÐ±ÑĭÑĩÑĮ": 6019,
      "ĠÑĢÐµÐºÐ¾Ð¼ÐµÐ½Ð´Ð°ÑĨÐ¸Ñİ": 6020,
      "ĠÐ´Ð¾Ð»Ð»Ð°ÑĢÐ¾Ð²": 6021,
      "ĠÐ¿Ð¾ÑĢÑĤÑĦÐµÐ»Ðµ": 6022,
      "eng": 6023,
      "ĠÑĦÑĥÐ½Ð´Ð°Ð¼ÐµÐ½ÑĤÐ°Ð»ÑĮÐ½ÑĭÐ¹": 6024,
      "ĠÐ¼Ð°Ð³Ð°Ð·Ð¸": 6025,
      "ĠÐ¿Ð¾Ð´ÑĢÐ°Ð·ÑĥÐ¼ÐµÐ²Ð°ÐµÑĤ": 6026,
      "ĠÐºÐ»Ð°": 6027,
      "Ð»ÑıÐµÑĤÑģÑı": 6028,
      "ÑĩÐµÐ²Ð¸Ð´": 6029,
      "ĠÐ²Ð¾ÑģÑģÑĤÐ°Ð½Ð¾Ð²Ð»ÐµÐ½Ð¸Ñİ": 6030,
      "ĠÐ¾ÑĤÐºÑĢÑĭÑĤÐ¸Ñı": 6031,
      "ĠÑĤÐ¾Ð¼Ñĥ": 6032,
      "ĠÐ²ÑĭÐ±Ð¾ÑĢ": 6033,
      "ĠÑıÐ¿Ð¾Ð½": 6034,
      "ĠÐ²ÑĭÑģÐ¾ÐºÑĥÑİ": 6035,
      "ĠÑģÑĥÑīÐµÑģÑĤÐ²ÐµÐ½Ð½ÑĭÑħ": 6036,
      "Ð´Ð°Ð¼": 6037,
      "ĠÐ¿ÑĢÐ¸ÑģÐ¾": 6038,
      "ĠÐ¸ÑģÐºÐ»ÑİÑĩÐµÐ½Ð¸ÐµÐ¼": 6039,
      "ĠÐ¥Ð¾Ð»Ð´Ð¸Ð½Ð³": 6040,
      "ĠÐ¸Ð¼ÐµÑİÑĤ": 6041,
      "ĠÑĢÑĥÐ±ÐµÐ¶Ð¾Ð¼": 6042,
      "ĠÑĢÐµÐµÑģÑĤÑĢÐ°": 6043,
      "Ð¶ÐµÐ´Ð½ÐµÐ²Ð½Ð¾": 6044,
      "ÐµÐ»Ð¸ÑĤÐµÐ¹ÑīÐ¸": 6045,
      "ON": 6046,
      "co": 6047,
      "Ð»ÐµÐ½Ð°": 6048,
      "Ð²Ð°Ð½Ð¸Ðµ": 6049,
      "ĠÐ·ÑĢÐµÐ½Ð¸Ñı": 6050,
      "ĠÐ½ÐµÐ¿Ð»Ð¾Ñħ": 6051,
      "ÑĤÐ¾Ñĩ": 6052,
      "ĠÐ¿ÐµÑĢÐµÐ½Ð°": 6053,
      "ÐĴÐŀ": 6054,
      "ĠÑģÐ»Ð¾Ð¼Ð°Ð½": 6055,
      "ĠÐ´Ð¾Ð»Ð»Ð°ÑĢÑĥ": 6056,
      "ĠÑģÐ½Ð¸Ð·Ð¸ÑĤÑĮ": 6057,
      "Ð¼ÐµÐ½ÑĤÐ°ÑĢÐ¸Ð¹": 6058,
      "ĠâĤ½/$": 6059,
      "ĠÐ¢Ð°ÑĤÐ½ÐµÑĦÑĤÑĮ": 6060,
      "Ð¾ÐºÑĥÐ¼ÐµÐ½ÑĤ": 6061,
      "ĠPrice": 6062,
      "ĠÑģÑĥÑĤ": 6063,
      "ĠÐ·Ð°Ð¼ÐµÑī": 6064,
      "ÐĶÐµÐ½ÑĮÐ³Ð¸": 6065,
      "Ġ245": 6066,
      "ĠÐ¿ÑĥÐ±Ð»Ð¸ÐºÐ°ÑĨÐ¸Ñı": 6067,
      "ÑģÑĤÐ¾Ð²": 6068,
      "Ð´Ð²ÐµÑĢ": 6069,
      "ĠÐ´Ð°Ð½Ð½Ð¾Ð³Ð¾": 6070,
      "ĠÐ´Ð°ÑģÑĤ": 6071,
      "ĠÐŁÐ¾Ð´Ð´ÐµÑĢÐ¶ÐºÑĥ": 6072,
      "ĠÑģÐ»ÐµÐ´ÑĥÑİÑīÐ¸Ñħ": 6073,
      "ÑģÐ»ÑĥÐ¶Ð¸": 6074,
      "ĠÐ¼Ð°ÑģÑĪÑĤÐ°Ð±": 6075,
      "ĠÐ¿ÑĢÐ¾ÑĤÐ¸Ð²Ð¾ÑĢÐµÑĩÐ¸Ð²": 6076,
      "um": 6077,
      "Ð´ÐµÑĢ": 6078,
      "ĠÑĤÑĥ": 6079,
      "Ġ105": 6080,
      "ĠÑĨÐµÐ½Ð¾Ð¹": 6081,
      "ÑģÑĤÐ²ÐµÐ½Ð½Ð¾Ð³Ð¾": 6082,
      "Ð¸ÑĤÐµÐ»ÑĮÐ½Ð¾Ð³Ð¾": 6083,
      "Ġ127": 6084,
      "ĠÐ¸ÑģÑĤÐ¾ÑĢÐ¸ÑĩÐµÑģÐºÐ¸": 6085,
      "ĠÐ°ÐºÑĨÐ¸Ð¾Ð½ÐµÑĢ": 6086,
      "ĠÐ½Ð°ÑĢÐ°ÑģÑĤÐ¸": 6087,
      "ĠÐ´Ð¸Ð°Ð¿Ð°Ð·Ð¾Ð½Ð¾Ð¼": 6088,
      "ĠÑĥÐºÑĢÐµÐ¿Ð»ÐµÐ½Ð¸Ðµ": 6089,
      "AZP": 6090,
      "Ð¾Ñĥ": 6091,
      "ÑĤÑģÑı": 6092,
      "ĠÐ²ÑħÐ¾Ð´ÑıÑĤ": 6093,
      "Ð¾Ð´Ð¾ÑĢÐ¾Ð´": 6094,
      "ĠÐ¿ÑĢÐµÐ´Ð´Ð²ÐµÑĢ": 6095,
      "ĠÐ»Ð¸ÑĨÐµÐ½Ð·Ð¸": 6096,
      "ĠÐ¸Ð½ÑģÑĤÑĢÑĥÐ¼ÐµÐ½ÑĤÐ¾Ð²": 6097,
      "ĠÐ¸ÑģÐ¿ÑĭÑĤ": 6098,
      "organ": 6099,
      "ĠÑģÐ¾ÑģÑĤÐ°Ð²Ð¸Ð»Ð¾": 6100,
      "ĠÑģÑĨÐµÐ½Ð°ÑĢÐ¸Ñİ": 6101,
      "ĠÑģÐ°Ð¼ÑĭÐµ": 6102,
      "ĠÑĩÐ¸ÑģÐ»Ð¾": 6103,
      "ĠÑģÐ¾Ð¾Ð±ÑīÐ¸Ð»Ð°": 6104,
      "ĠÑģÐ¾Ð±Ð¸ÑĢÐ°": 6105,
      "Ð»Ð»": 6106,
      "Ð´Ð¾Ð²": 6107,
      "ĠÐ¡ÐµÑĢÐ³": 6108,
      "ĠNik": 6109,
      "ĠÐ¿ÑĢÐ¾Ð¸Ð·Ð²Ð¾Ð´Ð¸ÑĤÐµÐ»ÐµÐ¹": 6110,
      "Ġ571": 6111,
      "ĠÐ²Ð»Ð°ÑģÑĤÐ¸": 6112,
      "ĠÐ¿ÑĢÐµÐ´Ð»Ð°Ð³Ð°ÐµÑĤ": 6113,
      "ĠÐŁÑĢÐµÐ¾Ð´Ð¾Ð»ÐµÐ½Ð¸Ðµ": 6114,
      "ĠÐ¿ÑĢÐµÐ´Ð´Ð²ÐµÑĢÐ¸Ð¸": 6115,
      "Ð³Ð¾Ñģ": 6116,
      "ĠÐºÐ»ÑĥÐ±": 6117,
      "ĠÑĤÐ¸": 6118,
      "ĠÐ¿Ð¾Ð½Ð¸Ð¶": 6119,
      "ĠÐĶÐµÐ»": 6120,
      "Ġ164": 6121,
      "ÑģÑĤÐ²ÑĥÑİÑĤ": 6122,
      "ĠÐĴÐµÑĢÐ¾ÑıÑĤÐ½Ð¾": 6123,
      "ĠÐ´Ð²Ðµ": 6124,
      "Ð¸ÑĤÐºÐ¾": 6125,
      "ĠÐ¿ÑĢÐ¸Ð´": 6126,
      "ÐĲÑįÑĢÐ¾ÑĦÐ»Ð¾ÑĤ": 6127,
      "Ġ163": 6128,
      "Ġ168": 6129,
      "ĠÐ¾Ð´Ð½Ð¾Ð³Ð¾": 6130,
      "ĠÑģÐ¼ÑıÐ³": 6131,
      "ĠÐ¿Ð¾ÐºÐ°Ð·Ð°ÑĤÐµÐ»ÐµÐ¹": 6132,
      "ĠÐ½Ð°Ð¿ÑĢÑıÐ¶": 6133,
      "ĠÐ²ÑĭÐºÑĥÐ¿Ð°ÑİÑĤÑģÑı": 6134,
      "ĠÐ°ÐºÑĤÐ¸Ð²Ð°Ð¼Ð¸": 6135,
      "ĠÐ½Ð°Ð³ÑĢÑĥÐ·ÐºÐ¸": 6136,
      "ĠÑĢÐ°ÑģÑģÐ¼Ð°ÑĤÑĢÐ¸Ð²Ð°ÐµÑĤ": 6137,
      "Ð²Ð°Ð»Ð°ÑģÑĮ": 6138,
      "ĠÐ´Ð¾Ð¼": 6139,
      "ĠÐ»Ð¾Ð¶": 6140,
      "ĠÐ¿ÑĢÐµÐ´ÑģÑĤÐ¾ÑıÑī": 6141,
      "ĠÐĿÐłÐĶ": 6142,
      "ĠÑĦÐ¸Ð½Ð°Ð½ÑģÐ¾Ð²ÑĭÐ¹": 6143,
      "ĠÑģÐ¾ÑģÑĤÐ°Ð²Ð»Ñı": 6144,
      "ĠÑģÑĢÐµÐ´Ð½ÐµÑģÑĢÐ¾ÑĩÐ½ÑĭÑħ": 6145,
      "ĠÐ¼ÐµÑģÑıÑĩÐ½Ð¾Ð³Ð¾": 6146,
      "ĠÐ¢ÐµÐºÑĥÑīÐ¸Ðµ": 6147,
      "ĠÐ²ÐºÐ»ÑİÑĩÐ°Ñı": 6148,
      "ĠÐ¾ÑĤÑĩÐ¸ÑĤÐ°Ð»ÑģÑı": 6149,
      "ĠÑģÑĦÐ¾ÑĢÐ¼Ð¸": 6150,
      "ÐŀÐ±": 6151,
      "ĠÑĩÐµÑĢÐµÐ´": 6152,
      "ĠÐ³Ð¾ÑĢÐ¾Ð´": 6153,
      "ĠÐ½ÐµÐ³Ð°ÑĤÐ¸Ð²Ð½ÑĭÐ¼": 6154,
      "ĠÐ¾ÐºÐ°Ð·Ð°ÑĤÑĮÑģÑı": 6155,
      "ĠÐ¡ÑĢÐµÐ´Ð½ÐµÑģÑĢÐ¾ÑĩÐ½ÑĭÐµ": 6156,
      "ÑĢÐ°ÑĤÑĮÑģÑı": 6157,
      "ĠÑĢÑĥÐ±Ð»ÐµÐ²ÑĭÐµ": 6158,
      "BER": 6159,
      "Ð¼Ð¾Ð½": 6160,
      "ĠÐ²ÑĢÑıÐ´": 6161,
      "ĠÑĥÑģÐºÐ¾ÑĢ": 6162,
      "ĠÐĿÐĶÐŁÐĺ": 6163,
      "Ð¾ÑĤÐµÑħÐ½Ð¾Ð»Ð¾Ð³Ð¸": 6164,
      "ĠÐĲÐ½Ð´": 6165,
      "ÑıÐ¹": 6166,
      "ÑĥÑİÑĤ": 6167,
      "Ġ112": 6168,
      "ÑĢÐ¾Ð²Ð°Ð½Ð¸Ñİ": 6169,
      "ĠÐ¿ÐµÑĢÐµÑģÐ¼Ð¾ÑĤ": 6170,
      "ĠÑģÐ¾ÑģÑĤÐ°Ð²Ð¸Ð»Ð¸": 6171,
      "Ġ82": 6172,
      "ĠÐºÐ°ÐºÐ¸Ñħ": 6173,
      "Ð¿ÑĢÐ°Ð²Ð»ÐµÐ½Ð¸Ðµ": 6174,
      "ĠÐ²Ð¸Ð´Ð¸ÑĤÑģÑı": 6175,
      "ĠÐ½Ð°Ð»Ð¾Ð³Ð°": 6176,
      "ĠÑģÑĤÐ°ÑĢÑĤÐµ": 6177,
      "ĠÑĢÑĭÐ½Ð¾ÑĩÐ½Ð¾Ð¹": 6178,
      "ĠÑĨÐµÐ»ÐµÐ²ÑĭÐ¼": 6179,
      "ĠÐ´Ð²Ð¸Ð³Ð°ÑĤÑĮÑģÑı": 6180,
      "ĠÐ²ÑĭÑģÐ¾ÐºÐ°": 6181,
      "ĠÐ¾Ð¿ÐµÑĢÐµÐ¶Ð°": 6182,
      "Ðĸ": 6183,
      "ÐºÑĢÐ¾": 6184,
      "ÑĢÐµÐ½Ð¸Ðµ": 6185,
      "ĠÐ·Ð°ÐºÐ°Ð·": 6186,
      "Ð¸Ð¼Ð¾ÑģÑĤÑĮ": 6187,
      "ĠÐ¾ÑĨÐµÐ½ÐºÐµ": 6188,
      "ĠÐ±Ð¾Ð»ÑĮÑĪÑĥÑİ": 6189,
      "ĠÐ°Ð¼ÐµÑĢÐ¸ÐºÐ°Ð½ÑģÐºÐ¸Ñħ": 6190,
      "ĠÐ´ÐµÐ¿Ð¾Ð·Ð¸ÑĤÐ°ÑĢÐ¸": 6191,
      "ĠÐ²Ð°ÑĢÐ¸Ð°Ð½": 6192,
      "ĠÐ¿ÑĢÐ¸ÑĤÐ¾Ðº": 6193,
      "Ġ280": 6194,
      "ĠÑĢÐ°Ð»Ð»Ð¸": 6195,
      "ĠÐ¡Ð¾Ð³Ð»Ð°": 6196,
      "ĠÐ¿Ð¾Ð´Ð¾Ð±": 6197,
      "ĠÐ¿ÐµÑĢÐ²Ð¸": 6198,
      "ĠÐĿÐ°Ð¿Ð¾Ð¼": 6199,
      "Ð¸ÑĤÐµÐ»ÑĮÐ½ÑĭÐ¹": 6200,
      "Ġ161": 6201,
      "ĠÐ²Ð¾Ð·Ð²ÑĢÐ°ÑĤ": 6202,
      "ĠÐ¾ÑĨÐµÐ½ÐºÐ°": 6203,
      "ĠÐŁÐ¾ÑģÐ»ÐµÐ´Ð½Ð¸Ð¹": 6204,
      "ĠÑĢÐµÑĪÐ¸ÑĤ": 6205,
      "ĠÐ¸Ð³ÑĢÐ¾Ðº": 6206,
      "ĠÑĢÐµÐ°Ð»Ð¸Ð·ÑĥÐµÑĤÑģÑı": 6207,
      "ĠÑĢÐ°ÑģÐ¿Ð¾Ð»Ð¾Ð¶ÐµÐ½Ð°": 6208,
      "ĠÐ¿ÑĢÐ¸ÑĢÐ¾Ð´": 6209,
      "ĠÐłÐ¾ÑģÑģÐµÑĤÐ¸": 6210,
      "ĠÐ´Ð¾Ð»Ð³Ð¾Ð²Ð¾Ð¹": 6211,
      "ĠÑĢÐ¸ÑģÐºÐ¾Ð²Ð°Ð½": 6212,
      "ĠÐ±Ð¾Ð»ÑĮÑĪÐ¾Ð¹": 6213,
      "ĠÑģÐ¾Ð¿ÑĢÐ¾ÑĤÐ¸Ð²Ð»ÐµÐ½Ð¸ÐµÐ¼": 6214,
      "ĠÐºÐ°Ð¶Ð´ÑĭÐ¹": 6215,
      "ĠÐĲÐ»ÐµÐºÑģÐ°Ð½Ð´ÑĢ": 6216,
      "ĠÐ²Ð»Ð°Ð´ÐµÐ»ÑĮ": 6217,
      "Ð°Ð»ÑĮÐ½ÑĭÐ¼": 6218,
      "ĠÐ¿ÐµÑĢÐµÑħÐ¾Ð´": 6219,
      "ĠÐ´Ð¾Ð±ÑĭÑĩÐµ": 6220,
      "ĠÐ¸Ð´ÐµÑİ": 6221,
      "ĠÐ¾Ð¿ÑĥÑģÑĤÐ¸Ð»Ð°ÑģÑĮ": 6222,
      "ÑįÐºÐ¾Ð½Ð¾Ð¼Ð¸": 6223,
      "ĠÐ»ÑĮÐ³Ð¾ÑĤÐ½Ð¾Ð¹": 6224,
      "ĠÐĿÐŀÐĴÐĲÐ¢ÐŃÐļÐ°": 6225,
      "ĠÐ¿ÑĢÐ¸Ð²ÐµÐ»Ð¾": 6226,
      "ĠÐ²Ð¾Ð¹": 6227,
      "ĠÐ²Ð°Ñģ": 6228,
      "ÑĩÐµÐ¼": 6229,
      "ÐµÑĤÑĢÐ¾Ð²": 6230,
      "ĠÐ°Ð»Ñİ": 6231,
      "Ð°ÐºÑĢÐ¾": 6232,
      "ĠÐºÐ¾Ð¼Ð¿Ð°Ð½Ð¸ÐµÐ¹": 6233,
      "ĠÑģÐ¾Ð²Ð¼ÐµÑģÑĤ": 6234,
      "ĠÐŀÐ±Ñī": 6235,
      "ĠÐŀÐ±ÑīÐ¸Ð¹": 6236,
      "ĠÑĢÐ°Ð·Ð²Ð¸ÑĤÑĮ": 6237,
      "ĠÑĥÐ´ÐµÑĢÐ¶Ð°ÑĤÑĮ": 6238,
      "ĠÐ²Ð¾Ð»Ð°ÑĤÐ¸Ð»ÑĮÐ½Ð¾ÑģÑĤÐ¸": 6239,
      "ĠÐ¿Ð¾ÑĪÐ»Ð¸Ð½": 6240,
      "ĠÐ¿Ð°Ð½Ð¸": 6241,
      "Ð¸ÑĤÐ°": 6242,
      "ĠÐ³Ð»Ð°Ð²Ñĭ": 6243,
      "ĠÐ·Ð°Ð¹": 6244,
      "Ġ76": 6245,
      "ĠÑħÐ²": 6246,
      "ĠÐ²Ð°Ð»ÑİÑĤÑĥ": 6247,
      "ĠÐ´ÐµÐ½ÐµÐ³": 6248,
      "ĠÐ±Ð¾Ð»ÑĮÑĪÐ¾Ð¼": 6249,
      "end": 6250,
      "ĠÐľÐ°ÐºÑģÐ¸Ð¼Ð°Ð»ÑĮ": 6251,
      "ĠÐĶÐ°Ð²Ð»ÐµÐ½Ð¸Ðµ": 6252,
      "ĠÑĢÐµÐ³ÑĥÐ»ÑıÑĤÐ¾ÑĢÐ°": 6253,
      "Ð¿ÑĢÐ¾Ð³ÑĢÐ°Ð¼": 6254,
      "TI": 6255,
      "ĠÑģÐ¼ÐµÑī": 6256,
      "ĠÐ½Ð°ÑĢÑĥ": 6257,
      "Ð¾ÑĢÑĤÐ¸": 6258,
      "ĠÐ¼ÐµÑħÐ°Ð½Ð¸": 6259,
      "ĠÐ¡ÑĥÐ´": 6260,
      "ĠÐ¿ÑĢÐµÐ´ÑĥÐ¿": 6261,
      "ĠÐĵÐ¾Ð´": 6262,
      "ĠÐ¾ÑĤÐ¼ÐµÐ½Ð¸": 6263,
      "Ġ162": 6264,
      "ĠÐ¿Ð»ÑİÑģ": 6265,
      "ĠÑģÐ´ÐµÐ»ÐºÑĥ": 6266,
      "ĠÐ¿ÑĢÐ¸Ð±Ð°Ð²Ð»ÑıÑİÑĤ": 6267,
      "ĠÐ¿Ð¾Ð·Ð²Ð¾Ð»Ð¸ÑĤÑĮ": 6268,
      "ĠÑĢÑıÐ´Ð¾Ð¼": 6269,
      "ĠÐ·Ð°Ð¿Ð°Ð´Ð½ÑĭÐµ": 6270,
      "ĠÐĿÐµÐ³Ð°ÑĤÐ¸Ð²Ð½ÑĭÐ¼": 6271,
      "ĠÐ»Ð¾Ð³Ð¸ÑģÑĤÐ¸": 6272,
      "ĠÐª": 6273,
      "Ġ270": 6274,
      "ĠÐ¼Ð¸ÑĢ": 6275,
      "ÐºÐ°Ð´ÐµÐ¼": 6276,
      "ÑģÑĤÐ²Ð¸Ð¹": 6277,
      "ĠÐ¸Ð·Ð²ÐµÑģÑĤ": 6278,
      "ĠÐ¿ÑĢÐ°Ð·Ð´": 6279,
      "ĠÑĤÐµÐºÑĥÑīÐµÐ¼": 6280,
      "ĠÐ¸Ð½ÑĦÐ¾Ð³ÑĢÐ°ÑĦÐ¸": 6281,
      "ĠÐ¾Ð±Ð¾ÑĢÐ¾ÑĤÐ°Ñħ": 6282,
      "ĠÐºÐ»Ð¸ÐµÐ½ÑĤ": 6283,
      "ĠÐ¿Ð¾ÑĤÐµÑĢÐ¸": 6284,
      "ĠÐ¿Ð¾Ð»ÑĥÑĩÐ¸Ð»Ð°": 6285,
      "ĠÐºÑĢÐ°ÑĤÐºÐ¾ÑģÑĢÐ¾ÑĩÐ½Ð¾Ð³Ð¾": 6286,
      "ĠÐ´ÐµÐ½ÐµÐ¶Ð½ÑĭÐ¹": 6287,
      "ĠÑĥÑģÑĤÐ°Ð½Ð¾Ð²Ð¸Ð»Ð¸": 6288,
      "Ð¾Ð½Ð¾Ð¼": 6289,
      "ĠÐ°Ð»ÑĮ": 6290,
      "ĠÐ²Ð¾ÑģÑħÐ¾Ð´ÑıÑīÐµÐµ": 6291,
      "ÐķÐĿ": 6292,
      "ĠÐ¾Ð±ÑĬÑıÐ²Ð¸Ð»": 6293,
      "ĠÑĥÐ³Ð»ÐµÐ²": 6294,
      "Ð¾ÑĨÐµÐ½ÐºÐ°": 6295,
      "ĠÐ¿ÑĢÐ¸Ð²ÐµÐ´ÐµÑĤ": 6296,
      "ĠÑĥÐ³Ð»ÐµÐ²Ð¾Ð´Ð¾ÑĢÐ¾Ð´": 6297,
      "Ġ6000": 6298,
      "ĠEU": 6299,
      "ĠÐ½Ð°Ð»Ð¾Ð³Ð¾Ð²": 6300,
      "ĠÐ¾ÑĢÐ³Ð°Ð½Ð¸ÑĩÐ½Ð¾": 6301,
      "ĠÑģÐ¾ÐºÑĢÐ°ÑĤÐ¸Ð»ÑģÑı": 6302,
      "Ð¸Ð»ÑģÑı": 6303,
      "ĠÐ±ÐµÐ·Ð¾Ð¿Ð°ÑģÐ½Ð¾ÑģÑĤÐ¸": 6304,
      "ÐµÐ´Ð¶Ð¼ÐµÐ½ÑĤ": 6305,
      "ĠÐ¿ÑĢÐ¾Ð±Ð»ÐµÐ¼Ñĭ": 6306,
      "ĠÐ¿ÐµÑĢÐµÐ³ÑĢÐµÑĤÐ¾": 6307,
      "ĠÑģÐ¸ÑģÑĤÐµÐ¼Ñĭ": 6308,
      "ĠÐ¾Ð´Ð¾Ð±ÑĢÐ¸Ð»Ð¸": 6309,
      "ĠÐºÐ¾Ð¼Ð¿Ð»ÐµÐºÑģ": 6310,
      "ĠÑģÑĥÑĤÐºÐ¸": 6311,
      "ÑģÐºÐ°Ð¶": 6312,
      "ĠÑĤÐ¾ÑĤ": 6313,
      "ĠÑĤÐ°ÐºÐ¸Ðµ": 6314,
      "Ð°Ð½Ð½Ð¾Ð³Ð¾": 6315,
      "ĠÑĩÐ¸Ñģ": 6316,
      "ĠSeng": 6317,
      "ĠÐ¿ÑĢÐ°Ð²Ð¸Ð»Ð°": 6318,
      "ĠÑģÐ¸ÑĤÑĥÐ°ÑĨÐ¸Ñİ": 6319,
      "ĠFor": 6320,
      "ĠÐ½Ð°Ð·Ð°Ð´": 6321,
      "ĠÑĥÑģÑĤÐ¾Ð¹ÑĩÐ¸": 6322,
      "ĠÐ´Ð¾Ð³Ð¾Ð²Ð¾ÑĢ": 6323,
      "kei": 6324,
      "ĠÐ¿Ð°Ð½Ð´ÐµÐ¼Ð¸Ð¸": 6325,
      "ĠNikkei": 6326,
      "ÑĢÐ°Ð»ÑĮ": 6327,
      "Ð¹ÑģÐºÐ¸Ð¹": 6328,
      "ÑĢÐµÐ·": 6329,
      "ÐµÐºÑĤÑĥ": 6330,
      "ĠÐŀÐĲ": 6331,
      "ĠÐ¢ÐĵÐļ": 6332,
      "ÑĢÐ¾ÑģÐ¾": 6333,
      "ĠÐ¿Ð¾Ð»ÑĥÑĩÐ°ÑĤÑĮ": 6334,
      "ĠHang": 6335,
      "ĠÐ¡Ð±ÐµÑĢÐĺÐ½Ð²ÐµÑģÑĤÐ¸ÑĨÐ¸Ð¸": 6336,
      "ĠÐ¢ÑĢÐµÐ½Ð´Ð¾Ð²ÑĭÐµ": 6337,
      "ĠÑĤÑĢÑĥÐ´Ð°": 6338,
      "ÑĭÐ²Ð°Ð»": 6339,
      "ĠÐ½Ð°ÑĪÐ¸Ñħ": 6340,
      "ĠÑĤÑĢÑĥÐ´": 6341,
      "Ġ1000": 6342,
      "ÑĤÐ¸ÑĢÐ¾Ð²Ð°ÑĤÑĮÑģÑı": 6343,
      "ĠÐ°Ð±Ñģ": 6344,
      "ĠÐ¾Ð±Ð¾ÑĢÐ¾ÑĤÑĭ": 6345,
      "ĠÐ¿ÑĥÐ½ÐºÑĤÐ°": 6346,
      "ĠÐĴÐ¾Ð·Ð¼Ð¾Ð¶Ð½ÑĭÐ¼": 6347,
      "ĠÑģÐ¾ÑĤÑĢÑĥÐ´Ð½Ð¸ÑĩÐµ": 6348,
      "ĠÑģÐ¼ÐµÑģÑĤÑıÑĤÑģÑı": 6349,
      "ĠÐ·Ð°Ð»Ð¾Ð¶": 6350,
      "Ð·Ð¼Ð°": 6351,
      "ĠÐĴÐµ": 6352,
      "ÑĦÐ¸ÐºÐ°": 6353,
      "ĠÐŃÐ¼Ð±Ð°ÑĢÐ³Ð¾": 6354,
      "ĠÐľÐ¸Ð½ÑįÐ½ÐµÑĢÐ³Ð¾": 6355,
      "ĠFinan": 6356,
      "ĠÑıÐ½Ð²Ð°ÑĢÑĮ": 6357,
      "ĠÐ¾Ð±ÑĬÑıÐ²Ð¸Ð»Ð°": 6358,
      "ĠÑģÐµÑĢÐ²Ð¸ÑģÐ¾Ð²": 6359,
      "ĠÑģÐ¿ÐµÐºÑĥÐ»ÑıÑĤÐ¸Ð²Ð½ÑĭÐµ": 6360,
      "SMLT": 6361,
      "Ð²Ð¸ÑĤÐ¸": 6362,
      "ÑĩÐ½Ð¾Ð¼": 6363,
      "ÑĢÐ¾ÑĤ": 6364,
      "ĠÐ·Ð°Ð¼Ð¿": 6365,
      "ĠÐ¿ÑĢÐ¸ÑĩÐ¸": 6366,
      "ÐµÑĢÐ°Ð¼Ð¸": 6367,
      "ĠÐ¿ÑĢÐ¾Ð´Ð»Ð¸": 6368,
      "ĠÐ²ÑĭÑģÐ¾ÐºÐ¾ÑĤÐµÑħÐ½Ð¾Ð»Ð¾Ð³Ð¸": 6369,
      "ĠÐ¿ÑĢÐ¾Ð´Ð¾Ð»Ð¶Ð°ÑĤ": 6370,
      "andex": 6371,
      "ĠÐķÐ²ÑĢÐ¾ÑģÐ¾": 6372,
      "ÑİÑīÐ¸ÑħÑģÑı": 6373,
      "ĠÐ¿ÑĢÐ¾ÐµÐºÑĤÐ¾Ð²": 6374,
      "ĠÐ¢ÑĢÐ°Ð½ÑģÐ½ÐµÑĦÑĤÑĮ": 6375,
      "ĠÑĤÐ¾Ð¿Ð»Ð¸Ð²Ð°": 6376,
      "ĠÐĴÐµÐ´Ð¾Ð¼": 6377,
      "ĠÑĩÐ¸ÑģÐ»Ð°": 6378,
      "ĠÐ½Ñĥ": 6379,
      "ÑĦÐ»Ð¸": 6380,
      "ÑĢÑĥÑı": 6381,
      "ĠÐ¾Ð±Ð·Ð¾ÑĢ": 6382,
      "Ġ340": 6383,
      "ÑģÑĭÑĢÑĮ": 6384,
      "ĠÑģÐ²Ð¾Ðµ": 6385,
      "ĠÑģÐ¾ÑģÑĤÐ¾Ð¸ÑĤÑģÑı": 6386,
      "ĠÐ¾ÑīÑĥÑĤÐ¸Ð¼ÑĭÐµ": 6387,
      "ĠÑĢÐµÐ·ÐµÑĢÐ²Ñĭ": 6388,
      "ĠÐ·Ð°Ð¼Ð¿ÑĢÐµÐ´": 6389,
      "KO": 6390,
      "ĠÑĢÑı": 6391,
      "ĠÐ½Ð°ÑģÐºÐ¾Ð»ÑĮÐºÐ¾": 6392,
      "ĠÐ¿Ð¾Ð´ÑĢÐ¾Ð±": 6393,
      "ĠÑįÑĤÑĥ": 6394,
      "ĠSa": 6395,
      "ĠÐ¿ÑĢÐµÑĦ": 6396,
      "ĠÐ¿ÐµÑĢÐ¸Ð¾Ð´Ð°Ð¼Ð¸": 6397,
      "Ġ2013": 6398,
      "ĠÑģÐ¸Ð»ÑĮÐ½ÑĭÐµ": 6399,
      "ĠÑĩÐµÑĤÐ²ÐµÑĢÑĤ": 6400,
      "ĠÐ²Ð¾Ð·Ð²ÑĢÐ°ÑīÐµÐ½Ð¸Ñı": 6401,
      "ĠCom": 6402,
      "ĠÐ¡Ð¸Ð»Ñĥ": 6403,
      "ÑĢÐ°Ð±Ð¾": 6404,
      "ĠÐ´Ð¾Ð²": 6405,
      "ĠÐºÑĢÐµÐ¿": 6406,
      "ÑīÑĳ": 6407,
      "Ð¾Ð»Ð¾Ð²Ð°": 6408,
      "Ð¸Ð¼Ð¾": 6409,
      "ĠÐ§Ð°": 6410,
      "ĠÑĢÐ¾ÑģÑģÐ¸Ð¹ÑģÐºÐ¸Ð¼": 6411,
      "ĠÐ¿ÑĢÐ¾ÑĪÐ»ÑĭÐ¹": 6412,
      "ĠÑģÐ¸Ð»ÑĮÐ½ÑĭÑħ": 6413,
      "ĠÐ¿Ð¾Ð¿Ð°Ð»": 6414,
      "ĠÐºÐ¾Ð½ÑĬÑİÐ½ÐºÑĤÑĥÑĢÐµ": 6415,
      "ĠÐŁÑĢÐ¾Ð´Ð°Ð²": 6416,
      "ĠÐ¿ÑĢÐ¾ÑĤÐµÑģÑĤÐ¸ÑĢÐ¾Ð²Ð°ÑĤÑĮ": 6417,
      "ĠÐ¿ÐµÑĢÐµÐ³Ð¾Ð²Ð¾ÑĢÑĭ": 6418,
      "ĠÑĢÐ°Ð·Ð¼Ðµ": 6419,
      "ĠÐ¾Ð¿ÑĢÐ°Ð²": 6420,
      "Ġ360": 6421,
      "ĠÐ½ÐµÑĦÑĤÑıÐ½Ð¾Ð¼": 6422,
      "ĠÐ³Ð¾ÑĤÐ¾Ð²Ñĭ": 6423,
      "ĠÑįÐºÑģÐ¿ÐµÑĢÑĤÐ¾Ð²": 6424,
      "ÑĢÐ°Ð²Ð¸": 6425,
      "ÑħÐ¾Ð·": 6426,
      "ĠÐºÑĥÐ´Ð°": 6427,
      "ĠÐ²ÑĭÐ¿Ð¾Ð»Ð½ÐµÐ½Ñĭ": 6428,
      "ĠÐ»Ð¸Ð´Ð¸": 6429,
      "ĠÐ¿Ð¾Ð´ÑģÐºÐ¾": 6430,
      "ĠÑĥÑģÐ»Ð¾Ð²Ð¸Ð¹": 6431,
      "Ġ126": 6432,
      "ĠÑģÑĤÐ¾ÑħÐ°ÑģÑĤÐ¸Ðº": 6433,
      "ĠÑįÐºÐ¾Ð½Ð¾Ð¼Ð¸ÐºÐ°": 6434,
      "ĠÐ¸Ð½ÑĦÐ»ÑıÑĨÐ¸Ñİ": 6435,
      "ĠÐ´Ð¾Ð¿Ð¾Ð»Ð½Ð¸ÑĤÐµÐ»ÑĮÐ½ÑĭÐµ": 6436,
      "ĠÑĢÐ°ÑģÐ¿Ð¾Ð»Ð°Ð³": 6437,
      "ĠÐĶÐ¸Ð²Ð¸Ð´ÐµÐ½Ð´Ð½Ð°Ñı": 6438,
      "ĠÑĤÑĢÐ°Ð½Ð·": 6439,
      "ĠÐĿÐŁÐĹ": 6440,
      "ĠÐ´Ð¾ÑģÑĤÐ¾Ð¹": 6441,
      "ĠÐĵÐ°Ð·Ð¿ÑĢÐ¾Ð¼Ð±Ð°Ð½Ðº": 6442,
      "ĠÐ²Ð°Ð¶Ð½ÑĭÐ¼": 6443,
      "ĠÐ¿Ð¾Ð»ÑĥÑĩÐµÐ½Ð¸Ðµ": 6444,
      "ĠÐ¢Ð°ÐºÐ¾Ðµ": 6445,
      "ĠÐ¿ÐµÑĢÐµÐ¿ÑĢÐ¾Ð´Ð°Ð½Ð½Ð¾ÑģÑĤÑĮ": 6446,
      "ĠÐ¾Ð±Ð½Ð¾Ð²Ð»ÐµÐ½Ð¸Ðµ": 6447,
      "ĠÐ²Ð¿Ð»Ð¾ÑĤÑĮ": 6448,
      "ĠÑĤÑĢÐ°Ð´Ð¸ÑĨÐ¸Ð¾Ð½": 6449,
      "ÑĥÑģÐ»Ð¾Ð²": 6450,
      "Ð²ÑĭÑħ": 6451,
      "ĠÐ½Ð°ÑĨÐ¸Ð¾Ð½Ð°Ð»ÑĮ": 6452,
      "ĠÐľÐ°ÑĢ": 6453,
      "Ġ5500": 6454,
      "ĠÑĥÐ²ÐµÑĢÐµÐ½Ð½Ð¾ÑģÑĤÐ¸": 6455,
      "ĠDow": 6456,
      "ĠÑĥÑħÑĥÐ´ÑĪÐµÐ½Ð¸Ð¸": 6457,
      "ĠYandex": 6458,
      "ĠÑĢÐµÐ½ÑĤÐ°Ð±ÐµÐ»ÑĮÐ½Ð¾ÑģÑĤÑĮ": 6459,
      "ĠÑģÐ¸Ð³Ð½Ð°Ð»Ð¸Ð·Ð¸ÑĢÑĥÐµÑĤ": 6460,
      "ĠÐ¿ÑĭÑĤÐ°ÑİÑĤÑģÑı": 6461,
      "ĠÐ²Ð´Ð²Ð¾Ðµ": 6462,
      "ĠÐ¿ÑĢÐ¾ÑĤÐ¸Ð²Ð¾ÑĢÐµÑĩÐ¸Ð²ÑĥÑİ": 6463,
      "Ð±Ð¾Ð½Ð°Ñĩ": 6464,
      "ĠÐ¿ÑĢÐ°Ð²Ð¸Ð»": 6465,
      "Ġ99": 6466,
      "ĠÐ¾ÑģÑĤÐ°Ð½ÐµÑĤÑģÑı": 6467,
      "Ð½Ð¸Ð¼Ð°ÑĤÑĮ": 6468,
      "ĠÐ¿ÑĢÐ¾Ð±Ð¸Ð²ÑĪÐ¸Ð¹": 6469,
      "ĠÐ¡Ð¾ÑħÑĢÐ°Ð½Ñı": 6470,
      "Ð±Ð¾Ð½Ð°ÑĩÑĩÐ¸": 6471,
      "va": 6472,
      "ÑıÐµÑĤ": 6473,
      "ĠÐºÐ¾Ð»": 6474,
      "Ġ2026": 6475,
      "ÑĩÐ¸ÑģÐ»": 6476,
      "Ġ86": 6477,
      "ries": 6478,
      "ĠÐ¾Ð±ÑĬÐµÐ¼Ðµ": 6479,
      "ones": 6480,
      "ĠÐ¿ÑĢÐµÐ²ÑĭÑģÐ¸Ð»Ð¸": 6481,
      "ĠÑįÐºÑģÐ¿Ð¾ÑĢÑĤÐ½ÑĭÑħ": 6482,
      "ĠÐ¾Ð±Ð½Ð¾Ð²Ð»Ñı": 6483,
      "ĠÐ¿ÑĢÐ¾Ð¹Ð´": 6484,
      "ĠÐºÑĢÐµÐ´Ð¸ÑĤÐ¾Ð²Ð°Ð½Ð¸Ñı": 6485,
      "ĠÐ²ÐµÑĢÐ½ÑĥÐ»Ð°ÑģÑĮ": 6486,
      "ĠÐ¢ÐµÐ¼Ð¿Ñĭ": 6487,
      "ĠJones": 6488,
      "Ð¿ÐµÑĢÐ¸Ð¾Ð´Ð½ÑĥÑİ": 6489,
      "ĠÐ¾Ð¿ÑĤÐ¸Ð¼Ð¸Ð·Ð¼": 6490,
      "ĠÐļÐ¾Ð¼Ð¼ÐµÐ½ÑĤÐ°ÑĢÐ¸Ð¹": 6491,
      "ĠÐ¢ÑĥÑĢÑĨÐ¸Ð¸": 6492,
      "ĠÐĺÐ¼Ð¿ÑĥÐ»ÑĮÑģÑĭ": 6493,
      "Ð°Ð¶Ð°": 6494,
      "ĠÑĤÑĢÑĥÐ±": 6495,
      "ĠÐ²ÑĭÑĩÐµÑĤ": 6496,
      "ĠÐ¾Ð±Ð²Ð°Ð»": 6497,
      "ÐµÑģÑĤÑĮ": 6498,
      "ĠÐ´ÐµÑĦ": 6499,
      "ĠÐŀÐ±ÑĬ": 6500,
      "ÐľÐŁ": 6501,
      "ĠÐ³ÑĢÐ°Ð½Ð¸ÑĨÑĥ": 6502,
      "ĠÑĢÐµÐ³Ð¸ÑģÑĤÑĢÐ°": 6503,
      "ĠÑĥÐ³ÑĢÐ¾Ð·": 6504,
      "ÑĩÐ°ÑģÐ¾Ð²Ð¾Ð³Ð¾": 6505,
      "ĠÐ²ÐµÑĩÐµÑĢÐ½Ð¸Ñħ": 6506,
      "ĠÐŁÐµÑĢÐ²Ð°Ñı": 6507,
      "ĠÐ°ÐºÑĤÐ¸Ð²Ð¸Ð·Ð¸": 6508,
      "ĠÐ»Ð¸ÑģÑĤÐ¸Ð½Ð³Ð°": 6509,
      "ĠÐ°Ð¼": 6510,
      "Ð¾ÑģÑĭ": 6511,
      "ĠÑĨÐµÐ½Ð½ÑĭÐµ": 6512,
      "ĠÐķÐ¶ÐµÐ´Ð½ÐµÐ²Ð½Ð¾": 6513,
      "ĠÐ½Ð¾Ð²Ð¾Ð¼": 6514,
      "ĠÐ¾Ð´Ð½Ð¸Ð¼": 6515,
      "Ġ185": 6516,
      "ĠÑģÑĢÐµÐ´Ð½ÐµÑģÑĢÐ¾ÑĩÐ½Ð°Ñı": 6517,
      "ĠÑģÑĩÐµÑĤÐ°Ñħ": 6518,
      "ĠÑģÐ¿ÑĢÐ°Ð²ÐµÐ´Ð»Ð¸Ð²Ð¾Ð¹": 6519,
      "ĠÑįÐ»ÐµÐºÑĤÑĢÐ¾Ð½": 6520,
      "ĠÐļÐ¾ÑĢÑĢÐµÐº": 6521,
      "ĠÐ¤Ð¸Ð±Ð¾Ð½Ð°ÑĩÑĩÐ¸": 6522,
      "ÐºÑĨÐ¸Ñİ": 6523,
      "ĠÑĦÐ°Ð²Ð¾ÑĢÐ¸ÑĤ": 6524,
      "ĠÐ¤ÐĿ": 6525,
      "ÑģÐ»ÐµÐ¶Ð¸": 6526,
      "ÐµÐ·Ð´": 6527,
      "ĠÐ¿ÑĢÐ¾Ð´ÐµÐ¼Ð¾Ð½ÑģÑĤÑĢÐ¸": 6528,
      "ĠÐ¿ÑĢÐ¾Ð±Ð¸Ð»Ð°": 6529,
      "ĠETF": 6530,
      "ĠÐ²ÑĭÐ¿Ð»Ð°ÑĤÐ¸": 6531,
      "ĠÐ¸Ð¼Ð¿Ð¾ÑĢÑĤÐ°": 6532,
      "ĠÐĺÐ½Ð´Ð¸Ð¸": 6533,
      "ĠÐĴÐ¸ÐºÑĤÐ¾ÑĢÐ¾Ð¼": 6534,
      "ĠÐ½ÐµÐ±Ð¾Ð»ÑĮÑĪÐ¾Ð¹": 6535,
      "ÑĤÑĢÐµÐ½Ð´Ðµ": 6536,
      "ĠÑģÑĤÐ°Ð½Ð¾Ð²Ð¸ÑĤÑģÑı": 6537,
      "KOH": 6538,
      "ÑģÑĤÐµÑĢ": 6539,
      "ĠÐŁÐ¾Ð²Ñĭ": 6540,
      "Ð¶ÐµÑģÑĤ": 6541,
      "ĠÐ¢ÐľÐļ": 6542,
      "ĠÐºÐ¾Ð½ÑĦÐ»Ð¸": 6543,
      "Ð¼ÐµÑģÑĤÐ¾": 6544,
      "ĠÐ²ÑĭÑģÐ¾ÐºÐ¸Ð¹": 6545,
      "ĠÐ³ÐµÐ¾Ð¿Ð¾Ð»Ð¸ÑĤÐ¸ÑĩÐµÑģÐºÐ¸Ðµ": 6546,
      "ĠÐłÐ¾Ð¼Ð°Ð½Ð¾Ð²ÑģÐºÐ¸Ð¼": 6547,
      "ĠÐ¿ÑĢÐ¸ÑĩÐ¸Ð½": 6548,
      "ai": 6549,
      "ÑĥÐ³Ð¸": 6550,
      "ĠÐ¿ÑıÑĤÑĮ": 6551,
      "ĠÐ¾ÑĩÐµÐ²Ð¸Ð´": 6552,
      "Ġ208": 6553,
      "Ġ101": 6554,
      "ĠÐ·Ð°Ð²": 6555,
      "Ð´Ð°Ð¿": 6556,
      "ĠÐ¡ÐĴÐŀ": 6557,
      "Ð°ÐºÑĨÐ¸Ñı": 6558,
      "ĠÑħÐ¾Ð»Ð´Ð¸Ð½Ð³": 6559,
      "Ġ174": 6560,
      "ĠÐ¿Ð¾ÑģÐ»ÐµÐ´Ð¾Ð²": 6561,
      "ĠGold": 6562,
      "ĠÑģÐ¾Ð·Ð´Ð°": 6563,
      "ĠÐ¢Ð¾ÑĢÐ³Ð¾Ð²ÑĭÐµ": 6564,
      "ĠÐºÐ¸ÑĤÐ°Ð¹ÑģÐºÐ¸Ð¹": 6565,
      "ĠÑģÐ¾Ð³Ð»Ð°ÑģÐ¾Ð²": 6566,
      "ÑĢÐ¸Ð¹": 6567,
      "Ð¾ÑĢÐ³Ð¾Ð²ÑĭÐµ": 6568,
      "Ð½ÑĥÐ»Ð¸": 6569,
      "ĠÐ¸ÑģÑĤÐ¾ÑĢÐ¸Ð¸": 6570,
      "ĠÐ¾ÑĤÑĢÐ°ÑģÐ»": 6571,
      "ild": 6572,
      "ĠÐºÐ¾ÑĢÑĢÐµÐºÑĨÐ¸Ð¾Ð½Ð½Ð¾Ð³Ð¾": 6573,
      "ĠÑĢÐ°Ð½ÑĮ": 6574,
      "Ð°Ð½ÑģÐ¸": 6575,
      "ÑĥÑĤÑģÐ°Ð¹Ð´": 6576,
      "ĠÐ¿ÑĢÐ¸ÑĢÐ¾ÑģÑĤ": 6577,
      "ĠÐ°Ð²ÑĤÐ¾ÑĢ": 6578,
      "esla": 6579,
      "ĠÑĦÐ¾Ð½Ð´Ð¾Ð²Ð¾Ð³Ð¾": 6580,
      "ĠÑĤÐµÑĢÑıÑİÑĤ": 6581,
      "ĠÐŁÐ¾Ð»ÑİÑģÐ°": 6582,
      "ĠÑĩÐµÑĤÑĭÑĢÐµÑħ": 6583,
      "ĠÐ¿Ð¾Ð½Ð¸Ð·Ð¸": 6584,
      "ĠÑĢÐ°Ð½ÑĮÑĪÐµ": 6585,
      "ĠÐļÑĢÑĥÐ¿": 6586,
      "ĠÑģÐ¿Ð¾Ð»": 6587,
      "ĠÐ¼Ð¸Ð½Ð¸Ð¼ÑĥÐ¼Ñĥ": 6588,
      "ĠÐŀÑĤÐ¼ÐµÑĩ": 6589,
      "ĠTesla": 6590,
      "ĠÐ²ÑĭÑĢÑĥÑĩÐºÑĥ": 6591,
      "ĠÐ·Ð¾Ð»Ð¾ÑĤÐ¾Ð´Ð¾Ð±Ñĭ": 6592,
      "ĠÑģÑĥÑīÐµÑģÑĤÐ²ÐµÐ½Ð½ÑĭÐ¹": 6593,
      "ĠÑĪÐ¸ÑĢÐ¾ÐºÐ¾Ð³Ð¾": 6594,
      "...": 6595,
      "ĠÐ°Ð½ÑĤÐ¸": 6596,
      "ĠÐĿÐ°Ð¿Ð¾Ð¼Ð½Ð¸Ð¼": 6597,
      "ĠÐĶÐ¾Ð»Ð»Ð°ÑĢ": 6598,
      "ÐĴÐ¸Ð´ÐµÐ¾": 6599,
      "Ð¿ÑĢÐ°Ð²ÐµÐ´Ð»Ð¸": 6600,
      "ĠÑĢÐ°ÑģÑĤÑĥÑīÐµÐ¹": 6601,
      "ĠÑĥÐ²ÐµÑĢÐµÐ½Ð½Ð¾": 6602,
      "ĠÐ¿ÑĢÐ¾Ð³ÑĢÐ°Ð¼Ð¼Ñĥ": 6603,
      "ĠÑģÐ²ÑıÐ·Ð°Ð½Ð½ÑĭÑħ": 6604,
      "ĠÐ·Ð°Ð¿Ð»Ð°ÑĤ": 6605,
      "ĠCNY": 6606,
      "FL": 6607,
      "ÑĤÐ°Ðº": 6608,
      "Ð¹Ð´ÐµÑĤ": 6609,
      "ĠÐ°Ð´Ð°Ð¿": 6610,
      "ÑģÑĤÐ¾ÑıÑīÐ¸": 6611,
      "ÐµÐ»ÑĮÑħÐ¾Ð·": 6612,
      "ĠÐ¿ÑĢÐµÐ´Ð²Ð°ÑĢ": 6613,
      "ĠÐ¾Ð¿Ð¾ÑĢ": 6614,
      "ĠÐłÐ¾ÑģÑģÑĤÐ°ÑĤ": 6615,
      "ĠÐ´Ð¸Ð²Ð¸Ð´ÐµÐ½Ð´Ð½ÑĭÐµ": 6616,
      "Ġ138": 6617,
      "ĠÐ¡ÑĤÑĢÐ°ÑĤÐµÐ³": 6618,
      "ĠÑģÐ¾Ð¿ÑĢÐ¾ÑĤÐ¸Ð²Ð»ÐµÐ½Ð¸Ð¹": 6619,
      "ĠÐ¿ÑĢÐ¾ÐµÐºÑĤÑĭ": 6620,
      "ĠÐ¡Ð»ÐµÐ´Ð¸Ð¼": 6621,
      "ĠÐ³ÑĢÐ°Ð½Ð¸ÑĨÐµÐ¹": 6622,
      "ĠÐ¡Ð¾Ð³Ð»Ð°ÑģÐ½Ð¾": 6623,
      "ĠÐ²Ð½ÐµÑģ": 6624,
      "ĠÐºÑĢÐ°ÑĤÐºÐ¾ÑģÑĢÐ¾ÑĩÐ½Ð°Ñı": 6625,
      "ÐµÐºÐ¾": 6626,
      "ĠÐŀÐ½Ð°": 6627,
      "ĠÐľÐµÐ½": 6628,
      "ĠÐľÐµÑģÑıÑĩ": 6629,
      "Ġ1500": 6630,
      "ĠÐ¿ÑĢÐµÑģÑģ": 6631,
      "Ġ81": 6632,
      "ĠÑģÑĤÑĢÑĥÐºÑĤÑĥÑĢÐµ": 6633,
      "ĠÑģÐ°Ð¼ÑĭÐ¼": 6634,
      "ĠÐ¸Ð½Ð´ÐµÐºÑģÐ¾Ð²": 6635,
      "ÑĦÐµÑĢÐµÐ½": 6636,
      "ĠÐ¿Ð¾ÑıÐ²Ð¸ÑĤÑģÑı": 6637,
      "erson": 6638,
      "ĠÐ¸Ð½ÑĦÐ¾Ð³ÑĢÐ°ÑĦÐ¸ÐºÐµ": 6639,
      "ÑĢÐ°Ð±Ð¾ÑĤÐ¸": 6640,
      "ĠÐĴÐŀÐ¡ÐĲ": 6641,
      "Ð¶Ð°ÐµÑĤÑģÑı": 6642,
      "ĠMSC": 6643,
      "ĠÑħÐ¾ÑĤÑıÑĤ": 6644,
      "ĠÐ¿ÑĢÐµÐ¶Ð´Ðµ": 6645,
      "ĠÐ·Ð°Ð½Ð¸Ð¼Ð°ÐµÑĤ": 6646,
      "ĠÐºÐ¾Ð½Ð²ÐµÑĢÑĤÐ°": 6647,
      "ĠÐ¤Ð¾Ð½Ð´Ð¾Ð²ÑĭÐµ": 6648,
      "ĠÐµÐ´Ð¸Ð½": 6649,
      "rans": 6650,
      "ĠÑĩÐµÑĢÐµÐ´ÑĥÑİÑĤÑģÑı": 6651,
      "ĠÐ°Ð»ÑİÐ¼Ð¸": 6652,
      "enderson": 6653,
      "ÑģÑĤÑĢÑĭ": 6654,
      "ĠÐ½Ð°ÑģÑĤÐ¾ÑıÑī": 6655,
      "ĠÐłÐ£Ð¡ÐĲÐĽ": 6656,
      "ĠÑĢÐµÐºÐ»Ð°": 6657,
      "ĠÐ¤Ð¾ÑĢ": 6658,
      "ĠÐĵÑĢÐµ": 6659,
      "ĠÐ½ÐµÐ¹ÑĤÑĢÐ°Ð»ÑĮÐ½ÑĭÐµ": 6660,
      "ĠÐ²Ð¾ÑĪÐ»Ð¸": 6661,
      "ĠÑĦÐ¸Ð·Ð¸": 6662,
      "ĠHenderson": 6663,
      "ĠÐ²Ð¸Ð´Ð¸ÑĤ": 6664,
      "ĠÑĤÐµÑģÑĤÑĥ": 6665,
      "ĠÐºÐ¸ÑĤÐ°Ð¹ÑģÐºÐ¸Ñħ": 6666,
      "ĠÐ´Ð¾ÑģÑĤÐ¾Ð¹Ð½ÑĭÐµ": 6667,
      "ÑģÑĩÐµÑĤ": 6668,
      "ĠÑģÐ²Ð¸": 6669,
      "Ð³Ð»Ð°": 6670,
      "ÑĢÐµÐ°Ð³Ð¸": 6671,
      "ĠÐ´Ð¾ÐºÑĥÐ¼ÐµÐ½ÑĤ": 6672,
      "Ð½Ð¾Ð²Ð¾Ð¹": 6673,
      "Ġ424": 6674,
      "Ġ655": 6675,
      "140": 6676,
      "Ġ137": 6677,
      "ĠÐ²Ð»Ð¸ÑıÐ½Ð¸Ñı": 6678,
      "ĠÐŁÐ¾ÐºÑĥÐ¿Ð°ÑĤÐµÐ»ÑıÐ¼": 6679,
      "ĠÑģÑĤÑĢÐ¾Ð¸ÑĤÐµÐ»ÑĮÑģÑĤÐ²Ð¾": 6680,
      "ĠÐľÐµÐ¶Ð´ÑĥÐ½Ð°ÑĢÐ¾Ð´": 6681,
      "ĠÑĨÐ¸ÑĦÑĢÐ¾Ð²ÑĭÑħ": 6682,
      "ĠÐ´Ð¾Ð¿ÑįÐ¼Ð¸ÑģÑģÐ¸Ð¸": 6683,
      "ĠÐ¿ÑĢÐ¸ÑħÐ¾Ð´Ð¸ÑĤÑģÑı": 6684,
      "ĠMSCI": 6685,
      "Ð¾ÑĢÑĤÐ¸ÑĢÐ¾Ð²": 6686,
      "ĠÐ¼Ð°Ð½": 6687,
      "ĠÐ°ÑĥÑĤÑģÐ°Ð¹Ð´": 6688,
      "ĠÐŀÑĢÐ¸ÐµÐ½ÑĤÐ¸": 6689,
      "ĠÑĦÐ¸Ð½": 6690,
      "ĠÑĦÐ¸Ð·": 6691,
      "ĠÐ¼Ð¾Ð¶ÐµÐ¼": 6692,
      "ĠÐ¿ÐµÑĢÐµÑħÐ²Ð°ÑĤ": 6693,
      "ĠÐ¼ÐµÑģÑĤÐ¾": 6694,
      "ĠÐ²ÑĭÑģÐ¾ÐºÐ¸Ð¼Ð¸": 6695,
      "ĠÐŀÑĤÑģÐº": 6696,
      "ĠÐ¿ÑĢÐ¾ÑĨÐµÐ½ÑĤÐ½ÑĭÐµ": 6697,
      "ĠÐ¿ÐµÑĢÑģÐ¿ÐµÐºÑĤÐ¸Ð²Ð°Ñħ": 6698,
      "ÑĢÐºÑĤÐ¸Ðº": 6699,
      "ĠEUR": 6700,
      "Ġ415": 6701,
      "Ġ91": 6702,
      "ĠCh": 6703,
      "ĠÑĥÑħÑĥÐ´ÑĪÐµÐ½Ð¸Ñı": 6704,
      "ĠÑĥÑģÐºÐ¾ÑĢÐ¸Ð»ÑģÑı": 6705,
      "ĠÑģÐ¿ÑĢÐ°Ð²ÐµÐ´Ð»Ð¸Ð²Ð°Ñı": 6706,
      "ĠÑĢÐµÐ·ÑĥÐ»ÑĮÑĤÐ°ÑĤÐ°Ñħ": 6707,
      "ĠGlobalt": 6708,
      "ĠÐ¸Ð½Ð¸ÑĨÐ¸Ð°ÑĤÐ¸Ð²Ñĭ": 6709,
      "ĠÐľÐ¾Ð¶Ð½Ð¾": 6710,
      "ĠÑģÐ¼ÐµÐ½Ð¸Ð»ÑģÑı": 6711,
      "ĠÐ¿ÑĢÐ¸Ð´ÐµÑĤÑģÑı": 6712,
      "WI": 6713,
      "Ð®": 6714,
      "ĠÐ¡Ð¿ÑĢÐ°Ð²ÐµÐ´Ð»Ð¸": 6715,
      "ĠÐĲÑĤÐ¾Ð½": 6716,
      "Ġ84": 6717,
      "Ġ135": 6718,
      "ĠÐ¾ÑģÐ»Ð°Ð±Ð»": 6719,
      "ĠÐ²Ð¾Ð¿ÑĢÐ¾ÑģÑĥ": 6720,
      "ĠÐ½Ð°ÑĪÐ¸Ð¼": 6721,
      "ĠÑĢÐµÐ°Ð»Ð¸Ð·Ð¾Ð²Ñĭ": 6722,
      "ĠÐ½ÐµÐ·Ð½Ð°ÑĩÐ¸ÑĤÐµÐ»ÑĮÐ½Ð¾": 6723,
      "110": 6724,
      "Ð½Ð¸Ð»": 6725,
      "ĠÐ¿Ð°Ñģ": 6726,
      "ĠÐ±Ð¸ÑĤÐºÐ¾": 6727,
      "ÑĢÐ¾Ð²Ð°Ð»Ð¸ÑģÑĮ": 6728,
      "ĠÑĢÐ°Ð·Ð³ÑĢÑĥÐ·": 6729,
      "ÑĦÐ¾ÑĢÐ¼": 6730,
      "ĠÐ¿ÑĢÐ¸ÑģÑĥÑĤ": 6731,
      "ÑģÑĤÐ²ÐµÐ½Ð½Ð¾Ð¹": 6732,
      "Ġ79": 6733,
      "Ð´Ð½ÐµÐ²Ð½ÑĭÑħ": 6734,
      "ĠÐ¸ÑģÑĤÐ¾ÑĢÐ¸ÑĩÐµÑģÐºÐ¸Ðµ": 6735,
      "ĠÐ½Ð°Ð±Ð»ÑİÐ´Ð°ÐµÐ¼": 6736,
      "ĠÐ½Ð¸Ð·ÐºÐ¾Ð¹": 6737,
      "ĠÐŁÐµÑĢÐ²Ð¾Ð¹": 6738,
      "ĠÐ½ÐµÐºÐ¾ÑĤÐ¾ÑĢÑĭÐµ": 6739,
      "ĠÐ½Ð°Ð¼ÐµÑĢÐµÐ½": 6740,
      "ĠÐºÑĢÐ¸Ð·Ð¸Ñģ": 6741,
      "ĠÑįÑĦÐ¸ÑĢÐµ": 6742,
      "Ð½Ð¾ÑĢÐ¸": 6743,
      "ÐµÐºÑĤÐ¾ÑĢ": 6744,
      "ĠÐ°Ð´": 6745,
      "Ð¢Ð¾ÑĢÐ³Ð¾Ð²ÑĭÐµ": 6746,
      "ĠÐŁÐ¾Ð¼": 6747,
      "ÐºÐ°Ñĩ": 6748,
      "ĠÑĤÐ°ÐºÐ¾Ð¼Ñĥ": 6749,
      "ĠÑĨÐµÐ½Ð°Ñħ": 6750,
      "ĠÐ¿Ð¾ÐºÑĥÐ¿Ð°ÑĤÐµÐ»ÑıÐ¼": 6751,
      "Ð³Ð¾Ð´Ð°": 6752,
      "ĠÑģÑĩÐµÑĤÐ¾Ð²": 6753,
      "ĠÐ¼Ð¸Ð½ÑĥÑĤ": 6754,
      "ĠÑįÐºÑģÐ¿Ð¾ÑĢÑĤÐµÑĢÐ¾Ð²": 6755,
      "ĠÐ¾Ð±ÑīÐµÐµ": 6756,
      "berries": 6757,
      "ĠÐŁÐ¾Ð»Ð¸Ð¼": 6758,
      "ĠWild": 6759,
      "ĠÑģÐºÐ¾Ð»ÑĮÐ·ÑıÑīÐ¸Ðµ": 6760,
      "ĠÐ¿Ð¾Ð´Ð½Ð¸Ð¼Ð°ÑİÑĤÑģÑı": 6761,
      "ĠÑĤÐ¾Ð²Ð°ÑĢÑĭ": 6762,
      "ĠWildberries": 6763,
      "Ġ215": 6764,
      "Ġ225": 6765,
      "ÑĢÐ¸Ð»Ð»Ð¸": 6766,
      "ÑģÑģÐ¸Ð¹": 6767,
      "Ð¾Ð²Ð°ÑĤÑĮÑģÑı": 6768,
      "Ġ97": 6769,
      "Ġ1600": 6770,
      "ĠÐ¿ÑĢÐ¾Ð¸Ð·Ð¾Ð¹Ð´ÐµÑĤ": 6771,
      "ÑĪÐ»Ð°Ñı": 6772,
      "ĠÑĢÐ°ÑģÑĩÐµÑĤÐ°": 6773,
      "ĠÐ²ÑĭÐ¿Ð¾Ð»Ð½ÐµÐ½Ð¸Ñı": 6774,
      "ĠÑįÐ»ÐµÐºÑĤÑĢÐ¾ÑįÐ½ÐµÑĢÐ³Ð¸Ð¸": 6775,
      "ĠÐ¿ÐµÑĢÐµÐ½Ð°Ð¿ÑĢÐ°Ð²Ð»ÐµÐ½Ð¸Ðµ": 6776,
      "ĠÐŀÑĤÐ¼ÐµÑĩÐ°Ð»Ð¾ÑģÑĮ": 6777,
      "ÐµÐ½Ð³": 6778,
      "ĠÐ±Ð»": 6779,
      "ĠÐķÐµ": 6780,
      "ĠÐķÐ¦Ðĳ": 6781,
      "Ġ87": 6782,
      "ĠÐ¿ÑĢÐµÐ´ÑģÑĤÐ°Ð²Ð¸Ð»Ð°": 6783,
      "Ġï¸ıï¸ı": 6784,
      "ĠÐ²ÑĤÐ¾ÑĢÐ¾Ð³Ð¾": 6785,
      "ĠÑģÐ°Ð¼Ð¾Ð»ÐµÑĤ": 6786,
      "ĠÐ¿Ð¾Ð»ÑĥÑĩÐ°ÑĤ": 6787,
      "ĠÐ·Ð°ÐºÑĢÐµÐ¿Ð¸Ð»Ð¸ÑģÑĮ": 6788,
      "ĠÑģÐ²ÑıÐ·Ð°Ð½Ð°": 6789,
      "ĠÐ´ÐµÐ²ÑıÑĤÑĮ": 6790,
      "ĠÐ²ÑĭÐ±ÑĢÐ°ÑĤÑĮ": 6791,
      "ĠÑĥÐ¿Ð¾Ð¼Ð¸Ð½Ð°Ð½Ð¸Ð¹": 6792,
      "ĠÐ§Ð¸ÑģÑĤÑĭÐ¹": 6793,
      "ÑĪÐµÐ½Ð¸": 6794,
      "ĠÑĤÐ¾ÑĢ": 6795,
      "ÑĢÐ¾Ð²Ð°Ð½Ñĭ": 6796,
      "ĠÐ¾ÑĤÑĢÐµÐ°Ð³Ð¸": 6797,
      "Ð°ÑĤÐµÐ»Ñı": 6798,
      "180": 6799,
      "ĠÐ¿Ð¾Ð»ÑĥÑĩÐ°": 6800,
      "ĠÐ¿ÑĢÐ¾Ð¸Ð·Ð¾Ð¹ÑĤÐ¸": 6801,
      "Ð±Ð¸ÑĢÐ¸": 6802,
      "ĠÐ¾Ð±Ð¾ÑĢÐ¾ÑĤÐ°": 6803,
      "ĠÑģÑĥÐ¼Ð¼Ð°": 6804,
      "ÑģÑĤÑĢÑĥÐºÑĤÑĥÑĢÐ¸": 6805,
      "ĠÐ¾ÑĤÑĩÐ¸ÑĤÐ°Ð»Ð°ÑģÑĮ": 6806,
      "ĠÐ¡Ð¾ÑĦÑĤ": 6807,
      "ĠÐ¿ÑĢÐ¾ÑĨÐµÑģÑģ": 6808,
      "ĠÐ¡Ð°ÑĥÐ´": 6809,
      "bu": 6810,
      "ĠÐ²Ð²ÐµÑģÑĤÐ¸": 6811,
      "ĠÐºÐ°Ð·": 6812,
      "ÑĪÐµÐ½": 6813,
      "ĠÐ·Ð°ÑĢÐ°Ð±Ð°ÑĤ": 6814,
      "ĠÐ¾ÑĤÑĢÐ°Ñģ": 6815,
      "ĠÐ¾Ð±ÑģÐ»ÑĥÐ¶Ð¸": 6816,
      "ĠÑĢÐ°Ð·Ð±Ð»Ð¾ÐºÐ¸": 6817,
      "ÐłÐĺ": 6818,
      "ĠÐ´Ð°Ð½Ð½Ð¾Ð¹": 6819,
      "ĠÐ¾ÑĤÑĩÐµÑĤÐ¾Ð²": 6820,
      "ĠÐ²Ð°Ð»ÑİÑĤÐ½ÑĭÑħ": 6821,
      "ĠÑĦÐ°ÐºÑĤÐ¾ÑĢÐ°": 6822,
      "ĠÑģÐ¾ÑħÑĢÐ°Ð½ÑıÐµÑĤ": 6823,
      "ÑģÑĤÐ²ÑĥÑı": 6824,
      "ĠÐ¼Ð½Ð¾Ð³Ð¾Ð¼": 6825,
      "ĠÐŁÑĥÑĤÐ¸Ð½Ð°": 6826,
      "ĠÑĩÐ¸ÑģÑĤÑĥÑİ": 6827,
      "ĠÐļÐ»ÑİÑĩÐµÐ²ÑĭÐµ": 6828,
      "ĠÐ¡Ð¸Ð»ÑĥÐ°Ð½Ð¾Ð²": 6829,
      "Ð»Ð¾Ð²": 6830,
      "ĠÐ²ÑģÐºÐ¾ÑĢÐµ": 6831,
      "ĠÑģÐºÐ¾ÑĢÐ¾": 6832,
      "ÑĨÐ¸Ð¾Ð½Ð½ÑĭÑħ": 6833,
      "ĠÐ±Ð»Ð¸Ð¶Ð°Ð¹ÑĪÐ¸Ñħ": 6834,
      "ĠÐ¾ÐºÐ°Ð·Ð°ÑĤÑĮ": 6835,
      "ÑĤÐ¾ÑĢÐ°Ñı": 6836,
      "ĠÐ¾ÑĢÐ¸ÐµÐ½ÑĤÐ¸ÑĢ": 6837,
      "ĠÐ²ÐºÐ»Ð°": 6838,
      "ĠÐ¡Ð¸Ð±Ð¸ÑĢÐ¸": 6839,
      "ĠÐ¿Ð»Ð¾ÑīÐ°Ð´ÐºÐ°": 6840,
      "ĠÑĦÐ¾ÐºÑĥÑģÐµ": 6841,
      "ĠÐŀÑĤÑģÐºÐ¾Ðº": 6842,
      "Ð°ÑĤÐµ": 6843,
      "ĠÑĤÑĥÑĤ": 6844,
      "ĠÐĿÐ¾Ð²Ð°Ñı": 6845,
      "ĠÑĢÐµÑĤ": 6846,
      "ĠÑĢÐµÑģÑĤÑĢÑĥÐºÑĤÑĥÑĢÐ¸": 6847,
      "ĠÐµÑīÑĳ": 6848,
      "ÑĢÐ°ÑĤÑĭ": 6849,
      "ĠÐºÐ¾Ð½ÑĤÐµÐ¹": 6850,
      "ĠÐ¶Ð¸Ð·": 6851,
      "Ð°ÑĤÐµÐ»ÑĮÐ½ÑĭÐ¹": 6852,
      "ÐµÑĤÐ°Ð»Ð»Ð°": 6853,
      "ĠÑĦÐ¾Ð½Ð´Ð¾Ð²ÑĭÐ¹": 6854,
      "ĠÑģÐ¾ÑħÑĢÐ°Ð½ÐµÐ½Ð¸Ðµ": 6855,
      "ĠÑĥÐ»ÑĥÑĩÑĪÐµÐ½Ð¸Ðµ": 6856,
      "ĠÐ´Ð¾ÑģÑĤÑĥÐ¿Ð½Ñĭ": 6857,
      "ĠÐ·Ð°Ð²Ð¸ÑģÐ¸Ð¼": 6858,
      "ĠÐ¡ÑĤÐ¾Ð¸ÑĤ": 6859,
      "ĠÑĢÐµÐ·ÑĥÐ»ÑĮÑĤÐ°ÑĤÐ°Ð¼": 6860,
      "ĠÐºÑĢÐ¸Ð·Ð¸ÑģÐ°": 6861,
      "ube": 6862,
      "ÑĨÐµÐ´": 6863,
      "ÑĦÐµ": 6864,
      "ÑĪÐµÐ¼Ñĥ": 6865,
      "Ġ113": 6866,
      "ĠÑĢÐ°Ð½Ð¾": 6867,
      "ĠÑĢÐ°Ð·Ð½ÑĭÑħ": 6868,
      "ĠÑĢÐ°ÑģÑĤÑĳÑĤ": 6869,
      "ĠÐ´Ð¾Ð»Ð³Ð°": 6870,
      "Ġ173": 6871,
      "ĠÐ²Ð¾ÑģÑħÐ¾Ð´ÑıÑīÐ°Ñı": 6872,
      "ĠÐĳÐ»Ð¸Ð¶Ð°Ð¹ÑĪÐ°Ñı": 6873,
      "ĠÐķÐ²ÑĢÐ¾Ð¿Ñĭ": 6874,
      "ĠÐ¾Ð±ÑīÐµÐ³Ð¾": 6875,
      "ĠÐŀÑģÐ½Ð¾Ð²Ð½ÑĭÐµ": 6876,
      "ĠÐ¼Ð¾Ð³Ð»Ð¾": 6877,
      "ĠÐ¢Ð°ÑĤÐ½ÐµÑĦÑĤÐ¸": 6878,
      "ĠÐ¿Ð¾Ð¼Ð¾Ð³Ð°ÐµÑĤ": 6879,
      "GAZP": 6880,
      "LKOH": 6881,
      "Ð°Ð»Ð¾Ð½": 6882,
      "Ð°Ð½ÑĮ": 6883,
      "ĠÐłÐ¸": 6884,
      "ĠÐ¸Ð½ÑĦÐ¾ÑĢÐ¼Ð°ÑĨÐ¸Ñİ": 6885,
      "ĠÐ¿ÑĢÐ¸Ð½ÑıÑĤÑĮ": 6886,
      "Ġ123": 6887,
      "ĠÐ³Ð°Ð·Ð¾Ð¿ÑĢÐ¾Ð²Ð¾Ð´": 6888,
      "ĠÐ²Ð°Ð¶Ð½Ð¾Ðµ": 6889,
      "ĠÐ¿ÑĢÐ¾Ð±Ð¸ÑĤÐ°": 6890,
      "ĠÐ°ÐºÑĤÑĥÐ°Ð»ÑĮÐ½Ð°": 6891,
      "ĠÐ½ÐµÐ¾Ð±ÑħÐ¾Ð´Ð¸Ð¼Ð¾ÑģÑĤÐ¸": 6892,
      "ĠÐ½ÐµÐ¾Ð¿ÑĢÐµÐ´ÐµÐ»ÐµÐ½Ð½Ð¾ÑģÑĤÐ¸": 6893,
      "ĠÐ´ÐµÑĦÐ¸ÑĨÐ¸ÑĤ": 6894,
      "ĠÐ¿Ð»ÐµÑĩÐ¸": 6895,
      "ĠÐ°Ð»ÑĮÑĤÐµÑĢÐ½": 6896,
      "ĠÑĦÐµÐ´ÐµÑĢÐ°Ð»ÑĮ": 6897,
      "ÐµÐ³Ð´Ð°": 6898,
      "Ġ390": 6899,
      "Ġ159": 6900,
      "ĠÑģÑĤÐ°Ð½ÑĥÑĤ": 6901,
      "Ġ760": 6902,
      "ĠÑģÐ»ÑĥÑĩ": 6903,
      "ĠÐŁÑĢÐ¾ÑĪÐ»Ð°Ñı": 6904,
      "ĠÐºÐ°ÑģÐ°": 6905,
      "Ð½Ð¾Ð·Ð½Ð°Ñĩ": 6906,
      "ĠÐ¿Ð¾ÑıÐ²Ð»ÐµÐ½Ð¸Ñı": 6907,
      "ĠÐ¾ÑĨÐµÐ½ÐºÑĥ": 6908,
      "ĠÐĺÐ½Ð´Ð¸Ñı": 6909,
      "ĠÐ²Ð¿Ð¾ÑģÐ»ÐµÐ´ÑģÑĤÐ²Ð¸Ð¸": 6910,
      "ĠÐ¿Ð»Ð¾ÑīÐ°Ð´ÐºÐ¸": 6911,
      "ĠÐ¸Ð¿Ð¾ÑĤÐµÐºÐµ": 6912,
      "ĠÐ·Ð½Ð°ÑĩÐµÐ½Ð¸ÑıÐ¼": 6913,
      "ĠÐ¿ÑĢÐ¸Ð»Ð¾Ð¶ÐµÐ½Ð¸Ð¸": 6914,
      "ĠÐĿÐµÐ´ÐµÐ»ÑĮÐ½ÑĭÐ¹": 6915,
      "ha": 6916,
      "ĠÐ¿ÑıÑĤÐ¸": 6917,
      "ÑĨÐ¸Ð¾Ð½Ð°": 6918,
      "ĠÐŁÐ¾Ð¿": 6919,
      "ĠÐ³Ð¾Ð´Ð¾Ð²": 6920,
      "ĠÐ¸ÑģÐ¿Ð¾Ð»ÑĮÐ·Ñĥ": 6921,
      "ĠÐ¾ÑĤÐ¼ÐµÑĤÐ¸ÑĤÑĮ": 6922,
      "Ð´Ð¸Ð²Ð¸Ð´ÐµÐ½Ð´": 6923,
      "ĠEV": 6924,
      "Ġ181": 6925,
      "ĠÐ¾ÐºÑĤÑıÐ±ÑĢÑĮ": 6926,
      "ĠÑĤÐ¾Ð½Ð½Ñĥ": 6927,
      "ĠÐµÐ²ÑĢÐ¾Ð¾Ð±Ð»Ð¸Ð³Ð°": 6928,
      "ĠÐ²ÑĩÐµÑĢÐ°ÑĪÐ½Ð¸Ñħ": 6929,
      "ĠÐĿÐµÐ´ÐµÐ»ÑĮÐ½Ð°Ñı": 6930,
      "ÐºÑĢÐµÐ´Ð¸ÑĤÐ½Ð¾Ð¹": 6931,
      "to": 6932,
      "ĠÐ¿ÑĢÐ°Ð²Ð¸ÑĤÐµÐ»ÑĮÑģÑĤÐ²Ð¾": 6933,
      "Ð¾Ð»Ð¾Ð³Ð¸": 6934,
      "ÑĪÐ¾": 6935,
      "Ð¾ÐºÑĢÑĥÐ³": 6936,
      "ĠÑĥÐ·Ð½Ð°": 6937,
      "ÑĢÑĥÑİÑīÐ¸Ðµ": 6938,
      "ÑĢÐ¾Ð²Ð¾ÑĨÐ¸": 6939,
      "ĠÐ¿Ð¾Ð»Ð³Ð¾Ð´Ð°": 6940,
      "ĠÐ¸Ð½Ð²ÐµÑģÑĤÐ¾ÑĢÐ°Ð¼Ð¸": 6941,
      "ĠÑģÐ¿ÑĢÐ¾Ð²Ð¾ÑĨÐ¸": 6942,
      "ĠÐ¾ÑĤÐºÐ°ÑĤÐ¸": 6943,
      "ĠÐľÐ¸ÑĪ": 6944,
      "Ð¾ÑģÑĤÐ¸Ð³": 6945,
      "Ġ131": 6946,
      "ĠÐ±Ð°Ð½ÐºÐ¾Ð²ÑģÐºÐ¾Ð¹": 6947,
      "ĠÐ´ÐµÐ»Ð°ÐµÑĤ": 6948,
      "ĠÐ´ÐµÐ½ÐµÐ¶Ð½Ð¾Ð³Ð¾": 6949,
      "ĠÐ³Ð¾ÑģÑĥÐ´Ð°ÑĢÑģÑĤÐ²Ð°": 6950,
      "ĠIndex": 6951,
      "ĠÐ¸ÑģÑģÐ»ÐµÐ´": 6952,
      "ĠÐŁÐ¾ÐºÐ°Ð·ÑĭÐ²Ð°ÐµÐ¼": 6953,
      "ĠÐ¿ÑĢÐ°Ð²Ð¸ÑĤÐµÐ»ÑĮÑģÑĤÐ²Ð°": 6954,
      "ĠÐ½Ð°Ð¹ÑĤÐ¸": 6955,
      "Ð¾Ð»Ð°ÑĤÐ¸Ð»ÑĮ": 6956,
      "Ð¾Ð¶ÐµÑĤ": 6957,
      "ĠÐ¿Ð¾Ð´ÐºÐ»ÑİÑĩ": 6958,
      "ĠÐĶÐ¼Ð¸ÑĤ": 6959,
      "ĠÑģÑĤÐ°Ð»ÑĮ": 6960,
      "ĠÐĵÐŀÐ¡ÐĲ": 6961,
      "Ġ89": 6962,
      "Ġ121": 6963,
      "ĠÐ²Ð²ÐµÑĢÑħÑĥ": 6964,
      "ĠÐ·Ð°Ð²ÐµÑĢÑĪÐµÐ½Ð¸Ñı": 6965,
      "ĠÑģÐ½Ð¸Ð·Ð¸ÑĤÑĮÑģÑı": 6966,
      "ĠÑģÑĥÑīÐµÑģÑĤÐ²ÐµÐ½Ð½Ð¾Ð³Ð¾": 6967,
      "ĠÑĪÐ¸ÑĢÐ¾ÐºÐ¾Ð¹": 6968,
      "ĠÑĥÑģÐºÐ¾ÑĢÐ¸Ð»Ð¾ÑģÑĮ": 6969,
      "ĠÐ´Ð¾ÑģÑĤÐ¸Ð³Ð½ÑĥÑĤÐ°": 6970,
      "Ð¸Ð½ÑĤÐµÐ³ÑĢÐ¸ÑĢÐ¾Ð²Ð°Ð½Ð½Ð°Ñı": 6971,
      "ĠÐ¼ÑĥÐ»ÑĮÑĤÐ¸Ð¿Ð»Ð¸ÐºÐ°ÑĤÐ¾ÑĢ": 6972,
      "ĠÐºÑĢÑĥÐ³Ð»Ð¾Ð¹": 6973,
      "Ð¼ÑĮÐµÑĢ": 6974,
      "ĠÐ¿ÑĪÐµÐ½Ð¸": 6975,
      "ĠÐ±ÑĢÐµÐ½Ð´": 6976,
      "ĠÐ°ÑĢ": 6977,
      "Ġ538": 6978,
      "ÐµÐ½Ð´Ð¸": 6979,
      "ĠÐ¢Ð¾Ð¿": 6980,
      "ĠÐŀÐ¿ÐµÑĢÐ°": 6981,
      "ĠÐºÐ°ÐºÐ¾Ð¹": 6982,
      "ĠÑįÐºÐ¾Ð½Ð¾Ð¼Ð¸ÐºÑĥ": 6983,
      "ÑģÐµÐ´Ð°ÑĤÐµÐ»ÑĮ": 6984,
      "ĠÑĦÐ¾ÑĢÐ¼Ð¸ÑĢÑĥÐµÑĤÑģÑı": 6985,
      "ĠÐ²Ð¿ÐµÑĢÐµÐ´": 6986,
      "ĠÐ¿Ð¾Ð´Ð½Ð¸Ð¼ÑĥÑĤÑģÑı": 6987,
      "ĠÐ¿Ð¾Ð´Ð¿Ð¸ÑģÐ°Ð»": 6988,
      "ĠÐ¡ÑĤÐ¾Ð¸Ð¼Ð¾ÑģÑĤÑĮ": 6989,
      "ĠÐ·Ð°Ð¿Ð»Ð°Ð½Ð¸": 6990,
      "ĠÐ¤Ð¾ÑģÐĲÐ³ÑĢÐ¾": 6991,
      "ĠÐ¿Ð»Ð°Ð½Ð°Ñħ": 6992,
      "ĠÐ·Ð°Ð²ÑĤÑĢÐ°": 6993,
      "ÑĤÐ¾Ð¹": 6994,
      "ÑįÐºÐ¾Ð½": 6995,
      "Ġ375": 6996,
      "ÑĩÐ¸Ð»Ð¾ÑģÑĮ": 6997,
      "ĠÑĤÐµÐºÑĥÑīÐ¸Ðµ": 6998,
      "ĠÐ¸ÑİÐ»ÑĮ": 6999,
      "Ð¾ÑģÑĤÐ°ÑĤ": 7000,
      "ĠÐ¾Ð±ÑĬÐµÐ¼Ð°": 7001,
      "ĠÐ¸Ð½ÑĤÐµÑĢÐµÑģÐ½Ñĭ": 7002,
      "ĠÐ½Ð°Ð¿ÑĢÑıÐ¼": 7003,
      "ĠÐŁÐ¾ÑģÐ»ÐµÐ´Ð½Ð¸Ðµ": 7004,
      "ÑĢÐ°Ð±Ð°ÑĤÑĭ": 7005,
      "ĠÑģÑĥÐ´Ð¸ÑĤÑĮ": 7006,
      "ĠÐ½Ð°Ð¼ÐµÐº": 7007,
      "VID": 7008,
      "ĠÐ¡ÐµÑĢÐ³ÐµÐ¹": 7009,
      "ĠÐŁÑĢÐ¾Ð´Ð°Ð²ÑĨÑĭ": 7010,
      "ĠÐ½Ð°Ð¿ÑĢÑıÐ¼ÑĥÑİ": 7011,
      "ĠÑĤÐµÐ»Ðµ": 7012,
      "ÑįÑĦÐ¸ÑĢ": 7013,
      "ĠÐ¸Ð½Ð²ÐµÑģÑĤÐ¸ÑĨÐ¸Ð¾Ð½Ð½ÑĭÐµ": 7014,
      "Ð°Ð»ÑĮÐ½Ð¾Ðµ": 7015,
      "ĠÐ¿Ð¾ÐºÐ°Ð·Ð°Ð»": 7016,
      "ĠÐķÐ²ÑĢÐ¾Ð¿Ð°": 7017,
      "ĠÐĿÑĥÐ¶ÐµÐ½": 7018,
      "ĠÑĦÐ°Ð·Ñĭ": 7019,
      "ĠÐľÐ¸ÑĪÑĥÑģÑĤÐ¸": 7020,
      "ND": 7021,
      "am": 7022,
      "ÑıÑģ": 7023,
      "ÑĥÐ½Ðµ": 7024,
      "Ð¾Ð¼ÐµÑĤÑĢÐ¾Ð²": 7025,
      "ĠÐľÐ°": 7026,
      "ĠÐŁÐĺÐļ": 7027,
      "ĠÑĨÐµÐ½ÑĤ": 7028,
      "Ġ83": 7029,
      "Ġ177": 7030,
      "ĠÑĤÐµÐ¼Ð¿Ð°": 7031,
      "ĠÑģÑĤÑĢÐ°ÑĤÐµÐ³Ð¸Ñı": 7032,
      "ĠÑĥÐ»ÑĥÑĩÑĪÐµÐ½Ð¸Ñı": 7033,
      "ĠÐ¿Ð¾ÑıÐ²Ð¸Ð»ÑģÑı": 7034,
      "Ð½ÑıÑĤÐ°": 7035,
      "ĠÐ¼ÐµÐ½ÐµÐ´Ð¶Ð¼ÐµÐ½ÑĤ": 7036,
      "Ð¾Ð²Ð°ÑĢÐ½Ð¾": 7037,
      "per": 7038,
      "ĠÐŀÑĤÑĢÐ°": 7039,
      "ÐĺÐĲ": 7040,
      "ĠÐ¡ÐºÐ¾ÑĢ": 7041,
      "ĠÐ±Ð¸ÑĢÐ¶Ñĥ": 7042,
      "ĠÑĥÑģÐ»Ð¾Ð²Ð¸ÑıÐ¼": 7043,
      "ĠÐĿÐµÐ´Ð°Ð²": 7044,
      "ĠÑģÐ°Ð½ÐºÑĨÐ¸ÑıÐ¼Ð¸": 7045,
      "ĠÑĢÐµÐ°ÐºÑĨÐ¸Ð¸": 7046,
      "ĠÐ¡ÑĢÐµÐ´Ð½ÐµÑģÑĢÐ¾ÑĩÐ½Ð¾": 7047,
      "ĠÑįÐ¼Ð¸ÑĤÐµÐ½ÑĤÐ°": 7048,
      "ĠÑĢÐ°ÑģÑģÐºÐ°Ð·Ð°Ð»": 7049,
      "ĠÐĲÐ»ÐµÐºÑģÐµÐ¹": 7050,
      "ĠÐ¸Ð½Ð²ÐµÑģÑĤÐ¿ÑĢÐ¾Ð³ÑĢÐ°Ð¼": 7051,
      "ĠÐ°Ð¿ÑģÐ°Ð¹Ð´": 7052,
      "ĠÐļÐ°Ð·Ð°ÑħÑģÑĤÐ°": 7053,
      "ĠÐ¾Ð±Ð¾ÑĢÑĥÐ´": 7054,
      "ÑĢÐµÐ¶": 7055,
      "ĠÐ´ÐµÐ»Ð¸": 7056,
      "ĠÑģÑĤÐ°ÑĤ": 7057,
      "ĠÐ¼Ð°ÑĢÐºÐ¸": 7058,
      "ĠÐ¿ÑĢÐµÐ´Ð»Ð¾Ð¶ÐµÐ½Ð¸Ðµ": 7059,
      "ĠÑĢÐ°ÑģÑģÐºÐ°Ð¶": 7060,
      "ĠÐºÐ¾Ð¼Ð¿Ð°Ð½Ð¸ÑıÐ¼": 7061,
      "ĠÑĪÐ¾ÑĢÑĤ": 7062,
      "ĠÐ¿Ð¾Ð·Ð¸ÑĨÐ¸Ñİ": 7063,
      "ĠAs": 7064,
      "ĠÑįÐºÑģÐ¿Ð¾ÑĢÑĤÐ½Ð¾Ð¹": 7065,
      "ĠÐ¼Ð¾Ð³Ð»Ð¸": 7066,
      "ĠÐ³Ð¾Ð½ÐºÐ¾Ð½Ð³ÑģÐºÐ¸Ð¹": 7067,
      "ĠÐļÐ¾ÑĢÑĢÐµÐºÑĨÐ¸Ñı": 7068,
      "CF": 7069,
      "IA": 7070,
      "ĠÐ¾Ð±Ð¼ÐµÐ½Ð°": 7071,
      "ĠÐŁÐ¾Ð´ÐºÐ»ÑİÑĩ": 7072,
      "ĠÐ¾ÑģÐ½Ð¾Ð²Ð°Ð½Ð¸Ðµ": 7073,
      "ĠÐ¿Ð¾Ð·Ð²Ð¾Ð»Ð¸": 7074,
      "ĠÐ¾Ð±ÑĢÐ°Ð·Ð¾Ð²": 7075,
      "ĠÐ¿Ð»Ð°Ð½Ñĭ": 7076,
      "ĠÐ½Ð°Ð¼ÐµÑĢÐµÐ½Ð°": 7077,
      "ÑģÑĭÑĢÑĮÐµÐ²Ð¾Ð¹": 7078,
      "ĠComp": 7079,
      "ĠÑģÐµÑĢÐ¸": 7080,
      "Ð¸ÑĤÑı": 7081,
      "ĠÐĿÐļ": 7082,
      "ĠÐ¿ÑĢÐ¾Ñĩ": 7083,
      "Ð½ÑıÐµÑĤ": 7084,
      "ĠÑĨÐ²ÐµÑĤ": 7085,
      "Ð°Ð»Ð¸Ð·Ð°ÑĨÐ¸Ð¸": 7086,
      "ĠÑģÑĢÐµÐ´Ð½ÐµÐ³Ð¾": 7087,
      "ĠÐ¿ÑĢÐµÐ¼Ð¸": 7088,
      "ĠÐ¿ÑĢÐµÐ´ÑģÑĤÐ°Ð²Ð¸Ð»": 7089,
      "ĠÐŀÐ±ÑĬÐµÐ¼Ñĭ": 7090,
      "Ð°ÑħÐ°Ð»": 7091,
      "all": 7092,
      "ĠÐ½Ð°Ð´Ð¾": 7093,
      "ĠÐ£ÐºÑĢÐ°Ð¸Ð½Ñĭ": 7094,
      "ĠÑĢÐ°ÑģÑģÐ¼Ð¾ÑĤÑĢÐ¸ÑĤ": 7095,
      "ĠÐŁÐµÑĢÐ²ÑĭÐ¹": 7096,
      "ĠÐĲÐ½Ð´ÑĢÐµÐ¹": 7097,
      "ÑĢÐ°Ð½Ð°": 7098,
      "Ð°ÑĤÐ¾Ð²": 7099,
      "ĠÐ¼Ð¾Ð±Ð¸Ð»Ð¸": 7100,
      "ĠÐ¾ÑĤÐ»Ð¾Ð¶": 7101,
      "ĠÐ¡Ð´ÐµÐ»": 7102,
      "Ġ370": 7103,
      "ĠÑįÑĦÐ¸ÑĢ": 7104,
      "ĠSe": 7105,
      "ĠÐ¿ÐµÑĢÐ¸Ð¾Ð´Ñĭ": 7106,
      "Ġ128": 7107,
      "ĠÑģÑĦÐ¾ÑĢÐ¼Ð¸ÑĢÐ¾Ð²Ð°Ð»Ð°ÑģÑĮ": 7108,
      "ĠÐ¿ÑĢÐ¾Ð´ÑĥÐºÑĤÐ¾Ð²": 7109,
      "ĠÐ¢ÐµÐºÑĥÑīÐ¸Ð¹": 7110,
      "ĠÐ¿Ð¾Ð´Ð½ÑıÐ»Ð°ÑģÑĮ": 7111,
      "ĠÐ¿Ð¾ÑĪÐ»Ð¸Ð½Ñĭ": 7112,
      "ĠÐĴÐ»Ð°ÑģÑĤÐ¸": 7113,
      "ĠÑģÑĤÐ¸Ð¼ÑĥÐ»Ð¸": 7114,
      "ĠÐ¼Ð°Ð³Ð°Ð·Ð¸Ð½Ð¾Ð²": 7115,
      "ÑįÐºÐ¾Ð½Ð¾Ð¼": 7116,
      ".).": 7117,
      "201": 7118,
      "ĠÐ²Ð¾ÐºÑĢÑĥÐ³": 7119,
      "Ð¾ÑĢÐ¾Ð²": 7120,
      "ÑĢÑĥÐ¶ÐµÑģÑĤÐ²ÐµÐ½Ð½ÑĭÑħ": 7121,
      "ÑĢÐ¾Ð²Ð°Ð½Ð°": 7122,
      "ĠÐ¾Ð±ÑĥÑģÐ»Ð¾Ð²": 7123,
      "ÑģÑĤÐ²ÑĥÑİÑī": 7124,
      "ĠÐĲÑĢÐ°Ð²Ð¸": 7125,
      "Ð°Ð»ÑĮÐ²Ð°": 7126,
      "ĠÑĢÐ°Ð·ÑĢÐµÑĪÐ¸": 7127,
      "Ð¾ÑĩÐ¸ÑĤÑĮ": 7128,
      "ĠÐ¿ÑĢÐ¾Ð³Ð½Ð¾Ð·Ð¾Ð²": 7129,
      "ĠÐ´Ð°Ð»ÑĮÐ½ÐµÐ¹ÑĪÐµÐµ": 7130,
      "ĠÐ¿Ð¾Ð»Ð¸ÑĤÐ¸ÐºÐ°": 7131,
      "ĠÑĢÐ°Ð±Ð¾ÑĤÐ°ÑĤÑĮ": 7132,
      "ĠÐ´Ð¾ÑģÑĤÐ¸Ð¶ÐµÐ½Ð¸Ðµ": 7133,
      "ĠÑĩÐ¸ÑģÑĤÑĭÐ¹": 7134,
      "ĠÐ¿ÑĢÐ¾ÑĨÐµÑģ": 7135,
      "man": 7136,
      "Ð¾ÑĩÐµÑĢÐµÐ´": 7137,
      "ÑĮÑı": 7138,
      "ĠÑģÐ°Ð¼Ð°": 7139,
      "ĠÑĥÑħÐ¾Ð´Ð°": 7140,
      "ĠÐĶÐ¾Ð¿Ð¾Ð»Ð½Ð¸ÑĤÐµÐ»ÑĮ": 7141,
      "ĠÐ¿ÑĢÐµÐ²": 7142,
      "ĠÐ¿ÑĢÐ°Ð²Ð»ÐµÐ½Ð¸Ñı": 7143,
      "ÑĢÐµÐºÑĤÐ¾ÑĢÐ°": 7144,
      "ĠÐ¿Ð¾Ð²ÑĭÑģÐ¸": 7145,
      "ĠÑģÑĩÐ¸ÑĤÐ°ÐµÐ¼": 7146,
      "ĠÐ´Ð¾Ð¿Ð¾Ð»Ð½Ð¸ÑĤÐµÐ»ÑĮÐ½ÑĭÑħ": 7147,
      "ĠÐ³Ð»Ð°Ð²Ð½ÑĭÐµ": 7148,
      "ĠÑİÐ°Ð½ÐµÐ¹": 7149,
      "ĠÐºÐ¾Ð½ÑĤÑĢÐ°ÐºÑĤ": 7150,
      "ÑİÑīÐ¸Ð¼ÑģÑı": 7151,
      "ĠÑĦÐ¸Ð·Ð»Ð¸ÑĨ": 7152,
      "Ð¸ÑģÑĤÐµÐ¼": 7153,
      "ÑĢÐ¾Ð¶": 7154,
      "Ð¿ÐµÑĢÐµ": 7155,
      "ÑĢÐµÐ¿Ð»": 7156,
      "ĠÐ¼Ð°": 7157,
      "ĠÐ½ÐµÐ·Ð°": 7158,
      "ĠÐ¢ÐļÐ¡": 7159,
      "ĠÑģÑģÑĭÐ»ÐºÐ¾Ð¹": 7160,
      "ĠÐ¿ÐµÑĢÐµÑħÐ¾Ð´Ð°": 7161,
      "ĠÐ²ÑĤÐ¾ÑĢÐ¸": 7162,
      "ĠÐ±Ð°Ð½ÐºÐ¾Ð²ÑģÐºÐ¾Ð³Ð¾": 7163,
      "ĠÐ¸Ð½ÑĤÐµÑĢÐµÑģÐ½Ð¾Ð¹": 7164,
      "ĠÐ¾ÑĢÐ³Ð°Ð½Ð¸Ð·Ð°": 7165,
      "ĠÑĢÐ°ÑģÑģÑĩÐ¸ÑĤÑĭÐ²Ð°ÐµÑĤ": 7166,
      "ĠÐ²Ð²ÐµÐ´ÐµÐ½Ð¸Ñı": 7167,
      "ĠÐ²ÐµÐ´ÑĥÑī": 7168,
      "ĠÐ´Ð¾Ð»Ð»Ð°ÑĢÐ°Ñħ": 7169,
      "ĠÑģÐ±ÐµÑĢÐµ": 7170,
      "ÑģÐºÐ°": 7171,
      "Ð»Ð¸ÑĪ": 7172,
      "ĠÐ¡Ðº": 7173,
      "Ð±Ð¾ÑĢÐ°": 7174,
      "ĠÐ·Ð°ÐºÐ»ÑİÑĩ": 7175,
      "ĠÐ§ÐµÐ¼": 7176,
      "Ġ145": 7177,
      "ĠÐ¼Ð¸Ð½ÑĥÑģ": 7178,
      "ĠÑģÐ°Ð¼Ð¾Ð¹": 7179,
      "ĠÑĥÐ²ÐµÐ»Ð¸ÑĩÐ¸Ð»Ð¸ÑģÑĮ": 7180,
      "ĠÐ²ÑĭÐºÑĥÐ¿Ð¸ÑĤÑĮ": 7181,
      "ĠÐ¨Ð¸ÑĢÐ¾Ðº": 7182,
      "ĠÐ·Ð°Ð²Ð¸ÑģÑıÑĤ": 7183,
      "ĠÐ²Ð½ÑĥÑĤÑĢÐµÐ½Ð½ÐµÐ¼": 7184,
      "ĠÐºÑĥÐ±Ð¾Ð¼ÐµÑĤÑĢÐ¾Ð²": 7185,
      "ĠÐ²Ð¸ÑĨÐµ": 7186,
      "ĠÐ¶ÐµÐ»ÐµÐ·": 7187,
      "ĠÑģÐ²Ð¸Ð´ÐµÑĤÐµÐ»ÑĮÑģÑĤÐ²ÑĥÑı": 7188,
      "Ð»Ð¸ÑĩÐ¸Ðµ": 7189,
      "ĠÑĢÐ°ÑģÑħÐ¾Ð¶Ð´ÐµÐ½Ð¸Ð¹": 7190,
      "ĠÑģÐ¾Ð¿ÑĢÐ¾Ð²Ð¾Ð¶Ð´Ð°Ð»Ð¾ÑģÑĮ": 7191,
      "ail": 7192,
      "ĠÑĤÑĥÑĢ": 7193,
      "ĠÐĳÐ°Ð¹Ð´": 7194,
      "ĠÐ£ÑĩÐ°ÑģÑĤ": 7195,
      "ĠÐŁÐ¾Ð´ÑĬÐµÐ¼": 7196,
      "Ð½ÑĥÐ»Ð°ÑģÑĮ": 7197,
      "ĠÐ¿Ð¾ÑģÐ»ÐµÐ´Ð½ÐµÐ¹": 7198,
      "ĠÐ²Ð°Ð¶Ð½Ð¾Ð¹": 7199,
      "ĠÐŀÑģÐ½Ð¾Ð²Ð½Ð¾Ð¹": 7200,
      "ĠÐ¿ÑĢÐ¾Ð¸Ð·Ð¾ÑĪÐµÐ»": 7201,
      "ÑģÑĤÐ°Ð»": 7202,
      "ÑĢÐ¾Ð²Ð°Ð²": 7203,
      "Ð°Ð½ÑĤÐ¾Ð²": 7204,
      "ĠÐŁÐµÑĢÐ²ÑĭÐµ": 7205,
      "ĠÐ¢Ð¾Ð²Ð°ÑĢÐ½Ð¾": 7206,
      "ĠÐĵÐ¾Ð½ÐºÐ¾Ð½Ð³": 7207,
      "ĠÐ´ÐµÐ¹ÑģÑĤÐ²Ð¾Ð²Ð°ÑĤÑĮ": 7208,
      "ĠSh": 7209,
      "ĠÐ·Ð°ÐºÑĢÑĭÑĤÐ¸Ñİ": 7210,
      "Ġ129": 7211,
      "ĠÑģÐ¸Ð»ÑĮÐ½Ð¾Ð¹": 7212,
      "Ð»Ð¾Ð°ÑĤ": 7213,
      "ĠÑĥÑħÑĥÐ´ÑĪÐµÐ½Ð¸Ðµ": 7214,
      "ĠÐŀÑģÐ½Ð¾Ð²Ð½Ð°Ñı": 7215,
      "ĠÐ²Ð¸Ð´ÐµÐ¾": 7216,
      "ĠÐ¿ÑĢÐµÐ´Ð¿Ð¾ÑģÑĭ": 7217,
      "ĠÐ¿ÑĢÐ¸Ð½ÑıÑĤÐ¾": 7218,
      "ĠÐ¤ÐĿÐĳ": 7219,
      "ĠGlobaltrans": 7220,
      "ĠÑĤÐµÐ¼Ð¿Ð°Ð¼Ð¸": 7221,
      "pi": 7222,
      "ĠÑģÑĢÐ¾Ñĩ": 7223,
      "ĠÑģÑĥÑīÐµ": 7224,
      "ĠÑģÐ±Ð¾ÑĢ": 7225,
      "ÑĢÐ¾Ð¾Ð±Ð¾ÑĢÐ¾ÑĤ": 7226,
      "ĠÐ»Ð¾Ðº": 7227,
      "ĠÐ¾Ð±Ð·": 7228,
      "ÑĩÐµÐ³Ð¾": 7229,
      "ĠÐĶÑĢÐ°Ð¹Ð²ÐµÑĢ": 7230,
      "Ġ448": 7231,
      "ine": 7232,
      "ĠÐºÐ°Ñģ": 7233,
      "Ð²ÑĭÐ¼Ð¸": 7234,
      "Ġ143": 7235,
      "ĠÐ²Ð¾Ð»Ð½Ðµ": 7236,
      "ĠÐ¿Ð¾Ð´ÑĬÐµÐ¼Ðµ": 7237,
      "ĠÐ¸Ð¼Ð¿ÑĥÐ»ÑĮÑģÐ¾Ð²": 7238,
      "ĠÐ¿Ð»Ð°Ð½Ð¸ÑĢÑĥÑİÑĤ": 7239,
      "ĠÑĥÐ»ÑĥÑĩÑĪÐ¸": 7240,
      "Ð²ÐµÐ»Ð°": 7241,
      "ĠÑģÐ¾ÐºÑĢÐ°ÑīÐ°ÑĤÑĮ": 7242,
      "ĠÐ·Ð°ÐºÐ¾Ð½Ð¾Ð¿ÑĢÐ¾": 7243,
      "Ġ361": 7244,
      "ĠÐĴÐ¾Ð·Ð²": 7245,
      "lear": 7246,
      "ĠÐ¾ÑĤÐ¼ÐµÑĩÐ°ÐµÐ¼": 7247,
      "ĠÐ¼ÐµÐ´Ð²ÐµÐ¶ÑĮÑı": 7248,
      "ĠÑĥÐºÐ°Ð·Ð°Ð½Ñĭ": 7249,
      "VT": 7250,
      "Ġ~": 7251,
      "ÑģÑĤÑĭ": 7252,
      "ÑĢÐ°Ð½ÐµÐµ": 7253,
      "ĠÐŁÐ¾ÑģÑĤÐ°": 7254,
      "ĠÐ²ÑĭÐ´": 7255,
      "ĠÑģÐ»ÐµÐ´ÑĥÐµÑĤ": 7256,
      "Ġ132": 7257,
      "ĠÐ¿Ð¾ÑĤÐµÐ½ÑĨÐ¸Ð°Ð»ÑĮÐ½ÑĭÐ¹": 7258,
      "ĠÐºÑĥÑĢÑģÐ¾Ð²": 7259,
      "ĠÐ±Ð°ÑĢÑĢ": 7260,
      "ĠMed": 7261,
      "ĠâĤ¬": 7262,
      "ĠÐ¿Ð¾Ð»Ð¾Ð²Ð¸Ð½Ñĭ": 7263,
      "ĠÐ¿ÑĢÐ¾Ð´Ð¾Ð»Ð¶Ð¸Ð»Ð¾ÑģÑĮ": 7264,
      "ĠÐŁÑĥÐ»ÑĮÑģÐ°": 7265,
      "ĠÐ¡Ð°Ð¼Ð¾Ð»ÐµÑĤÐ°": 7266,
      "ĠÑĥÑģÐºÐ¾ÑĢÐµÐ½Ð¸Ñı": 7267,
      "ĠÐ²Ð°ÑĢÐ¸Ð°Ð½ÑĤ": 7268,
      "ĠÐ¿ÐµÑĢÐµÑģÐµÐºÐ»Ð¸ÑģÑĮ": 7269,
      "ĠÑĢÐ°Ð±Ð¾ÑĩÐ¸": 7270,
      "ĠÐ½ÐµÐ´Ð¾Ð¾ÑĨÐµÐ½": 7271,
      "ĠÐ´Ð¾Ð³Ð¾Ð²Ð¾ÑĢÐ¸": 7272,
      "ĠÐľÐ°ÐºÑģÐ¸Ð¼Ð°Ð»ÑĮÐ½Ð°Ñı": 7273,
      "ĠAsia": 7274,
      "ÐµÐ½ÑĤÐ¸ÑĢÐ¾Ð²": 7275,
      "Ð´Ð°ÑĢÑĤ": 7276,
      "ĠÑģÐ¾ÑĨÐ¸": 7277,
      "ĠÐĲÑģÑĤÑĢÐ°": 7278,
      "ĠÑĢÐµÐ°Ð³Ð¸": 7279,
      "ĠÐļÑĢÐ°Ñģ": 7280,
      "ĠÐ±ÐµÐ·ÑĢÐ°Ð±Ð¾ÑĤÐ¸": 7281,
      "ĠÐ¿Ð¾Ð·Ð¸ÑĤÐ¸Ð²Ð½ÑĭÑħ": 7282,
      "Ġ1490": 7283,
      "ĠÐ¸ÑİÐ½ÑĮ": 7284,
      "ĠÐ¿Ð¾Ð»ÑĥÑĩÐµÐ½Ð¸Ñı": 7285,
      "ĠÐ¼Ð½Ð¾Ð¶Ðµ": 7286,
      "ĠÐĲÐ»ÑĢÐ¾ÑģÐ°": 7287,
      "ĠÑĥÑĩÐ°ÑģÑĤÐ¸Ñı": 7288,
      "ĠÐ¸ÑģÐ¿Ð¾Ð»Ð½ÐµÐ½Ð¸Ñı": 7289,
      "ĠÐĵÐ¾ÑģÐ´ÑĥÐ¼Ð°": 7290,
      "ĠÐ¡ÐµÐ³ÐµÐ¶Ð°": 7291,
      "ĠÐ¿Ð¾ÑĤÐ¾Ð»ÐºÐ°": 7292,
      "SBER": 7293,
      "Ġex": 7294,
      "ĠÐ´Ð°Ð¹Ð´": 7295,
      "Ġ290": 7296,
      "ĠÐ³ÑĢÑĥÐ·": 7297,
      "Ġ331": 7298,
      "ĠÑĤÐ¾ÑĢÐ³Ð¾Ð²ÑĭÐµ": 7299,
      "Ġ169": 7300,
      "ĠÐ²Ð°Ð»ÑİÑĤÐµ": 7301,
      "ĠÐ¿ÑĢÐ¾Ð³Ð½Ð¾Ð·Ð°": 7302,
      "ĠÐ¾ÑĤÐºÑĢÑĭÑĤÑĮ": 7303,
      "ĠÐ¿Ð¾Ð¼Ð¾Ð¶ÐµÑĤ": 7304,
      "ĠÐ¿Ð¾ÐºÐ°Ð·Ð°ÑĤÐµÐ»Ñı": 7305,
      "ĠÐ·Ð°Ð¼ÐµÐ´Ð»ÐµÐ½Ð¸Ðµ": 7306,
      "ĠÐ¿Ð¾Ð³Ð°ÑĪ": 7307,
      "ĠÑģÐ¾ÐºÑĢÐ°ÑĤÐ¸Ð»Ð°ÑģÑĮ": 7308,
      "ĠÐ´Ð¾ÑģÑĤÐ¸Ð³Ð½ÑĥÑĤÑĭ": 7309,
      "ĠÐ»Ð¸ÑģÑĤÐ¸Ð½Ð³": 7310,
      "ĠÐ¿ÑĢÐµÐ²ÑĭÑĪÐ°ÐµÑĤ": 7311,
      "ĠÑıÐ¿Ð¾Ð½ÑģÐºÐ¸Ð¹": 7312,
      "ĠÐºÐ¾Ð»ÐµÐ±": 7313,
      "ĠÐ½ÐµÐ¸Ð·": 7314,
      "ĠÐĳÐ¸ÑĢÐ¶Ð¸": 7315,
      "ÑģÑĤÐ¾Ð¸ÑĤ": 7316,
      "ĠÐ»Ð¸Ð¼Ð¸ÑĤ": 7317,
      "Ð°Ð¹Ð±": 7318,
      "ĠÑģÐ¿Ð°Ð´": 7319,
      "ĠÑĢÐ¾ÑģÑģÐ¸Ð¹ÑģÐºÐ¸Ð¼Ð¸": 7320,
      "ĠÐ·Ð°ÑıÐ²Ð»ÐµÐ½Ð¸Ñı": 7321,
      "ĠÐ¿Ð¾Ð»ÑĥÑĩÐ¸ÑĤ": 7322,
      "ĠÐ¼Ð½Ð¾Ð³Ð¸Ðµ": 7323,
      "ĠÑģÐ»Ð¾Ð¶Ð½Ð¾ÑģÑĤÐ¸": 7324,
      "ĠÑĢÐµÐ°Ð»Ð¸Ð·Ð¾Ð²Ð°Ð»Ð°ÑģÑĮ": 7325,
      "ĠÐ´Ð¸Ð²ÐµÑĢÑģÐ¸": 7326,
      "ĠÐ²ÑĩÐµÑĢÐ°ÑĪÐ½ÐµÐ³Ð¾": 7327,
      "ĠÐļÐ¾Ð¼Ð¼ÐµÑĢ": 7328,
      "ÑıÐ¶ÐµÐ½Ð¸Ð¸": 7329,
      "ĠÐ½ÐµÑĦÑĤÐµÐ¿ÑĢÐ¾Ð´ÑĥÐºÑĤÐ¾Ð²": 7330,
      "Ð°Ð¹ÑĤÐµÑģÑĮ": 7331,
      "ĠÐ²Ð¾ÑģÑģÑĤÐ°Ð½Ð°Ð²Ð»Ð¸Ð²Ð°ÑĤÑĮÑģÑı": 7332,
      "ĠÑĤÑĢÐ¸Ð³Ð³ÐµÑĢÐ¾Ð²": 7333,
      "NDX": 7334,
      "IB": 7335,
      "Tube": 7336,
      "ÑĢÐµÑģÑģÐ¸Ð²": 7337,
      "Ġ119": 7338,
      "ĠÐ¾ÑĤÑģÑĤÑĥÐ¿": 7339,
      "Ð´Ð°ÑĢ": 7340,
      "ĠÐ²Ð¾Ð·Ð½Ð¸Ðº": 7341,
      "ĠÐ½Ð¸ÐºÐ°": 7342,
      "ĠÑģÐ¿ÑıÑĤ": 7343,
      "ĠÐ¿Ð¾ÐºÑĥÐ¿Ð°ÑĤÐµÐ»ÑıÐ¼Ð¸": 7344,
      "ĠÐ·Ð°ÐºÑĢÑĭÐ»Ð¸": 7345,
      "ĠÐ¾Ð±ÑīÐµÐ¹": 7346,
      "ĠDe": 7347,
      "ĠÐŀÐ¶Ð¸Ð´Ð°ÐµÑĤÑģÑı": 7348,
      "ĠYou": 7349,
      "Ġï¸ıï¸ıï¸ı": 7350,
      "Ð°ÑĢÐ¾Ð²": 7351,
      "ĠÐ´Ð½Ð°": 7352,
      "ĠÐ´Ð½ÐµÐ¼": 7353,
      "ĠÐĳÐ¸ÑĢÐ¶Ðµ": 7354,
      "ÑĢÐ¾ÑģÐ»Ð¸": 7355,
      "ĠÑģÐ½Ð¸Ð¶Ð°Ð»Ð¸ÑģÑĮ": 7356,
      "Ġ96": 7357,
      "ĠÑģÐ½Ð¸Ð·Ð¸Ð»": 7358,
      "ĠÐ¾ÑĤÑģÐºÐ¾ÑĩÐ¸ÑĤÑĮ": 7359,
      "Ġ289": 7360,
      "Ð¸Ð´ÐµÑı": 7361,
      "ĠÐ´ÐµÐ¿Ð¾Ð·Ð¸ÑĤÐ°Ñħ": 7362,
      "ĠJap": 7363,
      "ĠÐ¿ÑĢÐ¾Ð³Ð½Ð¾Ð·Ð¸ÑĢÑĥÐµÑĤ": 7364,
      "ĠÐ²ÑĭÐ¿Ð»Ð°ÑĤÐ°Ð¼": 7365,
      "ĠÑįÐ»ÐµÐºÑĤÑĢÐ¾Ð¼Ð¾Ð±Ð¸Ð»ÐµÐ¹": 7366,
      "ĠÐ¿Ð¾Ð´Ð³Ð¾ÑĤÐ¾Ð²": 7367,
      "ĠÐ¨Ð¸ÑĢÐ¾ÐºÐ¸Ð¹": 7368,
      "ĠJapan": 7369,
      "im": 7370,
      "ÐµÑģÐº": 7371,
      "ÑĤÐµÑħ": 7372,
      "ÑĢÐ°ÑĤÐ°": 7373,
      "ĠÐ±ÑĢÐ¸Ð»Ð»Ð¸": 7374,
      "ĠÐ½ÐµÐ²Ñĭ": 7375,
      "ÑĤÐ¸Ð¸": 7376,
      "ĠÐ´Ð¾ÑĩÐµÑĢ": 7377,
      "ĠÑĢÐµÐ¼Ð¾Ð½": 7378,
      "Ð¾Ð²ÑĭÐ¼Ð¸": 7379,
      "ĠÐ¿Ð¾ÐºÑĥÐ¿ÐºÐ°": 7380,
      "ĠÐ¾ÑģÐ½Ð¾Ð²Ðµ": 7381,
      "ĠÑģÐ²Ð¾Ð¸Ð¼": 7382,
      "ĠÑģÐ°Ð¼Ð¾Ðµ": 7383,
      "ĠÐ¼Ð°ÐºÑģÐ¸Ð¼Ð°Ð»ÑĮÐ½ÑĭÑħ": 7384,
      "ĠÐ¼Ð¸ÑĢÐ¾Ð²Ð¾Ð¼": 7385,
      "ĠÐ¿Ð¾Ð³Ð°": 7386,
      "ĠÑģÐ¾Ð³Ð»Ð°ÑĪÐµÐ½Ð¸Ðµ": 7387,
      "ĠÑģÐ¾ÑģÑĤÐ¾ÑıÐ½Ð¸Ñİ": 7388,
      "ĠÑĤÐµÑģÑĤÐ¸ÑĢÐ¾Ð²Ð°Ð½Ð¸Ðµ": 7389,
      "ĠÐľÐµÑĩÐµÐ»Ð°": 7390,
      "ĠÐ³Ð¾Ð»Ð¾Ñģ": 7391,
      "ĠÑĢÐµÐ³ÑĥÐ»ÑıÑĢ": 7392,
      "ĠÐĴÐµÐ´Ð¾Ð¼Ð¾ÑģÑĤÐ¸": 7393,
      "TR": 7394,
      "ÑģÐµÐ¼": 7395,
      "Ð»Ð°Ð½": 7396,
      "Ð²Ð¸ÑĤÑĮ": 7397,
      "ĠÐ´ÑĢÐ°": 7398,
      "ÑĢÐ¾Ð²Ð¾Ð´": 7399,
      "Ð¾Ð¶Ð¸Ð´": 7400,
      "Ð¾ÑĤÑĩÐµÑĤ": 7401,
      "ĠÐĲÑĢ": 7402,
      "ĠÑģÑĤÐ¾Ð»Ðº": 7403,
      "Ð»ÑİÑĩÐµÐ½Ð¸Ñı": 7404,
      "Ð°Ð»Ð¸Ð·Ð°ÑĤ": 7405,
      "ĠÐŀÐ±Ñģ": 7406,
      "ÑģÐµÑĤÐµÐ¹": 7407,
      "ĠÑĩÐ°ÑģÑĤÐ¾": 7408,
      "ÑĢÐµÑģÑģ": 7409,
      "ĠÑģÑĢÐµÐ´Ð½ÐµÑģÑĢÐ¾ÑĩÐ½ÑĭÐ¼": 7410,
      "ĠÐ²Ð¾Ð»Ð½Ñĥ": 7411,
      "ĠTTF": 7412,
      "ĠAC": 7413,
      "ĠÐºÑĥÑĢÑģÑĭ": 7414,
      "ĠÐ·Ð°ÐºÑĢÑĭÑĤÑĮ": 7415,
      "ĠÐµÐ²ÑĢÐ¾Ð±": 7416,
      "ĠÑĢÐ¾Ð»ÑĮ": 7417,
      "ĠÐ·Ð°ÑıÐ²ÐºÐ¸": 7418,
      "ĠÐ¸Ð½ÑĦÑĢÐ°ÑģÑĤÑĢÑĥÐºÑĤÑĥÑĢÑĭ": 7419,
      "ĠÐ¡ÑĦÐ¾ÑĢÐ¼Ð¸ÑĢÐ¾Ð²Ð°Ð½Ð½ÑĭÐµ": 7420,
      "ĠÑģÐµÐ³Ð¼ÐµÐ½ÑĤÐµ": 7421,
      "ĠÐ´ÐµÑģÑıÑĤÐ¸": 7422,
      "ĠÑįÐ»ÐµÐºÑĤÑĢÐ¾Ð½Ð½Ð¾Ð¹": 7423,
      "ĠYouTube": 7424,
      "oo": 7425,
      "Ð°ÑİÑīÐ¸Ðµ": 7426,
      "ĠÐ²Ð¼ÐµÑģÑĤÐ¾": 7427,
      "Ð²Ð¾Ð´Ð¸Ð¼": 7428,
      "ĠÐ½ÐµÐ¹ÑĤÑĢÐ°Ð»ÑĮÐ½ÑĥÑİ": 7429,
      "ĠÑĥÐºÐ°Ð·ÑĭÐ²": 7430,
      "ĠÑĢÐµÐºÐ¾Ð¼ÐµÐ½Ð´ÑĥÐµÐ¼": 7431,
      "ĠÐ¿ÑĢÐµÐ¾Ð´Ð¾Ð»ÐµÐ½Ð¸Ñı": 7432,
      "ĠÑħÐ¾ÑĢÐ¾ÑĪÐ¾": 7433,
      "ĠÑĥÐ¿ÑĢÐ°Ð²Ð»ÐµÐ½Ð¸Ñı": 7434,
      "ĠÐ·ÐµÑĢÐ½Ð°": 7435,
      "ĠÑĢÐµÑĪÐ¸Ð»Ð¸": 7436,
      "ĠÐ¿ÐµÐ½ÑģÐ¸": 7437,
      "ĠÐºÐµÐ¹Ñģ": 7438,
      "Ð»Ð¸ÑıÑĤÑĮ": 7439,
      "ÑĩÐµÑģÐºÐ¾Ðµ": 7440,
      "ĠÐĶÐµÑĤ": 7441,
      "Ġ107": 7442,
      "Ð¿ÑĢÐ¾Ð¼ÑĤÐ¾ÑĢÐ³": 7443,
      "ĠÑĨÐµÐ½Ð°Ð¼Ð¸": 7444,
      "ĠÐ²ÑģÐµÐ³Ð´Ð°": 7445,
      "ĠÐ¿ÑĢÐ¸Ð±Ð»Ð¸": 7446,
      "one": 7447,
      "ĠÐ´Ð¾Ð¿Ð¾Ð»Ð½Ð¸ÑĤÐµÐ»ÑĮÐ½Ð¾": 7448,
      "ĠÐ½Ð¸Ð·ÐºÐ¸Ñħ": 7449,
      "ĠÐºÐ¾Ð¼Ð¿ÐµÐ½ÑģÐ¸": 7450,
      "ĠÐ¡Ð»ÐµÐ´ÑĥÑİÑīÐ°Ñı": 7451,
      "Ð²Ð¸ÑĤÐ¸Ñı": 7452,
      "Ð½Ð¸ÐºÐ°Ð¼Ð¸": 7453,
      "ĠÐĶÐ¸Ð½Ð°Ð¼Ð¸": 7454,
      "Ġ1570": 7455,
      "ĠÑģÐ¾Ð²Ð¿Ð°": 7456,
      "ĠÐ½ÐµÐ³Ð°ÑĤÐ¸Ð²Ð½ÑĭÑħ": 7457,
[...]
