{
  "version": "1.0",
  "truncation": null,
  "padding": null,
  "added_tokens": [
    {
      "id": 0,
      "content": "<pad>",
      "single_word": false,
      "lstrip": false,
      "rstrip": false,
      "normalized": false,
      "special": true
    },
    {
      "id": 1,
      "content": "<unk>",
      "single_word": false,
      "lstrip": false,
      "rstrip": false,
      "normalized": false,
      "special": true
    },
    {
      "id": 2,
      "content": "<bos>",
      "single_word": false,
      "lstrip": false,
      "rstrip": false,
      "normalized": false,
      "special": true
    },
    {
      "id": 3,
      "content": "<eos>",
      "single_word": false,
      "lstrip": false,
      "rstrip": false,
      "normalized": false,
      "special": true
    }
  ],
  "normalizer": {
    "type": "NFKC"
  },
  "pre_tokenizer": {
    "type": "ByteLevel",
    "add_prefix_space": false,
    "trim_offsets": true,
    "use_regex": true
  },
  "post_processor": {
    "type": "TemplateProcessing",
    "single": [
      {
        "SpecialToken": {
          "id": "<bos>",
          "type_id": 0
        }
      },
      {
        "Sequence": {
          "id": "A",
          "type_id": 0
        }
      },
      {
        "SpecialToken": {
          "id": "<eos>",
          "type_id": 0
        }
      }
    ],
    "pair": [
      {
        "Sequence": {
          "id": "A",
          "type_id": 0
        }
      },
      {
        "Sequence": {
          "id": "B",
          "type_id": 1
        }
      }
    ],
    "special_tokens": {
      "<bos>": {
        "id": "<bos>",
        "ids": [
          2
        ],
        "tokens": [
          "<bos>"
        ]
      },
      "<eos>": {
        "id": "<eos>",
        "ids": [
          3
        ],
        "tokens": [
          "<eos>"
        ]
      }
    }
  },
  "decoder": {
    "type": "ByteLevel",
    "add_prefix_space": true,
    "trim_offsets": true,
    "use_regex": true
  },
  "model": {
    "type": "BPE",
    "dropout": null,
    "unk_token": "<unk>",
    "continuing_subword_prefix": null,
    "end_of_word_suffix": null,
    "fuse_unk": false,
    "byte_fallback": false,
    "ignore_merges": false,
    "vocab": {
      "<pad>": 0,
      "<unk>": 1,
      "<bos>": 2,
      "<eos>": 3,
      "!": 4,
      "\"": 5,
      "#": 6,
      "$": 7,
      "%": 8,
      "&": 9,
      "'": 10,
      "(": 11,
      ")": 12,
      "*": 13,
      "+": 14,
      ",": 15,
      "-": 16,
      ".": 17,
      "/": 18,
      "0": 19,
      "1": 20,
      "2": 21,
      "3": 22,
      "4": 23,
      "5": 24,
      "6": 25,
      "7": 26,
      "8": 27,
      "9": 28,
      ":": 29,
      ";": 30,
      "<": 31,
      "=": 32,
      ">": 33,
      "?": 34,
      "@": 35,
      "A": 36,
      "B": 37,
      "C": 38,
      "D": 39,
      "E": 40,
      "F": 41,
      "G": 42,
      "H": 43,
      "I": 44,
      "J": 45,
      "K": 46,
      "L": 47,
      "M": 48,
      "N": 49,
      "O": 50,
      "P": 51,
      "Q": 52,
      "R": 53,
      "S": 54,
      "T": 55,
      "U": 56,
      "V": 57,
      "W": 58,
      "X": 59,
      "Y": 60,
      "Z": 61,
      "[": 62,
      "\\": 63,
      "]": 64,
      "^": 65,
      "_": 66,
      "`": 67,
      "a": 68,
      "b": 69,
      "c": 70,
      "d": 71,
      "e": 72,
      "f": 73,
      "g": 74,
      "h": 75,
      "i": 76,
      "j": 77,
      "k": 78,
      "l": 79,
      "m": 80,
      "n": 81,
      "o": 82,
      "p": 83,
      "q": 84,
      "r": 85,
      "s": 86,
      "t": 87,
      "u": 88,
      "v": 89,
      "w": 90,
      "x": 91,
      "y": 92,
      "z": 93,
      "{": 94,
      "|": 95,
      "}": 96,
      "~": 97,
      "¡": 98,
      "¢": 99,
      "£": 100,
      "¤": 101,
      "¥": 102,
      "¦": 103,
      "§": 104,
      "¨": 105,
      "©": 106,
      "ª": 107,
      "«": 108,
      "¬": 109,
      "®": 110,
      "¯": 111,
      "°": 112,
      "±": 113,
      "²": 114,
      "³": 115,
      "´": 116,
      "µ": 117,
      "¶": 118,
      "·": 119,
      "¸": 120,
      "¹": 121,
      "º": 122,
      "»": 123,
      "¼": 124,
      "½": 125,
      "¾": 126,
      "¿": 127,
      "À": 128,
      "Á": 129,
      "Â": 130,
      "Ã": 131,
      "Ä": 132,
      "Å": 133,
      "Æ": 134,
      "Ç": 135,
      "È": 136,
      "É": 137,
      "Ê": 138,
      "Ë": 139,
      "Ì": 140,
      "Í": 141,
      "Î": 142,
      "Ï": 143,
      "Ð": 144,
      "Ñ": 145,
      "Ò": 146,
      "Ó": 147,
      "Ô": 148,
      "Õ": 149,
      "Ö": 150,
      "×": 151,
      "Ø": 152,
      "Ù": 153,
      "Ú": 154,
      "Û": 155,
      "Ü": 156,
      "Ý": 157,
      "Þ": 158,
      "ß": 159,
      "à": 160,
      "á": 161,
      "â": 162,
      "ã": 163,
      "ä": 164,
      "å": 165,
      "æ": 166,
      "ç": 167,
      "è": 168,
      "é": 169,
      "ê": 170,
      "ë": 171,
      "ì": 172,
      "í": 173,
      "î": 174,
      "ï": 175,
      "ð": 176,
      "ñ": 177,
      "ò": 178,
      "ó": 179,
      "ô": 180,
      "õ": 181,
      "ö": 182,
      "÷": 183,
      "ø": 184,
      "ù": 185,
      "ú": 186,
      "û": 187,
      "ü": 188,
      "ý": 189,
      "þ": 190,
      "ÿ": 191,
      "Ā": 192,
      "ā": 193,
      "Ă": 194,
      "ă": 195,
      "Ą": 196,
      "ą": 197,
      "Ć": 198,
      "ć": 199,
      "Ĉ": 200,
      "ĉ": 201,
      "Ċ": 202,
      "ċ": 203,
      "Č": 204,
      "č": 205,
      "Ď": 206,
      "ď": 207,
      "Đ": 208,
      "đ": 209,
      "Ē": 210,
      "ē": 211,
      "Ĕ": 212,
      "ĕ": 213,
      "Ė": 214,
      "ė": 215,
      "Ę": 216,
      "ę": 217,
      "Ě": 218,
      "ě": 219,
      "Ĝ": 220,
      "ĝ": 221,
      "Ğ": 222,
      "ğ": 223,
      "Ġ": 224,
      "ġ": 225,
      "Ģ": 226,
      "ģ": 227,
      "Ĥ": 228,
      "ĥ": 229,
      "Ħ": 230,
      "ħ": 231,
      "Ĩ": 232,
      "ĩ": 233,
      "Ī": 234,
      "ī": 235,
      "Ĭ": 236,
      "ĭ": 237,
      "Į": 238,
      "į": 239,
      "İ": 240,
      "ı": 241,
      "Ĳ": 242,
      "ĳ": 243,
      "Ĵ": 244,
      "ĵ": 245,
      "Ķ": 246,
      "ķ": 247,
      "ĸ": 248,
      "Ĺ": 249,
      "ĺ": 250,
      "Ļ": 251,
      "ļ": 252,
      "Ľ": 253,
      "ľ": 254,
      "Ŀ": 255,
      "ŀ": 256,
      "Ł": 257,
      "ł": 258,
      "Ń": 259,
      "ĠÐ": 260,
      "Ð¾": 261,
      "Ðµ": 262,
      "Ð¸": 263,
      "Ð°": 264,
      "Ð½": 265,
      "ÑĤ": 266,
      "Ñģ": 267,
      "ÑĢ": 268,
      "Ð¾Ð": 269,
      "Ð»": 270,
      "Ðº": 271,
      "Ñı": 272,
      "Ñĥ": 273,
      "ÑģÑĤ": 274,
      "Ð²": 275,
      "Ñĭ": 276,
      "Ð¼": 277,
      "Ð½Ð¸": 278,
      "Ð´": 279,
      "ĠÐ¿": 280,
      "Ð¾Ð²": 281,
      "ÑĮ": 282,
      "ĠÐ½": 283,
      "ÑĨ": 284,
      "ĠÑģ": 285,
      "ĠÐ²": 286,
      "Ñĩ": 287,
      "ĠÐ¸": 288,
      "ÑĢÐ°": 289,
      "Ð¿": 290,
      "Ð¹": 291,
      "ĠÐ¾": 292,
      "$$": 293,
      "Ð³": 294,
      "Ð·": 295,
      "ÐµÐ½": 296,
      "ÑĨÐ¸": 297,
      "Ð¾Ð¼": 298,
      "ÑĢÐµ": 299,
      "Ð±": 300,
      "ĠÐ´": 301,
      "ĠÐ½Ð°": 302,
      "Ð¾ÑĢ": 303,
      "Ð°ÑĤ": 304,
      "Ð¾Ð´": 305,
      "ÐµÑĤ": 306,
      "00": 307,
      "Ñħ": 308,
      "Ð¶": 309,
      "ÐµÐ½Ð¸": 310,
      "Ð¾Ð»": 311,
      "ĠÐº": 312,
      "ÑĦ": 313,
      "ĠÐ¸Ð½": 314,
      "Ñİ": 315,
      "ÐµÑĢ": 316,
      "ÐµÐ»": 317,
      "Ð½Ð°": 318,
      "ÑĢÐ¾": 319,
      "Ð½Ñĭ": 320,
      "Ð¾Ð¹": 321,
      "Ġ2": 322,
      "Ð¸ÑĤ": 323,
      "ÑģÐº": 324,
      "ÑģÑĤÐ¸": 325,
      "ĠÐ¼": 326,
      "Ð½Ð¾": 327,
      "Ġ$$": 328,
      "Ġ$$$": 329,
      "ÑĪ": 330,
      "ĠÐ±": 331,
      "ĠÑĤ": 332,
      "Ð¾Ðº": 333,
      "ĠÑĥ": 334,
      "ÑģÑı": 335,
      "ÐµÐº": 336,
      "ĠÐ·": 337,
      "Ð¾Ð½": 338,
      "Ġ1": 339,
      "02": 340,
      "Ð°Ð»": 341,
      "âĢ": 342,
      "Ðļ": 343,
      "Ð²Ðµ": 344,
      "ÑĢÑĥ": 345,
      "ĠÐ½Ðµ": 346,
      "ÑĤÐ¸": 347,
      "ĠÐ³": 348,
      "ĠÐĳ": 349,
      "Ð°Ð½Ð¸": 350,
      "Ñī": 351,
      "ÑĢÐ¾Ð²": 352,
      "Ġ202": 353,
      "Ðŀ": 354,
      "Ð»Ñı": 355,
      "ĠÐ·Ð°": 356,
      "ÐµÐ¹": 357,
      "ĠÐ°": 358,
      "ÑĨÐ¸Ð¸": 359,
      "ÑģÑĤÐ¾": 360,
      "ĠÐĴ": 361,
      "Ð¡": 362,
      "ÑģÑĤÐ°": 363,
      "Ð¾Ð³": 364,
      "ĠÐ¾ÑĤ": 365,
      "ĠÐ¿Ð¾": 366,
      "ÑĢÐ¸": 367,
      "Ð»Ð¸": 368,
      "Ð½Ð¸Ðº": 369,
      "ÑĢÐµÐ´": 370,
      "ĠÑĢÐ°": 371,
      "ÐĶ": 372,
      "ĠÐ¸Ð½Ð²Ðµ": 373,
      "ÐµÐ½Ð¸Ñı": 374,
      "ÐµÐ¼": 375,
      "Ð¢": 376,
      "Ð²Ð¸": 377,
      "ĠÐŀ": 378,
      "Ð¾Ð¶": 379,
      "Ð°Ð½": 380,
      "Ðĺ": 381,
      "Ð¾Ñģ": 382,
      "Ð¾ÑĤ": 383,
      "Ð°ÑĤÐ°": 384,
      "Ð¼Ð°": 385,
      "ĠÂ": 386,
      "ÑģÑĤÐ¾Ñĩ": 387,
      "ÑģÑĤÐ¾ÑĩÐ½Ð¸Ðº": 388,
      "Ð»Ð°": 389,
      "ĠÐ»": 390,
      "ÐµÐºÑģÑĤ": 391,
      "ĠÐľ": 392,
      "ÐĺÑģÑĤÐ¾ÑĩÐ½Ð¸Ðº": 393,
      "ÐĶÐ°ÑĤÐ°": 394,
      "Ð¢ÐµÐºÑģÑĤ": 395,
      "Ð½Ðµ": 396,
      "Ð°Ð½Ð¸Ñı": 397,
      "ĠâĢ": 398,
      "ĠÐŁ": 399,
      "Â»": 400,
      "ĠÂ«": 401,
      "ĠÐ²Ñĭ": 402,
      "ÐºÐ¸": 403,
      "Ð¼Ð¸": 404,
      "ĠÐ°Ðº": 405,
      "ÐµÐ½Ð¸Ðµ": 406,
      "ĠÐ¸Ð½Ð²ÐµÑģÑĤÐ¸": 407,
      "Ð¾Ð±": 408,
      "ĠÑĦ": 409,
      "Ð¾Ð¼Ð¿": 410,
      "ÐºÐ°": 411,
      "ÐļÐ¡": 412,
      "Ð°ÑĤÑĮ": 413,
      "ĠÐĳÐļÐ¡": 414,
      "ÐµÐ»ÑĮ": 415,
      "Ð´Ð°": 416,
      "ĠÑĢÑĥ": 417,
      "ĠÐ¡": 418,
      "Ð²Ð°": 419,
      "ĠÑĢÑĥÐ±": 420,
      "ÑģÐ¸": 421,
      "Ð²Ð»": 422,
      "Ð¾Ð¿": 423,
      "Ð¸ÑĢ": 424,
      "ÑĢÑĭ": 425,
      "ĠÐł": 426,
      "ÑĨÐµÐ½": 427,
      "Ð¾Ð·": 428,
      "ÐºÐµ": 429,
      "ĠÑĩ": 430,
      "Ð½Ð¾Ð¼": 431,
      "Ð¶Ðµ": 432,
      "ÑİÑĤ": 433,
      "ÑĭÐµ": 434,
      "Ð¾Ð³Ð¾": 435,
      "ĠÐ¸Ð½Ð²ÐµÑģÑĤÐ¸ÑĨÐ¸": 436,
      "ĠÐ¾Ð±": 437,
      "ÑģÐ¾Ð²": 438,
      "ÑĩÐµ": 439,
      "ĠÐ¿ÑĢÐµÐ´": 440,
      "Ð°Ðº": 441,
      "ÑĥÑĤ": 442,
      "ĠÐ»Ð¸": 443,
      "ÐµÐ½ÑĤ": 444,
      "Ð¾Ð¼Ð¿Ð°Ð½Ð¸Ñı": 445,
      "ÑħÐ¾Ð´": 446,
      "ÐµÐ³": 447,
      "ĠÐ¿Ð¾Ð´": 448,
      "ĠÑĢÐ°Ð·": 449,
      "ÑģÐ¿": 450,
      "Ñį": 451,
      "ÑĦÐ¾ÑĢ": 452,
      "Ð½ÑĭÐµ": 453,
      "Ð¸ÑĤÑĮ": 454,
      "Ð°Ñı": 455,
      "Ð½Ð¾ÑģÑĤÐ¸": 456,
      "Ð¸Ð½Ð°": 457,
      "Ð½Ð¾Ð¹": 458,
      "ĠÐ¾Ð¿": 459,
      "ÑĨÐ¸Ñı": 460,
      "Ð¾Ð»ÑĮ": 461,
      "ĠÐ¿ÑĢ": 462,
      "Ð°Ð³": 463,
      "Ð¾ÑĢÐ³": 464,
      "ĠÐĿ": 465,
      "Ð°ÑĢ": 466,
      "Ġ3": 467,
      "Ð·Ð¸": 468,
      "ĠÑģÐ¾": 469,
      "ÑĦÐ¾ÑĢÐ¼Ð°": 470,
      "ĠÐ¸Ð½ÑĦÐ¾ÑĢÐ¼Ð°": 471,
      "Ð²Ð»Ñı": 472,
      "ÑģÑĤÐ²": 473,
      "ĠÐŀÐŀ": 474,
      "ĠÐŀÐŀÐŀ": 475,
      "ÐļÐ¾Ð¼Ð¿Ð°Ð½Ð¸Ñı": 476,
      "ÐµÑĤÑģÑı": 477,
      "ĠÑĤÐ¾ÑĢÐ³": 478,
      "ĠÐ´Ð¾": 479,
      "Ð»ÑĮ": 480,
      "ÐĹ": 481,
      "ÑıÑĤ": 482,
      "cs": 483,
      "bcs": 484,
      "Ð¾Ð»Ð¾Ð²": 485,
      "ĠÐ¿ÑĢÐ¾": 486,
      "ÑĤÐ¾": 487,
      "ÑģÐºÐ¸": 488,
      "ĠÑį": 489,
      "Ð´ÐµÐ»": 490,
      "ĠÐĲ": 491,
      "ĠÑĢÐ¾": 492,
      "ĠÐ³Ð¾Ð´": 493,
      "ĠâĢ¢": 494,
      "Ġ2024": 495,
      "Ð¾Ð»Ð¾Ð²Ð¾Ðº": 496,
      "ÐĹÐ°Ð³": 497,
      "ÐĹÐ°Ð³Ð¾Ð»Ð¾Ð²Ð¾Ðº": 498,
      "ĠÐĺ": 499,
      "ÐµÐ´": 500,
      "ÑĥÑī": 501,
      "ĠÑĢÐµ": 502,
      "ĠÐ¿ÑĢÐ¸": 503,
      "ĠÐ¤": 504,
      "ĠÐ¸Ð½Ð²ÐµÑģÑĤÐ¸ÑĨÐ¸Ð¾Ð½": 505,
      "ÑģÐ»": 506,
      "ÐµÑĢÐ°": 507,
      "la": 508,
      "Ġ2023": 509,
      "ĠÐ°ÐºÑĨÐ¸Ð¸": 510,
      "Ð½ÑĭÑħ": 511,
      "Ð°Ð¹": 512,
      "ÐµÑģÑĤ": 513,
      "Ġ5": 514,
      "Ð¸Ð¼": 515,
      "ÑĤÑĮ": 516,
      "ÐºÐ¾Ð¼": 517,
      "Ð½Ñı": 518,
      "ĠÑı": 519,
      "Ġ/": 520,
      "ĠÐļ": 521,
      "01": 522,
      "Ð¸Ð½Ð°Ð½": 523,
      "Ġbcs": 524,
      "Ð²Ð¾Ð¹": 525,
      "ĠÐ¼Ð¾Ð¶": 526,
      "Ð¸Ð½Ð°Ð½ÑģÐ¾Ð²": 527,
      "Ð¾ÐºÐ°": 528,
      "ÑĤÑĥ": 529,
      "ĠÐ¿ÐµÑĢ": 530,
      "ÑĢÐ¾Ñĩ": 531,
      "ĠÐĶ": 532,
      "ĠâĢĶ": 533,
      "ĠÑģÑĤ": 534,
      "âĢĵ": 535,
      "Ð°Ð»ÑĮ": 536,
      "ÐĲ": 537,
      "Ġ(": 538,
      "ĠÑĢÑĭ": 539,
      "Ð½ÑĭÐ¹": 540,
      "Ð½Ð°Ñı": 541,
      "Ð±Ð¾": 542,
      "ĠÑĨ": 543,
      "ÑģÑĮ": 544,
      "ĠÑĤÐ¾ÑĢÐ³Ð¾Ð²": 545,
      "ÑĦÐ¸": 546,
      "ĠÑıÐ²Ð»Ñı": 547,
      "Ð½Ð¾Ð²": 548,
      "04": 549,
      "ÑĪÐµ": 550,
      "Ð°Ð¼": 551,
      "ĠÑĢÑĭÐ½": 552,
      "ÑİÑĤÑģÑı": 553,
      "ar": 554,
      "ÑģÑĭ": 555,
      "Ð»Ñİ": 556,
      "Â»,": 557,
      "Ð¼ÐµÐ½ÑĤ": 558,
      "ÑĩÐ°": 559,
      "ĠÐ±Ñĥ": 560,
      "ÐµÐ·": 561,
      "Ġ15": 562,
      "Ð½ÑĭÐ¼": 563,
      "ÐºÑĥ": 564,
      "art": 565,
      "ÑģÑĤÑĮ": 566,
      "Ġs": 567,
      "mart": 568,
      "lab": 569,
      "Ġsmart": 570,
      "ĠÐ´Ð»Ñı": 571,
      "000": 572,
      "Ð²Ð¸Ð´": 573,
      "ĠÐ¸Ð½Ð´": 574,
      "Ġ10": 575,
      "Ġ0": 576,
      "ÐµÑĢÐ¶": 577,
      "ĠÑĨÐµÐ»": 578,
      "Ð¤": 579,
      "ĠÑĥÑĢÐ¾Ð²": 580,
      "Ð¾Ð¿ÑĢÐ¾": 581,
      "ĠÐĺÐ½": 582,
      "Ð¸Ð½": 583,
      "ĠÐ´Ð¸": 584,
      "ĠÐ²Ð¾Ð·": 585,
      "Ð°Ð»Ð¸": 586,
      "ÐµÐ½Ð´": 587,
      "Ð¶Ð°": 588,
      "Ðł": 589,
      "ÑģÐµ": 590,
      "ÑĥÑİ": 591,
      "ĠÑĦÐ¸Ð½Ð°Ð½ÑģÐ¾Ð²": 592,
      "ÑĨÐ¸Ð¹": 593,
      "Ð¾ÑģÑĢÐ¾Ñĩ": 594,
      "Ġ4": 595,
      "ĠÐ±Ð¸ÑĢ": 596,
      "ĠÐ´Ð°Ð½": 597,
      "Ð°Ð·": 598,
      "ĠÐ¼Ð»": 599,
      "ÑģÑĤÐ²Ð¸": 600,
      "Ð²Ð»ÐµÐ½Ð¸Ðµ": 601,
      "ĠÐ¾Ñģ": 602,
      "in": 603,
      "ÑıÐ¼": 604,
      "Ð´ÐµÑĢÐ¶": 605,
      "Ð¾ÑģÐº": 606,
      "ĠÐµ": 607,
      "ÑģÑģÐ¸": 608,
      "ÑģÑĤÑĢÑĥ": 609,
      "ÐŁ": 610,
      "re": 611,
      "Ġ2022": 612,
      "ÐµÑĢÐµ": 613,
      "ĠÐľÐ¾ÑģÐº": 614,
      "ĠÑģÐ»": 615,
      "200": 616,
      "ĠÑĨÐµÐ½": 617,
      "ĠÐ¾Ð¿ÐµÑĢÐ°": 618,
      "ĠÐ¿Ð¾Ð»": 619,
      "Ð²ÐµÑĤ": 620,
      "Ð´ÐµÐ»Ðµ": 621,
      "ÑĢÐ°Ð½": 622,
      "ÑģÑĤÐ²ÐµÐ½": 623,
      "ÑģÑĤÑĢÑĥÐ¼ÐµÐ½ÑĤ": 624,
      "ĠN": 625,
      "Ġ6": 626,
      "ĠÐ¿ÑĢÐ¾Ð´": 627,
      "ĠÐ¸Ð½ÑģÑĤÑĢÑĥÐ¼ÐµÐ½ÑĤ": 628,
      "Ð¾Ð»ÑĮÐ·": 629,
      "34": 630,
      "100": 631,
      "ĠÐºÐ°ÑĢ": 632,
      "ĠÐ±Ð¸ÑĢÐ¶Ðµ": 633,
      "ÑĢÐ°Ð½Ð¸": 634,
      "ÑģÐºÐ¾Ð¹": 635,
      "ÑģÑĤÐ²Ð¸Ñı": 636,
      "ĠÐ¢": 637,
      "ĠÐºÐ°ÑĢÑĤÐ¸": 638,
      "%.": 639,
      "ĠÐ³Ð¾Ð´Ð°": 640,
      "ÑĥÐ¿": 641,
      "Ð½Ð¾Ð³Ð¾": 642,
      "ĠÐĽ": 643,
      "ĠÑĢÐ¸": 644,
      "ĠNo": 645,
      "Ð¼Ð°Ð³": 646,
      "ĠÐ»Ð¸Ð±Ð¾": 647,
      "ÑĨÐµÐ½Ð·Ð¸": 648,
      "Ð¸ÑĤÐ¸": 649,
      "Ð²ÐµÑĢ": 650,
      "Ġ154": 651,
      "Ð¼Ñĥ": 652,
      "ĠÐ´Ð°Ð½Ð½Ð¾Ð¼": 653,
      "Ð¸Ð·": 654,
      "ĠÑĢÐ°Ð·Ð´ÐµÐ»Ðµ": 655,
      "ĠÐ¼Ð¾Ð¶ÐµÑĤ": 656,
      "Ð¼Ð¾Ð¶": 657,
      "ĠÐ±Ð¸ÑĢÐ¶ÐµÐ²Ð¾Ð¹": 658,
      "044": 659,
      "ÑĨÐµÐ½Ð·Ð¸Ñı": 660,
      "2001": 661,
      "100000": 662,
      "04434": 663,
      "ĠÑĩÑĤÐ¾": 664,
      "ÑīÐ¸": 665,
      "ÑģÐºÐ°Ñı": 666,
      "ĠÑĦÐ¾Ð½": 667,
      "Ð¶Ð¸": 668,
      "ÐµÐ½Ð¸Ñİ": 669,
      "ĠÑģÐ½Ð¸": 670,
      "Ġ\"": 671,
      "ĠÐłÐ¾Ñģ": 672,
      "Ð½ÑĥÑĤ": 673,
      "ĠÐ·Ð°Ðº": 674,
      "ĠÐ´Ðµ": 675,
      "Ġ00": 676,
      "ĠÑĥÐ¿": 677,
      "Ð¾Ð²Ð¸": 678,
      "ĠÐĿÐ°": 679,
      "Ð½ÑĭÐ¼Ð¸": 680,
      "Ð¸ÑĤÐµÐ»ÑĮ": 681,
      "ĠÐ²Ð¾Ð·Ð¼Ð¾Ð¶": 682,
      "ÐµÑĢÐ¸": 683,
      "ÑĢÑı": 684,
      "ÑĢÐ°Ð²": 685,
      "ina": 686,
      "ĠÐºÐ°ÑĢÑĤÐ¸Ð½Ð°": 687,
      "ÑĢÐ¾Ð²Ð°ÑĤÑĮ": 688,
      "Ð¸ÑĤÑĮÑģÑı": 689,
      "ĠÑģÑĢÐµÐ´": 690,
      "Ð²ÐµÑģÑĤÐ¸": 691,
      "Ġf": 692,
      "ÑĢÐ´": 693,
      "ĠÐºÐ¾ÑĤ": 694,
      "inam": 695,
      "Ġfinam": 696,
      "ÑĬ": 697,
      "ÑĤÐ°": 698,
      "ĠÑĢÐ¸ÑģÐº": 699,
      "ĠÐ¼Ð»ÑĢÐ´": 700,
      "ĠÑĢÐ¾ÑģÑĤÐ°": 701,
      "ÑĥÑģ": 702,
      "ĠÐĵ": 703,
      "ĠÐ¿Ð¾ÑĢ": 704,
      "Ð±Ñĭ": 705,
      "ĠÐĴÑĭ": 706,
      "ĠÐ¿Ð¾Ð´Ð´ÐµÑĢÐ¶": 707,
      "Ð½ÐµÐ¹": 708,
      "ĠÐ¿ÑĢÐ¾Ð²": 709,
      "ÑĩÐ¸": 710,
      "ĠÐ¸Ð·": 711,
      "Ð¾Ð»Ð³": 712,
      "ÑĢÐ°ÑĦÐ¸": 713,
      "ÑĪÐµÐ½Ð¸Ñı": 714,
      "ĠÐ´Ð¸Ð²Ð¸Ð´": 715,
      "Ð²Ð»ÐµÐ½Ð¸Ñı": 716,
      "ĠÐ±Ñĭ": 717,
      "ÐµÐµ": 718,
      "ÑĢÐ°ÑĤ": 719,
      "Ð½Ð¸Ð¹": 720,
      "Ð¾Ð¿ÑĢÐ¾ÑĤÐ¸": 721,
      "ĠÐºÐ¾ÑĤÐ¾ÑĢ": 722,
      "ĠÐ¾Ð³": 723,
      "ÑĩÐµÐ½Ð¸Ñı": 724,
      "ĠÑĥÑģÐ»": 725,
      "ÑĢÐ¾Ðº": 726,
      "ĠÐ¾Ð³ÑĢÐ°Ð½Ð¸": 727,
      "ĠÐ¿ÐµÑĢÐ²": 728,
      "Ð°ÑĤÐµÐ»": 729,
      "ÑĨÐ¸ÐµÐ¹": 730,
      "ĠÐ¸Ð½Ð²ÐµÑģÑĤÐ¸ÑĨÐ¸Ð¹": 731,
      "ÐµÐºÑģ": 732,
      "Ð·Ð½Ð°": 733,
      "Ð¾ÑģÑĤÐ°": 734,
      "Ð¡Ð¤": 735,
      "Ð¾ÑģÑĢÐ¾ÑĩÐ½Ð°Ñı": 736,
      "ĠÐĺÐ½Ð²ÐµÑģÑĤÐ¸": 737,
      "ĠÐľÐ¾ÑģÐºÐ¾Ð²": 738,
      "ĠÐ¸ÑģÐ¿": 739,
      "Ð¾Ð¼Ð¿Ð°Ð½Ð¸": 740,
      "ÑģÑĤÐ¾ÑĢÐ°": 741,
      "Ġ-": 742,
      "Ð¼ÐµÑģÑĤ": 743,
      "Ð½Ð¾Ð¼Ñĥ": 744,
      "ĠÑĥÑģÐ»Ð¾Ð²Ð¸": 745,
      "ÑĪÐ¸": 746,
      "Ð¾Ð²Ð°Ñı": 747,
      "Ðĳ": 748,
      "ĠÐ¸Ð½Ð²ÐµÑģÑĤÐ¾ÑĢÐ°": 749,
      "Ð½Ð¾ÑģÑĤÑĮ": 750,
      "ÐµÐ³Ð¾": 751,
      "ĠÑıÐ²Ð»ÑıÐµÑĤÑģÑı": 752,
      "ĠÐºÐ¾Ð½": 753,
      "Ð¸ÑĢÐ¶Ð°": 754,
      "ĠÐ³ÑĢÐ°ÑĦÐ¸": 755,
      "Ð¾Ð»ÑĮÐ·Ð¾Ð²": 756,
      "ĠÐ¾ÑĤÐ¼": 757,
      "ĠÐ´ÐµÐ¹": 758,
      "ĠÑĥÑģÐ»Ð¾Ð²Ð¸Ñı": 759,
      "ĠÐ½ÐµÑĦ": 760,
      "ÑĢÐ¾Ð¼": 761,
      "ÑĤÐ¾ÑĢ": 762,
      "Ð¾Ð²Ñĭ": 763,
      "Ð¾ÑĤÐ²ÐµÑĤ": 764,
      "ĠÐłÐ¾ÑģÑģÐ¸": 765,
      "ĠÐºÐ¾Ð¼Ð¿Ð°Ð½Ð¸": 766,
      "ÐĲÐŀ": 767,
      "ĠÑģÐ¾Ð¾ÑĤÐ²ÐµÑĤ": 768,
      "ĠÑĨÐµÐ»ÑıÐ¼": 769,
      "Ð¼ÐµÑģÑĤÐµ": 770,
      "âĢĶ": 771,
      "Ð°Ð½Ð¸Ðµ": 772,
      "Ð¾Ð¿ÑĢÐ¾ÑĤÐ¸Ð²Ð»ÐµÐ½Ð¸Ñı": 773,
      "ĠÐ±ÑĥÐ´": 774,
      "ĠÑĤÐ°Ðº": 775,
      "ÑĢÐ¾ÐºÐµÑĢ": 776,
      "ĠÑģÐ¾ÑģÑĤÐ°": 777,
      "ĠÐ¸ÑģÐ¿Ð¾Ð»ÑĮÐ·Ð¾Ð²": 778,
      "ÑıÐ´": 779,
      "ĠÐ²Ð¼ÐµÑģÑĤÐµ": 780,
      "ÑģÑĭÐ»": 781,
      "ÑıÑĤÐµÐ»ÑĮ": 782,
      "ĠÐ±ÑĢÐ¾ÐºÐµÑĢ": 783,
      "ĠÑģÑģÑĭÐ»": 784,
      "ĠÐ¿ÑĢÐµÐ´Ð¾ÑģÑĤÐ°": 785,
      "ĠÐ¾Ð³ÑĢÐ°Ð½Ð¸ÑĩÐµÐ½Ð¸Ñı": 786,
      "ĠÐ¿Ð¾ÑĢÑıÐ´": 787,
      "ÐµÐ½Ð´Ð°": 788,
      "ĠÐ¦": 789,
      "ĠÐľÐ¾ÑģÐºÐ¾Ð²ÑģÐºÐ°Ñı": 790,
      "ĠÐ´ÐµÑıÑĤÐµÐ»ÑĮ": 791,
      "Ð°Ð»Ð°": 792,
      "ÑĢÑĭÑĤÐ¸": 793,
      "ÑıÐ±": 794,
      "ĠÑģÑģÑĭÐ»ÐºÐµ": 795,
      "ÑīÐµÐ½": 796,
      "ÑĢÐ¾ÐºÐ°": 797,
      "Ð¾Ð³ÑĥÑĤ": 798,
      "Ð¾Ð±Ñĭ": 799,
      "ĠÑıÐ²Ð»ÑıÑİÑĤÑģÑı": 800,
      "ĠÑĥÐ¿Ð¾Ð¼": 801,
      "ĠÐ£": 802,
      "ĠÐĳÐ¸ÑĢÐ¶Ð°": 803,
      "ĠÐĳÐµÐ·": 804,
      "ÑĥÑīÐµÑģÑĤ": 805,
      "ĠÐ¿Ð¾ÑģÐ»": 806,
      "Ð°Ð½Ðº": 807,
      "ĠÐ¾Ð·Ð½Ð°": 808,
      "ĠÐ´ÐµÐ¹ÑģÑĤÐ²Ð¸Ñı": 809,
      "ĠÐ¿ÐµÑĢÐµ": 810,
      "ĠÐ¸Ð½ÑĦÐ¾ÑĢÐ¼Ð°ÑĨÐ¸Ð¸": 811,
      "ĠÑįÑĤ": 812,
      "Ð°ÑĤÐµÑĢÐ¸": 813,
      "ĠÑģÐ°Ð¹": 814,
      "%,": 815,
      "ĠÐ´Ð¸Ð²Ð¸Ð´ÐµÐ½Ð´": 816,
      "ĠÐ»ÐµÐ³": 817,
      "ru": 818,
      "ĠÐŁÐ¾Ð´": 819,
      "Ð½ÐµÑĪ": 820,
      "ĠÐ´ÐµÑıÑĤÐµÐ»ÑĮÐ½Ð¾ÑģÑĤÐ¸": 821,
      "ĠÑģÑĢÐ¾ÐºÐ°": 822,
      "Ð°Ð´": 823,
      "ĠÐ¾ÑģÑĥÑīÐµÑģÑĤ": 824,
      "ĠÐ¾Ð¿ÐµÑĢÐ°ÑĨÐ¸Ð¸": 825,
      "Ð°ÑĤÐµÑĢÐ¸Ð°Ð»": 826,
      "ĠÐ¸Ð½ÑģÑĤÑĢÑĥÐ¼ÐµÐ½ÑĤÑĭ": 827,
      "ÑıÐ½ÑĥÑĤ": 828,
      "Ġ200": 829,
      "ĠÑĢÐ¸ÑģÐºÑĥ": 830,
      "ĠÐ¸Ð½ÑĦÐ¾ÑĢÐ¼Ð°ÑĨÐ¸Ñı": 831,
      "Ð°Ð¶": 832,
      "Ð´Ð°Ð½Ð°": 833,
      "ÑĬÐµÐ¼": 834,
      "ÐºÐ¾Ð¼Ð¸ÑĤÑĮÑģÑı": 835,
      "ĠÐ¸Ð½ÑĦÐ¾ÑĢÐ¼Ð°ÑĨÐ¸ÐµÐ¹": 836,
      "ĠÐ¾Ð·Ð½Ð°ÐºÐ¾Ð¼Ð¸ÑĤÑĮÑģÑı": 837,
      "ĠÐ¸Ð½Ð²ÐµÑģÑĤÐ¸ÑĨÐ¸Ð¾Ð½Ð½ÑĭÐ¼": 838,
      "ĠÐ½Ð¸": 839,
      "ĠÐ»Ð¸ÑĨÐµÐ½Ð·Ð¸Ñı": 840,
      "ĠÐ¾ÑģÑĥÑīÐµÑģÑĤÐ²Ð»ÐµÐ½Ð¸Ðµ": 841,
      "ĠÐ»ÐµÐ³ÑĩÐµ": 842,
      "ĠÐ¸Ð½Ð²ÐµÑģÑĤÐ¸ÑĨÐ¸Ð¾Ð½Ð½Ð¾Ð¼Ñĥ": 843,
      "ĠÐĺÐ½Ð²ÐµÑģÑĤÐ¸ÑĢÐ¾Ð²Ð°ÑĤÑĮ": 844,
      "ÐŁÑĢÐ°Ð²": 845,
      "ĠÐ±ÑĢÐ¾ÐºÐµÑĢÑģÐºÐ¾Ð¹": 846,
      "ĠÐ¤Ð¡Ð¤": 847,
      "ĠÐ¤Ð¡Ð¤Ðł": 848,
      "ĠÑĥÐ¿Ð¾Ð¼ÑıÐ½ÑĥÑĤ": 849,
      "ĠÑĥÐ¿Ð¾Ð¼ÑıÐ½ÑĥÑĤÑĭÐµ": 850,
      "ĠÐĴÑĭÐ´Ð°Ð½Ð°": 851,
      "ÐŁÑĢÐ°Ð²Ð¾Ð²Ð°Ñı": 852,
      "ÐºÐ¾": 853,
      "Ð¿Ð»": 854,
      "Ð¼Ð¾ÑĤ": 855,
      "ĠÐ¿Ð¾Ð·": 856,
      "10": 857,
      "ĠÐ±ÑĥÐ¼Ð°Ð³": 858,
      "ĠÐ¼Ð¾Ð³ÑĥÑĤ": 859,
      "ĠS": 860,
      "ÑĤÑĢÐ°": 861,
      "ÐµÑħ": 862,
      "ÑĩÐµÑĤ": 863,
      "ĠÐ¿ÑĢÐµ": 864,
      "ĠÐ¼Ð¸": 865,
      "ĠÐ¾ÑĤÐ¼ÐµÑĤ": 866,
      "ĠÐ¾Ð±Ð»Ð°": 867,
      "ĠÑģÑĤÐ°": 868,
      "Ð½Ð°Ð»": 869,
      "ĠÑģÐ¾Ð¿ÑĢÐ¾ÑĤÐ¸Ð²Ð»ÐµÐ½Ð¸Ñı": 870,
      "ÑĤÐµ": 871,
      "Ð·Ð°": 872,
      "ÑĢÐ¾Ñģ": 873,
      "Ð¾Ðµ": 874,
      "ĠÑģÐ¸": 875,
      "ĠÐ¸Ð½Ð´Ð¸": 876,
      "Ð½ÐµÐµ": 877,
      "Ð½ÐµÐ²": 878,
      "Ð½ÐµÑĪÐ½Ð¸Ð¹": 879,
      "ÑĢÐ¾Ð±": 880,
      "Ð²Ð»ÐµÐ½": 881,
      "ÑĤÐ¸Ð²": 882,
      "ĠÐ´Ð¾ÑħÐ¾Ð´": 883,
      "Ġ7": 884,
      "ÑĭÐ²Ð°": 885,
      "Ð¾Ð¼Ñĥ": 886,
      "ĠÑģÐµ": 887,
      "ĠÐ·Ð½Ð°": 888,
      "ÐĿ": 889,
      "ĠÐ¿Ð¾Ð´Ð´ÐµÑĢÐ¶ÐºÐ¸": 890,
      "Ð¾ÐºÑĥÐ¿": 891,
      "ÐºÐ°Ñħ": 892,
      "ÑĩÐµÑĢ": 893,
      "Ð³Ñĥ": 894,
      "ÐµÐ²": 895,
      "ĠÐ§": 896,
      "ÑĩÐµÑģÐºÐ¸": 897,
      "ÑĮÑİ": 898,
      "te": 899,
      "Ð°ÐºÑģÐ¸": 900,
      "11": 901,
      "ĠÐ½Ð¾": 902,
      "Ð¿ÑĢÐµ": 903,
      "ÑĤÐ¸ÑĢÐ¾Ð²": 904,
      "ĠB": 905,
      "ĠÐ±Ð¾Ð»ÑĮ": 906,
      "ÐºÑĨÐ¸Ð¸": 907,
      "ĠÐ¼Ð¾Ð¶Ð½Ð¾": 908,
      "Ð¼ÑĥÐ¼": 909,
      "ĠÐ½Ð°Ñĩ": 910,
      "ÑĥÐ»ÑĮ": 911,
      "ÐµÐ½Ð¸Ð¹": 912,
      "ĠÑģÐ»Ñĥ": 913,
      "ÑĢÐµÐ´ÐµÐ»": 914,
      "ÐµÐ¼Ñĥ": 915,
      "08": 916,
      "07": 917,
      "12": 918,
      "ÑıÑī": 919,
      "ÐµÐºÑĤ": 920,
      "ĠÐ¿Ð¾ÐºÐ°": 921,
      "ĠÐ°Ð²": 922,
      "ĠÐ¼Ðµ": 923,
      "ĠÐĴÐ½ÐµÑĪÐ½Ð¸Ð¹": 924,
      "ÐµÐ»Ð¸": 925,
      "ĠÐ²ÑĭÑĪÐµ": 926,
      "ÑģÑĤÐ¾ÑĢ": 927,
      "Ð¾Ð²Ð¾Ð¹": 928,
      "ĠÑĢÑĭÐ½ÐºÐ°": 929,
      "ĠÐ¿Ð¾ÑĤ": 930,
      "ĠÑģÐ¿": 931,
      "ĠÐ±ÐµÐ·": 932,
      "ĠÐ³ÑĢÐ°ÑĦÐ¸ÐºÐµ": 933,
      "ĠÑĤÑĢÐµ": 934,
      "ÑĪÐ»": 935,
      "ĠÐ¼Ð°ÐºÑģÐ¸": 936,
      "05": 937,
      "ĠÑģÐ¾ÑģÑĤÐ°Ð²Ð¸": 938,
      "ĠÐ¿ÑĢÐ¾Ð±": 939,
      "ĠÐ½ÐµÐ´": 940,
      "ÑıÐ±ÑĢÑı": 941,
      "ĠÑģÐ»ÑĥÑĩÐ°": 942,
      "ĠÐķ": 943,
      "ĠÐºÐ¾Ð¼Ð¿Ð°Ð½Ð¸Ð¸": 944,
      "Ġ500": 945,
      "Ð»ÐµÐ¹": 946,
      "ÐµÐ½ÑĮ": 947,
      "ĠÑĢÐ¾ÑģÑģÐ¸": 948,
      "ĠÐ·Ð°ÐºÑĢÑĭÑĤÐ¸": 949,
      "ĠÐ¼Ð°ÑĢ": 950,
      "Ð»Ð¾Ð¶": 951,
      "ĠÑģÐ»ÑĥÑĩÐ°Ðµ": 952,
      "09": 953,
      "ch": 954,
      "ÑĢÐ¾Ð²Ð½Ð¸": 955,
      "ĠÐŁÐ¾Ð´ÑĢÐ¾Ð±": 956,
      "ĠÐ¸Ð»Ð¸": 957,
      "ĠÐ¿ÑĢÐ¾Ð´Ð¾Ð»": 958,
      "Ð¸ÑĤÑģÑı": 959,
      "ĠÑģÐ¾Ð²": 960,
      "ÑĮÑİÑĩÐµÑĢ": 961,
      "ĠÐºÐ¾ÑĢ": 962,
      "ĠÑĤÑĢ": 963,
      "ÑĢÐ°ÑĤÐº": 964,
      "ĠÐŀÐ±": 965,
      "Ġ19": 966,
      "ĠÐ¿Ð¾ÐºÑĥÐ¿": 967,
      "Ð°ÐµÑĤ": 968,
      "Ð¾Ð½Ðµ": 969,
      "06": 970,
      "Ð¸ÑĤÐµÐ»ÑĮÐ½Ð¾": 971,
      "ĠÑģÐµÑģÑģÐ¸": 972,
      "Ð¾Ð´Ð½Ñı": 973,
      "ĠÑĢÐ¾ÑģÑģÐ¸Ð¹": 974,
      "ĠÐ°ÐºÑĨÐ¸Ð¹": 975,
      "ÐµÐ³Ð¾Ð´Ð½Ñı": 976,
      "ĠÑģÐº": 977,
      "Ð³Ð»Ñı": 978,
      "ĠÑĢÐ°Ð¼": 979,
      "Ð¾ÑĤÐ¸ÑĢÐ¾Ð²": 980,
      "Ð½ÐµÑģ": 981,
      "Ð»ÑİÑĩ": 982,
      "Ð»Ð¸ÑģÑĮ": 983,
      "ĠÐ¾ÑĤÐº": 984,
      "Ð¾Ð»ÐµÐµ": 985,
      "Ð°ÑĢÐ¸": 986,
      "ÐµÐ½Ð°": 987,
      "Ð»Ðµ": 988,
      "ĠÐ±ÑĥÐ´ÐµÑĤ": 989,
      "ĠÐ³Ð¾ÑĢ": 990,
      "ÑĨÐ¸Ñİ": 991,
      "ĠÑĥÑĢÐ¾Ð²Ð½Ñı": 992,
      "Ġ2021": 993,
      "ĠÐ¾ÑĤÐ½Ð¾": 994,
      "ĠÐ¸ÑģÐº": 995,
      "ĠÐ¸Ð½Ð´ÐµÐºÑģ": 996,
      "Ð³Ð¾": 997,
      "ĠÑĢÐ°Ð¼ÐºÐ°Ñħ": 998,
      "ĠÑĢÐµÐºÐ¾Ð¼": 999,
      "ĠÐłÐ¾ÑģÑģÐ¸Ð¸": 1000,
      "ĠÑģÐ½Ð¸Ð¶": 1001,
      "ĠÑįÐº": 1002,
      "ĠÑĢÑĥÐ±Ð»ÐµÐ¹": 1003,
      "ĠÐ¾Ðº": 1004,
      "ĠÑĤÐ°ÐºÐ¶Ðµ": 1005,
      "tech": 1006,
      "ĠÐ¿Ð¾Ð»Ð¾Ð¶": 1007,
      "Ð¾Ð²Ð°ÑĤÑĮ": 1008,
      "Â».": 1009,
      "ĠÑĢÐ¾ÑģÑĤ": 1010,
      "ÑģÑĤÑĢÐ°Ð½": 1011,
      "ÐºÐ°Ð·": 1012,
      "Ð¿ÑĢÐ¾Ð¼": 1013,
      "Ð°ÑĤÐ¸": 1014,
      "ÐµÐ½Ð¸Ð¸": 1015,
      "ÐµÑħÐ½Ð¸": 1016,
      "50": 1017,
      "nt": 1018,
      "ĠÐĶÐ¾Ð»Ð³": 1019,
      "ÑģÐºÐ¸Ðµ": 1020,
      "Ð¸Ð·Ð¾Ð½": 1021,
      "ĠÐ³Ð¾ÑĢÐ¸Ð·Ð¾Ð½": 1022,
      "ĠÐ²ÐµÑĢ": 1023,
      "ÐĴ": 1024,
      "Ð½Ð¾Ðµ": 1025,
      "ĠÐ¿ÑĢÐ¾ÑĪÐ»": 1026,
      "ĠÐ¿ÐµÑĢÐ²ÑĭÐµ": 1027,
      "ĠÐ°Ð²Ð³Ñĥ": 1028,
      "ĠÐ²Ð¾Ð¿ÑĢÐ¾": 1029,
      "ĠÑĨÐµÐ½Ð°": 1030,
      "ĠÐ±Ð¾Ð»ÑĮÑĪÐµ": 1031,
      "ÑĭÐ¹": 1032,
      "ĠÐ¿ÑĢÐ°": 1033,
      "Ð¸Ð¾Ð´": 1034,
      "ĠÐ¿ÐµÑĢÐ¸Ð¾Ð´": 1035,
      "Ð°Ð·Ð¿ÑĢÐ¾Ð¼": 1036,
      "ĠÐľÐ¸": 1037,
      "Ġ$": 1038,
      "ÑĢÐµÐ½": 1039,
      "202": 1040,
      "ĠÐ½Ð°ÑħÐ¾Ð´": 1041,
      "ÑģÐµÑĤ": 1042,
      "Ġ9": 1043,
      "Ð¼Ðµ": 1044,
      "ĠÑģÐµÐ½ÑĤ": 1045,
      "ĠÐĹ": 1046,
      "ÑĤÐ¾Ð±Ñĭ": 1047,
      "03": 1048,
      "Ð´Ðµ": 1049,
      "ĠÐ¼Ð¸Ð½Ð¸": 1050,
      "Ð½Ð¾Ð²Ð»": 1051,
      "rent": 1052,
      "ĠBrent": 1053,
      "ĠR": 1054,
      "ĠÐ¤ÑĮÑİÑĩÐµÑĢ": 1055,
      "ĠÐ½ÐµÐ´ÐµÐ»ÑĮ": 1056,
      "Ð°Ð½Ð½ÑĭÐµ": 1057,
      "ÑĥÑĩ": 1058,
      "ÑĢÐ¾Ð²Ð°Ð½Ð¸Ñı": 1059,
      "ĠÐ¿ÑĢÐµÐ´Ð»Ð¾Ð¶": 1060,
      "Ð»ÑıÑĨÐ¸Ñı": 1061,
      "ĠÐľÐ¸ÑĢ": 1062,
      "Ġ8": 1063,
      "ÑĭÑħ": 1064,
      "Ð¼Ð¸ÑĤ": 1065,
      "ÑĥÐ¶": 1066,
      "or": 1067,
      "ĠÐ¿ÑĢÐµÐ´ÑģÑĤÐ°": 1068,
      "ÑĨÐ¸Ð¾Ð½": 1069,
      "Ð´Ð¸": 1070,
      "Ð¸Ð½Ð³": 1071,
      "ĠÐŃ": 1072,
      "ĠÑĤÐ¾ÑĢÐ³Ñĥ": 1073,
      "Ð¼ÐµÑĢ": 1074,
      "ĠÑģÐµÑģÑģÐ¸Ð¸": 1075,
      "ĠÑĩÑĤÐ¾Ð±Ñĭ": 1076,
      ").": 1077,
      "ĠÐ²Ð¾Ñģ": 1078,
      "ĠÐ²ÑĭÑĢÐ¾Ñģ": 1079,
      "ÑĦÑĤÑĮ": 1080,
      "ĠÑĦÐ¸Ð½Ð°Ð½ÑģÐ¾Ð²ÑĭÐµ": 1081,
      "ÑĢÐ°Ð½Ñģ": 1082,
      "ÑĨÐ¸ÑıÐ¼Ð¸": 1083,
      "ÑĤÐ¾Ð³": 1084,
      "ĠÐŁÑĢÐ¾": 1085,
      "ĠÐ°Ð²Ð³ÑĥÑģÑĤÐ°": 1086,
      "ĠÐ±Ð¾Ð»ÐµÐµ": 1087,
      "19": 1088,
      "ĠÐĴÑģÐµ": 1089,
      "ĠÐºÐ°": 1090,
      "ĠÐºÐ¾ÑĤÐ¸ÑĢÐ¾Ð²": 1091,
      "Ð½ÑĥÑİ": 1092,
      "ÑģÐ¾Ðº": 1093,
      "ĠÐ¾ÑĤÐ½Ð¾ÑĪ": 1094,
      "ĠÑģÐµÐ³Ð¾Ð´Ð½Ñı": 1095,
      "ĠÐłÐ°": 1096,
      "ĠÐŀÐ¿": 1097,
      "ĠÐ¶": 1098,
      "ĠÑĢÐµÐºÐ¾Ð¼ÐµÐ½Ð´Ð°": 1099,
      "ĠÐ¿Ð¾ÑģÐ»Ðµ": 1100,
      "ÑģÑĤÐ²Ð¾Ð²Ð°ÑĤÑĮ": 1101,
      "Ð±ÑĭÑĤ": 1102,
      "ri": 1103,
      "ÑĥÐ±": 1104,
      "ĠÐ¸ÑģÐºÐ»ÑİÑĩ": 1105,
      "ĠÐ¼ÐµÑģÑı": 1106,
      "ÐºÐµÑĤ": 1107,
      "ÑĩÐ¸ÑĤ": 1108,
      "ĠÐ¿ÑĢÐ¾Ð²ÐµÐ´": 1109,
      "Ġ#": 1110,
      "Ġ69": 1111,
      "Ð»Ð¸Ð¶": 1112,
      "Ġ30": 1113,
      "Ð°ÑĪ": 1114,
      "ĠÐĳÑĥ": 1115,
      "ĠÑĢÐ°ÑģÑĤ": 1116,
      "Ð°Ð²": 1117,
      "ÑĢÐ°ÑĤÐºÐ¾ÑģÑĢÐ¾ÑĩÐ½Ð°Ñı": 1118,
      "Ðľ": 1119,
      "ĠÐ·Ð°Ð¿ÑĢÐµ": 1120,
      "ĠÐĲÐºÑĨÐ¸Ð¸": 1121,
      "ÑĢÑĤ": 1122,
      "ĠÑĥÐ±ÑĭÑĤ": 1123,
      "Ð£": 1124,
      "ex": 1125,
      "ĠÐ¿ÑĢÐ¾Ð²Ð¾Ð´": 1126,
      "ÑĢÐµÐº": 1127,
      "ĠÑĢÐ°Ñģ": 1128,
      "ĠÑĥÑģÐ»Ð¾Ð²Ð¸ÑıÑħ": 1129,
      "ĠÐĵÐ°Ð·Ð¿ÑĢÐ¾Ð¼": 1130,
      "Ð½ÑĤ": 1131,
      "ĠÐŁÐ¾Ð´ÑĢÐ¾Ð±Ð½ÐµÐµ": 1132,
      "ĠÑĤÑĢÐµÑĤÑĮ": 1133,
      "ĠÐĶÐ¾Ð»Ð³Ð¾ÑģÑĢÐ¾ÑĩÐ½Ð°Ñı": 1134,
      "Ð°Ð»ÑĮÐ½ÑĭÐ¼Ð¸": 1135,
      "ĠÑĩÐ°": 1136,
      "Ð»Ð¸Ð¶Ð°Ð¹": 1137,
      "ÐºÐ¾Ð²": 1138,
      "ĠÐºÐ¾ÑĤÐ¾ÑĢÐ¾Ð¹": 1139,
      "ĠÐ²Ð¾Ð·Ð¼Ð¾Ð¶Ð½Ð¾": 1140,
      "Ð¿ÑĢÐ°": 1141,
      "ĠÑģÐµÐ½ÑĤÑıÐ±ÑĢÑı": 1142,
      "ÑĩÐµÐ¹": 1143,
      "Ð¾Ð±ÑģÑĤÐ²ÐµÐ½": 1144,
      "ĠÐĳÑĥÐ¼Ð°Ð³": 1145,
      "Ð¸ÑĤÐ¸Ð²": 1146,
      "ĠÑĢÐ°Ð·ÑĢÐµ": 1147,
      "ĠÐ¾ÑĤÐ¼ÐµÑĤÐºÐµ": 1148,
      "ĠÐ£ÑĢÐ¾Ð²Ð½Ð¸": 1149,
      "Ð¸ÑĤÐ°Ð¹": 1150,
      "ĠÐ´Ð¾ÑħÐ¾Ð´Ð½Ð¾ÑģÑĤÐ¸": 1151,
      "Co": 1152,
      "ĠÐ¿Ð¾Ð´ÑħÐ¾Ð´": 1153,
      "ÑģÐ»Ð¸": 1154,
      "ĠÐ·Ð°Ð´Ð°": 1155,
      "ĠÐĿÐµ": 1156,
      "ĠÐ¾ÑĤÐ²ÐµÑĤ": 1157,
      "ÑĢÐµÑģ": 1158,
      "ĠÐ¾Ð¶Ð¸": 1159,
      "ĠÐ¸Ð½Ð²ÐµÑģÑĤÐ¸ÑĨÐ¸Ð¸": 1160,
      "ĠÐ²ÑģÐµ": 1161,
      "Ġ12": 1162,
      "ĠÐĽÐ¸": 1163,
      "ÑīÐµ": 1164,
      "ĠÑģÐ¾Ð²ÐµÑĢ": 1165,
      "ĠÑģÐ²": 1166,
      "ĠÑħ": 1167,
      "ĠÑĢÐµÐ·": 1168,
      "Ġ16": 1169,
      "ĠÐ»Ð¸ÑĨ": 1170,
      "ĠÐ½ÐµÑģÐµÑĤ": 1171,
      "ĠÐ´Ð¾Ð»Ð³": 1172,
      "Ð½Ð°ÑĤÑĮ": 1173,
      "ĠÐ¾Ð¿ÐµÑĢÐ°ÑĨÐ¸Ð¹": 1174,
      "ÑĢÐ¾Ð´": 1175,
      "ss": 1176,
      "ĠÐłÐ°ÑģÐ¿": 1177,
      "ĠÑĤÐ¾ÑĢÐ³ÑĥÑİÑĤÑģÑı": 1178,
      "gh": 1179,
      "ĠÑĤÑĢÐ°Ð½Ñģ": 1180,
      "ÐºÐ°ÑĤ": 1181,
      "ĠÐ¿Ð°Ð´": 1182,
      "Ð²Ð°ÑĤÑĮ": 1183,
      "ĠÑĥÐ·": 1184,
      "ÐµÐ¼Ð¾Ð¹": 1185,
      "ĠÐŁÐĲÐŀ": 1186,
      "2024": 1187,
      "ĠÐ¾ÑĤÐ½Ð¾ÑĪÐµÐ½Ð¸Ñİ": 1188,
      "ĠI": 1189,
      "ĠÑĦÐ¸Ð½Ð°Ð½ÑģÐ¾Ð²Ð¾Ð³Ð¾": 1190,
      "ĠÐ¼Ð°ÑĢÐºÐµÑĤ": 1191,
      "Ġ2008": 1192,
      "ĠÐ¿ÑĢÐµÐ´ÑĥÑģ": 1193,
      "Ð²Ð¸Ð´Ñĥ": 1194,
      "ĠÐ¤Ð¸Ð½Ð°Ð½ÑģÐ¾Ð²": 1195,
      "ĠÐ¾Ð¿Ñĭ": 1196,
      "Ð¸Ð¼Ð¾Ð¹": 1197,
      "ĠÐ¸Ð½ÑģÑĤÑĢÑĥÐ¼ÐµÐ½ÑĤÐ°": 1198,
      "ĠÐ±Ð¾Ð½": 1199,
      "ĠÐ¿ÑĢÐ¾ÑĦÐ¸": 1200,
      "ĠÐ¸Ð½Ð²ÐµÑģÑĤÐ¸ÑĢÐ¾Ð²Ð°Ð½Ð¸Ñı": 1201,
      "Ð°ÑĤÐµÐ»ÐµÐ¼": 1202,
      "pre": 1203,
      "ĠÐ½Ð¾Ð²": 1204,
      "ĠÐ¿ÑĢÐ¾Ð²ÐµÐ´ÐµÐ½Ð¸Ñı": 1205,
      "ÑĥÑĢ": 1206,
      "Ð½Ð¾Ð¿": 1207,
      "ÑģÑĤÑĥÐ¿": 1208,
      "ĠÐ¼Ð°ÑĤÐµÑĢÐ¸Ð°Ð»": 1209,
      "Ġ*": 1210,
      "ĠÐ¼Ð¾Ð¶ÐµÑĤÐµ": 1211,
      "ĠÐ·Ð°Ð´Ð°ÑĩÐµÐ¹": 1212,
      "ÑģÐºÐ¸Ð¹": 1213,
      "ĠÐ¿ÑĢÐµÐ´Ð¾ÑģÑĤÐ°Ð²Ð»Ñı": 1214,
      "ĠÐ¿ÑĢÐ°Ð²Ð°": 1215,
      "ĠÐ¤Ð¸Ð½Ð°Ð½ÑģÐ¾Ð²ÑĭÐµ": 1216,
      "ĠÐºÐ½Ð¾Ð¿": 1217,
      "Ð¼Ð¾ÑĤÑĢÐµÐ½": 1218,
      "ĠÑĥÐ±ÑĭÑĤÐºÐ¸": 1219,
      "ght": 1220,
      "ĠÑĢÑĭÐ½ÐºÐµ": 1221,
      "tor": 1222,
      "ĠÐ¸ÑģÐ¿Ð¾Ð»ÑĮÐ·Ð¾Ð²Ð°Ð½Ð¸Ñı": 1223,
      "ĠÐ¿Ð»": 1224,
      "ĠÐľÐ¾ÑģÐºÐ²Ð°": 1225,
      "ĠÐ¸Ð½Ð´Ð¸Ð²Ð¸Ð´Ñĥ": 1226,
      "ĠÑĤÐ¾Ð»": 1227,
      "Ð»Ð°ÑģÑĮ": 1228,
      "ĠÐ¸ÑģÐºÐ»ÑİÑĩÐ¸ÑĤÐµÐ»ÑĮÐ½Ð¾": 1229,
      "ĠÐ²Ð¾Ð·Ð¼Ð¾Ð¶Ð½ÑĭÐµ": 1230,
      "ĠÐĶÐ°Ð½Ð½ÑĭÐµ": 1231,
      "ĠÐ¸ÑģÐ¿Ð¾Ð»ÑĮÐ·Ð¾Ð²Ð°Ð½Ð¸Ðµ": 1232,
      "ĠÐ¿ÑĢÐµÐ´ÑģÑĤÐ°Ð²Ð»ÐµÐ½": 1233,
      "ĠÐ¿Ð¾ÑĢÑıÐ´ÐºÐµ": 1234,
      "Ð½Ð¸ÐºÐ¾Ð¼": 1235,
      "ĠÑģÑĤÑĢ": 1236,
      "ĠÑĥÐ·Ð½Ð°ÑĤÑĮ": 1237,
      "ĠÐĽÑİ": 1238,
      "Ð¼Ð¸ÑĤÐµ": 1239,
      "SI": 1240,
      "ĠÑģÐ°Ð¹ÑĤÐ°": 1241,
      "ĠÐºÐ½Ð¾Ð¿ÐºÑĥ": 1242,
      "ĠÐ¿ÑĢÐµÐ´Ð¾ÑģÑĤÐ°Ð²Ð»ÐµÐ½Ð¸Ðµ": 1243,
      "ĠÐ²Ð¾Ð¿ÑĢÐ¾ÑģÐ¾Ð²": 1244,
      "ÑĢÐ¾ÑģÑĤÑĢÐ°Ð½": 1245,
      "ĠÐ·Ð½Ð°Ð½Ð¸": 1246,
      "ÑīÐµÐ½Ñĭ": 1247,
      "ĠÐ·Ð°ÑīÐ¸": 1248,
      "ÑĢÐµÐ´ÐµÐ»ÐµÐ½Ð¸Ðµ": 1249,
      "ĠÐĴÐ°ÑĪ": 1250,
      "ĠÐ¾ÑĤÐ²ÐµÑĤÑģÑĤÐ²ÐµÐ½": 1251,
      "ĠÐ¿ÑĢÐµÐ´ÑĥÑģÐ¼Ð¾ÑĤÑĢÐµÐ½": 1252,
      "ÑģÐ¿ÐµÐºÑĤ": 1253,
      "ĠÐ¼Ð°ÑĤÐµÑĢÐ¸Ð°Ð»Ð¾Ð²": 1254,
      "Ð±Ð¾Ðµ": 1255,
      "ĠÐ·Ð°Ð¿ÑĢÐµÑīÐµÐ½": 1256,
      "Ð´ÑĢÐµÑģ": 1257,
      "py": 1258,
      "ĠÑĢÐ°Ð·ÑĢÐµÑĪÐµÐ½Ð¸Ñı": 1259,
      "gu": 1260,
      "press": 1261,
      "ĠÐ¼Ð°ÑĢÐºÐµÑĤÐ¸Ð½Ð³": 1262,
      "ÐĶÐ²Ð¾Ð¹": 1263,
      "ĠÑĦÐ¸Ð½Ð°Ð½ÑģÐ¾Ð²Ð¾Ð¼Ñĥ": 1264,
      "ĠÐ¿ÑĢÐµÐ´Ð»Ð¾Ð¶ÐµÐ½Ð¸Ð¹": 1265,
      "ĠÐ±Ð¾Ð½ÑĥÑģ": 1266,
      "ĠÐŀÐĲÐŀ": 1267,
      "ĠÐ¾Ð¿ÑĭÑĤÑĥ": 1268,
      "ĠÐ·Ð½Ð°Ð½Ð¸ÑıÐ¼": 1269,
      "ĠÐ»Ð¸ÑĨÐ°Ð¼": 1270,
      "ĠÐ¾ÑĤÐ²ÐµÑĤÑģÑĤÐ²ÐµÐ½Ð½Ð¾ÑģÑĤÐ¸": 1271,
      "ĠÐ³Ð¾Ð´Ñĥ": 1272,
      "ÐµÐºÑģÑĭ": 1273,
      "ĠÐ´Ð½ÐµÐ²": 1274,
      "ĠÑĥÑģÐ»Ð¾Ð²Ð¸ÑıÐ¼Ð¸": 1275,
      "Ð°ÑĤÐµÑĢÐ¸Ð°Ð»Ñĭ": 1276,
      "ĠÐ¿Ð¾Ð´ÑħÐ¾Ð´Ð¸ÑĤÑĮ": 1277,
      "ĠÑĤÑĢÐµÑĤÑĮÐ¸Ð¼": 1278,
      "ĠÑģÐ¾Ð²ÐµÑĢÑĪÐµÐ½Ð¸Ñı": 1279,
      "ĠÐĴÐ°Ð¼": 1280,
      "ĠÐ·Ð°Ð¿ÑĢÐµÑīÐµÐ½Ð¾": 1281,
      "ÑĢÐ¾ÑģÑĤÑĢÐ°Ð½ÐµÐ½Ð¸Ðµ": 1282,
      "30": 1283,
      "ÐµÑĢÐ°Ð½ÑĤ": 1284,
      "ĠÑĤÐ¾Ð»ÐµÑĢÐ°Ð½ÑĤ": 1285,
      "ĠÑģÐ¾Ð¾ÑĤÐ²ÐµÑĤÑģÑĤÐ²Ð¾Ð²Ð°ÑĤÑĮ": 1286,
      "tory": 1287,
      "ĠÐ¸Ð½Ð²ÐµÑģÑĤÐ¸ÑĨÐ¸Ð¾Ð½Ð½ÑĭÐ¼Ð¸": 1288,
      "ĠÐ¸Ð½Ð¾Ðµ": 1289,
      "ĠÐŀÐ¿ÑĢÐµÐ´ÐµÐ»ÐµÐ½Ð¸Ðµ": 1290,
      "ĠÐ¿ÑĢÐ¾Ð²Ð¾Ð´Ð¸Ð¼Ð¾Ð¹": 1291,
      "ĠÑĤÑĢÐ°Ð½ÑģÐ»ÑıÑĨÐ¸Ñı": 1292,
      "ĠÐ·Ð°ÑīÐ¸ÑīÐµÐ½Ñĭ": 1293,
      "ÑģÐ¾Ð±ÑģÑĤÐ²ÐµÐ½": 1294,
      "ĠÐ¾Ð±Ð»Ð°Ð´": 1295,
      "ĠÐľÐ¸ÑĢÐ°": 1296,
      "ĠÑĢÐµÐºÐ¾Ð¼ÐµÐ½Ð´Ð°ÑĨÐ¸ÑıÐ¼Ð¸": 1297,
      "ĠÐ¿ÑĢÐµÐ´ÑģÑĤÐ°Ð²Ð»ÐµÐ½Ð½ÑĭÐµ": 1298,
      "ĠÐ¿ÑĢÐµÐ´ÑĥÑģÐ¼Ð¾ÑĤÑĢÐµÐ½Ð½ÑĭÑħ": 1299,
      "ĠÐ¿Ð¾ÑĢÑıÐ´ÐºÐ¾Ð¼": 1300,
      "ĠÐĽÐ¸ÑĨÐµÐ½Ð·Ð¸Ñı": 1301,
      "ĠÐĽÑİÐ±Ð¾Ðµ": 1302,
      "ĠÐľÐ°ÑĤÐµÑĢÐ¸Ð°Ð»Ñĭ": 1303,
      "ĠÐ¿Ð¾Ð»Ð¾Ð¶ÐµÐ½Ð¸Ñİ": 1304,
      "express": 1305,
      "ĠÐĴÐ°ÑĪÐµÐ¼Ñĥ": 1306,
      "ĠÐ¼Ð°ÑĢÐºÐµÑĤÐ¸Ð½Ð³Ð¾Ð²Ð¾Ð¹": 1307,
      "ĠÑģÐ¾Ð¾ÑĤÐ²ÐµÑĤÑģÑĤÐ²Ð¸Ñı": 1308,
      "ĠÐŁÑĢÐ¾ÑģÐ¿ÐµÐºÑĤ": 1309,
      "ĠÑĤÐ¾Ð»ÐµÑĢÐ°Ð½ÑĤÐ½Ð¾ÑģÑĤÐ¸": 1310,
      "ĠÂ©": 1311,
      "Copy": 1312,
      "ĠÐ¸Ð½Ð´Ð¸Ð²Ð¸Ð´ÑĥÐ°Ð»ÑĮÐ½ÑĭÐ¼Ð¸": 1313,
      "ĠÐ¾Ð±Ð»Ð°Ð´Ð°ÑĤÐµÐ»ÐµÐ¼": 1314,
      "ĠÐĲÐ´ÑĢÐµÑģ": 1315,
      "ĠÐłÐ°ÑģÐ¿ÑĢÐ¾ÑģÑĤÑĢÐ°Ð½ÐµÐ½Ð¸Ðµ": 1316,
      "ĠÐ¿ÑĢÐµÐ´Ð¾ÑģÑĤÐ°Ð²Ð»ÑıÐµÐ¼Ð¾Ð¹": 1317,
      "latory": 1318,
      "regu": 1319,
      "ĠÑģÐ°Ð¹ÑĤÑĥ": 1320,
      "ruCopy": 1321,
      "Ð°Ð¶Ð¼Ð¸ÑĤÐµ": 1322,
      "ÐĿÐ°Ð¶Ð¼Ð¸ÑĤÐµ": 1323,
      "ĠÐ³Ð¾ÑĢÐ¸Ð·Ð¾Ð½ÑĤÑĥ": 1324,
      "right": 1325,
      "ĠÐ¿ÑĢÐ¾ÑĦÐ¸Ð»Ñİ": 1326,
      "ÐĶÐ²Ð¾Ð¹Ð½Ð¾Ð¹": 1327,
      "ÑģÐ¾Ð±ÑģÑĤÐ²ÐµÐ½Ð½Ð¸ÐºÐ¾Ð¼": 1328,
      "regulatory": 1329,
      "ruCopyright": 1330,
      "ĠÐŀÐ±ÑĬÐµÐ¼": 1331,
      "ĠÐ¾ÑģÑĤÐ°": 1332,
      "Ð³Ð¸": 1333,
      "Ð²Ð¸Ð¶": 1334,
      "ĠÐ¿ÑĢÐ¸Ð±Ñĭ": 1335,
      "ĠÑģÐ¾ÑģÑĤÐ°Ð²Ð¸Ð»": 1336,
      "Ð¾Ð½Ð°": 1337,
      "ĠÐ¾ÑģÐ½Ð¾Ð²": 1338,
      "ÐµÐºÑĥÑī": 1339,
      "15": 1340,
      "ĠÐºÐ°Ðº": 1341,
      "ĠÐ¿Ð¾Ð·Ð¸ÑĤÐ¸Ð²": 1342,
      "ÐĽ": 1343,
      "ĠÐ½ÐµÑĦÑĤÑĮ": 1344,
      "ÑĢÐµÐ¼": 1345,
      "Ð²ÐµÐ»Ð¸": 1346,
      "Ð¾ÑģÑĤÐ¸": 1347,
      "ÐºÐ¾Ð¹": 1348,
      "ÑģÐ°": 1349,
      "ĠRSI": 1350,
      "Ð°Ð»Ð¸ÑģÑĮ": 1351,
      "ĠÐ¼Ð»Ð½": 1352,
      "Ðĵ": 1353,
      "ĠÐłÐ¤": 1354,
      "ĠÐ¾Ð´": 1355,
      "ĠÐ¼ÐµÑģÑıÑĨ": 1356,
      "ÑĨÐµÐ½Ð°ÑĢÐ¸": 1357,
      "ĠÑĨÐµÐ»Ð¸": 1358,
      "ĠÐµÑīÐµ": 1359,
      "ĠÑģÑĤÐ°Ð²": 1360,
      "Ð¾Ð»Ð¸": 1361,
      "Ð²Ñĭ": 1362,
      "ĠE": 1363,
      "ĠÐ±ÑĥÐ¼Ð°Ð³Ð¸": 1364,
      "ĠÐľÐ¾Ñģ": 1365,
      "ĠÐ½ÐµÐ´ÐµÐ»": 1366,
      "ĠÐļÑĢÐ°ÑĤÐºÐ¾ÑģÑĢÐ¾ÑĩÐ½Ð°Ñı": 1367,
      "Ð½Ñĥ": 1368,
      "Ð²Ð°ÑĢÑĤ": 1369,
      "Ð½Ð°Ð»Ð¸ÑĤÐ¸": 1370,
      "ĠÐ½Ð¸Ð¶Ðµ": 1371,
      "ĠÑģÐºÐ¾Ð»ÑĮÐ·": 1372,
      "Ġ14": 1373,
      "ÐºÑĤÑĥ": 1374,
      "ÑĥÐ»ÑĮÑĤ": 1375,
      "Ð¨": 1376,
      "Ð°ÑĤÐµÐ»ÑĮ": 1377,
      "ĠÑģÐ¾Ñħ": 1378,
      "Ð±Ð¾ÑĤ": 1379,
      "ĠÐ²ÑĭÑģÐ¾Ðº": 1380,
      "es": 1381,
      "Ð²Ð¾Ð´": 1382,
      "Ð¾Ð»Ð¾": 1383,
      "ĠÑįÑĤÐ¾Ð¼": 1384,
      "Ð¼ÑĥÐ¼Ð°": 1385,
      "ĠÐºÐ¾ÑĤÐ¸ÑĢÐ¾Ð²ÐºÐ¸": 1386,
      ".,": 1387,
      "ĠÑģÑĨÐµÐ½Ð°ÑĢÐ¸": 1388,
      "ĠÐ¿ÑĢÐ¾Ð´Ð¾Ð»Ð¶": 1389,
      "Ð½ÐµÑģÑĢÐ¾Ñĩ": 1390,
      "20": 1391,
      "Ð°ÑĤÑĭ": 1392,
      "Ġ17": 1393,
      "ĠÑģÐ»ÐµÐ´": 1394,
      "Ð¨ÐĲ": 1395,
      "ÐµÐ½Ð½Ð¾": 1396,
      "ĠÐ¡Ð¨ÐĲ": 1397,
      "ÑĪÐ¸Ðµ": 1398,
      "Ð¾ÑĢÐ°": 1399,
      "ÐºÐ°ÑĤÐ¾ÑĢ": 1400,
      "ĠÐ²ÑĭÐ³Ð»Ñı": 1401,
      "ĠÐ¤ÑĮÑİÑĩÐµÑĢÑģ": 1402,
      "ĠÐŁÑĢÐ¸": 1403,
      "Ð¾Ð¼Ð¸": 1404,
      "Ð¾ÑĢÐ¸": 1405,
      "ĠÐ´Ð²Ð¸Ð¶": 1406,
      "Ð¾Ñĩ": 1407,
      "ĠÐ´Ð¾Ð»": 1408,
      "Ð³Ð°": 1409,
      "ĠÐ¾ÐºÐ¾Ð»Ð¾": 1410,
      "Ð»ÑģÑı": 1411,
      "ĠÑģÐ½Ð¸Ð·Ð¸": 1412,
      "ÑĩÐµÑģÐºÐ¸Ñħ": 1413,
      "ĠÑįÑĤÐ¾": 1414,
      "Ð´ÑĥÑī": 1415,
      "ĠÐ½ÐµÐ¹": 1416,
      "Ð²Ð°Ñı": 1417,
      "ĠÐ¾ÑĤÑģÐº": 1418,
      "ĠÐ¸Ð½Ð²ÐµÑģÑĤÐ¾ÑĢ": 1419,
      "ÐµÐ½Ð¸ÐµÐ¼": 1420,
      "ĠÑĤÐµÑħÐ½Ð¸": 1421,
      "ĠÑĢÑĥÐ±Ð»Ñı": 1422,
      "ĠÐºÐ²Ð°ÑĢÑĤ": 1423,
      "ĠÐ¿Ð¾ÐºÑĥÐ¿Ð°ÑĤÐµÐ»": 1424,
      "ĠÑĢÐµÐ·ÑĥÐ»ÑĮÑĤ": 1425,
      "ÑĭÐ´ÑĥÑī": 1426,
      "ĠÑģÐ¸Ð³": 1427,
      "ĠÑĥÐ¶Ðµ": 1428,
      "Ð´ÐµÐºÑģ": 1429,
      "25": 1430,
      "ĠÑĤÐ¾ÑĢÐ³Ð¾Ð²Ð¾Ð¹": 1431,
      "ÑĩÐ°Ñģ": 1432,
      "ĠÐ¿ÑĢÐµÐ´ÑĭÐ´ÑĥÑī": 1433,
      "ĠÑĥÑĢÐ¾Ð²Ð½Ðµ": 1434,
      "ĠÑĤÑĢÐµÐ½Ð´": 1435,
      "ÐµÐ¹ÑĩÐ°Ñģ": 1436,
      "ÑıÑĤÑĮ": 1437,
      "ĠÑĤÐµÐºÑĥÑī": 1438,
      "ĠÐ½ÑĥÐ¶": 1439,
      "ÐµÐ¶": 1440,
      "ÑħÐ¾Ð´ÑıÑī": 1441,
      "ĠÐ´Ð¾ÑģÑĤÐ¸": 1442,
      "Ð¼Ð¿": 1443,
      "ĠÐ½Ð°ÑħÐ¾Ð´Ð¸ÑĤÑģÑı": 1444,
      "ĠÐ¿Ð¾ÑģÐ»ÐµÐ´": 1445,
      "ÑĤÑĢÐ°Ð»ÑĮ": 1446,
      "ĠÐĿÐµÑĦÑĤÑĮ": 1447,
      "ĠÐ¿Ð¾Ð²Ñĭ": 1448,
      "Ð·Ð¸Ð°ÑĤ": 1449,
      "ĠÐ±Ð»Ð¸Ð¶Ð°Ð¹": 1450,
      "ĠÐŀÑĤ": 1451,
      "Ð¾ÑģÑĮ": 1452,
      "¸ı": 1453,
      "ï¸ı": 1454,
      "ĠÐ¼Ð¸Ð½Ð¸Ð¼ÑĥÐ¼": 1455,
      "ÐµÐ½Ñĭ": 1456,
      "14": 1457,
      "ĠÑģÑĤÐ¾": 1458,
      "ÑĥÑģÐº": 1459,
      "ÑģÐºÐ¾Ð³Ð¾": 1460,
      "ĠÐ¸Ñİ": 1461,
      "ĠÑĥÐ²ÐµÐ»Ð¸": 1462,
      "Ð½Ð¾Ð·": 1463,
      "ĠÐ±ÑĭÐ»": 1464,
      "ÑĥÑīÐµ": 1465,
      "Ġ201": 1466,
      "Ð°Ñħ": 1467,
      "ĠÑĢÑĭÐ½Ð¾Ðº": 1468,
      "Ð¾ÑģÑĤ": 1469,
      "ĠÐĳÑĥÐ¼Ð°Ð³Ð¸": 1470,
      "16": 1471,
      "ĠÑģÑĤÐ¾ÑĢ": 1472,
      "Ð°ÑĤÐ¸Ð²": 1473,
      "Ð°Ð½ÐºÐ°": 1474,
      "ĠÐ¦ÐµÐ½Ð°": 1475,
      "ĠÐ½ÐµÐ¹ÑĤÑĢÐ°Ð»ÑĮ": 1476,
      "Ð¸Ñģ": 1477,
      "Ġ13": 1478,
      "ĠÐ²ÑĭÐ¿Ð»": 1479,
      "ĠÐ¿Ð¾ÐºÐ°Ð·": 1480,
      "ĠÐ¿Ð°Ð´ÐµÐ½Ð¸Ñı": 1481,
      "Ð°Ð»Ðµ": 1482,
      "ĠÑĦÐ¾Ð½Ðµ": 1483,
      "ÑĢÑĥÐ¿": 1484,
      "17": 1485,
      "Ð¾ÑĢÐ¾ÑĤ": 1486,
      "Ð·Ð¸Ð°ÑĤÑģÐºÐ¸Ðµ": 1487,
      "ĠÐ°ÐºÑĤÐ¸Ð²": 1488,
      "Ð°Ð¿": 1489,
      "ĠÐºÐ¾Ð¼Ð¿Ð°Ð½Ð¸Ñı": 1490,
      "Ð¾Ð³Ð½Ð¾Ð·": 1491,
      "ÑģÐºÐ¸Ñħ": 1492,
      "ĠÐ¡Ð±": 1493,
      "ÑģÑĤÐ²Ð¾": 1494,
      "Ð³Ð¾Ð´": 1495,
      "Ð¿Ð¾Ð»": 1496,
      "ÑģÐ¾Ð²Ð¾Ð¼": 1497,
      "Ð¸Ð»Ð¸": 1498,
      "ĠÑģÐºÐ¾Ð»ÑĮÐ·ÑıÑī": 1499,
      "ĠÑĥÑĤÑĢÐ°": 1500,
      "Ð²ÐµÑĢÑħ": 1501,
      "ÑģÑĤÐ°Ð½Ð¾Ð²Ð»": 1502,
      "18": 1503,
      "ĠÐ´Ð¾Ð»Ð³Ð¾ÑģÑĢÐ¾Ñĩ": 1504,
      "ÑĥÐ´": 1505,
      "Ð´Ð½ÐµÐ²": 1506,
      "Ð¸ÑĤÐ°Ð¹ÑĤÐµ": 1507,
      "13": 1508,
      "Ð¸Ñħ": 1509,
      "ĠÐŁÐ¾": 1510,
      "ÑĥÑīÐµÑģÑĤÐ²ÐµÐ½": 1511,
      "ĠÐ¿ÑıÑĤ": 1512,
      "ÑĨÑĭ": 1513,
      "Ð¸Ð¹": 1514,
      "Ð°Ð±": 1515,
      "ÑĢÐ°Ñī": 1516,
      "Ð¾ÑĢÑĤ": 1517,
      "Ð¸Ð½Ð°Ð¼Ð¸": 1518,
      "ĠÐ¿Ð¾Ð»Ñĥ": 1519,
      "rd": 1520,
      "ĠÐ³Ð°Ð·": 1521,
      "ĠÐ¼Ð°ÐºÑģÐ¸Ð¼ÑĥÐ¼": 1522,
      "ĠÐ§Ð¸ÑĤÐ°Ð¹ÑĤÐµ": 1523,
      "ĠÐ·Ð°ÐºÑĢÑĭÑĤÐ¸Ðµ": 1524,
      "ĠÑģÑĢÐµÐ´Ð½ÐµÐ¹": 1525,
      "ĠÐ¦Ðĳ": 1526,
      "ĠÑĪ": 1527,
      "ĠÐ²ÑĢÐµÐ¼": 1528,
      "26": 1529,
      "rdv": 1530,
      "Ġrdv": 1531,
      "ĠÐ´Ð¸Ð²Ð¸Ð´ÐµÐ½Ð´Ð¾Ð²": 1532,
      "ĠÐ¿ÑıÑĤÐ½Ð¸": 1533,
      "ĠÐ¿ÑĢÐ¾Ð¸Ð·": 1534,
      "Ð°Ð»ÑİÑĤ": 1535,
      "Ġt": 1536,
      "ĠÑįÐºÑģÐ¿": 1537,
      "ĠÐ´Ð½ÐµÐ²Ð½Ð¾Ð¼": 1538,
      "ĠÑĨÐµÐ½Ñĭ": 1539,
      "ĠÐ¸ÑĤÐ¾Ð³": 1540,
      "ÑĢÐ¸ÑĤ": 1541,
      "ĠÐ´Ð¸Ð²Ð¸Ð´ÐµÐ½Ð´Ñĭ": 1542,
      "ĠÐ¸Ð½Ð´Ð¸ÐºÐ°ÑĤÐ¾ÑĢ": 1543,
      "Ð¸Ðµ": 1544,
      "Ð½Ð°ÐºÐ¾": 1545,
      "Ġ18": 1546,
      "Ð½Ð¸Ðµ": 1547,
      "Ð¸Ð»": 1548,
      "Ð°Ñģ": 1549,
      "ĠÐ¸Ð½Ð´ÐµÐºÑģÑĭ": 1550,
      "ĠÐ·Ð°ÐºÑĢÐµ": 1551,
      "ĠÐ´Ð¸Ð½Ð°Ð¼Ð¸": 1552,
      "ĠÑģÑĢÐµÐ´Ð½ÐµÑģÑĢÐ¾Ñĩ": 1553,
      "ÑĥÐ±Ð»Ð¸": 1554,
      "ĠÑĢÐ°Ð¹": 1555,
      "ĠÑģÐ¸Ð³Ð½Ð°Ð»": 1556,
      "Ð¿ÑĢÐ°Ð²Ð»ÐµÐ½": 1557,
      "Ð¾Ð½Ñĭ": 1558,
      "ĠÐ²Ð·": 1559,
      "Ð´Ñĥ": 1560,
      "ĠÐ½ÐµÑĦÑĤÐ¸": 1561,
      "ĠÑĢÐ°ÑģÐ¿": 1562,
      "27": 1563,
      "ĠÐ½ÐµÐ´ÐµÐ»Ð¸": 1564,
      "Ġ50": 1565,
      "ĠÐ¿ÑĢÐ¾Ð´Ð°Ð²": 1566,
      "ĠÐ°Ð½Ð°Ð»Ð¸ÑĤÐ¸": 1567,
      "ĠÑĥÑĢÐ¾Ð²Ð½Ð¸": 1568,
      "ĠÑģÐ°Ð½Ðº": 1569,
      "24": 1570,
      "ĠÐ²ÑĭÑĢÐ¾ÑģÐ»Ð¸": 1571,
      "ĠÐ²ÑĤÐ¾ÑĢ": 1572,
      "Ð°ÑĤÑĮÑģÑı": 1573,
      "Ð½Ð¸Ð¼": 1574,
      "ĠÐ¸Ð¼Ð¿": 1575,
      "ĠÐľÐ¾ÑģÐ±": 1576,
      "ĠÑĥÐºÐ°Ð·": 1577,
      "ÑİÑīÐ¸": 1578,
      "22": 1579,
      "Ð¾Ð¿Ð¾Ð»": 1580,
      "ÑĪÐµÐ³Ð¾": 1581,
      "ĠÐ¸Ð½ÑĦ": 1582,
      "Ð¾Ð½Ð¾Ð¼Ð¸": 1583,
      "ÑĪÐµÐ½Ð¸Ðµ": 1584,
      "ÐµÑĩ": 1585,
      "ÐµÑĢÐ±": 1586,
      "ĠÐ¸Ð½ÑĤ": 1587,
      "28": 1588,
      "ĠÐ°ÐºÑĨÐ¸Ñı": 1589,
      "Ð¾Ð»ÑĮÐºÐ¾": 1590,
      "ĠÑĥÑĤ": 1591,
      "ÐµÑĢÑı": 1592,
      "ĠÐ½ÐµÑĤ": 1593,
      "ĠÑģÐºÐ¾Ð»ÑĮÐ·ÑıÑīÐµÐ¹": 1594,
      "ĠÐ´Ð°": 1595,
      "ÐµÐ²ÑĢÐ°": 1596,
      "Ð¾ÑıÑĤ": 1597,
      "ĠÐ´ÐµÐ½ÑĮ": 1598,
      "ĠÐ½ÑĥÐ¶Ð½Ð¾": 1599,
      "29": 1600,
      "ÑĩÐµÑĢÐ°": 1601,
      "ÑĭÐ²Ð°ÐµÑĤ": 1602,
      "MA": 1603,
      "ĠÐ¿Ð¾ÐºÑĥÐ¿Ð°ÑĤÐµÐ»ÐµÐ¹": 1604,
      "ĠÑĤÐ¾": 1605,
      "ĠÐŁÐ¾Ñģ": 1606,
      "ĠÑĢÐ°Ð·Ð²": 1607,
      "ĠÐļÐ°Ðº": 1608,
      "ĠÐºÐ¾Ð½ÑĨ": 1609,
      "Ð¾ÑĢÐ¸ÑĤ": 1610,
      "Ð¸ÑĢÐ¶Ð¸": 1611,
      "ĠÐ°ÐºÑĨÐ¸Ñİ": 1612,
      "ÑĢÑĥÑĩ": 1613,
      "al": 1614,
      "ÐµÐ½ÑĨÐ¸": 1615,
      "an": 1616,
      "Ð¾Ð¼ÐµÐ½ÑĤ": 1617,
      "ĠÐ¼Ð¾Ð¼ÐµÐ½ÑĤ": 1618,
      "ĠÑģÑĩÐµÑĤ": 1619,
      "Ð»Ð°Ð´": 1620,
      "est": 1621,
      "ĠÐ´Ð¾ÑģÑĤÐ¸Ð³": 1622,
      "ĠÐ¼Ð¸Ð½": 1623,
      "ĠÑģÐ²Ð¾": 1624,
      "ĠÑģÐ¼": 1625,
      "ĠÐ±Ð¾Ðº": 1626,
      "ĠÐ´Ð°Ð»ÑĮ": 1627,
      "ĠÐ²Ð¾": 1628,
      "ĠÐĲÐ·Ð¸Ð°ÑĤÑģÐºÐ¸Ðµ": 1629,
      "ÐľÐļ": 1630,
      "Ð½ÐµÑĦ": 1631,
      "ĠÐ¿Ð°": 1632,
      "ĠÐ´Ð½Ñı": 1633,
      "ÑĦÑĦ": 1634,
      "ÑĢÑĥÐºÑĤÑĥ": 1635,
      "ĠÑģÐ»Ð¾Ð¼": 1636,
      "ÑĢÐ°Ð¹": 1637,
      "ÑĩÐµÑģÐºÐ°Ñı": 1638,
      "ĠÐ²ÑĭÐ³Ð»ÑıÐ´ÐµÐ»": 1639,
      "ĠÑģÐ¸Ð»ÑĮ": 1640,
      "vest": 1641,
      "ĠÐ¿Ð»Ñİ": 1642,
      "ĠÑĩÐ¸": 1643,
      "ĠG": 1644,
      "ÑĪÐ»Ð¸": 1645,
      "Ð¸Ð´": 1646,
      "ĠÐ¾ÑĤÑĩÐµÑĤ": 1647,
      "Ð¾Ð²ÑĭÑħ": 1648,
      "ÑģÑĤÐ¾ÑĢÐ¸": 1649,
      "Ð¼Ð°Ð»ÑĮ": 1650,
      "ĠÐ¿ÑĢÐ¸Ð±ÑĭÐ»ÑĮ": 1651,
      "ĠÑĥÐ¼ÐµÑĢ": 1652,
      "ÑģÐ¿ÐµÐº": 1653,
      "ĠÐ¿Ð¾Ð¿": 1654,
      "ĠÐ´Ð¾ÑĢ": 1655,
      "ĠÐ¼Ð°ÐºÑģÐ¸Ð¼ÑĥÐ¼Ð°": 1656,
      "ĠÐ·Ð¾Ð½Ðµ": 1657,
      "Ð¼Ð¸ÑĢÐ¾Ð²": 1658,
      "ĠÐ¾Ð¶Ð¸Ð´": 1659,
      "ÑģÑĤÐ²Ð°": 1660,
      "ĠÐ¿ÑĢÐ¾ÑĪÐ»Ð¾Ð¹": 1661,
      "ĠÐ²Ð°Ð»ÑİÑĤ": 1662,
      "Ð²ÐµÐ´": 1663,
      "Ñĳ": 1664,
      "ĠÑģÐ½Ð¸Ð¶ÐµÐ½Ð¸Ñı": 1665,
      "invest": 1666,
      "ĠÑĦÐµÐ²ÑĢÐ°": 1667,
      "Ð±Ð¸": 1668,
      "ĠÑįÐºÐ¾Ð½Ð¾Ð¼Ð¸": 1669,
      "21": 1670,
      "Ġ24": 1671,
      "ĠÑĩÐµÐ¼": 1672,
      "Ð¿Ð°": 1673,
      "ĠÐµÑģÐ»Ð¸": 1674,
      "ĠÐ±ÑĥÐ´ÑĥÑĤ": 1675,
      "23": 1676,
      "ĠÐºÐ¾Ð½Ñģ": 1677,
      "ÑıÑīÐ¸": 1678,
      "ĠÐ¸ÑģÑĤÐ¾ÑĢÐ¸": 1679,
      "ÑıÑĤÑģÑı": 1680,
      "ÑĢÑĥÑİÑĤ": 1681,
      "ĠÐ¢ÐµÑħÐ½Ð¸": 1682,
      "ĠÐ²ÑģÐµÑħ": 1683,
      "ĠÐŃÑĤÐ¾": 1684,
      "ĠÐ²Ñģ": 1685,
      "ÑĢÑĥÐµÑĤ": 1686,
      "ÑĤÐ¾Ð³Ð¸": 1687,
      "ÑĩÐ°ÑģÐ¾Ð²Ð¾Ð¼": 1688,
      "ĠÐ¿ÐµÑĢÑģÐ¿ÐµÐº": 1689,
      "ÐµÐ²ÐµÑĢ": 1690,
      "ĠÑĢÑĭÐ½ÐºÐ¸": 1691,
      "ĠÐ¾Ð¶Ð¸Ð´Ð°": 1692,
      "ÐµÐ½ÑĤÐ¸": 1693,
      "ĠÐ²ÑĭÑģÑĤÑĥÐ¿": 1694,
      "ĠÐ½ÐµÐ³": 1695,
      "ĠÑģÐ¾ÑģÑĤÐ°Ð²Ð¸Ð»Ð°": 1696,
      "Ð½ÐµÐ¼": 1697,
      "Ð²Ð°ÐµÑĤ": 1698,
      "Ð³Ð»ÑıÐ´": 1699,
      "ÐµÑĢÐ¾Ð²": 1700,
      "ÐµÐ»Ñı": 1701,
      "ÑĢÐ°Ð±Ð¾ÑĤ": 1702,
      "ĠÑģÐ¼Ð¾ÑĤ": 1703,
      "ĠÑĨÐµÐ»ÑĮ": 1704,
      "ĠÐ¿ÑĢÐ¸Ð±": 1705,
      "ĠÐĺÑĤÐ¾Ð³Ð¸": 1706,
      "Ð»ÑİÑĩÐµ": 1707,
      "ĠÑģÐ¾Ðº": 1708,
      "Ð´Ð½ÐµÐ²Ð½Ð¾Ð¹": 1709,
      "ĠÐ¾Ð±ÑĬÐµÐ¼": 1710,
      "ĠÐµÑģÑĤÑĮ": 1711,
      "on": 1712,
      "ĠÐºÐ¾Ð¼Ð¿Ð°Ð½Ð¸Ð¹": 1713,
      "ĠÐ¿Ð»ÑİÑģÐµ": 1714,
      "ĠÑįÑĤÐ¾Ð³Ð¾": 1715,
      "Ð¾Ð²ÑĭÐ¹": 1716,
      "),": 1717,
      "ĠÑģÐµÐ¹ÑĩÐ°Ñģ": 1718,
      "âĢĭ": 1719,
      "ĠÑģÑĤÑĢÑĥÐºÑĤÑĥ": 1720,
      "ĠÐ¿Ð¾ÑģÑĤÐ°": 1721,
      "ĠÐ½ÐµÐ³Ð°ÑĤÐ¸Ð²": 1722,
      "er": 1723,
      "ÑĩÐµÑĢÐµÐ´": 1724,
      "ĠÐ¿ÑĢÐ¾Ð³Ð½Ð¾Ð·": 1725,
      "ĠÐ¿Ð¾Ð·Ð¸": 1726,
      "ÐºÐ¾ÑĢ": 1727,
      "ÑĥÑīÐµÑģÑĤÐ²ÐµÐ½Ð½Ð¾": 1728,
      "ĠÑĥÑĢÐ¾Ð²ÐµÐ½ÑĮ": 1729,
      "80": 1730,
      "ĠÐ·Ð½Ð°Ñĩ": 1731,
      "Ġï¸ı": 1732,
      "ĠÐºÐ¾ÑĢÑĢÐµÐº": 1733,
      "ĠÐ¸ÑĤÐ¾Ð³Ð°Ð¼": 1734,
      "Ġ000": 1735,
      "ĠÐĵÐ°Ð·Ð¿ÑĢÐ¾Ð¼Ð°": 1736,
      "ĠÐŁÐ¾ÐºÐ°": 1737,
      "ĠÐ¸Ð½Ð²ÐµÑģÑĤÐ¾ÑĢÐ¾Ð²": 1738,
      "ÐºÑĤ": 1739,
      "Ġ(+": 1740,
      "ĠÐ±ÑĭÑĤÑĮ": 1741,
      "Ð¾Ð½Ñĥ": 1742,
      "Ð°Ð¼Ð¸": 1743,
      "ĠÑģÐ²Ðµ": 1744,
      "ĠÐ´ÐµÐº": 1745,
      "ĠÐŀÐ´": 1746,
      "ÑİÑī": 1747,
      "ĠÐ¯": 1748,
      "ĠÐ»ÑĥÑĩ": 1749,
      "ÑĢÐ¾Ð¿": 1750,
      "Ð½ÐµÑĢ": 1751,
      "Ð°Ð»ÑģÑı": 1752,
      "ĠÐ²Ð¾Ð»": 1753,
      "Ð¸Ð·Ð½ÐµÑģ": 1754,
      "ÑĦÐ¾ÑĢÐ¼Ð¸ÑĢÐ¾Ð²": 1755,
      "ĠÐ·Ð°ÐºÑĢÑĭÑĤÐ¸Ñı": 1756,
      "ÐµÑĢÐ²": 1757,
      "Ð»Ð°Ð±": 1758,
      "ĠÐ²ÐµÑĢÐ¾ÑıÑĤ": 1759,
      "ĠÐľÐ¸Ð½": 1760,
      "ĠÐºÐ¾ÑĤÐ¾ÑĢÑĭÐµ": 1761,
      "ĠÑģÑĨÐµÐ½Ð°ÑĢÐ¸Ð¹": 1762,
      "ĠÑģÐ´ÐµÐ»": 1763,
      "Ð¸ÑĤÑĥ": 1764,
      "ĠÐ±Ð°Ð½Ðº": 1765,
      "Ð°Ð»Ð¾ÑģÑĮ": 1766,
      "ĠÑģÐ°Ð¼": 1767,
      "ĠÐ¾ÑģÑĤÐ°ÐµÑĤÑģÑı": 1768,
      "ĠÐ½ÐµÑĦÑĤ": 1769,
      "ĠÐ¿Ð¾Ð´ÑĬÐµÐ¼": 1770,
      "ÑĢÐ°Ð½Ñı": 1771,
      "60": 1772,
      "ÑģÑĤÑĢÐ¸": 1773,
      "ÐµÑĢÑĭ": 1774,
      "ĠÑĩÐµÑĤ": 1775,
      "Ð°Ð»Ð°ÑģÑĮ": 1776,
      "ĠÑĥÐ¼ÐµÑĢÐµÐ½Ð½Ð¾": 1777,
      "Ð»Ð¸Ð³Ð°": 1778,
      "ĠÑģÐ½Ð¸Ð¶Ð°": 1779,
      "Ð½Ð¸Ñħ": 1780,
      "Ð¿ÑĢÐ¾Ð´": 1781,
      "ĠEMA": 1782,
      "ÑĢÐ°Ð·": 1783,
      "Ð´ÐµÑĤ": 1784,
      "ĠÐ¾Ð±Ð»Ð°ÑģÑĤÐ¸": 1785,
      "ĠÐ½ÐµÐ´ÐµÐ»ÑĮÐ½Ð¾Ð¼": 1786,
      "ÑĥÑģÐµ": 1787,
      "ĠÐ´ÐµÐºÐ°Ð±": 1788,
      "Ð°ÑİÑĤ": 1789,
      "ĠÐ²Ð¾ÑģÑģÑĤÐ°Ð½Ð¾Ð²Ð»": 1790,
      "Ð¾ÑĢÐ½Ð¸Ðº": 1791,
      "ĠÐ¡ÐµÐ²ÐµÑĢ": 1792,
      "ĠÐ¿ÑĢÐ¾Ð´Ð¾Ð»Ð¶Ð°": 1793,
      "ĠÑĢÐ°Ð·Ð½Ð¾": 1794,
      "ĠÐ±Ð¸Ð·Ð½ÐµÑģ": 1795,
      "ĠÐ¾ÑĩÐµÑĢÐµÐ´": 1796,
      "ĠÐ¿Ð¾ÑĤÐµÐ½ÑĨÐ¸": 1797,
      "ĠÐ³ÑĢÐ°ÑĦÐ¸ÐºÐ°": 1798,
      "Ð½Ð°Ð¿ÑĢÐ°Ð²Ð»ÐµÐ½": 1799,
      "ĠÐ²Ð·Ð³Ð»ÑıÐ´": 1800,
      "ĠÑĢÐ°Ð·Ð½Ð¾Ð½Ð°Ð¿ÑĢÐ°Ð²Ð»ÐµÐ½": 1801,
      "ĠÐºÑĢÐ¸": 1802,
      "ĠÑĦÐ°Ðº": 1803,
      "ĠÐ¿ÑĢÐ¾ÑĪÐ»Ð¾": 1804,
      "Ð²Ð¸Ð»": 1805,
      "ĠÐ²ÑĢÐµÐ¼Ñı": 1806,
      "ĠÐºÐ¾Ð½ÑģÐ¾Ð»Ð¸": 1807,
      "Ð½Ð¸Ð·": 1808,
      "ĠÐ¿ÑĢÐ¾Ð¸Ð·Ð²Ð¾Ð´": 1809,
      "ĠÐ¿ÑĢÐ¾Ð´Ð°Ð²ÑĨ": 1810,
      "Ð¼ÐµÐ½": 1811,
      "Ġ2020": 1812,
      "ĠÐ¾ÐºÐ°Ð·": 1813,
      "ĠÐ¡Ð±ÐµÑĢÐ±": 1814,
      "Ġ25": 1815,
      "ĠÐ¾Ð¿ÑĢÐµÐ´ÐµÐ»": 1816,
      "ĠÑĢÐµÐºÐ¾ÑĢ": 1817,
      "ĠÐ¿ÑĢÐµÐ¸Ð¼": 1818,
      "Ð·Ð°ÑĨÐ¸Ð¸": 1819,
      "ĠÐ¾Ð½": 1820,
      "90": 1821,
      "ÐĻ": 1822,
      "ĠÐ¸Ð¼Ð¿ÑĥÐ»ÑĮ": 1823,
      "ĠÐ¼ÐµÑģÑıÑĨÐµÐ²": 1824,
      "ÐµÐ¿": 1825,
      "ĠÑĢÐµÐ°Ð»Ð¸": 1826,
      "70": 1827,
      "ÑģÑĤÑĢÐ¾": 1828,
      "ĠÐ¿Ð¾Ð·Ð²": 1829,
      "ĠÑĢÐ¸ÑģÐºÐ¸": 1830,
      "Ð½Ð¸ÑĤ": 1831,
      "ĠÐ²ÑĩÐµÑĢÐ°": 1832,
      "ĠÐķÐ²": 1833,
      "Ð¾ÐºÐ°Ð»ÑĮ": 1834,
      "ĠÐĹÐ°": 1835,
      "Ð¾Ð²ÑĭÐµ": 1836,
      "ĠÐ·Ð°Ð¼": 1837,
      "ÑĪÐµÐ¹": 1838,
      "ĠÐ°ÐºÑĨÐ¸Ð¾Ð½": 1839,
      "ĠÑĢÐµÐ·ÑĥÐ»ÑĮÑĤÐ°ÑĤÑĭ": 1840,
      "%).": 1841,
      "ÑĥÐ½": 1842,
      "ĠÑĦÐ¾ÑĢ": 1843,
      "ĠÑĢÐµÐºÐ¾ÑĢÐ´": 1844,
      "ĠÐ²ÑĭÐ¿Ð»Ð°ÑĤ": 1845,
      "ĠÐ²Ð²ÐµÑĢÑħ": 1846,
      "ĠÐ¾ÑĤÑģÐºÐ¾Ðº": 1847,
      "ÑģÐºÐ¾Ð¼": 1848,
      "Ð°Ð¿Ð°Ð·": 1849,
      "ĠÑģÐ½Ð¸Ð¶ÐµÐ½Ð¸Ðµ": 1850,
      "Ð½ÐµÑĦÑĤÑĮ": 1851,
      "Ð¸ÑĤÑĥÐ°": 1852,
      "ĠÐŀÐ´Ð½Ð°ÐºÐ¾": 1853,
      "ĠÐ·Ð°Ð¿": 1854,
      "ÑıÐ·": 1855,
      "ĠP": 1856,
      "ĠÐ±Ð»Ð¸Ð¶Ð°Ð¹ÑĪÐ¸Ðµ": 1857,
      "ĠÐĺÐ½Ð´ÐµÐºÑģ": 1858,
      "ĠÐ²Ðµ": 1859,
      "ĠÐ´Ð°Ð»ÑĮÐ½ÐµÐ¹": 1860,
      "ĠÐ¿ÑĢÐ¾Ð´Ð°Ð²ÑĨÐ¾Ð²": 1861,
      "Ð°ÐºÐ¸": 1862,
      "ĠÐ´Ð¸Ð°Ð¿Ð°Ð·": 1863,
      "ĠÐ¼Ð¸Ð½ÑĥÑģÐµ": 1864,
      "Ð¾Ð»ÐµÑĤ": 1865,
      "ĠÐºÐ»ÑİÑĩÐµ": 1866,
      "ĠÐºÐ¾ÑĢÑĢÐµ": 1867,
      "Ð°Ð»Ð¾": 1868,
      "ĠÐ½Ð¸Ñģ": 1869,
      "ÑĭÑĤ": 1870,
      "ĠÐ¿ÑĢÐ¸Ð±ÑĭÐ»Ð¸": 1871,
      "Ð£ÑĢÐ¾Ð²Ð½Ð¸": 1872,
      "Ð¿Ð¸ÑĤ": 1873,
      "ÐµÐ´ÐµÐ»ÑĮ": 1874,
      "ĠÐ¿ÑĢÐµÐ¸Ð¼ÑĥÑīÐµÑģÑĤÐ²ÐµÐ½Ð½Ð¾": 1875,
      "ĠÑģÐ¾ÑħÑĢÐ°Ð½Ñı": 1876,
      "ĠÐºÑĢÑĥÐ¿": 1877,
      "ĠÐ³ÑĢÐ°Ð½Ð¸": 1878,
      "ĠÐłÐ¾ÑģÑģÐ¸Ð¹": 1879,
      "ĠÐ±Ð¾ÐºÐ¾Ð²Ð¸": 1880,
      "ÐºÐ°Ð½": 1881,
      "Ð¢Ð¡": 1882,
      "ĠÐ²Ð½Ð¸Ð·": 1883,
      "Ð¾ÑĢÐµ": 1884,
      "75": 1885,
      "ĠÐ¿Ð¾Ð·Ð¸ÑĤÐ¸Ð²Ð½ÑĭÐ¹": 1886,
      "ĠÐĶÐ»Ñı": 1887,
      "ĠÐļÐ¾Ð¼Ð¿Ð°Ð½Ð¸Ñı": 1888,
      "ĠÐ¿ÑĢÐµÐ´ÑĭÐ´ÑĥÑīÐµÐ¹": 1889,
      "ĠÐ½Ð°ÑĩÐ°Ð»Ð°": 1890,
      "ĠÐĿÐ¾ÑĢÐ½Ð¸Ðº": 1891,
      "ĠÐŁÐ¾ÑģÐ»Ðµ": 1892,
      "ĠÑĤÐµÑĢ": 1893,
      "ĠÐ²ÑĭÐºÑĥ": 1894,
      "ÑĢÐ°Ð¹Ð²ÐµÑĢ": 1895,
      "ĠÐ¿ÑĢÐ¸Ð±Ð°": 1896,
      "ĠÐºÐ¾ÑĢÑĢÐµÐºÑĨÐ¸Ð¸": 1897,
      "ĠÐ²ÑĭÐ¿": 1898,
      "ĠÐ¿Ð¾Ð»ÑĥÐ³Ð¾Ð´": 1899,
      "Ð¸Ð¸": 1900,
      "ĠÐ²Ð¾Ð·Ð¾Ð±": 1901,
      "ĠÐ»ÑĥÑĩÑĪÐµ": 1902,
      "Ð´Ð°ÐµÑĤ": 1903,
      "ĠÐ¾ÐºÑĤ": 1904,
      "ÐŃ": 1905,
      "ĠÐ´Ð¸Ð²Ð¸Ð´ÐµÐ½Ð´Ð°": 1906,
      "ĠÐ´ÑĢÑĥ": 1907,
      "ĠT": 1908,
      "ÑĭÐ²Ð°ÑİÑĤ": 1909,
      "ÑĢÐµÐºÑĤÐ¾ÑĢ": 1910,
      "ĠÑĢÐ°Ð¹Ð¾Ð½Ðµ": 1911,
      "Ð¾Ð±ÑĭÑĤÐ¸": 1912,
      "ĠÐ¿Ð¾Ð²": 1913,
      "ĠÐ²Ð°Ð¶": 1914,
      "âĢ¢": 1915,
      "ĠÑĤÑĢÐµÐ½Ð´Ð°": 1916,
      "ÑĭÐ¼": 1917,
      "ĠÐ§ÑĤÐ¾": 1918,
      "ĠÐ¿Ð¾Ð·Ð²Ð¾Ð»": 1919,
      "ĠÐ¿Ð»Ð°Ð½Ð¸": 1920,
      "ĠÐ²Ð¾ÑģÑħÐ¾Ð´ÑıÑī": 1921,
      "Ð¾ÑģÑĤÑĮ": 1922,
      "ĠÐ¤ÑĮÑİÑĩÐµÑĢÑģÑĭ": 1923,
      "ĠÐķÑģÐ»Ð¸": 1924,
      "ĠÐ¿Ð¾ÑĤÐµÑĢÑı": 1925,
      "ĠÑģÐ»ÐµÐ´ÑĥÑİ": 1926,
      "ĠÐ³Ð¾Ð²": 1927,
      "Ð½ÐµÑĦÑĤÐ¸": 1928,
      "ĠÑģÑĦÐ¾ÑĢÐ¼Ð¸ÑĢÐ¾Ð²": 1929,
      "ĠÑĤÐµÑħÐ½Ð¸ÑĩÐµÑģÐºÐ¸Ñħ": 1930,
      "ĠÑĥÐ²ÐµÐ»Ð¸ÑĩÐ¸": 1931,
      "ĠÑģÑĤÑĢÐ°": 1932,
      "ÑģÐ¼Ð¾ÑĤ": 1933,
      "ĠÐºÐ²Ð°ÑĢÑĤÐ°Ð»": 1934,
      "ĠÑĢÐ°ÑģÑĤÑĥÑī": 1935,
      "ÑĩÐµÑģÐºÐ¾Ð¹": 1936,
      "ĠÐ¼ÐµÐ½": 1937,
      "Ð¾Ñī": 1938,
      "ĠÐµÐ³Ð¾": 1939,
      "ĠÐ¶Ðµ": 1940,
      "ĠÐ·Ð°Ñı": 1941,
      "Ġ23": 1942,
      "ĠÐºÐ¾Ð¼": 1943,
      "ĠA": 1944,
      "Ð¿ÑĢÐ¸": 1945,
      "Ð¼ÐµÑĢÐ¸": 1946,
      "ÑĢÐµÐ´Ð¸ÑĤ": 1947,
      "ĠÐºÐ¾ÑĤÐ¾ÑĢÑĭÐ¹": 1948,
      "ÑĢÐ¸ÑĤÐ¾ÑĢÐ¸": 1949,
      "ÑĢÐµÐ±": 1950,
      "ĠÐ¾Ð¿Ð¸Ñģ": 1951,
      "ĠÐ½ÐµÐ¹ÑĤÑĢÐ°Ð»ÑĮÐ½ÑĭÐ¹": 1952,
      "ÑĥÐ¼": 1953,
      "ĠÐ¸Ð½Ð´Ð¸ÐºÐ°ÑĤÐ¾ÑĢÐ¾Ð²": 1954,
      "Ġ+": 1955,
      "Ð»Ð°Ð²": 1956,
      "ĠÐ¡ÐµÐ²ÐµÑĢÑģÑĤ": 1957,
      "ĠÑĢÐ°Ð½ÐµÐµ": 1958,
      "ĠÑĢÐ°ÑģÑĤÐµÑĤ": 1959,
      "ÑĢÐµÑĤÑĮ": 1960,
      "ĠÑģÑĤÐ¾Ð¸Ð¼": 1961,
      "ĠÐ¿Ð¾Ð»ÑĥÑĩ": 1962,
      "ĠÐ´Ð¾Ð»Ð»Ð°": 1963,
      "ĠÐ¼Ð½": 1964,
      "ĠÐ±ÑĭÐ»Ð°": 1965,
      "ĠÐ¿ÑĢÐ¾Ð±Ð¾": 1966,
      "Ġ26": 1967,
      "ĠÐ¾ÑĤÐ¼ÐµÑĤÐºÐ¸": 1968,
      "PO": 1969,
      "ÐµÑĤÐµ": 1970,
      "ĠÐ¿ÑĢÐµÐ²Ñĭ": 1971,
      "ĠÐ´ÑĢÐ°Ð¹Ð²ÐµÑĢ": 1972,
      "ÑĢÑĮ": 1973,
      "ĠÐ¿ÑĢÐ¾Ñģ": 1974,
      "ÐµÑĤÐ°Ð»": 1975,
      "Ð¾Ð»Ð¾ÑĤ": 1976,
      "Ð»ÐµÐ´": 1977,
      "ĠÑĤÐµÐ¼": 1978,
      "ĠÐ¿ÐµÑĢÐ²ÑĥÑİ": 1979,
      "ĠÐ¾Ð¿Ð¸ÑģÐ°Ð½Ð¸Ðµ": 1980,
      "ĠÐ²ÑĭÑĢÑĥÑĩ": 1981,
      "ĠÐŁÐ¾Ð´ÑĢÐ¾Ð±Ð½Ð¾Ðµ": 1982,
      "ÑĥÑĤÐ¸": 1983,
      "Ð½Ð´ÐµÐºÑģ": 1984,
      "ĠÐ¸Ñħ": 1985,
      "ĠÐ°ÐºÑĤÑĥ": 1986,
      "ĠÐ´Ð¾ÑħÐ¾Ð´Ð½Ð¾ÑģÑĤÑĮ": 1987,
      "ĠÐºÐ°Ð¿Ð¸ÑĤ": 1988,
      "ĠÑĤÐ¾ÑĢÐ³Ð¾Ð²Ð°Ð»Ð¸ÑģÑĮ": 1989,
      "Ð²Ð»ÑıÐµÑĤ": 1990,
      "ÐµÑĢÑĮ": 1991,
      "ĠÑģÐµÐº": 1992,
      "ro": 1993,
      "ÐµÐ½Ð½Ð¾ÑģÑĤÐ¸": 1994,
      "ÑģÑĤÐ¾Ð¹": 1995,
      "ĠÐ¿Ð¾ÑģÑĤÐ°Ð²": 1996,
      "ĠÑĦÐ¸": 1997,
      "ĠÐ¼Ñĭ": 1998,
      "Ġ100": 1999,
      "Ð¢Ðł": 2000,
      "lo": 2001,
      "ĠÑĤÐµÑĢÑĢÐ¸ÑĤÐ¾ÑĢÐ¸": 2002,
      "ĠÐ¾Ð±Ð»Ð¸Ð³Ð°": 2003,
      "ĠÑģÑĤÐ°Ð²ÐºÐ¸": 2004,
      "ĠÐºÑĥÑĢ": 2005,
      "ĠÐĺÐ½Ð´": 2006,
      "ÑĥÐºÐ¾Ð¹": 2007,
      "ĠÐ´Ð¸ÑĢÐµÐºÑĤÐ¾ÑĢ": 2008,
      "ĠÑĤÑĭ": 2009,
      "ĠÑģÐ¾Ð¾Ð±": 2010,
      "ĠÐ±Ð°ÑĢ": 2011,
      "ÑĥÐ¶Ðµ": 2012,
      "ÐµÑĤÐ°": 2013,
      "ÑĢÐ¸ÐµÐ½ÑĤÐ¸": 2014,
      "ĠÐ¿Ð¾Ñĩ": 2015,
      "up": 2016,
      "Ð½Ð³": 2017,
      "Ð½ÐµÐ³Ð¾": 2018,
      "ĠÐ¾Ð±Ð»Ð°ÑģÑĤÑĮ": 2019,
      "ĠÐºÐ¾Ð½ÑģÐ¾Ð»Ð¸Ð´Ð°": 2020,
      "ĠÑģÐ¸ÑĤÑĥÐ°": 2021,
      "ĠÐĲÐ¢Ðł": 2022,
      "Ð¼ÐµÑĢÐ¸ÐºÐ°Ð½": 2023,
      "ĠC": 2024,
      "ĠÐ¿ÑĢÐ¾Ð´Ð°": 2025,
      "ÑĤÐ¾ÑĢÐ°": 2026,
      "ĠÐ¿ÑĢÐ¾ÑĤÐ¸Ð²": 2027,
      "ĠÐ¿Ð¾Ð½": 2028,
      "ĠÐĳÑĥÐ¼Ð°Ð³Ð°": 2029,
      "ÑĪÐ¸Ñħ": 2030,
      "ĠÑģÐ½Ð¸Ð·Ð¸Ð»Ð¸ÑģÑĮ": 2031,
      "Ð»Ð¸Ñı": 2032,
      "ĠÑħÑĥÐ¶Ðµ": 2033,
      "ÑĨÑĥ": 2034,
      "ĠÐĺÐ½Ð´ÐµÐºÑģÑĭ": 2035,
      "ĠÐ¿ÐµÑĢÑģÐ¿ÐµÐºÑĤÐ¸": 2036,
      "ĠÑĩÐµÑĤÐ²ÐµÑĢ": 2037,
      "Ġ28": 2038,
      "ĠÑĢÐ°Ð·Ð½Ð¾Ð½Ð°Ð¿ÑĢÐ°Ð²Ð»ÐµÐ½Ð½Ð¾": 2039,
      "ĠÐĽÑĥÐºÐ¾Ð¹": 2040,
      "ĠÑĦÐ°ÐºÑĤÐ¾ÑĢ": 2041,
      "ĠÐ¶Ð´": 2042,
      "ÐµÐ¼Ð¾Ð½": 2043,
      "ÑĥÑģÑĤÐ¸": 2044,
      "ÑģÑĤÐ²Ñĥ": 2045,
      "ĠÑĨÐµÐ»ÐµÐ¹": 2046,
      "ÑıÐ±ÑĢÐµ": 2047,
      "ĠÐ¢ÐµÑħÐ½Ð¸ÑĩÐµÑģÐºÐ°Ñı": 2048,
      "ĠÐ¾ÑĩÐµÑĢÐµÐ´ÑĮ": 2049,
      "ĠÐ¿ÑĢÐ¾Ð±Ð¾Ð¹": 2050,
      "Ð¹ÑĤÐ¸": 2051,
      "ĠÐ½ÐµÑĦÑĤÑı": 2052,
      "ÐµÑĢÐµÐ´": 2053,
      "ĠÐ¾Ð±ÑĬ": 2054,
      "ÐŀÐ¡": 2055,
      "ĠÑĥÑĢÐ¾Ð²Ð½ÐµÐ¹": 2056,
      "ĠÑĤÐµÑĢÑĢÐ¸ÑĤÐ¾ÑĢÐ¸Ð¸": 2057,
      "ÐµÐ¼Ð¾Ð½ÑģÑĤÑĢÐ¸": 2058,
      "ĠÐ½ÐµÐ´ÐµÐ»ÑĮÐ½Ð¾Ð¹": 2059,
      "Ġ27": 2060,
      "ÑĢÐ°ÑĤÐµÐ³": 2061,
      "31": 2062,
      "ĠÑıÐ½": 2063,
      "ĠF": 2064,
      "ĠÐ¿Ð¾ÑĤÑĢÐµÐ±": 2065,
      "ĠÐ´Ð²Ð¸Ð¶ÐµÐ½Ð¸Ðµ": 2066,
      "ĠÐ¡ÑĢÐµÐ´": 2067,
      "ÑĤÑĢ": 2068,
      "ĠÐ´Ð²Ð¸Ð¶ÐµÐ½Ð¸Ñı": 2069,
      "Ð½Ñİ": 2070,
      "ĠÑįÐºÑģÐ¿Ð¾ÑĢÑĤ": 2071,
      "ĠÐ´ÐµÐºÐ°Ð±ÑĢÑı": 2072,
      "ĠÑĢÐ¾ÑģÑģÐ¸Ð¹ÑģÐºÐ¸Ñħ": 2073,
      "Ð¸Ð½ÑĮ": 2074,
      "ĠÐ·Ð°ÐºÑĢÑĭÑĤÐ¸Ð¸": 2075,
      "ÐºÐ¾ÑĦÑĦ": 2076,
      "ÑĢÐµÐ¹": 2077,
      "ĠÐ·Ð°ÐºÑĢÐµÐ¿": 2078,
      "ĠÑıÐ½Ð²Ð°": 2079,
      "ĠÑĥÑĩÐ°": 2080,
      "ĠÐ¾Ð¿ÑĥÐ±Ð»Ð¸": 2081,
      "Ð¸Ð½ÑĮÐºÐ¾ÑĦÑĦ": 2082,
      "ĠÐ·Ð°ÐºÑĢÑĭ": 2083,
      "ĠÑĩÐ°ÑģÐ¾Ð²": 2084,
      "Ð¡Ð¤Ðŀ": 2085,
      "ĠÑĥÐ´": 2086,
      "ĠÐ¿Ð¾Ð»Ð¸ÑĤÐ¸": 2087,
      "ÐĶÐĴ": 2088,
      "ĠÐ½Ð¸ÑģÑħÐ¾Ð´ÑıÑī": 2089,
      "ĠÐ»Ð¾ÐºÐ°Ð»ÑĮ": 2090,
      "ĠÐľÐ¡Ð¤Ðŀ": 2091,
      "ĠÑĥÐ¿Ð°Ð»Ð¸": 2092,
      "Ðķ": 2093,
      "Ġ11": 2094,
      "ĠÐ¼Ð¸Ð½Ð¸Ð¼ÑĥÐ¼Ð¾Ð²": 2095,
      "ĠÑĦÐ¾Ð½Ð´": 2096,
      "ĠÑģÐ²ÐµÑĩÐ¸": 2097,
      "ĠÐ¿Ð¾Ñı": 2098,
      "ĠÐ½Ð°Ð±": 2099,
      "Ð»Ð¸Ð·Ð¸": 2100,
      "ÑĨÐµ": 2101,
      "ĠÐ²ÑĭÑħÐ¾Ð´": 2102,
      "Ð¢Ðĳ": 2103,
      "ĠÐ¿ÑıÑĤÐ½Ð¸ÑĨÑĭ": 2104,
      "ÑĪÐ¸Ð¹": 2105,
      "Ð´ÐµÐ½ÑĤ": 2106,
      "ĠÐĳÐ»Ð¸Ð¶Ð°Ð¹": 2107,
      "ÑĢÐ°ÑĤÐºÐ¾ÑģÑĢÐ¾Ñĩ": 2108,
      "ĠÐ´Ð¾ÑĢÐ¾Ð³": 2109,
      "ĠÐ¾Ð±Ð½Ð¾Ð²": 2110,
      "ĠÐµÐµ": 2111,
      "ÑģÐ¸Ð»": 2112,
      "ĠÐĴÐ¢Ðĳ": 2113,
      "ĠÐ²ÑĭÐ³Ð»ÑıÐ´ÐµÐ»Ð°": 2114,
      "ĠÐ¥": 2115,
      "Ġ20": 2116,
      "ĠÐ¼Ð°ÐºÑģÐ¸Ð¼Ð°Ð»ÑĮ": 2117,
      "ÐµÑĤÐ°Ð»Ð»": 2118,
      "ÐµÑĨ": 2119,
      "ĠÐ±Ð°ÑĢÑĢÐµ": 2120,
      "ĠÐłÐĶÐĴ": 2121,
      "ĠÐ¾ÑĤÐºÑĢÑĭÑĤÐ¸": 2122,
      "ĠÐ¾ÑĢÐ¸ÐµÐ½ÑĤÐ¸": 2123,
      "ĠÐ¼Ð¸ÑĢÐ¾Ð²": 2124,
      "ÑĢÐ¾Ð²Ð°Ð½": 2125,
      "ĠÐ¢Ð¸Ð½ÑĮÐºÐ¾ÑĦÑĦ": 2126,
      "ĠÐ¿Ð¾Ð²ÑĭÑĪ": 2127,
      "ĠÐ¼Ð¸Ð½Ð¸Ð¼ÑĥÐ¼Ð°": 2128,
      "ÐµÐ´ÐµÐ»ÑĮÐ½Ð¸Ðº": 2129,
      "ĠÑĤÐ¾Ð³Ð¾": 2130,
      "ĠÐ¢Ð°Ðº": 2131,
      "ĠM": 2132,
      "Ð·Ð¾Ð²": 2133,
      "ĠÐ¿Ð¾ÑĢÑĤ": 2134,
      "35": 2135,
      "Ð½Ð¸Ñı": 2136,
      "ĠÐĿÐ¾Ð²": 2137,
      "Ð½Ð°Ð»Ð°": 2138,
      "ĠÐ¾ÑĤÐºÑĢÑĭ": 2139,
      "Ð¾Ð³Ð»Ð°": 2140,
      "ĠÐ°ÐºÑĨÐ¸ÑıÑħ": 2141,
      "ĠÐ¼Ð°ÐºÑģÐ¸Ð¼ÑĥÐ¼Ð°Ñħ": 2142,
      "ĠÐ²Ð¾Ð·Ð²": 2143,
      "Ġ29": 2144,
      "ĠÐ¿Ð¾Ð½ÐµÐ´ÐµÐ»ÑĮÐ½Ð¸Ðº": 2145,
      "Ð»Ð¾ÑĤ": 2146,
      "ÑĩÐµÑģÐºÐ¸Ðµ": 2147,
      "ĠÐ¡ÐŁ": 2148,
      "ĠÐ¿ÑĢÐ¾Ð¹": 2149,
      "ĠÐ½Ð°Ð¿ÑĢÐ°": 2150,
      "ĠÐ¸Ð½ÑĦÐ»Ñı": 2151,
      "ĠÐ¿Ð¾ÑĤÐµÐ½ÑĨÐ¸Ð°Ð»": 2152,
      "ĠÐµÐ²": 2153,
      "ĠÑģÐ¾Ð±ÑĭÑĤÐ¸": 2154,
      "ĠÐ¿ÐµÑĢÐµÐ¿ÑĢÐ¾Ð´": 2155,
      "ĠÑģÐ¾Ð·": 2156,
      "Ð¶Ð´Ñĥ": 2157,
      "Ð·Ð¸Ð´ÐµÐ½ÑĤ": 2158,
      "ĠÐ´Ð¾Ð¿": 2159,
      "Ð¾Ð³Ð¸": 2160,
      "ÑĢÐ°Ð¼": 2161,
      "ĠÐŁÐ¾Ð´Ð´ÐµÑĢÐ¶": 2162,
      "ÑĭÐ²Ð°ÐµÑĤÑģÑı": 2163,
      "ĠÐ³Ðµ": 2164,
      "55": 2165,
      "Ð»Ð°Ð¹": 2166,
      "ĠÑģÐ¼Ð¾ÑĤÑĢÐµÑĤÑĮ": 2167,
      "ÐºÑĥÐ¿Ð»": 2168,
      "ĠÐ´ÐµÐ¼Ð¾Ð½ÑģÑĤÑĢÐ¸": 2169,
      "ÐļÐŀ": 2170,
      "ĠÐ¿ÑĢÐ¸Ð¾ÑĢÐ¸ÑĤ": 2171,
      "Ð¾ÑģÐ¾Ð±": 2172,
      "Ð»Ð»Ð¸": 2173,
      "ĠÐ·Ð¾Ð½Ñĭ": 2174,
      "ĠÐĿÐ¾ÑĢÐ½Ð¸ÐºÐµÐ»Ñı": 2175,
      "ĠÐ½Ð°Ð±Ð»Ñİ": 2176,
      "ĠÐ·Ð°ÐºÑĢÐµÐ¿Ð»": 2177,
      "ĠÐ³Ð¾ÑĢÐ¸Ð·Ð¾Ð½ÑĤÐµ": 2178,
      "Ð°Ð½Ð¸Ð¸": 2179,
      "Ð¾Ð¿Ð¾Ð»Ð¸ÑĤÐ¸": 2180,
      "Ð»Ð¾": 2181,
      "ĠÐ¿ÑĢÐ¾Ð±Ð¾Ñı": 2182,
      "ÑħÐ¾Ð´Ð¸ÑĤ": 2183,
      "ĠÑįÑĤÐ¾ÑĤ": 2184,
      "ĠÑĤÐ¾Ð»ÑĮÐºÐ¾": 2185,
      "ÐµÑĢÐµÐ·": 2186,
      "ĠÐ°Ð¿ÑĢÐµ": 2187,
      "Ġ(-": 2188,
      "Ð½ÐµÑĤ": 2189,
      "ĠÐ¿Ð¾Ð»Ð¾Ð¶Ð¸ÑĤÐµÐ»ÑĮ": 2190,
      "ĠÑĢÐ°ÑģÑĤÑĥÑĤ": 2191,
      "ĠÐ½ÐµÐ´ÐµÐ»Ðµ": 2192,
      "ĠÑĤÐ¾Ð¼": 2193,
      "ĠÐ¿Ð¾Ð¿ÑĭÑĤ": 2194,
      "ĠÐ²Ðº": 2195,
      "ĠÑİ": 2196,
      "ĠÑĢÐ°Ð±Ð¾ÑĤ": 2197,
      "ÑĪÐµÐ»": 2198,
      "ÑĦÐ¸ÑĨÐ¸": 2199,
      "Ð½ÑĥÑĤÑĮ": 2200,
      "ĠÐ±Ð°Ð½ÐºÐ¾Ð²": 2201,
      "Ð¾ÑĢÐ¾Ð¶": 2202,
      "ÑĥÐ´Ð°": 2203,
      "Ð¼ÐµÑī": 2204,
      "ĠÐ½Ð°ÑĩÐ°Ð»Ðµ": 2205,
      "ĠÐķÐ²ÑĢÐ¾Ð¿": 2206,
      "ĠÐ³ÐµÐ¾Ð¿Ð¾Ð»Ð¸ÑĤÐ¸": 2207,
      "ĠÑģÐ°Ð½ÐºÑĨÐ¸Ð¹": 2208,
      "ĠÐ½Ð°Ð»": 2209,
      "ĠÑĢÐ°ÑģÑģ": 2210,
      "ĠÐ´Ð¸ÑĢÐµÐºÑĤÐ¾ÑĢÐ¾Ð²": 2211,
      "ÑĦÐ»Ð¾ÑĤ": 2212,
      "ĠÐ¼ÐµÐ¶Ð´Ñĥ": 2213,
      "ÑĪÐ»Ð°": 2214,
      "ÑĥÑĤÑĮ": 2215,
      "ĠÐ»ÐµÑĤ": 2216,
      "ĠÑģÐ¾ÑħÑĢÐ°Ð½": 2217,
      "ĠÐ¿Ð¾Ð¼": 2218,
      "ĠÐ¿ÐµÑĢÐµÐ¿ÑĢÐ¾Ð´Ð°Ð½": 2219,
      "ÑĤÑĭ": 2220,
      "ĠÑģÑĤÑĢÐ°ÑĤÐµÐ³": 2221,
      "ÐļÐŀÐĻ": 2222,
      "ĠÑįÑĤÐ¸": 2223,
      "ĠÐ¸Ð½ÑĤÐµÑĢÐµ": 2224,
      "Ð»ÐµÑĤ": 2225,
      "ĠÑģÑĩÐ¸ÑĤ": 2226,
      "Ð²Ð°ÑĤÑĮÑģÑı": 2227,
      "Ð£ÐļÐŀÐĻ": 2228,
      "Ð£ÐļÐŀÐĻÐĽ": 2229,
      "ĠÐ´Ð¾Ð»Ð³Ð¾ÑģÑĢÐ¾ÑĩÐ½Ð¾Ð¹": 2230,
      "Ð»Ð°Ð¹Ð½": 2231,
      "ĠÐľÐ¾ÑģÐĳ": 2232,
      "ĠÐ¾ÑĨÐµÐ½": 2233,
      "ĠÐ¿ÐµÑĢÐµÐºÑĥÐ¿Ð»": 2234,
      "Ð»ÐµÐ½": 2235,
      "ĠÑĥÐºÐ°Ð·ÑĭÐ²Ð°ÐµÑĤ": 2236,
      "ĠÐ¿ÑĢÐ¸Ð¾ÑĢÐ¸ÑĤÐµÑĤÐµ": 2237,
      "ÑģÐµÐ´": 2238,
      "ĠÐºÐ¾Ð½ÐµÑĨ": 2239,
      "ĠÑģÐ¾ÑģÑĤÐ°Ð²": 2240,
      "ĠH": 2241,
      "Ð¾Ð³Ð´Ð°": 2242,
      "ÑģÑĤÐ°Ñı": 2243,
      "ĠÐ¸Ð¼Ð¿ÑĥÐ»ÑĮÑģ": 2244,
      "ĠÐĳÐ°Ð½Ðº": 2245,
      "ĠÐ¯Ð½Ð´ÐµÐºÑģ": 2246,
      "ĠÐ³Ð°Ð·Ð°": 2247,
      "ĠÐ¿ÑıÑĤÐ½Ð¸ÑĨÑĥ": 2248,
      "ĠÑĥÑĤÑĢÐ¾Ð¼": 2249,
      "65": 2250,
      "ÑħÐ¾Ð´ÑıÑīÐ¸": 2251,
      "ĠÐ¾Ð¿ÑĢÐµÐ´ÐµÐ»ÑıÑĤÑĮ": 2252,
      "ĠÑĢÐµÐ·ÑĥÐ»ÑĮÑĤÐ°ÑĤ": 2253,
      "40": 2254,
      "ĠÐ²ÑĭÐ³Ð»ÑıÐ´": 2255,
      "ĠÐ¡ÐµÐ¹ÑĩÐ°Ñģ": 2256,
      "ĠÑįÑĤÐ¾Ð¹": 2257,
      "Ð»ÐµÐºÑĤ": 2258,
      "ĠÐ¿Ð¾ÑĩÑĤÐ¸": 2259,
      "ĠÐºÑĢÐµÐ´Ð¸ÑĤ": 2260,
      "ĠÑĩÐµÑĢÐµÐ·": 2261,
      "Ð²ÑĪÐµÐ³Ð¾": 2262,
      "ĠÑĥÐ²ÐµÐ»Ð¸Ñĩ": 2263,
      "ĠÑĤÐµÑħ": 2264,
      "ĠÑĢ": 2265,
      "ĠÐķÐ¡": 2266,
      "ĠÐ§Ð¸": 2267,
      "Ð½Ð¾Ð²Ð»ÐµÐ½Ð¸Ñı": 2268,
      "ĠÐ¿ÑĢÐ¾ÑģÐ°Ð´": 2269,
      "Ð¿Ð¾Ð»Ð½": 2270,
      "Ð°Ð¹Ð¼": 2271,
      "Ð¸Ð½Ðµ": 2272,
      "ĠÐ·Ð°Ð²ÐµÑĢ": 2273,
      "ĠÐľÐ¾ÑģÐĳÐ¸ÑĢÐ¶Ð¸": 2274,
      "Ð½Ð°Ñĩ": 2275,
      "ÐµÐ³Ð°Ð·": 2276,
      "ĠÐ±Ð°ÑĢÑĢÐµÐ»ÑĮ": 2277,
      "ĠÑĥÑģÐº": 2278,
      "ĠÐ²ÑĤÐ¾ÑĢÐ½Ð¸Ðº": 2279,
      "Ð»Ð½": 2280,
      "ĠÑĥÐº": 2281,
      "ĠÐ¾Ð±Ð¾ÑĢÐ¾ÑĤ": 2282,
      "Ð½Ð¸ÑĤÐµÐ»ÑĮ": 2283,
      "ĠÐļÐ¸ÑĤ": 2284,
      "ĠÑĤÐµ": 2285,
      "ĠÑĤÐµÐ½Ð´": 2286,
      "ÑĢÐ°ÑīÐµÐ½Ð¸Ðµ": 2287,
      "ĠÐ¡Ð¾Ð²": 2288,
      "ĠIPO": 2289,
      "ĠÐ¿Ð¾ÑĢÑĤÑĦ": 2290,
      "ĠÑĤÑĢÐ»Ð½": 2291,
      "ÑĤÐ¾Ð¼": 2292,
      "ĠÐ¿Ð»Ð°Ð½Ð¸ÑĢÑĥÐµÑĤ": 2293,
      "ÑĢÑıÐ´": 2294,
      "ĠÐ½Ð¾Ð²Ð¾ÑģÑĤ": 2295,
      "ĠÑģÑĤÐ°ÑĤÑĮ": 2296,
      "ĠÐ±Ð»Ð°": 2297,
      "ÑĢÐ°Ð¶": 2298,
      "Ð½ÑıÑı": 2299,
      "ÑĪÐ°Ñı": 2300,
      "Ð»Ð°Ð´ÑĭÐ²Ð°ÐµÑĤÑģÑı": 2301,
      "ĠÐ¿ÑĢÐµÐ¾Ð´": 2302,
      "ĠÐłÐ¾ÑģÐ½ÐµÑĦÑĤÑĮ": 2303,
      "ĠÐĺÐ½Ð´Ð¸": 2304,
      "85": 2305,
      "ĠÐ¡ÑĤ": 2306,
      "ĠÐ¿ÑĢÐ¾Ð±Ð¸ÑĤ": 2307,
      "ĠÐ³Ð´Ðµ": 2308,
      "ĠÑĤÐµÐ½Ð´ÐµÐ½": 2309,
      "ÑĥÐ»Ñı": 2310,
      "ĠÐ¡Ð±ÐµÑĢÐ±Ð°Ð½ÐºÐ°": 2311,
      "ĠÐŀÑģ": 2312,
      "ĠÑģÑĤÐ¾Ð¸ÑĤ": 2313,
      "ĠÐ¼ÐµÑĤÐ°Ð»Ð»": 2314,
      "ĠÐ¾Ð¶Ð¸Ð´Ð°Ð½Ð¸Ñı": 2315,
      "ĠÐ´ÐµÐ»": 2316,
      "ĠÐ³Ð¾Ñģ": 2317,
      "ĠÑĢÐ¸ÑģÐºÐ¾Ð²": 2318,
      "ĠÐ¾Ð¿ÑĥÐ±Ð»Ð¸ÐºÐ¾Ð²": 2319,
      "ĠÑģÐ»Ð¾Ð¼Ð°": 2320,
      "ĠO": 2321,
      "Ð¾ÑĢÐ°Ñı": 2322,
      "ĠÐ°Ð½Ð°Ð»Ð¸ÑĤÐ¸ÐºÐ¾Ð²": 2323,
      "ĠÐ¼Ð¾Ð¼ÐµÐ½ÑĤÐµ": 2324,
      "ĠÐľÐ¾ÑģÐ±Ð¸ÑĢÐ¶Ð¸": 2325,
      "ĠÐ½Ð¾Ð²ÑĭÑħ": 2326,
      "ĠÑĢÐ°Ð·Ð¼": 2327,
      "ĠÐ±ÑĭÐ»Ð¸": 2328,
      "ĠÐ½Ð°ÑħÐ¾Ð´ÑıÑĤÑģÑı": 2329,
      "Ð¾Ð²Ð°": 2330,
      "Ð¾Ð²Ð¾Ð³Ð¾": 2331,
      "ĠÐ¾ÑĤÑģÐºÐ¾ÐºÐ°": 2332,
      "ĠÑĤÐ°Ð¹Ð¼": 2333,
      "ĠÐ²Ð»Ð¸Ñı": 2334,
      "Ġ31": 2335,
      "ĠÐºÐ¾ÑĤÐ¾ÑĢÐ°Ñı": 2336,
      "ĠÐºÐ²Ð°ÑĢÑĤÐ°Ð»Ðµ": 2337,
      "ÐµÑĤÐ¸": 2338,
      "ĠÐ¡ÐµÐ³Ð¾Ð´Ð½Ñı": 2339,
      "ĠÐłÑĥÑģ": 2340,
      "Ġ55": 2341,
      "ĠÑĢÐ°Ð·Ð²Ð¸ÑĤÐ¸": 2342,
      "ÑĩÐ¸ÑĤÑĭÐ²Ð°": 2343,
      "ĠÐ´Ð¾Ð»Ð¶": 2344,
      "ĠÐ¿ÑĢÐ¸Ð²Ð»": 2345,
      "ĠÐľÐ°Ð³": 2346,
      "ĠâĢĵ": 2347,
      "ĠÐ¡Ð¸": 2348,
      "ĠÑĤÐ°Ð¹Ð¼ÑĦ": 2349,
      "âĢĭâĢĭ": 2350,
      "ÐŀÐ¡ÐĲ": 2351,
      "ĠÐĽÐ£ÐļÐŀÐĻÐĽ": 2352,
      "ĠÑģÐ¿ÑĢÐ¾Ñģ": 2353,
      "ÑıÑħ": 2354,
      "ĠÑģÐ»ÐµÐ´Ð¸Ð¼": 2355,
      "ĠÐ½Ð°Ð´": 2356,
      "Ð²Ñĥ": 2357,
      "45": 2358,
      "ĠÐĶÐ¾": 2359,
      "ĠÐ¸Ð½ÑĤÐµÑĢÐµÑģ": 2360,
      "Ð»ÑĥÑĩ": 2361,
      "ÑĥÑģÐºÐ°": 2362,
      "ĠÐ²ÑĭÑģÑĤÑĥÐ¿Ð°ÐµÑĤ": 2363,
      "ĠÑĤÐ°Ð¹Ð¼ÑĦÑĢÐµÐ¹": 2364,
      "ĠÐ·Ð¾Ð»Ð¾ÑĤ": 2365,
      "ĠÑģÑĤÐ¾ÑĢÐ¾Ð½Ðµ": 2366,
      "ÑĩÐµÑģÐºÐ¸Ð¹": 2367,
      "ĠÑĨÐµÐ½Ðµ": 2368,
      "ĠÐ¿ÑĥÐ±Ð»Ð¸": 2369,
      "ĠÐ²ÑĭÑĢÐ¾ÑģÐ»Ð°": 2370,
      "ĠÐ°ÐºÑĨÐ¸ÑıÐ¼": 2371,
      "ÐµÐ¿ÐµÑĢÑĮ": 2372,
      "ÑĢÑĥÐ·": 2373,
      "ĠÐºÑĢÐ°ÑĤÐºÐ¾ÑģÑĢÐ¾Ñĩ": 2374,
      "ĠÐ²Ð¾ÑģÑģÑĤÐ°Ð½Ð¾Ð²Ð»ÐµÐ½Ð¸Ñı": 2375,
      "ĠÐ¾Ð±ÑĬÑı": 2376,
      "Ġ300": 2377,
      "ti": 2378,
      "ĠÐ½ÐµÐ´ÐµÐ»Ñİ": 2379,
      "ÑİÐ´": 2380,
      "ÑģÑıÑĩ": 2381,
      "ĠÐºÐ¾Ð½ÑģÐ¾Ð»Ð¸Ð´Ð°ÑĨÐ¸Ð¸": 2382,
      "ĠÑģÐ¿Ð¾ÑģÐ¾Ð±": 2383,
      "ĠÑģÐ»ÐµÐ´ÑĥÑİÑī": 2384,
      "ĠÐºÑĢÑĥÐ¿Ð½ÐµÐ¹": 2385,
      "Ð°Ð½Ð½ÑĭÐ¹": 2386,
      "om": 2387,
      "ĠÐļÐ¾ÑĤÐ¸ÑĢÐ¾Ð²": 2388,
      "ĠÐ´Ð¸Ð²Ð¸Ð´ÐµÐ½Ð´Ð½Ð¾Ð¹": 2389,
      "ÑħÑĥÐ´": 2390,
      "ÐºÐ°Ð¼": 2391,
      "ĠÐ¾ÑģÐ»Ð°Ð±": 2392,
      "ÑıÐ¼Ð¸": 2393,
      "ĠÐłÐ¾ÑģÐ½ÐµÑĦÑĤÐ¸": 2394,
      "ĠÐ¾ÑģÑĤ": 2395,
      "DA": 2396,
      "ĠÐ¡ÐµÐ²ÐµÑĢÑģÑĤÐ°Ð»Ð¸": 2397,
      "Ġ40": 2398,
      "ĠÐ´ÐµÐ½": 2399,
      "ĠÐ±Ð¾Ð»ÑĮÑĪ": 2400,
      "95": 2401,
      "ĠÐ²Ð¸Ð´": 2402,
      "ĠÑĢÐ°Ð·Ð°": 2403,
      "ĠÐļÐ¾ÑĤÐ¸ÑĢÐ¾Ð²ÐºÐ¸": 2404,
      "ĠÐºÑĢÐ¸Ð²Ð°Ñı": 2405,
      "ĠÐłÐ¾ÑģÑģÐ¸Ñı": 2406,
      "ĠÐ±Ð¸Ð·Ð½ÐµÑģÐ°": 2407,
      "Ð¸ÑĢÐ¶Ðµ": 2408,
      "ĠÐ±ÑĭÐ»Ð¾": 2409,
      "ĠÑģÐ¸Ð³Ð½Ð°Ð»Ð¾Ð¼": 2410,
      "ĠÐ´Ð»Ð¸": 2411,
      "roup": 2412,
      "ĠÐ½Ð°Ð»Ð¾Ð³": 2413,
      "ÐµÐ½Ð½ÑĭÑħ": 2414,
      "ÑĤÐµÑĢ": 2415,
      "Ġ21": 2416,
      "ĠÐ²ÑģÐµÐ³Ð¾": 2417,
      "ÑģÑĤÑĢÐ°": 2418,
      "ĠÐºÐ°ÑĢÑĤÐ¸Ð½Ðµ": 2419,
      "ĠÐ¿ÑĢÐ¾Ð´Ð°Ð¶": 2420,
      "ĠÐ²Ð¾Ð·Ð¼Ð¾Ð¶Ð½Ð¾ÑģÑĤÑĮ": 2421,
      "ĠÐ¼Ð°ÐºÑģÐ¸Ð¼ÑĥÐ¼Ð¾Ð²": 2422,
      "ĠÑĥÑĢÐ¾Ð²Ð½ÑıÐ¼Ð¸": 2423,
      "Ð¡Ðĳ": 2424,
      "ĠÑģÐ¾Ð¿ÑĢÐ¾ÑĤÐ¸": 2425,
      "Ð¿Ñĭ": 2426,
      "ĠÐ²Ð½ÑĥÑĤ": 2427,
      "Ð±Ð°Ð½Ðº": 2428,
      "ĠÑĦÐ¾ÑĢÐ¼Ð¸": 2429,
      "ÑĭÐ½": 2430,
      "Ð¾Ð¿Ð¾Ð»Ð½Ð¸ÑĤÐµÐ»ÑĮ": 2431,
      "ĠÐ´Ð¾Ð±Ñĭ": 2432,
      "ĠÐ¾ÑĤÐºÐ°ÑĤ": 2433,
      "ÐºÐ¸Ñħ": 2434,
      "Ġ\"âĢĭâĢĭ": 2435,
      "Ð°ÑĤÐµÐ¼": 2436,
      "ÑĢÐ¸ÑĨ": 2437,
      "ĠÑĢÐ°Ð·Ð²Ð¾ÑĢÐ¾ÑĤ": 2438,
      "Ð»Ð¾ÑģÑĮ": 2439,
      "Ġâ": 2440,
      "ĠÑĢÐ¾ÑģÑģÐ¸Ð¹ÑģÐºÐ¾Ð³Ð¾": 2441,
      "ĠÐºÐ¾Ð½ÑĨÐ°": 2442,
      "ÑĢÐ¾Ð¹": 2443,
      "ĠÐ¾ÑĤÑĢÐ¸ÑĨ": 2444,
      "ÑģÑģ": 2445,
      "ĠÑĥÐ»ÑĥÑĩ": 2446,
      "Ð¹Ð´": 2447,
      "ĠÑģÑĤÐ¾ÑĢÐ¾Ð½Ñĭ": 2448,
      "ĠGroup": 2449,
      "ĠÑįÐ»ÐµÐºÑĤ": 2450,
      "ĠÐĳÐ»Ð¸Ð¶Ð°Ð¹ÑĪÐ¸Ðµ": 2451,
      "ÑĨÐµÐ½ÑĤ": 2452,
      "ÑİÑīÐ¸Ñħ": 2453,
      "Ð¸Ð»Ð¸ÑģÑĮ": 2454,
      "ĠÑĥÑħÑĥÐ´": 2455,
      "ĠÐºÐ¾ÑĤÐ¸ÑĢÐ¾Ð²Ð¾Ðº": 2456,
      "ĠÐ¾Ð±Ñī": 2457,
      "ĠÑģÐºÐ»Ð°Ð´ÑĭÐ²Ð°ÐµÑĤÑģÑı": 2458,
      "ĠÐ¼Ð°Ñı": 2459,
      "ĠÐ¾ÑĤÑĢÐ¸ÑĨÐ°ÑĤÐµÐ»ÑĮ": 2460,
      "ĠÐ¾Ð½Ð¸": 2461,
      "ĠÐ¾Ð½Ð»Ð°Ð¹Ð½": 2462,
      "ĠÐ¾Ð±Ñģ": 2463,
      "Ð´ÐµÑĢÐ¶Ð¸": 2464,
      "Ð»ÐµÐ½Ð¸Ðµ": 2465,
      "ĠÐłÐ¾ÑģÑģÐ¸Ð¹ÑģÐºÐ¸Ð¹": 2466,
      "ÑħÐ¾Ð´ÑıÑīÐ¸Ð¹": 2467,
      "ĠÑģÐ»Ð°": 2468,
      "Ð²Ð°ÐµÑĤÑģÑı": 2469,
      "Ð´Ð°ÐµÑĤÑģÑı": 2470,
      "ĠÐ´ÑĢÑĥÐ³Ð¸": 2471,
      "ĠÐ°ÐºÑĤÐ¸Ð²Ð¾Ð²": 2472,
      "Ð»ÐµÐ½Ð¸Ñı": 2473,
      "ĠÐ¸Ð½Ð¾": 2474,
      "ĠÐ¾ÑĤÐºÑĢÐ¾": 2475,
      "ĠÐ´ÐµÐ¼Ð¾Ð½ÑģÑĤÑĢÐ¸ÑĢÑĥÑİÑĤ": 2476,
      "ÑģÑĤÐ°Ð½": 2477,
      "ÑĩÐ¸Ð²": 2478,
      "ĠÐ¸Ð½Ð¾ÑģÑĤÑĢÐ°Ð½": 2479,
      "Ġ22": 2480,
      "ĠÐºÐ¾ÑĢÑĢÐµÐºÑĨÐ¸Ñı": 2481,
      "ĠÑĢÐµÐ³Ñĥ": 2482,
      "ter": 2483,
      "ÑģÑĤÐ¾Ñı": 2484,
      "Ð¿Ð¾ÑĤ": 2485,
      "ĠÑĢÐµÐ°Ðº": 2486,
      "BI": 2487,
      "ĠÐ¸ÑİÐ»Ñı": 2488,
      "ĠÐ²ÑĭÐ³Ð»ÑıÐ´ÐµÐ»Ð¸": 2489,
      "Ð¾Ð²Ð¾Ð¼": 2490,
      "Ð¾Ð±Ð¸": 2491,
      "ÑĤÐ¾Ð¼Ñĥ": 2492,
      "Ð¾Ð±ÑĢÐµ": 2493,
      "ber": 2494,
      "ĠÑĦÑĮÑİÑĩÐµÑĢ": 2495,
      "ÑĭÐ²Ð°ÑĤÑĮ": 2496,
      "ĠÐ·Ð¾Ð½Ñĥ": 2497,
      "ĠÑģÐ½Ð¸Ð·": 2498,
      "ĠÐ°ÐºÑĤÑĥÐ°Ð»ÑĮ": 2499,
      "ĠÐ¿Ð»Ð°ÑĤ": 2500,
      "ÐŀÐĴ": 2501,
      "ĠÐ¿Ð°Ð´Ð°": 2502,
      "ĠÑĨÐµÐ»ÑĮÑİ": 2503,
      "ĠU": 2504,
      "ĠÐĸ": 2505,
      "ĠÐ½Ð¾Ð²ÑĭÐµ": 2506,
      "Ð±Ð¸Ð»ÑĮ": 2507,
      "Ð´ÐµÐ¼": 2508,
      "ĠÑģÑĤÐ¾Ð¸Ð¼Ð¾ÑģÑĤÐ¸": 2509,
      "ĠÐ²Ð½ÐµÑĪ": 2510,
      "ĠÐºÑĥÐ¿": 2511,
      "Ð»Ð¾Ðº": 2512,
      "ĠÑĦÐµÐ²ÑĢÐ°Ð»Ñı": 2513,
      "ĠÐ¿Ð¾Ð·Ð¸ÑĨÐ¸Ð¹": 2514,
      "ĠÐ¿ÐµÑĢÐµÐ¿ÑĢÐ¾Ð´Ð°Ð½Ð½Ð¾ÑģÑĤÐ¸": 2515,
      "ÑĢÐ¾Ð³Ð½Ð¾Ð·": 2516,
      "ÑĥÐ½Ð´Ð°": 2517,
      "ÑİÐ´Ð¶": 2518,
      "ÐµÐ½Ð½Ð¾ÑģÑĤÑĮ": 2519,
      "ĠÑģÐ¸ÑĤÑĥÐ°ÑĨÐ¸Ð¸": 2520,
      "ĠÐ¾Ð´Ð½Ð°ÐºÐ¾": 2521,
      "Ð¸Ð»Ð°": 2522,
      "ĠÐ¡Ð°Ð¼": 2523,
      "ĠÑĢÐ°Ð·Ð¼ÐµÑĢÐµ": 2524,
      "ĠÐ´Ð¸Ð½Ð°Ð¼Ð¸ÐºÑĥ": 2525,
      "ÐµÐ»Ðµ": 2526,
      "ĠÐľÐ¸Ð½ÑĦÐ¸": 2527,
      "ĠÐ¼Ð½Ð¾Ð³": 2528,
      "Ð½Ð¸ÐºÐ¾Ð²": 2529,
      "ĠÐ»Ð¸Ð´": 2530,
      "Ġ2025": 2531,
      "ÑĥÐ½Ð´Ð°Ð¼ÐµÐ½ÑĤ": 2532,
      "ĠÐłÐ¾ÑģÑĤ": 2533,
      "ÑĢÐ°Ñģ": 2534,
      "Ġ2019": 2535,
      "ĠÑģÐ½Ð¸Ð¶Ð°ÐµÑĤÑģÑı": 2536,
      "ĠÑĤÑĭÑģ": 2537,
      "ĠÐ½Ð¾ÑıÐ±ÑĢÑı": 2538,
      "Ð¡ÐĳÐ£": 2539,
      "ĠÑĦÐµÐ²ÑĢÐ°Ð»Ðµ": 2540,
      "ĠÐ¿ÐµÑĢÐµÐ´": 2541,
      "ĠÐ·Ð°ÑģÐµÐ´": 2542,
      "ĠÑĨÐ¸": 2543,
      "Ð»Ð¸Ð·": 2544,
      "ĠÐłÐ¡ÐĳÐ£": 2545,
      "ĠÐ´Ð»Ð¸Ð½": 2546,
      "Ð´Ð¾": 2547,
      "Ġ35": 2548,
      "ĠÑģÐ²Ñı": 2549,
      "ĠÐ³Ð¾ÑĤ": 2550,
      "ĠÐ¼ÐµÑģÑıÑĩ": 2551,
      "Ð½Ð¾Ð²Ð¾ÑģÑĤÐ¸": 2552,
      "ÑĥÑĢÐ³": 2553,
      "Ð¾ÑĢÐ¾": 2554,
      "ĠÐ¿ÑĢÐµÐ´Ð¿Ð¾Ð»": 2555,
      "ĠÐ¾ÑģÐ½Ð¾Ð²Ð½Ð¾Ð¼": 2556,
      "Ð¾Ð³ÑĢÐ°Ð¼": 2557,
      "ĠÐ´Ð²Ñĥ": 2558,
      "ĠÐ²ÑĭÐºÑĥÐ¿": 2559,
      "ĠÑģÑĢÐµÐ´Ð½ÐµÐ¼": 2560,
      "ĠÐ¿ÐµÑĢÑģÐ¿ÐµÐºÑĤÐ¸Ð²Ðµ": 2561,
      "ĠÐ¿ÑĢÐ¾Ð´Ð°Ð¶Ð¸": 2562,
      "ĠÑĥÑģÑĤÐ°Ð½Ð¾Ð²Ð»": 2563,
      "ĠÐ¸ÑİÐ½Ñı": 2564,
      "Ð¾Ð¿Ð°Ñģ": 2565,
      "ÑįÑĢÐ¾": 2566,
      "ĠÑĤÐ¾Ð½": 2567,
      "ĠÑģÐ¾Ð¾Ð±Ñī": 2568,
      "ĠÐŁÑĥÑĤÐ¸": 2569,
      "ÑģÑĤÐµÐ¼": 2570,
      "ĠÑģÑĥÐ¼": 2571,
      "ĠÐ´ÐµÐ¿": 2572,
      "ĠÐ¾ÐºÑĤÑıÐ±ÑĢÑı": 2573,
      "ÑįÑĢÐ¾ÑĦÐ»Ð¾ÑĤ": 2574,
      "ÑĥÐ½Ð´Ð°Ð¼ÐµÐ½ÑĤÐ°Ð»ÑĮ": 2575,
      "ÑģÑĥÑĤ": 2576,
      "ĠÐ½ÐµÑģÐº": 2577,
      "ĠÐ¡ÑĢÐµÐ´Ð½ÐµÑģÑĢÐ¾Ñĩ": 2578,
      "%)": 2579,
      "ĠÐ¿Ð¾Ð·Ð²Ð¾Ð»Ñı": 2580,
      "ĠÑĢÐ°Ð¹Ð¾Ð½": 2581,
      "ĠÑĥÐºÑĢÐµ": 2582,
      "Ð»ÑıÑĤÐ¾ÑĢ": 2583,
      "ĠÐłÑĭÐ½": 2584,
      "Ð¾Ð¶Ð´": 2585,
      "ÑĨÐµÐ½Ð¸": 2586,
      "ÑĢÐ°Ð²Ð¸ÑĤÐµÐ»ÑĮ": 2587,
      "ĠÑģÐ»Ð¾Ð¶": 2588,
      "ĠÐ¼ÐµÐ½ÐµÐµ": 2589,
      "ÐµÑģÐ¿": 2590,
      "Ġ38": 2591,
      "ĠÐĲÐº": 2592,
      "ĠÐłÐ°Ð½": 2593,
      "ĠÑĢÑĥÐ±Ð»ÑĮ": 2594,
      "ÑĪÐµÐµ": 2595,
      "ĠÐĶÐ¾Ð»Ð³Ð¾ÑģÑĢÐ¾Ñĩ": 2596,
      "ÑģÑĤÐ°ÑĤ": 2597,
      "ĠÐ¿Ð¾ÐºÐ°Ð·Ð°ÑĤÐµÐ»": 2598,
      "ĠÑĥÑĩÐµÑĤ": 2599,
      "ĠÐ¡Ð¾Ð¿ÑĢÐ¾ÑĤÐ¸Ð²Ð»ÐµÐ½Ð¸Ñı": 2600,
      "ÑĩÐ¸Ð»Ð¸": 2601,
      "ĠÐ¿Ð¾Ð»ÑĥÐ³Ð¾Ð´Ð¸Ðµ": 2602,
      "ĠÐ¸Ð½ÑĦÐ»ÑıÑĨÐ¸Ð¸": 2603,
      "ÑĥÐµÑĤÑģÑı": 2604,
      "Ð¾Ð·Ð¸ÑĤ": 2605,
      "ĠÑģÑĤÐ¾ÑĢÐ¾Ð½Ñĥ": 2606,
      "ĠÐŁÐ¾Ð´Ð´ÐµÑĢÐ¶ÐºÐ¸": 2607,
      "ÑģÐ¼Ð¾ÑĤÑĢÑı": 2608,
      "ĠÐ¸Ð½Ð²ÐµÑģÑĤÐ¾ÑĢÑĭ": 2609,
      "ĠÑįÐ½ÐµÑĢ": 2610,
      "Ð½ÑİÑİ": 2611,
      "BIT": 2612,
      "ĠâĤ": 2613,
      "ĠÐ½Ð¾Ð²ÑĭÐ¹": 2614,
      "ĠÐ´Ð°Ð»ÑĮÐ½ÐµÐ¹ÑĪÐµÐ³Ð¾": 2615,
      "ĠÐļÐ¸ÑĤÐ°Ð¹": 2616,
      "BITDA": 2617,
      "ĠÐ´Ð½ÐµÐ¹": 2618,
      "ĠÐ²ÐµÑĢÐ½Ñĥ": 2619,
      "ÐłÐ¾Ñģ": 2620,
      "ĠÐ²Ð¾Ð¿ÑĢÐ¾Ñģ": 2621,
      "ĠÑĦÐ¾Ð½Ð°": 2622,
      "ĠÐºÐ¾Ð½ÑĨÐµ": 2623,
      "ĠÑģÑĤÑĢÑĥÐºÑĤÑĥÑĢÐ°": 2624,
      "ĠÐłÐ°Ð½ÐµÐµ": 2625,
      "ĠÐ²Ð¿": 2626,
      "ÐµÐ½Ð¾": 2627,
      "ĠÐ´Ð½Ð¸": 2628,
      "ÑģÑĤÐ°Ð½Ð¾Ð²": 2629,
      "ÑĤÐ¾Ð²": 2630,
      "ĠÐ¿ÑĢÐ¾ÑĨÐµÐ½ÑĤ": 2631,
      "ÑĭÐ³": 2632,
      "ĠÑĢÐµÐºÐ¾Ð¼ÐµÐ½Ð´": 2633,
      "Ð¼Ñĭ": 2634,
      "ĠÐ¸ÑģÑĤÐ¾ÑĩÐ½Ð¸Ðº": 2635,
      "Ð½Ð¾Ð²ÑĮ": 2636,
      "ĠÐ¿Ð¾ÑģÐ»ÐµÐ´Ð½Ð¸Ðµ": 2637,
      "ĠÐºÐ°Ð½Ð°Ð»Ð°": 2638,
      "Ð»Ð°Ð²Ð°": 2639,
      "ĠÐ´Ð¸Ð½Ð°Ð¼Ð¸ÐºÐ¸": 2640,
      "ĠÐ½ÐµÐ³Ð°ÑĤÐ¸Ð²Ð½ÑĭÐ¹": 2641,
      "Ð²Ð°Ð»": 2642,
      "ÑģÐºÑĥÑİ": 2643,
      "ĠÐ´Ð¾Ð¿Ð¾Ð»Ð½Ð¸ÑĤÐµÐ»ÑĮ": 2644,
      "Ġ34": 2645,
      "ĠÑģÐ¸Ð»": 2646,
      "ÐłÐ¡": 2647,
      "ĠÐ´Ð¾ÑĢÐ¾Ð¶": 2648,
      "Ġ57": 2649,
      "ĠÐ½Ð°ÑĢÐ°": 2650,
      "ĠÐ½Ð°ÑĪ": 2651,
      "Ð²ÐµÑĢÐ¶": 2652,
      "ĠÐ¿ÑĢÐ¸Ð²Ð»ÐµÐº": 2653,
      "ĠÐľÐ¸Ð½ÑĦÐ¸Ð½": 2654,
      "Ð¸Ðº": 2655,
      "ĠÐĺÐ·": 2656,
      "ĠÐ±Ð°Ð½ÐºÐ°": 2657,
      "ÑįÑĤÐ¾Ð¼Ñĥ": 2658,
      "ĠÐ±Ð¸ÑĢÐ¶Ð¸": 2659,
      "38": 2660,
      "ĠÐ³Ð¾Ð²Ð¾ÑĢ": 2661,
      "ÑĥÑģÑĤ": 2662,
      "ÑİÑīÐ¸Ð¹": 2663,
      "ĠÐ´ÐµÐ½ÐµÐ¶": 2664,
      "ĠÑģÑĢÐµÐ´Ñĥ": 2665,
      "ĠÑĤÐ¾ÑĢÐ³Ð¾Ð²ÑĭÐ¹": 2666,
      "ĠÐ¿Ð¾Ð·Ð¸ÑĨÐ¸Ð¸": 2667,
      "ĠÐ¸Ð·Ð¼ÐµÐ½": 2668,
      "ĠÐ°ÐºÑĤÐ¸": 2669,
      "ĠÐ²ÑĭÐ³Ð»ÑıÐ´Ð¸ÑĤ": 2670,
      "Ð²ÐµÐ»": 2671,
      "Ð¾Ð²Ð°Ð»": 2672,
      "ĠÐ²Ð±": 2673,
      "ĠÐ³Ð»": 2674,
      "Ð¼ÐµÐ½ÑĤÐ°ÑĢÐ¸": 2675,
      "ÐĽÐľÐļ": 2676,
      "Ð½Ð¾ÑģÑĤÑĮÑİ": 2677,
      "ĠÐľÐ¾ÑģÐºÐ¾Ð²ÑģÐºÐ¾Ð¹": 2678,
      "ĠÐĿÐĽÐľÐļ": 2679,
      "ĠÐ°ÐºÑĨÐ¸Ð¾Ð½ÐµÑĢÐ¾Ð²": 2680,
      "Ð¸Ð²": 2681,
      "ĠÐľÐ¢Ð¡": 2682,
      "ĠÐĲÐ»": 2683,
      "ĠÐ¿ÑĢÐ¾Ð´Ð¾Ð»Ð¶Ð°ÐµÑĤ": 2684,
      "ĠÐ²Ð½Ð¾Ð²ÑĮ": 2685,
      "ĠÑģÐ¼Ðµ": 2686,
      "ĠÑĢÐµÐ³Ð¸": 2687,
      "ÑģÑĤÐ²Ð¸Ðµ": 2688,
      "ÑĢÐ³": 2689,
      "ĠÐºÐ»Ð¸": 2690,
      "ĠÐ¸Ð½Ð´ÐµÐºÑģÐ°": 2691,
      "ÑĢÐ°ÑĤÑĮ": 2692,
      "ĠÐ±ÑİÐ´Ð¶": 2693,
      "ĠÐ´Ð¸Ð²Ð¸Ð´ÐµÐ½Ð´Ð°Ð¼": 2694,
      "ĠÐ¼ÐµÐ´": 2695,
      "ĠÐ¿ÑĢÐ¾Ð´Ð¾Ð»Ð¶ÐµÐ½Ð¸Ñı": 2696,
      "ĠÐ´Ð¸Ð°Ð¿Ð°Ð·Ð¾Ð½": 2697,
      "zon": 2698,
      "ĠÑĤÑĢÐµÐ½Ð´Ðµ": 2699,
      "ĠÐ°Ð½Ð°Ð»Ð¸ÑĤÐ¸ÐºÐ¸": 2700,
      "ĠÑģÐ¼Ð¾Ð³": 2701,
      "ĠÐ¶Ð´Ð°ÑĤÑĮ": 2702,
      "Ð½ÑĥÑĤÑĮÑģÑı": 2703,
      "ĠÑģÐ¾ÐºÑĢÐ°Ñī": 2704,
      "ĠÐ¸Ð´Ðµ": 2705,
      "ĠÐºÐ¾Ð¿": 2706,
      "ÑĳÑĤ": 2707,
      "os": 2708,
      "Ð¸Ð´Ðµ": 2709,
      "Ð¸Ð»Ð°ÑģÑĮ": 2710,
      "ĠÐ´ÐµÑĪÐµ": 2711,
      "Ð²Ð¸Ð»Ð°": 2712,
      "Ð½Ð¾Ñĩ": 2713,
      "ĠÑĢÐµÑĪÐµÐ½Ð¸Ðµ": 2714,
      "ĠÐ·Ð°ÐºÐ¾Ð½": 2715,
      "ĠÑĤÐµÐºÑĥÑīÐµÐ³Ð¾": 2716,
      "ĠÑģÐ½Ð¸Ð¶Ð°ÑİÑĤÑģÑı": 2717,
      "ĠÑĩÐµÑĤÐ²ÐµÑĢÐ³": 2718,
      "Ð¼Ð°ÑĤ": 2719,
      "ÑĢÑĥÑĩÐºÐ°": 2720,
      "ĠÐ´Ð²ÑĥÑħ": 2721,
      "ĠÐ¿Ð¾Ð´ÑĬÐµÐ¼Ð°": 2722,
      "Ð°Ð¹Ð´": 2723,
      "ĠÐ±ÐµÐ·Ð¾Ð¿Ð°Ñģ": 2724,
      "ĠÐĿÐ¾": 2725,
      "ĠÐ²ÑĭÐ¿Ð»Ð°ÑĤÑĭ": 2726,
      "ĠÐ½Ð¸Ð·": 2727,
      "Ð¸Ñı": 2728,
      "ĠÑĤÐ¾Ð¿": 2729,
      "ÐºÐ¾Ð½": 2730,
      "ÑĢÑĥÐµÑĤÑģÑı": 2731,
      "ĠÑģÐ°Ð½ÐºÑĨÐ¸Ð¸": 2732,
      "ĠÐ¨": 2733,
      "ĠÐ½Ð°Ð¿": 2734,
      "ĠÐ´Ð²Ð°": 2735,
      "ÑĢÐ¾Ð²Ð°ÑĤÑĮÑģÑı": 2736,
      "ĠÑģÑĤÐ°Ð±Ð¸Ð»ÑĮ": 2737,
      "ĠÐ²ÑĭÑģÐ¾ÐºÐ¾Ð¹": 2738,
      "ĠÐ¿Ð¾Ð»Ð¾Ð²": 2739,
      "ÐļÑĢÐ°ÑĤÐºÐ¾ÑģÑĢÐ¾ÑĩÐ½Ð°Ñı": 2740,
      "en": 2741,
      "ĠV": 2742,
      "Ġ2014": 2743,
      "ÐµÐ½Ð½ÑĭÐµ": 2744,
      "ĠÐĴÑĭÑĢÑĥÑĩÐºÐ°": 2745,
      "Ð³Ð¾ÑĤ": 2746,
      "ĠÐ²Ð±Ð»Ð¸Ð·Ð¸": 2747,
      "ÐµÐ½ÑĤÐ¾Ð²": 2748,
      "ĠÑĢÐ¾ÑģÑĤÑĥ": 2749,
      "ÑĢÐ°ÑĤÐ¸": 2750,
      "ĠÑģÑĤÐ°Ð»Ð¸": 2751,
      "ĠÐ¿ÑĢÐµÐ²ÑĭÑģÐ¸Ð»": 2752,
      "ĠW": 2753,
      "ÐºÑĤÐ¾Ð²": 2754,
      "ĠÐŁÐ¾Ð»": 2755,
      "Ġ36": 2756,
      "ĠÐ½ÐµÐ¼": 2757,
      "ĠÐ¾Ð¿ÑĤÐ¸": 2758,
      "ĠÑĤÑĢÐ¸": 2759,
      "ĠÐ¸Ð¿Ð¾ÑĤ": 2760,
      "ĠÑĤÐµÐºÑĥÑīÐ¸Ñħ": 2761,
      "Ð¸ÑģÐº": 2762,
      "Ð½Ð¾Ð»": 2763,
      "ÐµÐ´Ð¶": 2764,
      "ÑıÐ½": 2765,
      "ĠÐ¿ÑĢÐ¸Ð¼ÐµÑĢ": 2766,
      "et": 2767,
      "ĠÑģÐ½Ð¸Ð·Ð¸Ð»ÑģÑı": 2768,
      "ĠÑĢÐ°ÑģÐ¿ÑĢÐ¾Ð´": 2769,
      "ÐĽÐł": 2770,
      "74": 2771,
      "ĠÑĥÑĩÐ°ÑģÑĤ": 2772,
      "ÑĢÑĭÑĤÐ¸Ðµ": 2773,
      "ĠÑĢÐ°ÑģÐ¿Ð¾Ð»": 2774,
      "ĠÑĩÐ°ÑģÑĤÑĮ": 2775,
      "ÑģÑĤÐ²Ðµ": 2776,
      "ĠÐłÐ¢Ð¡": 2777,
      "ÑĤÐ¾ÑĢÐ³": 2778,
      "Ġ45": 2779,
      "ĠÐºÐ¾Ð½ÑĤÑĢ": 2780,
      "Ð´ÐµÑģÑĮ": 2781,
      "ĠÑģÑĢÐ°Ð²": 2782,
      "ÑİÐ½": 2783,
      "ĠÐ¾Ð±ÑĢÐ°ÑĤ": 2784,
      "ĠÑģÐ¾ÑģÑĤÐ°Ð²Ð»ÑıÐµÑĤ": 2785,
      "ĠÐ´Ð¾ÑģÑĤÐ¸Ð¶": 2786,
      "ĠÑĥÑģÐ¿": 2787,
      "ĠÑĢÐ¾ÑģÑģÐ¸Ð¹ÑģÐºÐ¾Ð¼": 2788,
      "Ð²ÑĭÐµ": 2789,
      "Ð½Ð¸Ð¼Ð°": 2790,
      "ĠÐĽÑĥÐºÐ¾Ð¹Ð»Ð°": 2791,
      "ĠÐ½Ð¸ÑģÑħÐ¾Ð´ÑıÑīÐµÐ³Ð¾": 2792,
      "ĠÐ¡ÐŁÐĵ": 2793,
      "Ð¿Ð¾ÑĢÐ°": 2794,
      "ĠÐ°Ð¿ÑĢÐµÐ»Ñı": 2795,
      "ĠÐ°Ð¼ÐµÑĢÐ¸ÐºÐ°Ð½": 2796,
      "ÐµÑĤÑĮ": 2797,
      ".âĢ¢": 2798,
      "ĠÐ¿ÑĢÐ¸Ð±Ð°Ð²Ð¸": 2799,
      "ĠÐ¿ÑĢÐ¾Ð´Ð¾Ð»Ð¶Ð¸": 2800,
      "ĠÐ´ÐµÐ¿Ð¾Ð·Ð¸ÑĤ": 2801,
      "ÐĽÐłÐŀÐ¡ÐĲ": 2802,
      "ĠÑĢÐ°Ð·Ð¼ÐµÑī": 2803,
      "37": 2804,
      "ĠÑĩÐ°ÑģÐ¾Ð²Ð¾Ð¼": 2805,
      "ĠÑĪÐ°Ð½": 2806,
      "ÐµÑĪ": 2807,
      "Ð°Ð»ÑĮÐ½Ð¾": 2808,
      "ÐĺÐ½": 2809,
      "ÑĢÐ°ÑĦÐ¸Ðº": 2810,
      "ĠÐ§Ð¸ÑģÑĤÐ°Ñı": 2811,
      "ÑģÐºÐ°Ð·": 2812,
      "ĠÑĥÐ³": 2813,
      "ĠÐľÑĭ": 2814,
      "ĠÐ½Ð¸Ðº": 2815,
      "Ð³ÑĢÑĥÐ·": 2816,
      "Ð½Ð¾Ð²Ð°": 2817,
      "ĠÐ¼Ð°ÑĢÑĤÐ°": 2818,
      "ĠÐ±ÑĭÑģÑĤÑĢÐ¾": 2819,
      "ĠÑģÐºÐ¾Ð»ÑĮÐ·ÑıÑīÐ¸": 2820,
      "ĠÐ½Ð°Ð¿ÑĢÐ°Ð²Ð»ÐµÐ½": 2821,
      "ĠÐ½ÐµÐ¾Ð±": 2822,
      "ÑĩÐµÑģÐºÐ¾Ð³Ð¾": 2823,
      "ĠÐ¾Ð¶Ð¸Ð´Ð°ÐµÑĤÑģÑı": 2824,
      "Ð¾ÑīÐ°Ð´": 2825,
      "ĠÐ¾ÑĢÐ³": 2826,
      "ĠÐĴÐ¾Ð·": 2827,
      "ĠÐ¿ÐµÑĢÐµÐºÑĥÐ¿Ð»ÐµÐ½Ð½Ð¾ÑģÑĤÐ¸": 2828,
      "84": 2829,
      "le": 2830,
      "ĠÐ³Ñį": 2831,
      "Ð°Ð½Ð¾Ð²": 2832,
      "ĠÑĤÐ°Ð¹Ð¼ÑĦÑĢÐµÐ¹Ð¼Ðµ": 2833,
      "ÑģÐºÐ¸Ð¼": 2834,
      "ĠÑĥÐ²ÐµÑĢ": 2835,
      "ĠÐ¾ÑĤÐºÐ°ÑĤÐ°": 2836,
      "ÐĵÐ°Ð·Ð¿ÑĢÐ¾Ð¼": 2837,
      "ĠÐ¿ÐµÑĢÐµÐ³": 2838,
      "ÑģÑĤÑĢÐµ": 2839,
      "ĠÑĩÑĥÑĤÑĮ": 2840,
      "ĠÑĤÐµÑģÑĤ": 2841,
      "ĠÐ½Ð¸Ñħ": 2842,
      "ĠÑĢÐ°ÑģÑĩÐµÑĤ": 2843,
      "ĠÑĩÐ°ÑģÑĤ": 2844,
      "ÐµÑĩÐµÐ½Ð¸Ðµ": 2845,
      "Ð¾ÑĢÑĤÐ°": 2846,
      "ÐºÑĤÐ¸": 2847,
      "ÑħÐ¾Ð´Ð¸Ð¼": 2848,
      "ĠÐ¿ÑĢÐ¾Ð´Ñĥ": 2849,
      "ĠÐ²ÐµÑĢÐ¾ÑıÑĤÐ½Ð¾ÑģÑĤÑĮ": 2850,
      "ĠÐ³Ð»Ð°Ð²": 2851,
      "ĠÐ¿ÑĢÐµÐ´ÑĭÐ´ÑĥÑīÐ¸Ð¹": 2852,
      "Ð»ÐµÐ¼": 2853,
      "ĠÐ¾ÑģÐ½Ð¾Ð²Ð½ÑĭÐµ": 2854,
      "ĠÑģÐ»Ð°Ð±": 2855,
      "ĠâĤ½": 2856,
      "ĠÐ¢ÐµÐºÑĥÑī": 2857,
      "ÑĬÑİÐ½": 2858,
      "ÑĬÑİÐ½ÐºÑĤÑĥ": 2859,
      "ĠÐ¤ÐłÐ¡": 2860,
      "ĠÐ¾ÑĤÐ½Ð¾Ñģ": 2861,
      "ĠÑĩÐ°ÑģÐ¾Ð²Ð¾Ð³Ð¾": 2862,
      "ÑĤÐµÐ³Ð°Ð·": 2863,
      "ĠÐ±Ð°Ð·": 2864,
      "ĠÐ¿ÑĢÐ¾Ð¹Ð´ÐµÑĤ": 2865,
      "Ð¾Ð²Ð°Ð½Ð¸Ñı": 2866,
      "ĠÑĢÐµÐºÐ¾ÑĢÐ´Ð½ÑĭÑħ": 2867,
      "Ð¦": 2868,
      "ĠÑĥÑĩÐµÑĤÐ¾Ð¼": 2869,
      "ĠÐºÐ¾ÑĢÐ¾ÑĤ": 2870,
      "ÐµÐ»ÐµÐ½": 2871,
      "Ð²Ð¸Ð´ÐµÐ½Ð´": 2872,
      "ĠÐ¿Ð°Ð´ÐµÐ½Ð¸Ðµ": 2873,
      "ĠÐ¿Ð¾Ð´ÑĤ": 2874,
      "ĠÑģÑĥÑīÐµÑģÑĤÐ²ÐµÐ½": 2875,
      "):": 2876,
      "ĠÐĲÐ½Ð°Ð»Ð¸ÑĤÐ¸": 2877,
      "ĠÐĺÐ½Ð²ÐµÑģÑĤÐ¸ÑĨÐ¸Ð¹": 2878,
      "ĠÑĩÐ¸ÑģÐ»": 2879,
      "ĠÐ·Ð°Ð¼ÐµÐ´": 2880,
      "ĠÐĵÑĢÐ°ÑĦÐ¸Ðº": 2881,
      "ĠÐ¿Ð°Ð´Ð°ÐµÑĤ": 2882,
      "ĠÐ¾Ð½Ð°": 2883,
      "ĠÑģÑĨÐµÐ½Ð°ÑĢÐ¸Ñı": 2884,
      "ĠÑĤÐ¾ÑĢÐ³Ð¸": 2885,
      "ĠÐ¾Ð¿ÐµÑĢÐ°ÑĨÐ¸Ð¾Ð½": 2886,
      "ĠÐ¾Ð³ÑĢÐ°Ð½Ð¸Ñĩ": 2887,
      "Ð»Ð¾ÐºÐ¸": 2888,
      "ĠÐĶÐ¾Ð»Ð³Ð¾ÑģÑĢÐ¾ÑĩÐ½ÑĭÐ¹": 2889,
      "ĠÑģÐ¾Ð±": 2890,
      "ĠÐ´Ð°Ð¶Ðµ": 2891,
      "ĠÐĳÐ°Ð½ÐºÐ°": 2892,
      "ĠÐ³Ð¾Ð²Ð¾ÑĢÐ¸ÑĤ": 2893,
      "ĠÐ¿Ð»Ð¾ÑīÐ°Ð´": 2894,
      "ĠÐ¾ÑĤÑĢÐ°": 2895,
      "ĠÐ²ÑĭÑģÐ¾ÐºÐ¸Ñħ": 2896,
      "ĠÑģÐ¾ÑħÑĢÐ°Ð½Ð¸": 2897,
      "Ð¾Ð¿ÑĢÐ¸": 2898,
      "ĠÐ£ÑĩÐ¸ÑĤÑĭÐ²Ð°": 2899,
      "ĠÐ½ÐµÐ¹ÑĤÑĢÐ°Ð»ÑĮÐ½Ð¾Ð¹": 2900,
      "ÐµÑĢÐ²Ð¸": 2901,
      "ĠÐºÐ¾Ð½ÑĬÑİÐ½ÐºÑĤÑĥ": 2902,
      "ĠOzon": 2903,
      "ĠÐ¢Ð¾ÑĢÐ³": 2904,
      "ĠÐ¸Ð½ÑĤÐµÑĢÐ²": 2905,
      "ĠÑĥÑģÑĤÐ°Ð½Ð¾Ð²Ð»ÐµÐ½": 2906,
      "ĠÐ¾ÑĢÐ³Ð°Ð½Ð¸": 2907,
      "ĠÐ´Ð°ÐµÑĤ": 2908,
      "Ð´Ð°ÐµÐ¼": 2909,
      "ÐºÐ¸Ðµ": 2910,
      "ĠÐ²ÑĤÐ¾ÑĢÐ¾Ð¹": 2911,
      "ĠÐľÐ¾ÑģÐ±Ð¸ÑĢÐ¶Ðµ": 2912,
      "ĠÐ¡Ð±ÐµÑĢÐ±Ð°Ð½Ðº": 2913,
      "Ð¾Ñħ": 2914,
      "ĠÐ½Ð°Ð´Ðµ": 2915,
      "ĠÐ¾Ð±ÑĢÐ°Ð·": 2916,
      "ĠÐĲÐ¼ÐµÑĢÐ¸ÐºÐ°Ð½": 2917,
      "ÑĥÐ´Ð°ÑĢ": 2918,
      "ĠÐ¿ÑĢÐµÐ¾Ð´Ð¾Ð»": 2919,
      "ĠÐ¾ÑģÑĤÐ°ÑİÑĤÑģÑı": 2920,
      "ĠÐ¾ÑģÐ½Ð¾Ð²Ð½Ð¾Ð¹": 2921,
      "ĠÐ®": 2922,
      "Ð½Ð¸ÐºÐ¸": 2923,
      "Ð¸Ð±": 2924,
      "ĠÐ¾ÑĨÐµÐ½Ð¸": 2925,
      "ĠÐŃÐº": 2926,
      "ĠÑģÐ¾Ð±ÑĭÑĤÐ¸Ñı": 2927,
      "ĠÑĢÐ°ÑģÑģÑĩÐ¸ÑĤ": 2928,
      "Ð°Ð»ÐµÐµ": 2929,
      "ĠÐºÐ»ÑİÑĩÐµÐ²Ð¾Ð¹": 2930,
      "ĠÐ¿Ð¾Ð»Ð¾Ð¶Ð¸ÑĤÐµÐ»ÑĮÐ½Ð¾Ð¹": 2931,
      "Ð¸ÑĢÐ¾Ðº": 2932,
      "ĠÐ½ÐµÐ´ÐµÐ»ÑĮÐ½Ð¾Ð³Ð¾": 2933,
      "Ð²ÐµÐ´Ð»Ð¸": 2934,
      "ĠÑĤÐ¾Ð½Ð½": 2935,
      "ĠÑģÑĤÐ°ÑĢ": 2936,
      "ĠÑıÐ½Ð²Ð°ÑĢÑı": 2937,
      "Ð°Ð½Ð°": 2938,
      "ĠÐ¿ÐµÑĢÑģÐ¿ÐµÐºÑĤÐ¸Ð²": 2939,
      "ĠÐ´Ð°Ð½Ð½ÑĭÐµ": 2940,
      "ĠÐŁÑĥÑĤÐ¸Ð½": 2941,
      "ĠÐºÑĥÑĢÑģ": 2942,
      "Ð¸ÑĤÐµÐ»": 2943,
      "ĠÐ¾Ð¿ÑĥÑģÑĤÐ¸": 2944,
      "ĠÐ´Ð¾ÑģÑĤÑĥÐ¿": 2945,
      "ĠÐĲÑįÑĢÐ¾ÑĦÐ»Ð¾ÑĤ": 2946,
      "ĠÐĲÐĽÐłÐŀÐ¡ÐĲ": 2947,
      "ĠÑĢÐµÐ·ÑĥÐ»ÑĮÑĤÐ°ÑĤÐ¾Ð²": 2948,
      "ĠÐ²Ð²ÐµÐ´": 2949,
      "ÑĢÑĥÐ±": 2950,
      "Ð°ÑĤÐ¸Ð»ÑĮ": 2951,
      "ĠÐ¸Ð½Ð´Ð¸ÐºÐ°ÑĤÐ¾ÑĢÑĭ": 2952,
      "ĠÐĲÐ½Ð°Ð»Ð¸ÑĤÐ¸ÐºÐ¸": 2953,
      "ol": 2954,
      "ÐµÐ½Ðµ": 2955,
      "ĠÐľÐ¾ÑģÐ±Ð¸ÑĢÐ¶Ð°": 2956,
      "ĠÑįÐºÐ¾Ð½Ð¾Ð¼Ð¸ÐºÐ¸": 2957,
      "ĠX": 2958,
      "Ð°ÑĢÑĤ": 2959,
      "ĠÐ´Ð°Ð½Ð½ÑĭÐ¼": 2960,
      "ĠÐ²Ð½Ð¸Ð¼": 2961,
      "Ð¶Ð½": 2962,
      "Ð°ÐºÐ¸Ðµ": 2963,
      "Ð¾ÑĩÐ½Ð¾": 2964,
      "ĠÑģÑĤÑĢÐ°Ð½Ñĭ": 2965,
      "ĠÑįÑĦÑĦ": 2966,
      "Ð¾Ð»ÑĮÐ·Ñĥ": 2967,
      "ĠÐ½Ð°Ð·": 2968,
      "ÑĩÐ°ÑģÐ¾Ð²": 2969,
      "ĠÐ¿ÑĢÐ¸Ð¼ÐµÑĢÐ½Ð¾": 2970,
      "ĠÑģÐ¼ÐµÑĪ": 2971,
      "ĠÐºÐ¸ÑĤÐ°Ð¹": 2972,
      "ĠÐĶÐ¸": 2973,
      "ĠÐľÐ¸Ð½Ð¸": 2974,
      "ĠÐŀÑĤÑĩÐµÑĤ": 2975,
      "ĠÐŁÑĢÐ¾Ð´": 2976,
      "Ð²Ð°ÑİÑĤ": 2977,
      "ĠÐºÐ¾ÑĢÐ¿Ð¾ÑĢÐ°": 2978,
      "Ġ39": 2979,
      "ĠÐ¿ÐµÑĢÐ²Ð¾Ð¹": 2980,
      "ĠÐĽÑĥÐºÐ¾Ð¹Ð»": 2981,
      "ĠÐ¸Ð¼": 2982,
      "ĠÐľÐľÐļ": 2983,
      "ĠÐ¿Ð¾Ð³": 2984,
      "ĠÑģÑĤÑĢÐ°Ð½": 2985,
      "ĠÐłÑĭÐ½Ð¾Ðº": 2986,
      "ĠÑĤÐµÑĩÐµÐ½Ð¸Ðµ": 2987,
      "ĠÑĩÐµÐ³Ð¾": 2988,
      "Ġ65": 2989,
      "ĠÐ½Ð¸Ð¶": 2990,
      "ÑĪÐ¸Ð¼": 2991,
      "ĠÐŁÑĥÐ»ÑĮ": 2992,
      "Ð°Ð»ÑĮÐ½ÑĭÐ¹": 2993,
      "ĠÐĺÐ½ÑĤÐµÑĢ": 2994,
      "Ð¾Ð»Ñı": 2995,
      "ĠÐ²ÑĭÑĢÑĥÑĩÐºÐ¸": 2996,
      "ĠÐ¿ÑĢÐ¾Ð³ÑĢÐ°Ð¼": 2997,
      "ĠÑģÑĢÐ°Ð²Ð½": 2998,
      "Ð°Ðµ": 2999,
      "Ð¼Ð°ÑĤÑĢÐ¸": 3000,
      "ĠÐ²ÐµÐ´": 3001,
      "Ð²Ð¾Ð·": 3002,
      "ĠÑĤÐµÑĢÑı": 3003,
      "ĠÑĥÐ´ÐµÑĢÐ¶": 3004,
      "ĠÑģÑĤÐ°Ð²ÐºÑĥ": 3005,
      "ĠÐ½ÐµÑģÐºÐ¾Ð»ÑĮÐºÐ¾": 3006,
      "ĠÑģÐµÑĢÐµÐ´": 3007,
      "berg": 3008,
      "ĠÑĥÐ´Ð°Ð»Ð¾ÑģÑĮ": 3009,
      "ĠÑĢÐ¾ÑģÑģÐ¸Ð¹ÑģÐºÐ¾Ð¹": 3010,
      "ÑıÑĤÐ¸": 3011,
      "ÑĢÑĥÐ´": 3012,
      "ĠÑģÐ¾Ð³Ð»Ð°": 3013,
      "Ð¿ÑĢÐ¾": 3014,
      "ĠÐĴÐ¾": 3015,
      "ĠEBITDA": 3016,
      "Ġ56": 3017,
      "48": 3018,
      "ĠÐ¿Ð¾ÐºÐ°Ð·ÑĭÐ²Ð°ÑİÑĤ": 3019,
      "ĠÑĥÑģÑĤÐ¾Ð¹": 3020,
      "ĠÐ°ÐºÑĨÐ¸ÐµÐ¹": 3021,
      "ĠÐµÐ´Ð¸": 3022,
      "ĠÐ²Ð¾Ð·Ð¾Ð±Ð½Ð¾Ð²Ð»ÐµÐ½Ð¸Ñı": 3023,
      "ĠÐ¿ÑĢÐ¾Ð¼": 3024,
      "ĠÑģÑĢÐµÐ´ÑģÑĤÐ²": 3025,
      "ĠBlo": 3026,
      "ĠD": 3027,
      "Ð°ÐµÐ¼": 3028,
      "ĠÐ¿ÐµÑĢÐ²ÑĭÐ¹": 3029,
      "ĠÐºÐ°ÑĩÐµ": 3030,
      "Ð¼ÐµÐ½ÑĤÐ°": 3031,
      "ĠÑģÑĤÐ°Ð½ÐµÑĤ": 3032,
      "Ð¸ÑģÐºÐ¸": 3033,
      ".\"": 3034,
      "omberg": 3035,
      "ÐµÐ½Ð½Ð¾Ð¹": 3036,
      "ÐµÐ½Ð½Ð¾Ð³Ð¾": 3037,
      "Ġ400": 3038,
      "ĠÐĹÐ°ÑĤÐµÐ¼": 3039,
      "ĠÐ¡ÐĶ": 3040,
      "ĠÐ¿ÑĢÐ¾ÑħÐ¾Ð´Ð¸ÑĤ": 3041,
      "Ð¼Ð°ÑĢ": 3042,
      "ĠÐ¸ÑģÑĤÐ¾ÑĢÐ¸ÑĩÐµÑģÐºÐ¸Ñħ": 3043,
      "78": 3044,
      "RU": 3045,
      "ĠBloomberg": 3046,
      "ĠÐ¿ÑĢÐ¾Ð´Ð¾Ð»Ð¶Ð°ÑİÑĤ": 3047,
      "Ð¾Ð¿ÑĢÐ¸ÑıÑĤ": 3048,
      "Ð³Ð¾Ð¿ÑĢÐ¸ÑıÑĤ": 3049,
      "ĠÐĲÐ·Ð¸": 3050,
      "ĠÐ¿Ð¾Ð´Ð¾ÑĢÐ¾Ð¶": 3051,
      "Ð»ÐµÐ²": 3052,
      "ĠÑĤÐµÐ¿ÐµÑĢÑĮ": 3053,
      "Ð²Ð»ÐµÐ½Ð¸ÐµÐ¼": 3054,
      "ĠÑģÐµÑģÑģÐ¸Ñİ": 3055,
      "ĠÐ´Ð¾ÑĢÐ¾Ð³Ñĥ": 3056,
      "ÑıÐ±ÑĢÑĮ": 3057,
      "Ð½ÐµÑĦÑĤÐµÐ³Ð°Ð·": 3058,
      "ĠÐ³Ð¾ÑģÑĥÐ´Ð°ÑĢ": 3059,
      "ĠÐ±Ð¾ÐºÐ¾Ð²Ð¸ÐºÐ°": 3060,
      "Ð¸ÑĤÐµ": 3061,
      "Ġ60": 3062,
      "ĠÑĦÐ¸Ðº": 3063,
      "ĠÐ²Ð¾ÑģÑħÐ¾Ð´ÑıÑīÐµÐ³Ð¾": 3064,
      "ĠÐ¾Ð±Ð»Ð¸Ð³Ð°ÑĨÐ¸Ð¹": 3065,
      "ĠÑĤÐµÐ½Ð´ÐµÐ½ÑĨÐ¸Ð¸": 3066,
      "ÑĨÐ°": 3067,
      "ĠÐ´Ð½ÐµÐ²Ð½Ð¾Ð¹": 3068,
      "ĠÑģÐ¾ÑħÑĢÐ°Ð½ÐµÐ½Ð¸Ð¸": 3069,
      "ĠÐ¸Ð½ÑĦÐ»ÑıÑĨÐ¸Ñı": 3070,
      "ĠÐ¾ÑĤÑĢÐ¸ÑĨÐ°ÑĤÐµÐ»ÑĮÐ½Ð¾Ð¹": 3071,
      "ĠÐ½ÐµÐ¾Ð±ÑħÐ¾Ð´Ð¸Ð¼": 3072,
      "ĠÐ½Ð¾Ð²Ð¾ÑģÑĤÐ¸": 3073,
      "ĠÐŁÐ¾ÑģÐ»ÐµÐ´": 3074,
      "ÑįÐ½ÐµÑĢ": 3075,
      "ĠÑģÐ´ÐµÐ»ÐºÐ¸": 3076,
      "79": 3077,
      "ÐĲÐ¢": 3078,
      "Ġ75": 3079,
      "ÑįÐº": 3080,
      "ĠÐ¿Ð¾Ð´Ð½Ñı": 3081,
      "ĠÐ¿Ð¾Ð´Ð´ÐµÑĢÐ¶ÐºÑĥ": 3082,
      "ĠÐļÐ¸ÑĤÐ°Ñı": 3083,
      "ĠÑĢÐ°ÑģÑĤÑĥÑīÐµÐ³Ð¾": 3084,
      "ĠÐ¿Ð¾Ð´Ð¿": 3085,
      "ĠÐ±ÑĥÐ´ÑĥÑī": 3086,
      "ÑĩÐ½Ð¾": 3087,
      "ĠÑĤÐ°ÐºÐ¾Ð¹": 3088,
      "ĠÐŀÑģÐ½Ð¾Ð²": 3089,
      "ÐµÐ½Ð½ÑĭÐ¹": 3090,
      "ĠÐ¿Ð¾ÐºÑĥÐ¿ÐºÐ¸": 3091,
      "ĠÐ¿Ð¾Ð»Ð¸ÑĤÐ¸ÐºÐ¸": 3092,
      "ĠÑħÐ¾ÑĢÐ¾": 3093,
      "ĠÐ¾Ð´Ð¸Ð½": 3094,
      "ĠÐ¿Ð¾ÑģÑĤÐ°Ð²Ð¾Ðº": 3095,
      "ĠÐºÐ¾Ð¼Ð¼ÐµÐ½ÑĤÐ°ÑĢÐ¸": 3096,
      "ĠÑĨÐµÐ»Ð¾Ð¼": 3097,
      "ĠÐ½Ð°ÑħÐ¾Ð´Ð¸Ð»Ð¸ÑģÑĮ": 3098,
      "ÑģÑĤÐ°Ð½ÑĨÐ¸Ð¸": 3099,
      "ÑĢÐ¸Ð¼": 3100,
      "ĠÑĢÐ°ÑģÑħÐ¾Ð´": 3101,
      "Ð°Ð½Ð¸Ð¹": 3102,
      "ĠÑĤÑĢÐµÐ±": 3103,
      "ĠÑĤÐ¾ÑĢÐ³ÑĥÐµÑĤÑģÑı": 3104,
      "Ð½ÑıÑĤÑĮ": 3105,
      "ĠÐĲÐ¼ÐµÑĢÐ¸ÐºÐ°Ð½ÑģÐºÐ¸Ðµ": 3106,
      "ÑģÐ²": 3107,
      "Ġ600": 3108,
      "ÑģÑģÐ¸Ð¸": 3109,
      "Ð¾Ð»Ð¸ÑĩÐµ": 3110,
      "Ð¤ÐĹ": 3111,
      "ĠÐ¿ÑĥÐ½": 3112,
      "ĠÐ¸Ð¼Ðµ": 3113,
      "ĠÑİÐ°Ð½": 3114,
      "Ð²Ð»ÐµÐ½Ð¸Ð¸": 3115,
      "ÐµÑĢÐ²ÑĭÐµ": 3116,
      "Ð´Ñĭ": 3117,
      "ĠÑģÐ»Ð°Ð±Ð¾": 3118,
      "ĠÑħÐ¾ÑĤ": 3119,
      "ĠÐºÐ¾ÑĢÐ¿Ð¾ÑĢÐ°ÑĤÐ¸Ð²": 3120,
      "ĠÐ·Ð°Ð²Ð¸": 3121,
      "ĠÑģÑĤÐ¾Ð¸Ð¼Ð¾ÑģÑĤÑĮ": 3122,
      "ĠÐ¾ÑĤÑģÑĥÑĤ": 3123,
      "ĠÑģÐ¾ÑģÑĤÐ¾Ñı": 3124,
      "ĠÐ²Ð¾Ð·Ð²ÑĢÐ°ÑīÐµÐ½Ð¸Ðµ": 3125,
      "ÐµÐºÑĥÐ»Ñı": 3126,
      "ĠÑģÐ¼Ð¾Ð³Ð»Ð¸": 3127,
      "ĠÐ²ÐµÑĢÑħ": 3128,
      "ĠÐĿÐ¾Ð²Ð°ÑĤ": 3129,
      "Ð¾Ð²Ð¾ÑĢ": 3130,
      "ĠÐ´Ð¾Ð±": 3131,
      "ĠÐĴÑĩÐµÑĢÐ°": 3132,
      "ĠÐ¿Ð¾ÑģÑĤ": 3133,
      "Ð½Ð¸Ð¸": 3134,
      "ĠÐ´Ð¾Ð»Ð»Ð°ÑĢÐ°": 3135,
      "ĠÐŁÐ¾ÑĤ": 3136,
      "Ġ66": 3137,
      "76": 3138,
      "ÑĢÐµÐ·Ð¸Ð´ÐµÐ½ÑĤ": 3139,
      "ĠÐ¿ÑĢÐ¾ÐµÐºÑĤ": 3140,
      "ĠÐĺÐ½Ð´Ð¸ÐºÐ°ÑĤÐ¾ÑĢ": 3141,
      "Ð¾Ð²ÑĭÐ¼": 3142,
      "ĠÐ½ÐµÐ¼Ð½Ð¾Ð³Ð¾": 3143,
      "Ð½Ð¸ÑĨÐ¸": 3144,
      "ĠÑģÐ½Ð¾Ð²Ð°": 3145,
      "ĠÐ¿ÑĢÐµÐ¶": 3146,
      "ÐĿÐ°": 3147,
      "ĠÑģÐ¾ÑħÑĢÐ°Ð½ÑıÐµÑĤÑģÑı": 3148,
      "ĠÐ¼Ð°ÐºÑģÐ¸Ð¼Ð°Ð»ÑĮÐ½Ð°Ñı": 3149,
      "ĠÐ½Ð°ÑĩÐ°Ð»Ð¾": 3150,
      "Ð»Ð¸Ñĩ": 3151,
      "ĠÑģÐºÐ¾ÑĢ": 3152,
      "ÐµÑĪÐµ": 3153,
      "Ð¾Ð½Ð°Ð»ÑĮ": 3154,
      "ĠÐ¾ÐºÑĤÑıÐ±ÑĢÐµ": 3155,
      "ÑĪÑĮ": 3156,
      "ĠÐºÐ°Ð¿Ð¸ÑĤÐ°Ð»Ð¸": 3157,
      "ĠÐ¿ÑĢÐ¾ÑģÐ°Ð´ÐºÐ¸": 3158,
      "ĠÐ¾Ð¶Ð¸Ð´Ð°ÐµÐ¼": 3159,
      "Ġ70": 3160,
      "ÑĭÐ¼Ð¸": 3161,
      "Ð¿Ð¾": 3162,
      "ĠÐ²Ð¾Ð»Ð½Ñĭ": 3163,
      "ÐŃÐļ": 3164,
      "ÑĢÐ°ÑģÑĤ": 3165,
      "ĠÐ²ÐµÑĢÐ½ÑĥÑĤÑĮÑģÑı": 3166,
      "Ð»ÑĮÑģÐºÐ¸Ð¹": 3167,
      "Ġ48": 3168,
      "ĠÐ·Ð°ÐºÑĢÐµÐ¿Ð¸ÑĤÑĮÑģÑı": 3169,
      "ĠÐ²Ð½ÑĥÑĤÑĢÐ¸": 3170,
      "ĠÐ¾Ð±ÑģÑĥÐ¶": 3171,
      "ĠÐ¿ÑĢÐ¸Ð²Ð»ÐµÐºÐ°ÑĤÐµÐ»ÑĮ": 3172,
      "ĠÐŀÐ¤ÐĹ": 3173,
      "ĠÐ²ÑĭÐ¿ÑĥÑģÐº": 3174,
      "Ġ58": 3175,
      "Ð½Ð¸ÑĤÐ°": 3176,
      "ÑİÑīÐ¸Ðµ": 3177,
      "ĠÐ·Ð°ÑıÐ²": 3178,
      "Ð°Ð½Ð¸Ñİ": 3179,
      "ĠÐ±Ð»Ð°Ð³Ð¾Ð¿ÑĢÐ¸ÑıÑĤ": 3180,
      "ĠÐ²Ð¾Ð·Ð¾Ð±Ð½Ð¾Ð²": 3181,
      "ĠÐŁÑĢÐ¾Ð¼": 3182,
      "ĠÑģÐ¿ÐµÐºÑĥÐ»Ñı": 3183,
      "ĠÐ½Ð¾Ð²Ð¾Ð³Ð¾": 3184,
      "ĠÐ½Ð°ÑģÑĤÑĢÐ¾": 3185,
      "ĠÑģÐ»ÐµÐ´ÑĥÑİÑīÐ¸": 3186,
      "ĠÐ¢Ð°ÐºÐ¶Ðµ": 3187,
      "ĠÑĦÐ¾Ð½ÐĲ": 3188,
      "Ð¿Ð¾Ð»Ð½ÐµÐ½Ñĭ": 3189,
      "ĠÑĤÐ¾Ñĩ": 3190,
      "ĠÑĦÐ¾Ð½ÐĲÐ·Ð¸Ð°ÑĤÑģÐºÐ¸Ðµ": 3191,
      "ĠÐ·Ð°ÑĤ": 3192,
      "Ð°Ð»ÑĮÐ½ÑĭÑħ": 3193,
      "ĠÐ´ÐµÑĪÐµÐ²Ðµ": 3194,
      "ĠÐ´ÐµÑĢÐ¶": 3195,
      "ĠÐ¿Ð¾ÐºÑĥÐ¿Ð°ÑĤÐµÐ»Ð¸": 3196,
      "Ð»ÑİÑĩÐ°": 3197,
      "ĠL": 3198,
      "ĠÑģÐ²Ð¾Ð¸": 3199,
      "ĠÑĤÐµÑģÑĤÐ¸": 3200,
      "ĠÐŁÐ¾ÐºÑĥÐ¿": 3201,
      "ĠÑĢÐµÑĪ": 3202,
      "ĠÐ´Ð¸ÑģÑĤÐ°Ð½ÑĨÐ¸Ð¸": 3203,
      "ĠÐ´Ð¾ÑĢÐ¾Ð¶Ð°ÐµÑĤ": 3204,
      "MI": 3205,
      "ĠÑģÐ²ÐµÑĢÑħ": 3206,
      "Ð´Ð°Ð²": 3207,
      "ĠÑģÑĤÐ°Ð»": 3208,
      "ĠÐ·Ð¾Ð½Ð°": 3209,
      "ĠÐ´Ð¾ÑģÑĤÐ°ÑĤ": 3210,
      "ĠÐļÐ¾Ð½": 3211,
      "ĠÐ±Ð°Ð½": 3212,
      "ĠÐ¿ÑĢÐ¸Ð½Ñı": 3213,
      "ĠÑģÐ¾ÐºÑĢÐ°ÑĤÐ¸": 3214,
      "ÐĺÐ½Ð²ÐµÑģÑĤÐ¸": 3215,
      "Ġ49": 3216,
      "ĠÐ½Ð°Ð±Ð»ÑİÐ´Ð°ÐµÑĤÑģÑı": 3217,
      "ĠÑģÐ¼ÐµÑĪÐ°Ð½Ð½ÑĭÐ¹": 3218,
      "Ð¡Ðļ": 3219,
      "ĠÐ¾Ð±Ñĭ": 3220,
      "ĠÐĴÑĭÑģÐ¾Ðº": 3221,
      "Ð¸ÑĤÐµÐ»ÐµÐ¹": 3222,
      "ÑģÐ¸Ð»Ð¸": 3223,
      "ĠÐ¿ÑĢÐ¸Ð¾ÑģÑĤÐ°": 3224,
      "ĠÐ°ÐºÑĤÐ¸Ð²Ñĭ": 3225,
      "ĠÐ¸Ð¿Ð¾ÑĤÐµÐº": 3226,
      "Ð·Ð½Ð°Ñĩ": 3227,
      "32": 3228,
      "ĠÐºÐ¾Ð³Ð´Ð°": 3229,
      "ĠÐ·Ð°ÑĢÐ°Ð±Ð¾ÑĤ": 3230,
      "ĠÑģÐ¾Ð·Ð´": 3231,
      "ÑĢÐ¾Ð¼Ðµ": 3232,
      "ĠÐ¿Ð»Ð°Ð½": 3233,
      "ĠÑĪÐ°Ð½ÑģÑĭ": 3234,
      "ĠÐ½Ð¾Ð²Ð¾Ð¹": 3235,
      "ĠÐĵÐľÐļ": 3236,
      "ĠÐ¾Ð±Ð½Ð¾Ð²Ð¸Ð»Ð¸": 3237,
      "ĠÐ¾ÑĤÐ½Ð¾ÑģÐ¸ÑĤÐµÐ»ÑĮÐ½Ð¾": 3238,
      "ĠÐ²ÐµÑĩÐµÑĢ": 3239,
      "ĠÐ±Ð¾ÐºÐ¾Ð²Ð¸ÐºÐµ": 3240,
      "ĠÐµÐ²ÑĢÐ¾": 3241,
      "ĠÐ½Ð¾Ð²Ð¾ÑģÑĤÐµÐ¹": 3242,
      "ĠÐ¸Ð½Ð¸ÑĨÐ¸": 3243,
      "ĠÐ¿Ð¾Ð´ÐµÑĪÐµ": 3244,
      "Ð²ÐµÑĢÐ´Ð¸": 3245,
      "ĠÑĦÑĥÐ½Ð´Ð°Ð¼ÐµÐ½ÑĤÐ°Ð»ÑĮ": 3246,
      "Ð¸ÑģÐ¾Ðº": 3247,
      "ĠÑģÐµÑĢÐ²Ð¸": 3248,
      "Ð³ÐµÑĤÐ¸": 3249,
      "ĠII": 3250,
      "ĠÐ£Ðº": 3251,
      "ĠÐ½Ð°Ñģ": 3252,
      "ĠÑģÐ¿ÑĢÐ°": 3253,
      "ĠÑĢÐµÐ°Ð»Ð¸Ð·Ð¾Ð²": 3254,
      "ĠÐ¼ÑģÐº": 3255,
      "ĠÑģÑĢÐµÐ´Ð½ÐµÑģÑĢÐ¾ÑĩÐ½ÑĭÐ¹": 3256,
      "Ð±Ð¾ÑĢ": 3257,
      "ĠÐ°ÐºÑĨÐ¸ÑıÐ¼Ð¸": 3258,
      "ĠÐŃÐºÑģÐ¿": 3259,
      "ÑħÐ°": 3260,
      "Ð±Ð¾Ð»ÑĮ": 3261,
      "ĠÐŁÑĢÐ¾Ð³Ð½Ð¾Ð·": 3262,
      "ĠÐ·Ð´ÐµÑģÑĮ": 3263,
      "ĠÐĴÐĴ": 3264,
      "ĠÐ±Ð¸ÑĢÐ¶Ð°": 3265,
      "ĠÐ²ÑĭÑĢÑĥÑĩÐºÐ°": 3266,
      "ĠÑģÐ¾Ð¾Ð±ÑīÐ¸": 3267,
      "ĠÐ¾Ð¿ÑĥÐ±Ð»Ð¸ÐºÐ¾Ð²Ð°Ð»Ð°": 3268,
      "Ð±Ð°ÑĢ": 3269,
      "ĠÐ´Ð¾ÑĢÐ¾Ð³Ð°": 3270,
      "ĠÑģÑĤÑĢÑĥÐºÑĤÑĥÑĢÑĭ": 3271,
      "ĠÐŀÐ¶Ð¸": 3272,
      "ĠÐ¿ÑĢÐ¾ÑĤÐ¾ÑĢÐ³": 3273,
      "ĠÐ½Ð°ÑĩÐ°ÑĤÑĮ": 3274,
      "ĠÐ¿ÑĢÐ¾ÑĪÐ»Ð¾Ð³Ð¾": 3275,
      "ĠÐľÐ°Ð³Ð½Ð¸ÑĤÐ°": 3276,
      "Ð°Ð»ÑĮÐ½ÑĭÐµ": 3277,
      "ÑĩÐ¸Ð»": 3278,
      "ĠÑįÐºÑģÐ¿ÐµÑĢ": 3279,
      "ĠÐ´Ð°Ð²Ð»ÐµÐ½Ð¸Ðµ": 3280,
      "ĠÐ¡ÐµÐ²ÐµÑĢÑģÑĤÐ°Ð»ÑĮ": 3281,
      "Ð¸Ð½Ð°ÑĢÐ°": 3282,
      "Ġ54": 3283,
      "ĠÑĥÐ¿ÑĢÐ°": 3284,
      "Ð½Ð¸Ð¶": 3285,
      "ĠÑĦÐ¸Ð½Ð°Ð½ÑģÐ¾Ð²ÑĭÑħ": 3286,
      "ĠÑĪÐ¸ÑĢÐ¾Ðº": 3287,
      "Ð¾Ð²Ð¾Ð»ÑĮ": 3288,
      "ĠÑĥÐºÐ°Ð·ÑĭÐ²Ð°ÑİÑĤ": 3289,
      "ĠÑĥÐºÑĢÐµÐ¿Ð»": 3290,
      "77": 3291,
      "Ġ59": 3292,
      "ĠÑĤÐµÑħÐ½Ð¸ÑĩÐµÑģÐºÐ°Ñı": 3293,
      "ĠÐĴÐĴÐŁ": 3294,
      "ĠÐ½Ð°ÑĪÐµÐ¹": 3295,
      "ĠÐłÐ°Ð·": 3296,
      "ĠÐļÑĢÐ¸": 3297,
      "ĠÐ¿Ð¾Ð²ÑĭÑĪÐµÐ½Ð¸Ñı": 3298,
      "Ð¸Ð½Ñĭ": 3299,
      "Ð°Ð½Ð½ÑĭÑħ": 3300,
      "ĠÐ¼Ð°ÐºÑģÐ¸Ð¼ÑĥÐ¼Ñĭ": 3301,
      "Ð°Ð½Ñĭ": 3302,
      "ĠÐ·ÐµÐ»ÐµÐ½": 3303,
      "Ð¾ÑĨÐµÐ½": 3304,
      "ĠÐ¾Ð±Ð»Ð¸Ð³Ð°ÑĨÐ¸Ð¸": 3305,
      "ĠÐ¸Ð³": 3306,
      "ĠÑģÑĤÑĢÐ¾": 3307,
      "ÐµÑĢÐ¸Ð¾Ð´": 3308,
      "ĠÐŁÐµÑĢ": 3309,
      "ĠÐºÐ²": 3310,
      "ĠÐ½ÐµÑģÐ¼Ð¾ÑĤÑĢÑı": 3311,
      "ĠÐŃÑĤ": 3312,
      "ĠÑĩÐ¸ÑģÑĤÐ¾Ð¹": 3313,
      "ĠÐ½Ð¸ÐºÐµÐ»ÑĮ": 3314,
      "ĠÐ¡Ð¸Ð½Ð°ÑĢÐ°": 3315,
      "ce": 3316,
      "ĠÐ¿Ð¾Ð´Ð´ÐµÑĢÐ¶Ð¸": 3317,
      "ĠÐ¯Ð½Ð´ÐµÐºÑģÐ°": 3318,
      "Ð½Ð°ÑĢÐ¾Ð´": 3319,
      "ĠÐµÐ´Ð¸Ð½Ð¾Ð¹": 3320,
      "Ġ46": 3321,
      "ĠÐ¿Ð¾Ð»ÑĥÑĩÐ¸ÑĤÑĮ": 3322,
      "ĠÐ¿Ð¾Ð·Ð²Ð¾Ð»ÑıÐµÑĤ": 3323,
      "ĠÐ²Ð¾Ð»Ð°ÑĤÐ¸Ð»ÑĮ": 3324,
      "ĠÐ¡Ð°Ð¼Ð¾Ð»ÐµÑĤ": 3325,
      "ĠÐ³Ð¾ÑĤÐ¾Ð²": 3326,
      "Ð¸Ð³": 3327,
      "Ð°Ð¶Ð¸": 3328,
      "ĠÐºÐ¾Ð¼Ð¿": 3329,
      "ĠÐºÑĢÑĥ": 3330,
      "ÑĢÐ°Ð²Ð¸ÑĤÐµÐ»ÑĮÑģÑĤÐ²Ð¾": 3331,
      "ĠÑĢÐ¾Ð·": 3332,
      "Ð°Ð»ÐµÐ½": 3333,
      "ĠÐľÐ¸Ð½Ð¸Ð¼ÑĥÐ¼": 3334,
      "ĠÐ½ÐµÐº": 3335,
      "ĠÑĢÐ°ÑģÐº": 3336,
      "ĠÐ¢ÐµÐ¼": 3337,
      "ĠÐºÐ°Ð¶": 3338,
      "Ġ@": 3339,
      "ÑģÐµÑĩ": 3340,
      "Ġ64": 3341,
      "ĠÐ¾Ð±ÐµÑģÐ¿": 3342,
      "ĠÑģÐ²ÑıÐ·": 3343,
      "ĠÐ¸ÑİÐ½Ðµ": 3344,
      ");": 3345,
      "ad": 3346,
      "Ġ80": 3347,
      "ĠÑģÑĤÐ°Ð²Ð¾Ðº": 3348,
      "ĠÑĥÑģÐºÐ¾ÑĢÐ¸": 3349,
      "Ð°ÐµÑĤÑģÑı": 3350,
      "ÑĪÐ¸Ð½": 3351,
      "ĠÑĤÐµÑħÐ½Ð¸ÑĩÐµÑģÐºÐ¾Ð¹": 3352,
      "Ġ68": 3353,
      "ĠÑĢÑĥÐ±ÐµÐ¶": 3354,
      "ĠÑģÐ¿ÑĢÐ¾ÑģÐ°": 3355,
      "ĠÑģÐ¾Ð¿ÑĢÐ¾ÑĤÐ¸Ð²Ð»ÐµÐ½Ð¸Ðµ": 3356,
      "ĠÑĦÐ°ÐºÑĤÐ¾ÑĢÑĭ": 3357,
      "Ġ43": 3358,
      "ĠÐ´ÑĢÐ°Ð¹Ð²ÐµÑĢÐ¾Ð²": 3359,
      "ĠÐ½Ð°Ð¹Ð´": 3360,
      "ĠÐĺÐ½Ð²Ðµ": 3361,
      "Ġ\"ï¸ı": 3362,
      "ĠÐĲÐºÑĨÐ¸Ð¾Ð½": 3363,
      "ĠJ": 3364,
      "ÑģÑĤÐµ": 3365,
      "Ð¾Ð·Ð¸ÑĤÐ¸Ð²": 3366,
      "ĠÐ¼ÐµÑģÑıÑĨÐ°": 3367,
      "ÑĥÐ³": 3368,
      "Ð¿ÐµÑĢÐ¸Ð¾Ð´": 3369,
      "ÑħÐ¾Ð´Ð°": 3370,
      "Ð¸Ð½Ð°Ð»ÑĮ": 3371,
      "ĠÑĢÐµÐ°Ð»Ð¸Ð·": 3372,
      "ÑĢÐ°Ð±": 3373,
      "Ð¿ÑĢÐ¸Ð¼ÐµÑĢ": 3374,
      "ÐµÐ½ÑĤÐ°": 3375,
      "ĠÑĥÑĢÐ¾Ð²Ð½ÑıÐ¼": 3376,
      "ĠÐ¿Ð¾ÑįÑĤÐ¾Ð¼Ñĥ": 3377,
      "ĠÑģÐ½Ð¸Ð·Ð¸Ð»Ð°ÑģÑĮ": 3378,
      "ÑİÑīÐµÐ³Ð¾": 3379,
      "ĠÐ¾ÑĢÐ¸ÐµÐ½ÑĤÐ¸ÑĢÑĭ": 3380,
      "ĠÐ´Ð»Ð¸Ð½Ð½ÑĭÑħ": 3381,
      "ĠÐ¿ÑĢÐ¸Ð±Ð°Ð²Ð¸Ð²ÑĪÐµÐ³Ð¾": 3382,
      "ÑģÑĤÐ²ÐµÐ½Ð½ÑĭÑħ": 3383,
      "ĠÐłÐ¾ÑģÑģÐ¸Ð¹ÑģÐºÐ¸Ðµ": 3384,
      "ĠÐ¿Ð¾Ð»ÑĮÐ·Ñĥ": 3385,
      "ĠÑģÑĥÐ´": 3386,
      "ĠÐ·Ð°Ð¼ÐµÑĤ": 3387,
      "ÐŀÐĴÐĲÐ¢": 3388,
      "ÑĢÐ¾Ð²Ð°Ð»Ð¸": 3389,
      "ĠÐ¿Ð¾ÑĪÐ»Ð¸": 3390,
      "ĠÐ»Ð¸ÑĪÑĮ": 3391,
      "ĠÐ¿ÑĢÐµÐ·Ð¸Ð´ÐµÐ½ÑĤ": 3392,
      "ĠÑĢÐµÐ°Ð»Ð¸Ð·Ð°ÑĨÐ¸Ð¸": 3393,
      "ĠÐ²ÐºÐ»ÑİÑĩ": 3394,
      "ÐŀÐĴÐĲÐ¢ÐŃÐļ": 3395,
      "ĠÐ²Ð¾ÑģÑģÑĤÐ°Ð½Ð¾Ð²Ð»ÐµÐ½Ð¸Ðµ": 3396,
      "ĠÐ²ÑĭÐ¿Ð»Ð°": 3397,
      "Ð°ÑĢÑı": 3398,
      "ĠÐ¼Ð°ÑĢÑĤÐµ": 3399,
      "ĠÑĢÐ¾ÑģÑģÐ¸Ð¹ÑģÐºÐ¸Ðµ": 3400,
      "ĠÐºÐ°Ð½Ð°Ð»": 3401,
      "ĠÐ¡Ð±ÐµÑĢ": 3402,
      "ĠÑģÐ¿ÑĢÐ°Ð²ÐµÐ´Ð»Ð¸": 3403,
      "ĠÐ¿Ð¾ÑģÐ»ÐµÐ´Ð½Ð¸Ð¹": 3404,
      "ĠÑĢÐ°ÑģÑĤÐ¸": 3405,
      "ÑģÑĤÑĢÑĥÐºÑĤÑĥ": 3406,
      "ÐµÐ½Ð½ÑĭÐ¼": 3407,
      "ĠÐ´ÐµÑĪÐµÐ²ÐµÐµÑĤ": 3408,
      "ĠÐ¿ÑĢÐ¾Ð´Ð¾Ð»Ð¶Ð¸ÑĤÑĮ": 3409,
      "Ð¶Ð½ÐµÐ¼Ñĥ": 3410,
      "Ð¾Ð¿ÑĢÐ¾Ð²": 3411,
      "ĠÑĢÑĭÐ½ÐºÐ°Ñħ": 3412,
      "ĠÐ±Ð»Ð¸Ð·": 3413,
      "ĠÐºÐ°ÑĢÑĤÐ¸Ð½Ñĥ": 3414,
      "ĠÐ°ÐºÑĨÐ¸Ð¾Ð½ÐµÑĢÐ°": 3415,
      "ĠÐ£ÐºÑĢÐ°": 3416,
      "ĠÐºÑĢÐ°Ñģ": 3417,
      "ĠÐĲÐ·Ð¸Ð¸": 3418,
      "ĠÑģÑĤÐ°ÑĢÑĤ": 3419,
      "ĠÐ³Ð¾Ð²Ð¾ÑĢÐ¸ÑĤÑĮ": 3420,
      "ÐµÐºÐ¾Ð¼": 3421,
      "ĠÑĤÐµÐºÑĥÑīÐµÐ¹": 3422,
      "ĠÐĵÑĢÑĥÐ¿": 3423,
      "ĠÑĢÐ¾ÑģÑģÐ¸Ð¹ÑģÐºÐ¸Ð¹": 3424,
      "ĠÐ¿Ð¾Ð·Ð¸ÑĤÐ¸Ð²Ð½ÑĭÐ¼": 3425,
      "ĠÐ²Ð¾ÑģÑħÐ¾Ð´ÑıÑīÐ¸Ð¹": 3426,
      "ĠÑģÐµÐºÑĤÐ¾ÑĢÐ°": 3427,
      "ĠÑĩÐ°ÑģÑĤÐ¸": 3428,
      "ĠÐĶÐ¸Ð²Ð¸Ð´ÐµÐ½Ð´": 3429,
      "ĠÐ¡Ð»ÐµÐ´": 3430,
      "Ð¿ÑĢÐµÐ¶Ð½ÐµÐ¼Ñĥ": 3431,
      "ĠÐ¾ÑĤÐ½Ð¾ÑĪÐµÐ½Ð¸Ð¸": 3432,
      "ĠÐ°ÐºÑĤÑĥÐ°Ð»ÐµÐ½": 3433,
      "36": 3434,
      "ÑĢÐµÐ½Ð´": 3435,
      "ĠÐ¸Ð½Ð²ÐµÑģÑĤÐ¾ÑĢÐ°Ð¼": 3436,
      "ĠÐ¦ÐµÐ»ÑĮ": 3437,
      "ĠÑįÐ»ÐµÐºÑĤÑĢÐ¾": 3438,
      "Ð³Ð¾Ð´Ð°ÑĢÑı": 3439,
      "ĠÐŀÑĤÐº": 3440,
      "ĠÐ¸Ð½Ð´Ð¸ÐºÐ°ÑĤ": 3441,
      "ĠÑģÐµÐ±": 3442,
      "ĠÐ¿Ð¾ÑıÐ²Ð¸": 3443,
      "ĠÐĽÐ£ÐļÐŀÐĻÐĽÐ°": 3444,
      "ĠÐ¿Ð¾Ð»Ð¾Ð²Ð¸Ð½Ðµ": 3445,
      "ĠÐ¾Ð±Ð½Ð¾Ð²Ð»": 3446,
      "ĠÑħÐ¾Ð´": 3447,
      "ĠÐ½ÐµÐ±Ð¾Ð»ÑĮ": 3448,
      "ĠÐ¾ÑĤÐºÐ°Ð·": 3449,
      "Ð¾ÑĤÐ¾ÑĢ": 3450,
      "Ð´Ð¸Ð½Ð³": 3451,
      "Ð½ÑıÑĤ": 3452,
      "ÑĨÐ¸Ð»": 3453,
      "ĠÐĿÐ¾ÑĢÐ¸": 3454,
      "ĠÐ¿ÑĢÐ¾Ð´Ð¾Ð»Ð¶ÐµÐ½Ð¸Ðµ": 3455,
      "ĠÐ¿Ð¾Ð´Ð½Ð¸Ð¼Ð°": 3456,
      "ĠÐ³ÑĢÐ°Ð½Ð¸ÑĨÑĭ": 3457,
      "Ð·Ð°ÑĨÐ¸Ñı": 3458,
      "ĠÐ»Ñİ": 3459,
      "Ġ44": 3460,
      "ÑģÑĤÐ²ÑĥÐµÑĤ": 3461,
      "ĠÐ¼Ð¸ÑĢÐ¾Ð²ÑĭÑħ": 3462,
      "ÑģÑĤÐ°Ð²": 3463,
      "ĠÑģÐ¼Ð¾ÑĤÑĢÐ¸Ð¼": 3464,
      "ĠÐ³Ð»ÑĥÐ±": 3465,
      "ĠÐ³ÑĢÑĥÐ¿": 3466,
      "ĠÐ±ÑĥÐ¼Ð°Ð³Ñĥ": 3467,
      "ÐµÐ¶Ð°": 3468,
      "ĠÑĤÐ°ÐºÐ¸": 3469,
      "ĠÐ¾ÑĤÑĩÐ¸ÑĤ": 3470,
      "ĠÐľÐ°ÐºÑģÐ¸": 3471,
      "ĠÑģÐ¿ÑĥÑģÐº": 3472,
      "ĠÐ¡Ð±ÐµÑĢÐ°": 3473,
      "ĠÐ²Ð½Ð¸Ð¼Ð°Ð½Ð¸Ðµ": 3474,
      "RUB": 3475,
      "ĠÑįÐ¼Ð¸ÑĤ": 3476,
      "Ð¸ÐºÐµ": 3477,
      "ĠÑĤÐ¾Ð²Ð°": 3478,
      "ÐºÐ²": 3479,
      "ĠÐ¿Ð¾Ð·Ð²Ð¾Ð»Ð¸ÑĤ": 3480,
      "ĠÐ¿ÑĢÐµÐ´Ð¿ÑĢÐ¸": 3481,
      "ÑĦÐ°Ðº": 3482,
      "ĠÑģÐ¾ÑģÑĤÐ°Ð²Ð¸ÑĤ": 3483,
      "Ð½Ð¸Ñĩ": 3484,
      "ĠÐ½Ð°Ð¼": 3485,
      "tic": 3486,
      "ĠÐ¿ÑĢÐµÐ´Ð¿Ð¾Ð»Ð¾Ð¶": 3487,
      "RE": 3488,
      "Ð´ÐµÐ»ÑĮ": 3489,
      "ĠÐ¿Ð¾ÑĤÐµÑĢÑıÐ»Ð°": 3490,
      "ĠÑĥÑħÑĥÐ´ÑĪ": 3491,
      "ĠÐ»Ð¸Ðº": 3492,
      "ĠÐļÑĢÐ¾Ð¼Ðµ": 3493,
      "ĠÐ½Ð°ÑĩÐ°Ð»Ð¸": 3494,
      "ĠÐ·ÐµÐ»ÐµÐ½Ð¾Ð¹": 3495,
      "DV": 3496,
      "ĠÐ¿ÑĢÐ¾Ð¸Ð·Ð¾": 3497,
      "ĠÐĴÐ»Ð°": 3498,
      "ÐĺÐĻ": 3499,
      "ÑĢÐ¾Ð¿ÐµÐ¹": 3500,
      "ĠÐ¿ÐµÑĢÑģÐ¿ÐµÐºÑĤÐ¸Ð²Ð°": 3501,
      "ĠÐ´Ð°Ð»ÑĮÑĪÐµ": 3502,
      "ĠÐ³ÐµÐ¾Ð¿Ð¾Ð»Ð¸ÑĤÐ¸ÑĩÐµÑģÐºÐ¾Ð¹": 3503,
      "Ġ47": 3504,
      "ĠÑĢÐ°Ð·Ð²Ð¸": 3505,
      "ĠÐ¿ÑĢÐ¸Ð¾Ð±ÑĢÐµ": 3506,
      "ÑģÐµÑĤÐ¸": 3507,
      "ĠÐ¡Ð¾Ð²ÐµÑĤ": 3508,
      "33": 3509,
      "Ð½Ð¾ÑĨÐµÐ½": 3510,
      "ÑĥÑĤÐ¾Ñĩ": 3511,
      "ĠÐĲÐºÑĨÐ¸Ð¾Ð½ÐµÑĢÑĭ": 3512,
      "ĠÐĿÐ¾ÑĢÐ¸Ð»ÑĮÑģÐºÐ¸Ð¹": 3513,
      "ĠÐ²Ð°Ð»ÑİÑĤÑĭ": 3514,
      "ĠÐķÐ²ÑĢÐ¾Ð¿Ðµ": 3515,
      "ĠÐĴÐ¾Ð·Ð¼Ð¾Ð¶": 3516,
      "Ð¾Ð¶Ðµ": 3517,
      "ĠÐ¿Ð¾Ð²ÑĭÑĪÐµÐ½Ð¸Ðµ": 3518,
      "ÑģÐ»ÐµÐ´": 3519,
      "ÑıÐ·ÑĮ": 3520,
      "ĠÐ¿Ð¾Ð´Ð¾ÑĢÐ¾Ð¶Ð°Ð»Ð¸": 3521,
      "ĠÐ¿ÐµÑĢÐ²ÑĭÑħ": 3522,
      "ĠÐ¿Ð¾ÐºÑĥÐ¿Ð°ÑĤÑĮ": 3523,
      "ÐºÑĤÑĭ": 3524,
      "Ð¾Ð½Ð´": 3525,
      "ĠÐ¿ÑĢÐµÐ´ÑģÑĤÐ°Ð²": 3526,
      "ĠÑĢÐµÐºÐ¾Ð¼ÐµÐ½Ð´Ð¾Ð²Ð°Ð»": 3527,
      "ĠÐ¿Ð¾Ð»ÑĥÐ³Ð¾Ð´Ð¸Ð¸": 3528,
      "ĠÐ²Ð½ÐµÑĪÐ½ÐµÐ³Ð¾": 3529,
      "ÑĮÐ³Ð¾ÑĤ": 3530,
      "ĠÐ´Ð½ÐµÐ²Ð½Ð¾Ð³Ð¾": 3531,
      "ĠÐ¿ÑĢÐ¾Ð±Ð»ÐµÐ¼": 3532,
      "ĠRe": 3533,
      "Ð½Ð¾Ð»Ð¾Ð³Ð¸": 3534,
      "ĠÐ¿Ð¾Ð´Ð½Ð¸Ð¼": 3535,
      "ĠÐ´Ð¸Ð°Ð¿Ð°Ð·Ð¾Ð½Ðµ": 3536,
      "ĠÐ½Ð°Ð¿ÑĢÐ°Ð²Ð»ÐµÐ½Ð½Ð¾ÑģÑĤÑĮ": 3537,
      "ĠÐºÐ¾ÑĢÐ¾ÑĤÐºÐ¾Ð¹": 3538,
      "Ð°Ð³Ð°ÐµÑĤ": 3539,
      "ĠÑĢÑĭÐ½Ð¾Ñĩ": 3540,
      "ĠÐ´Ð¸Ð²ÐµÑĢ": 3541,
      "ĠÐ·Ð½Ð°ÑĩÐ¸ÑĤÐµÐ»ÑĮÐ½Ð¾": 3542,
      "ĠÐ²ÑĩÐµÑĢÐ°ÑĪ": 3543,
      "ĠÐ¿ÑĢÐ¾ÑĤÐ¾ÑĢÐ³Ð¾Ð²": 3544,
      "ĠÐ¿ÑĢÐ¾Ð¸Ð·Ð²Ð¾Ð´ÑģÑĤÐ²Ð°": 3545,
      "ÑĥÐµÑĤ": 3546,
      "ĠÐ¿ÑĥÐ±Ð»Ð¸ÐºÐ°": 3547,
      "ÐĲÐ¡": 3548,
      "ĠÑģÐµÐºÑĤÐ¾ÑĢ": 3549,
      "ÑģÑģÐ¸Ñı": 3550,
      "ĠÑĥÑģÑĤÐ¾Ð¹ÑĩÐ¸Ð²": 3551,
      "Ġ37": 3552,
      "ĠÑĢÐ°ÑģÑģÐºÐ°Ð·": 3553,
      "ĠÐµÐ²ÑĢÐ¾Ð¿ÐµÐ¹": 3554,
      "ĠÑģÑĤÑĢÐ°ÑĤÐµÐ³Ð¸Ð¸": 3555,
      "ĠÐ´ÑĢÑĥÐ³Ð¸Ñħ": 3556,
      "ÑģÐ²ÑıÐ·ÑĮ": 3557,
      "Ð¹ÑĤÐµ": 3558,
      "ĠÐ¿Ð¾Ð»Ð½Ð¾ÑĨÐµÐ½": 3559,
      "ĠÐ°Ð²ÑĤÐ¾Ð¼": 3560,
      "ĠÐ½ÑĥÐ¶ÐµÐ½": 3561,
      "ÑĥÑİÑīÐ¸": 3562,
      "ĠÑĢÐ¾ÑģÑĤÐ¾Ð¼": 3563,
      "ĠÐ½Ð¸Ð¶Ð½ÐµÐ¹": 3564,
      "./": 3565,
      "ÑĥÑİÑī": 3566,
      "86": 3567,
      "ĠÐºÐ¾Ð»Ð¸ÑĩÐµ": 3568,
      "ĠÐłÑĥÐ±": 3569,
      "82": 3570,
      "ĠÐ´Ð¾ÑģÑĤÐ°ÑĤÐ¾ÑĩÐ½Ð¾": 3571,
      "ÑģÑĤÐµÐ¹": 3572,
      "ÑĩÐµÐ½ÑĮ": 3573,
      "39": 3574,
      "ĠÐ¿ÑĢÐ¾Ð³Ð½Ð¾Ð·Ñĭ": 3575,
      "Ð¯": 3576,
      "ĠÐ½Ð°ÑĩÐ¸Ð½Ð°": 3577,
      "Ð¸Ð´ÑĢÐ¾": 3578,
      "ĠÐ°Ð»": 3579,
      "ĠÑĤÐ¾ÑĢÐ³Ð¾Ð²ÑĥÑİ": 3580,
      "Ġ90": 3581,
      "ĠÑĢÐ°Ð·Ð²Ð¸ÑĤÐ¸Ñı": 3582,
      "ĠÑĨÐ¸ÑĦ": 3583,
      "ĠÑģÑĢÐ°Ð²Ð½ÐµÐ½Ð¸Ñİ": 3584,
      "un": 3585,
      "ÑģÐºÐ¾Ð¼Ñĥ": 3586,
      "Ð°Ð½Ñģ": 3587,
      "Ð½Ð°Ð´": 3588,
      "Ġ800": 3589,
      "ĠÐºÐ¾Ð½ÑĨÑĥ": 3590,
      "ÐºÐ¸Ð¹": 3591,
      "ĠÐ¦ÐµÐ»Ðµ": 3592,
      "ÑĤÐµÑģÑĤÐ¸": 3593,
      "ĠÐºÐ°Ð¿Ð¸ÑĤÐ°Ð»Ð°": 3594,
      "ĠÑĩÐ¸ÑģÐ»Ðµ": 3595,
      "ĠÐ¸Ð½ÑĤÐµÑĢÐ²Ð°Ð»Ðµ": 3596,
      "ĠÐ¿Ð¾ÑĤÐ¾Ðº": 3597,
      "ĠÐºÑĢÐ°ÑĤÐºÐ¾ÑģÑĢÐ¾ÑĩÐ½Ð¾Ð¹": 3598,
      "ĠÐ²ÑĭÑĢÐ°Ð¶": 3599,
      "ÐµÑĢÐ°Ñħ": 3600,
      "ĠÑģÐ¾Ð²ÐµÑĤ": 3601,
      "ĠÐºÑĢÐ°ÑģÐ½Ð¾Ð¹": 3602,
      "ĠÐŁÑĢÐµÐ´": 3603,
      "ĠÐĿÑĥÐ¶": 3604,
      "ÑĭÐ²": 3605,
      "ĠÑģÑĢÐµÐ´Ð¸": 3606,
      "ĠÑĥÑĩÐ°ÑģÑĤÐ¸": 3607,
      "ĠÐ¿ÐµÑĢÑģÐ¿ÐµÐºÑĤÐ¸Ð²Ñĭ": 3608,
      "ĠÐŁÑĢÐ¾Ð¼ÑģÐ²ÑıÐ·ÑĮ": 3609,
      "ĠÐ½ÐµÑĦÑĤÐµ": 3610,
      "ĠÐ´Ð¸Ð²Ð¸Ð´ÐµÐ½Ð´Ð°Ð¼Ð¸": 3611,
      "ĠÐ´Ð¾Ð»Ð»Ð°ÑĢ": 3612,
      "ĠÐŁÐ¾Ñĩ": 3613,
      "ĠÐ¿Ð¾Ð´ÑĢÑıÐ´": 3614,
      "Ġ2009": 3615,
      "ĠÐ²ÐµÑģÑĮ": 3616,
      "ÑĥÑĢÐ³ÑĥÑĤ": 3617,
      "ĠÐ¸Ð´ÐµÐ¸": 3618,
      "ÑģÐ¾": 3619,
      "ÐĵÐ¸Ð´ÑĢÐ¾": 3620,
      "ĠÑģÐ²ÑıÐ·Ð°": 3621,
      "ĠÐ¦ÐµÐ»ÐµÐ²Ð°Ñı": 3622,
      "Ġ170": 3623,
      "ĠÑĥÑĤÑĢÐµÐ½": 3624,
      "ĠÑıÐ½Ð²Ð°ÑĢÐµ": 3625,
      "ĠÐ½Ð°Ð¿ÑĢÐ°Ð²Ð»ÐµÐ½Ð¸Ð¸": 3626,
      "ĠÐ¼ÐµÑģÑıÑĩÐ½Ð¾Ð¼": 3627,
      "ĠÐŁÑĢÐ¾Ð¼ÑģÐ²ÑıÐ·ÑĮÐ±Ð°Ð½Ðº": 3628,
      "ĠÑģÐ´ÐµÑĢÐ¶Ð¸": 3629,
      "ĠÑĥÑĢÐ¾Ð²Ð½Ñİ": 3630,
      "ĠÐºÐ²Ð°ÑĢÑĤÐ°Ð»Ð°": 3631,
      "ĠÐ²Ð¾Ð»Ð½Ð°": 3632,
      "ĠÐ¾Ð±ÑıÐ·": 3633,
      "ĠÐ¾Ð±Ð½Ð¾Ð²Ð»ÐµÐ½Ð¸Ñı": 3634,
      "ĠÐ¿ÑĢÐ¾ÑĤÐµÑģÑĤÐ¸": 3635,
      "ĠÐŁÑĢÐ¾Ð±": 3636,
      "ĠÐ¼Ð½Ð¾Ð³Ð¾Ð»ÐµÑĤ": 3637,
      "ĠÐ´ÑĢÑĥÐ³": 3638,
      "Ð¼ÐµÐ½Ð¸": 3639,
      "Ð¾Ð¿ÑĢÐµÐ´ÐµÐ»": 3640,
      "ĠÐ·Ð½Ð°ÑĩÐ¸ÑĤ": 3641,
      "ĠÑģÐ½Ð¸Ð¶ÐµÐ½Ð¸ÐµÐ¼": 3642,
      "ĠÑģÐ¾ÑģÑĤÐ°Ð²Ð¸ÑĤÑĮ": 3643,
      "ÐµÐºÑĤÐ°": 3644,
      "ÑĥÑīÐ¸Ð¹": 3645,
      "ĠÑģÐ¸Ð³Ð½Ð°Ð»Ð¾Ð²": 3646,
      "ĠÑĥÐ»ÑĥÑĩÑĪ": 3647,
      "ĠÐ¾Ð±Ð¾Ð·": 3648,
      "ĠÐµÐ¶": 3649,
      "ĠÐĺÐ½Ð²ÐµÑģÑĤÐ¸ÑĨÐ¸Ð¸": 3650,
      "ĠÑĥÑĢÐ¾Ð²Ð½ÑıÑħ": 3651,
      "ÐºÐ»Ð°": 3652,
      "ÑģÑĤÑĢÐ¾Ð¹": 3653,
      "ĠÐŀÐŁ": 3654,
      "Ð°Ð»ÑĮÐ½Ð¾Ð¹": 3655,
      "ĠÐºÐ¾ÑĤÐ¾ÑĢÑĭÑħ": 3656,
      "ĠÐ¾Ð¿ÑĤÐ¸Ð¼Ð¸": 3657,
      "%),": 3658,
      "ĠÐ¸Ð¼Ð¿Ð¾ÑĢÑĤ": 3659,
      "ÐºÑĥÐ¿": 3660,
      "Ð°ÑĤÐµÐ»Ð¸": 3661,
      "ĠÐ²ÑĭÑģÐ¾ÐºÐ¸Ðµ": 3662,
      "ĠÐ¾ÑĤÐºÑĢÐ¾ÐµÑĤÑģÑı": 3663,
      "ĠÑĢÑĭÐ½ÐºÐ¾Ð¼": 3664,
      "ĠÐ¦ÐµÐ½Ñĭ": 3665,
      "ĠÐ½Ð°ÑĩÐ°Ð»": 3666,
      "ĠÐĹÐ°Ðº": 3667,
      "ĠÐ¾ÑĤÐºÑĢÐ¾ÐµÑĤ": 3668,
      "Ġ67": 3669,
      "ĠÐ·Ð°ÐºÑĢÐµÐ¿Ð¸Ð»Ð°ÑģÑĮ": 3670,
      "ĠÐ»ÑĮÐ³Ð¾ÑĤ": 3671,
      "ĠÐ±Ð¾ÐºÐ¾Ð²Ð¸Ðº": 3672,
      "ĠÑģÑĤÑĢÐ°ÑĤÐµÐ³Ð¸": 3673,
      "ĠÑģÑĢÐµÐ´Ð½Ð¸Ñħ": 3674,
      "ĠÑģÑĢÐµÐ´Ð½ÐµÑģÑĢÐ¾ÑĩÐ½Ð¾Ð¹": 3675,
      "ĠÑģÐ¿ÐµÐºÑĥÐ»ÑıÑĤÐ¸Ð²": 3676,
      "ĠÐ³Ð»ÑĥÐ±Ð¾Ðº": 3677,
      "Ð°Ð½Ð´": 3678,
      "ĠÐ¾ÑĤÐºÑĢÑĭÑĤÐ¸Ðµ": 3679,
      "ĠÐ¾Ð´Ð¾Ð±": 3680,
      "ĠÐºÐ¾Ð¼Ð¼ÐµÐ½ÑĤÐ°ÑĢÐ¸Ð¸": 3681,
      "ÑĩÑĮ": 3682,
      "ĠÐ²Ð¾Ð·Ð»Ðµ": 3683,
      "ĠÐ´Ð¾ÑģÑĤÐ¸Ð³Ð½ÑĥÑĤ": 3684,
      "ĠÐºÐ»ÑİÑĩÐµÐ²": 3685,
      "UM": 3686,
      "ĠÐ²ÑĭÐºÑĥÐ¿Ð°": 3687,
      "Ð¦Ðĳ": 3688,
      "ĠÐ¿Ð¾Ð´ÐµÑĪÐµÐ²ÐµÐ»Ð¸": 3689,
      "ĠÐ¾ÑĤÑĢÐ°Ð±Ð¾ÑĤ": 3690,
      "il": 3691,
      "ĠÐ½Ð°Ð²ÐµÑĢÑħ": 3692,
      "ÐºÐ°Ñı": 3693,
      "ĠÑĨÐµÐ»ÐµÐ²": 3694,
      "as": 3695,
      "ĠÐłÐµ": 3696,
      "ĠÐĺÐĺ": 3697,
      "ĠÐ¸Ð½Ð´ÐµÐº": 3698,
      "ot": 3699,
      "Ġ150": 3700,
      "ĠIn": 3701,
      "MIUM": 3702,
      "REMIUM": 3703,
      "ĠÐłÐ": 3704,
      "ĠÑģÑĩÐ¸ÑĤÐ°ÑİÑĤ": 3705,
      "ÑĩÐ°ÐµÑĤ": 3706,
      "ĠÐ´Ð¾ÑģÑĤÐ¸Ð¶ÐµÐ½Ð¸Ñı": 3707,
      "ÑĦÐ°": 3708,
      "ĠÐŀÐ±Ð¾ÑĢÐ¾ÑĤ": 3709,
      "ĠÐ²ÑģÐµÐ¼": 3710,
      "ĠÐ¿Ð¾ÑĤÑĢÐµÐ±Ð¸ÑĤÐµÐ»ÑĮ": 3711,
      "ĠÑįÑĤÐ¸Ñħ": 3712,
      "ĠÐ¿ÑĢÐµÐ´Ð¿Ð¾Ð»Ð¾Ð¶Ð¸ÑĤÑĮ": 3713,
      "ĠÐ¼ÐµÑĢÐµ": 3714,
      "ĠÐ¿Ð¾Ð´Ð´ÐµÑĢÐ¶ÐºÐ¾Ð¹": 3715,
      "ĠÑģÐ¾Ð²ÐµÑĤÐ°": 3716,
      "ĠÐ²Ð¿ÐµÑĢÐ²ÑĭÐµ": 3717,
      "ĠÐ¾Ð±ÑĢÐ°Ð·Ð¾Ð¼": 3718,
      "87": 3719,
      "ĠÑģÑĢÐ¾Ðº": 3720,
      "ĠÐºÐ¾Ð½ÑĤÑĢÐ°": 3721,
      "ÑĭÐ²Ð°ÐµÐ¼": 3722,
      "ĠÐ¾ÑĤÑĩÐµÑĤÐ½Ð¾ÑģÑĤÑĮ": 3723,
      "ĠÑĢÐ°ÑģÑģÑĩÐ¸ÑĤÑĭÐ²Ð°ÑĤÑĮ": 3724,
      "ĠÐºÐ°Ð¶Ð´": 3725,
      "ĠÑģÑĤÑĢÐµÐ¼": 3726,
      "ĠÑĨÐµÐ½Ñĥ": 3727,
      "ĠÐ¿Ð¾Ð´Ð´ÐµÑĢÐ¶ÐºÐ°": 3728,
      "ĠÑįÐºÑģÐ¿Ð¾ÑĢÑĤÐ°": 3729,
      "Ġ180": 3730,
      "ĠÐ»Ð¸ÐºÐ²Ð¸Ð´": 3731,
      "ĠÐ´ÑĢÐ°Ð¹Ð²ÐµÑĢÐ¾Ð¼": 3732,
      "ĠÐ¡Ð¾": 3733,
      "ĠÑĢÐµÐ¹ÑĤÐ¸": 3734,
      "ĠÐ²ÐµÑĢÐ½ÑĥÐ»Ð¸ÑģÑĮ": 3735,
      "ÑĩÑĥ": 3736,
      "ĠÑĢÐµÑĪÐµÐ½Ð¸Ñı": 3737,
      "ĠÐºÐ¾ÑĢÐ¸Ð´": 3738,
      "Ð²Ð¸Ð¶Ð¸Ð¼": 3739,
      "ÐķÐļ": 3740,
      "Ð½ÑĮ": 3741,
      "ÑģÐºÐ¾": 3742,
      "ĠÐ½ÐµÑĦÑĤÑıÐ½Ð°Ñı": 3743,
      "ĠÐ½Ð°Ð±Ð»ÑİÐ´": 3744,
      "ĠÐļÐ¾Ð¼": 3745,
      "ĠÐ¦ÐµÐ»Ð¸": 3746,
      "ĠÐ¸ÑģÐºÐ»ÑİÑĩÐ°": 3747,
      "ÑĢÐ°Ð·Ñĥ": 3748,
      "ĠÐľÐ°Ð³Ð½Ð¸ÑĤ": 3749,
      "Ð¾Ð²Ð°Ð½Ð¸Ðµ": 3750,
      "ĠÐ¾ÑĤÑĭÐ³": 3751,
      "ĠÑģÑĤÐ°Ð²ÐºÐ°": 3752,
      "ĠÐ¼Ð°Ñģ": 3753,
      "Ġ110": 3754,
      "Ġ700": 3755,
      "ĠÐ²ÑĭÐ¿Ð»Ð°ÑĤÐ¸ÑĤÑĮ": 3756,
      "ĠÑĢÐµÐ´": 3757,
      "ĠÐ¸Ð¼Ð¿ÑĥÐ»ÑĮÑģÐ°": 3758,
      "ĠÐ¼ÐµÐ½ÐµÐ´Ð¶": 3759,
      "ĠÑģÐ²ÐµÑĢÑħÑĥ": 3760,
      "Ð¸Ð±Ð¾Ð»ÐµÐµ": 3761,
      "ĠÑĤÐ°ÐºÐ¾Ð³Ð¾": 3762,
      "ĠÑģÐ»ÐµÐ´ÑĥÑİÑīÐµÐ¹": 3763,
      "ĠÐłÑĥÐ±Ð»ÑĮ": 3764,
      "ĠÑģÑĦÐ¾ÑĢÐ¼Ð¸ÑĢÐ¾Ð²Ð°Ð½": 3765,
      "ĠÐ¿ÐµÑĢÐµÐ³ÑĢÐµ": 3766,
      "Ġup": 3767,
      "ÑĪÐµÐ¼": 3768,
      "ĠÐĿÐŀÐĴÐĲÐ¢ÐŃÐļ": 3769,
      "ĠÑĩÐ¸ÑģÑĤ": 3770,
      "ĠÐ¿Ð¾Ð´Ð¿Ð¸Ñģ": 3771,
      "ĠÐ¿Ð°Ðº": 3772,
      "ĠÐ¿Ð¾Ð²Ð¾Ð´": 3773,
      "ĠÐ·Ð°Ð²ÐµÑĢÑĪÐ¸": 3774,
      "ĠÑģÑĤÑĢÐ¾Ð¸ÑĤÐµÐ»ÑĮ": 3775,
      "Ð½Ð°Ð²": 3776,
      "ĠÐ´Ð¸ÑģÐº": 3777,
      "ÐºÐ¾Ð²Ð¾Ð´": 3778,
      "ĠÐ£ÑĩÐ¸ÑĤÑĭÐ²Ð°Ñı": 3779,
      "ÐµÑĢÐ¾ÑıÑĤ": 3780,
      "ĠÑĢÐµÐ³ÑĥÐ»ÑıÑĤÐ¾ÑĢ": 3781,
      "ÑĢÐ¾Ð²Ð°Ð½Ð¸Ðµ": 3782,
      "ÐºÑĥÐµÑĤ": 3783,
      "ĠÐ¸Ñģ": 3784,
      "ĠÐ¿ÑĢÑıÐ¼": 3785,
      "ĠÐļÐ°ÐºÐ¸Ðµ": 3786,
      "ĠÐ´Ð¸Ð½Ð°Ð¼Ð¸ÐºÐ°": 3787,
      "ĠÐĲÐ»ÐµÐºÑģ": 3788,
      "83": 3789,
      "ĠÑģÐµÐ½ÑĤÑıÐ±ÑĢÐµ": 3790,
      "Ð³ÐµÐ½": 3791,
      "ĠÐ±Ð»Ð¸Ð¶Ð°Ð¹ÑĪÐµÐµ": 3792,
      "ĠÑģÑĩÐ¸ÑĤÐ°ÐµÑĤ": 3793,
      "ĠÐ±ÑİÐ´Ð¶ÐµÑĤ": 3794,
      "ĠÑģÐ´ÐµÑĢÐ¶": 3795,
      "ĠÐ²Ð½Ðµ": 3796,
      "ĠÑĤÑĢÐ°Ð½": 3797,
      "ÑĨÐ¸Ð»Ð»ÑıÑĤÐ¾ÑĢ": 3798,
      "ÐºÑĥÑĢ": 3799,
      "ÑİÑīÐ¸Ð¼": 3800,
      "ĠÑĤÐµÑĢÑıÐµÑĤ": 3801,
      "ĠÑģÐ¼Ð¾Ð³ÑĥÑĤ": 3802,
      "ĠÐ±Ð»Ð°Ð³Ð¾Ð´Ð°ÑĢÑı": 3803,
      "ĠÐĺÐ½ÑĤÐµÑĢÑĦÐ°Ðº": 3804,
      "ĠÐ½Ð°Ðº": 3805,
      "ĠÑĤÐ¾ÑĢÐ³Ð¾Ð²ÐĿÐ°": 3806,
      "ĠÑĤÑĭÑģÑıÑĩ": 3807,
      "300": 3808,
      "ĠÑģÐ¸ÑģÑĤÐµÐ¼": 3809,
      "ĠÐ¿Ð¾ÑĤÐµÑĢÑıÐ»Ð¸": 3810,
      "ĠÐ¿Ð¾ÑģÑĤÐ°Ð²ÐºÐ¸": 3811,
      "ĠÐ·Ð°Ð²ÐµÑĢÑĪ": 3812,
      "ĠÑģÑĭ": 3813,
      "ÑħÐ¾Ð´Ð½Ð¾ÑģÑĤÑĮ": 3814,
      "ĠÑģÐ²ÑıÐ·Ð¸": 3815,
      "ĠÐ¿ÑĢÐ¸Ð¾ÑģÑĤÐ°Ð½Ð¾Ð²": 3816,
      "Ð¾Ð½Ñĩ": 3817,
      "ÑĤÑĮÑģÑı": 3818,
      "ĠÐ²Ð¾Ð·Ð¼Ð¾Ð¶Ð½Ð¾ÑģÑĤÐ¸": 3819,
      "ĠÐŀÐŁÐķÐļ": 3820,
      "ÑģÐ¸ÑĤ": 3821,
      "ĠÐĳÐ¾Ð»ÐµÐµ": 3822,
      "ĠÑĥÐ¿Ð°Ð»": 3823,
      "ĠÐ²ÐµÑĢÑĪÐ¸Ð½": 3824,
      "ĠÐºÐ°ÐºÐ¸Ðµ": 3825,
      "ĠÑĨÐµÐ»ÑıÐ¼Ð¸": 3826,
      "ĠÐ´Ð¾ÑģÑĤÐ¸Ð³Ð»Ð¸": 3827,
      "Ð¿ÑĢÐ¾Ð´Ñĥ": 3828,
      "ĠÐ¿Ð¾Ð²ÑĤÐ¾ÑĢ": 3829,
      "ĠÐ¿Ð¾ÑĢÑĤÑĦÐµÐ»ÑĮ": 3830,
      "Ð²Ð¾": 3831,
      "ĠÑĥÑģÑĤÐ°Ð½Ð¾Ð²": 3832,
      "ĠÐ¡ÑĥÑĢÐ³ÑĥÑĤ": 3833,
      "ĠÑģÐ¾Ð·Ð´Ð°ÐµÑĤ": 3834,
      "ĠÐ¿ÑĢÐµÐ´ÑĭÐ´ÑĥÑīÐµÐ³Ð¾": 3835,
      "ĠÑģÐ²Ð¾Ð¸Ñħ": 3836,
      "ĠÑģÐ¾Ð±ÑĢÐ°Ð½Ð¸": 3837,
      "ĠÐľÐµÐ¶": 3838,
      "ÐµÐ¶ÑĥÑĤÐ¾Ñĩ": 3839,
      "ĠÐ·Ð°ÐºÑĢÐµÐ¿Ð»ÐµÐ½Ð¸ÐµÐ¼": 3840,
      "ĠâĤ½/": 3841,
      "ĠÐ½Ð°Ð´ÐµÐ¶": 3842,
      "Ð´ÐµÐ½Ð¸Ñı": 3843,
      "ĠÐ²Ð»Ð°": 3844,
      "ĠÐ¸ÑİÐ»Ðµ": 3845,
      "ĠÐºÐ¾ÑĢÑĢÐµÐºÑĨÐ¸Ð¾Ð½": 3846,
      "ĠÐ²ÑĭÑħÐ¾Ð´Ð°": 3847,
      "ĠÐ°ÐºÑĤÐ¸Ð²Ð°": 3848,
      "ĠÐ³ÑįÐ¿": 3849,
      "44": 3850,
      "Ð¸Ð¡": 3851,
      "ÑıÐ¶": 3852,
      "ÐµÐ½Ñģ": 3853,
      "ĠÐ½ÐµÐµ": 3854,
      "ĠÑįÑĤÐ°": 3855,
      "ĠÑģÐ»ÐµÐ´Ð¸ÑĤÑĮ": 3856,
      "ĠÐ·Ð½Ð°ÑĩÐµÐ½Ð¸Ðµ": 3857,
      "ĠÐľÐµÐ¶Ð´Ñĥ": 3858,
      "ĠÐ¼ÐµÑģÑĤ": 3859,
      "ĠÐ¿ÑĢÐ¾Ð´Ð¾Ð»Ð¶Ð¸Ð»Ð¸": 3860,
      "ĠMA": 3861,
      "ĠÐ½ÐµÐ¾Ð¿ÑĢÐµÐ´ÐµÐ»": 3862,
      "ĠÐ³Ð¾Ð´Ð¾Ð²Ð¾Ð¹": 3863,
      "ĠÐ¢ÐµÑħÐ½Ð¸ÑĩÐµÑģÐºÐ¸Ðµ": 3864,
      "ĠÑģÐ¾ÐºÑĢÐ°ÑĤ": 3865,
      "ÐµÐ²Ð¾Ð¹": 3866,
      "ĠÑģÐ¾ÑĤ": 3867,
      "ĠÐ½ÐµÐ´Ð²Ð¸Ð¶Ð¸Ð¼": 3868,
      "Ð°Ð¿Ð¸ÑĤ": 3869,
      "Ð½Ð°Ð²Ð»Ð¸": 3870,
      "ĠÐ¿ÐµÑĢÐµÑĪÐ»Ð¸": 3871,
      "ÑĢÐ¾Ð·": 3872,
      "ÐµÐ»Ð°": 3873,
      "Ð°Ð³ÑĢÐ¾": 3874,
      "ĠÐ²Ð¾Ð·Ð¾Ð±Ð½Ð¾Ð²Ð»": 3875,
      "ĠÐºÐ°ÑĩÐµÑģÑĤÐ²Ðµ": 3876,
      "ĠÐ½ÐµÐºÐ¾ÑĤÐ¾ÑĢ": 3877,
      "ic": 3878,
      "Ð°ÑĢÐ°": 3879,
      "ĠÐ¿Ð»Ð°": 3880,
      "ÑĢÐµÐµ": 3881,
      "ĠÐ¿ÑĢÐ¾Ð¸Ñģ": 3882,
      "ĠÐ¿ÐµÑĢÐ²Ð¾Ð³Ð¾": 3883,
      "ĠÐ²Ð»Ð¾Ð¶": 3884,
      "ÑĤÐ¸Ðº": 3885,
      "ĠÐ³Ð»Ð°Ð²Ð°": 3886,
      "ĠÐ³Ð¾Ð´Ð¾Ð²ÑĭÑħ": 3887,
      "ĠÐŀÑĤÐºÑĢÑĭÑĤÐ¸Ðµ": 3888,
      "ĠÐ²ÑĭÐ¿Ð¾Ð»Ð½": 3889,
      "ĠÐ¿ÐµÑĢÐ²Ð°Ñı": 3890,
      "ĠÑģÑĤÐ°Ð²ÐºÐµ": 3891,
      "ĠÑģÐ²ÐµÑĩÐ°": 3892,
      "ĠÐ´Ð¸Ð°Ð¿Ð°Ð·Ð¾Ð½Ð°": 3893,
      "ĠÐĿÐ¾ÑĢÐ½Ð¸ÐºÐµÐ»ÑĮ": 3894,
      "ĠÑĢÐ¾ÑģÑģÐ¸Ð¹ÑģÐºÐ°Ñı": 3895,
      "of": 3896,
      "Ð¾Ð»Ð´Ð¸Ð½Ð³": 3897,
      "ÐºÐ¾ÑĢÐµÐµ": 3898,
      "ĠY": 3899,
      "ĠÐĵÐ¾Ñģ": 3900,
      "ĠÑģÐ¾Ð±ÑģÑĤÐ²ÐµÐ½": 3901,
      "ÑĦÐ¸ÑĢ": 3902,
      "ĠÐ½Ð°ÑĢÐ°ÑīÐ¸": 3903,
      "56": 3904,
      "ĠÐ¿Ð¾Ð´Ð´ÐµÑĢÐ¶Ð°ÑĤÑĮ": 3905,
      "ÐĳÐļ": 3906,
      "ĠÐĴÑĭÑģÐ¾ÐºÐ¸Ðµ": 3907,
      "ĠÐłÑĥÑģÐĵÐ¸Ð´ÑĢÐ¾": 3908,
      "ĠÐ´Ð¾Ð³": 3909,
      "ĠÐ½Ð°Ð³ÑĢÑĥÐ·": 3910,
      "ÑĦÐµÑĢ": 3911,
      "ÑĪÐ»Ð¾": 3912,
      "ĠÐ¡Ð¾Ð²ÐºÐ¾Ð¼": 3913,
      "Ð½ÐµÑĤÑģÑı": 3914,
      "Ð·Ð¾ÑĢ": 3915,
      "Ġ203": 3916,
      "ĠÐŁÐ¾Ð·Ð¸ÑĤÐ¸Ð²": 3917,
      "ĠÐ¸Ð·Ð¼ÐµÐ½Ð¸": 3918,
      "ĠÑĦÐ¸ÐºÑģÐ°": 3919,
      "ĠÐłÐ¾Ð¼": 3920,
      "ĠIT": 3921,
      "ters": 3922,
      "ĠÐ¾ÑĤÑģÐµÑĩ": 3923,
      "ĠÐ¸Ð½Ð²ÐµÑģÑĤ": 3924,
      "Ð´Ð°ÑİÑĤ": 3925,
      "Ð²ÑĭÐ¿Ð¾Ð»Ð½ÐµÐ½Ñĭ": 3926,
      "ĠÐ¼ÐµÑĤÐ°Ð»Ð»Ñĭ": 3927,
      "ÐµÐ¶Ð¸": 3928,
      "ĠÐĴÐ¸Ðº": 3929,
      "ĠÐ·Ð½Ð°ÑĩÐ¸ÑĤÐµÐ»ÑĮ": 3930,
      "ĠÐ²ÐµÑĢÑħÐ½ÐµÐ¹": 3931,
      "ĠÐºÐ°Ð¿Ð¸ÑĤÐ°Ð»Ð¸Ð·Ð°ÑĨÐ¸Ð¸": 3932,
      "ÑĩÐµÑģÐºÑĥÑİ": 3933,
      "ĠÐ¼Ð¸Ð½Ð¸Ð¼ÑĥÐ¼Ñĭ": 3934,
      "ĠÑģÐ²Ð¾ÐµÐ¹": 3935,
      "ĠÐ·Ð°ÐºÑĢÐµÐ¿Ð»ÐµÐ½Ð¸Ñı": 3936,
      "ĠHe": 3937,
      "ĠÐ²Ð¸Ð´Ðµ": 3938,
      "ÑĪÑĥÑİ": 3939,
      "ĠÑĤÐ¾ÑĢÐ³Ð¾Ð²Ð¾Ð³Ð¾": 3940,
      "ĠÐŃÑĤÐ¾ÑĤ": 3941,
      "ĠÐ¿ÑĢÐ¾ÑħÐ¾Ð´": 3942,
      "ĠÐ¿Ð¾ÐºÑĥÐ¿ÐºÑĥ": 3943,
      "ĠÐ¾Ð´Ð½Ð¾Ð¹": 3944,
      "ĠÐ°ÐºÑĤÐ¸Ð²Ð¸": 3945,
      "72": 3946,
      "EX": 3947,
      "ÐµÐ»ÐµÐºÐ¾Ð¼": 3948,
      "ĠÐŁÑĢÐ°Ð²Ð¸ÑĤÐµÐ»ÑĮÑģÑĤÐ²Ð¾": 3949,
      "ÐºÐ°Ð¶": 3950,
      "ÑĥÑģÐºÐ°ÐµÑĤÑģÑı": 3951,
      "ĠÐ¿Ð¾ÐºÐ°Ð·Ð°ÑĤÐµÐ»Ð¸": 3952,
      "ĠÐ¿Ð¾Ð´ÑĤÐ²ÐµÑĢÐ¶": 3953,
      "ĠÑģÐµÐ³": 3954,
      "ĠÑģÐ»Ð¾Ð¶Ð½Ð¾": 3955,
      "ĠÐ¿ÑĥÐ½ÐºÑĤÐ¾Ð²": 3956,
      "ĠÐĴÐ¸ÐºÑĤÐ¾ÑĢ": 3957,
      "68": 3958,
      "ÑĦÑĤ": 3959,
      "ĠÐºÐ¾ÑĤÐ¾ÑĢÐ¾Ð³Ð¾": 3960,
      "ĠÐĹÐ°Ð¿": 3961,
      "ÑĢÐµÐºÑĤÐ¸ÑĢÐ¾Ð²": 3962,
      "ĠÐ¼Ð¾Ð³": 3963,
      "ĠÑĢÑĥÐºÐ¾Ð²Ð¾Ð´": 3964,
      "ÑİÑīÐµÐ¹": 3965,
      "ĠÐ¥Ð¾Ð´": 3966,
      "ĠÐŁÐ¾ÑĤÐµÐ½ÑĨÐ¸": 3967,
      "Ð²Ð°ÑĤ": 3968,
      "ÑĢÐµÐ½Ð¸Ñı": 3969,
      "ĠÐ¡ÑĤÐ¾": 3970,
      "ĠÐ½ÐµÑĦÑĤÐµÐ³Ð°Ð·": 3971,
      "ĠÐ²Ð¾Ð·Ð²ÑĢÐ°Ñī": 3972,
      "ĠÑģÐ»Ð°Ð±Ð¾ÑģÑĤÑĮ": 3973,
      "Ð°Ð½Ð½ÑĭÐ¼": 3974,
      "Ð»Ð°Ð²Ð½Ð¾Ðµ": 3975,
      "92": 3976,
      "94": 3977,
      "ÑģÑıÑĤ": 3978,
      "ĠÐ¢ÐµÐ¿ÐµÑĢÑĮ": 3979,
      "2022": 3980,
      "ĠÑģÑĨÐµÐ½Ð°ÑĢÐ¸Ð¸": 3981,
      "ĠÐ¿ÑĢÐ¾Ð´Ð°Ð²ÑĨÑĭ": 3982,
      "ĠÑįÐ½ÐµÑĢÐ³ÐµÑĤÐ¸": 3983,
      "ĠÐºÐ»Ð¸ÐµÐ½ÑĤÐ¾Ð²": 3984,
      "ĠÐ¿ÑĢÐ°Ð²": 3985,
      "ĠÐ¼ÐµÐ½ÑĮ": 3986,
      "ÑįÐºÐ°": 3987,
      "CD": 3988,
      "Ð±Ð»Ð¾ÐºÐ¸": 3989,
      "ĠÐ¼Ð¾Ñī": 3990,
      "Ð¾Ð¼Ð¿Ð°Ð½Ð¸Ð¸": 3991,
      "ÐºÑĤÐ°": 3992,
      "ĠÐļÑĥÑĢ": 3993,
      "ĠÑģÑĢÐµÐ´Ð½ÐµÑģÑĢÐ¾ÑĩÐ½Ð¾Ð³Ð¾": 3994,
      "ĠÐ¿ÑĢÐ°ÐºÑĤÐ¸": 3995,
      "Ð»Ð¾Ð¼": 3996,
      "ĠÐ¡Ð¿": 3997,
      "ing": 3998,
      "Ð¾Ð½ÐºÐ¾Ð½": 3999,
      "ĠÑĢÐµÐ·ÑĥÐ»ÑĮÑĤÐ°ÑĤÐ°": 4000,
      "ĠÐŁÐ¾ÐºÐ°Ð·": 4001,
      "Ð¾Ð»ÐµÑĤÑĮ": 4002,
      "ĠÐ¿Ð¾Ð¿ÑĭÑĤÐºÐ¸": 4003,
      "ĠÑĥÑģÐºÐ¾ÑĢÐµ": 4004,
      "Ð¾Ð²Ð¾Ð»ÑĮÐ½Ð¾": 4005,
      "ĠMACD": 4006,
      "ĠÐ¿ÐµÑĢÐµÑģ": 4007,
      "ĠÐ¿Ð¾ÑģÑĤÐµÐ¿": 4008,
      "ĠÐļÐ°Ð¿Ð¸ÑĤ": 4009,
      "ĠÐĺÐ½Ð²ÐµÑģÑĤÐ¾ÑĢ": 4010,
      "bot": 4011,
      "ÑģÐ°Ð¹Ð´": 4012,
      "ĠÐ¾ÑĤÐ¼Ðµ": 4013,
      "aly": 4014,
      "ĠÐ¯Ð¿Ð¾": 4015,
      "81": 4016,
      "ĠÐ´Ð¸Ð²Ð¸Ð´ÐµÐ½Ð´Ð½Ð°Ñı": 4017,
      "Ð²ÑĭÐ¼": 4018,
      "ĠÐ´Ð¾ÑģÑĤÐ¸Ð³Ð»Ð°": 4019,
      "ĠÐ¸ÑģÑĤÐ¾ÑĢÐ¸ÑĩÐµÑģÐºÐ¸Ð¹": 4020,
      "ĠÐ²Ð½ÑĥÑĤÑĢÐµÐ½": 4021,
      "ĠÐŁÐ¾ÑĩÐµÐ¼Ñĥ": 4022,
      "at": 4023,
      "ĠÐ¿ÑĢÐµÐ¾Ð´Ð¾Ð»ÐµÑĤÑĮ": 4024,
      "ĠÑģÐ¸Ð»ÑĮÐ½Ð¾": 4025,
      "ĠÑĩÐ¸ÑģÑĤÐ°Ñı": 4026,
      "ĠÐ¾Ð¶Ð¸Ð´Ð°ÐµÑĤ": 4027,
      "uters": 4028,
      "ĠÑģÐ¸Ð»Ðµ": 4029,
      "ĠÐ´Ð¾ÑħÐ¾Ð´Ð½Ð¾ÑģÑĤÑĮÑİ": 4030,
      "ĠÐ¾Ð¿ÑĥÑģÑĤÐ¸Ð»Ð¸ÑģÑĮ": 4031,
      "ĠÐ¿ÑĢÐ¾Ð±Ð¸Ð»Ð¸": 4032,
      "ĠÑĥÑģÐ¿ÐµÑĪ": 4033,
      "ĠReuters": 4034,
      "ral": 4035,
      "ĠÐłÐĳÐļ": 4036,
      "ĠÐĽÐ¾ÐºÐ°Ð»ÑĮ": 4037,
      "ĠÐ¼Ð¸Ð»Ð»Ð¸": 4038,
      "ĠÐ·Ð°ÑıÐ²Ð¸Ð»": 4039,
      "ĠÑģÐµÑĢÐµÐ´Ð¸Ð½Ðµ": 4040,
      "ĠÐŁÑĢÐ¾Ð³Ð½Ð¾Ð·Ñĭ": 4041,
      "ĠÑĩÐ»ÐµÐ½": 4042,
      "ÐĴÐ½ÐµÑĪÐ½Ð¸Ð¹": 4043,
      "ĠÐ²Ð¾ÑģÑħÐ¾Ð´ÑıÑīÐµÐ¼": 4044,
      "ĠÐ²Ð»Ð¸ÑıÐ½Ð¸Ðµ": 4045,
      "Ð°ÑĢÐ³": 4046,
      "ÑĢÐ¾Ð²Ð°Ð½Ð½Ð°Ñı": 4047,
      "ĠÐ¡ÑĢÐµÐ´Ð½ÐµÑģÑĢÐ¾ÑĩÐ½ÑĭÐ¹": 4048,
      "62": 4049,
      "ĠÐ¾ÑĩÐµÐ½ÑĮ": 4050,
      "ĠÐ´Ð¾Ð²Ð¾Ð»ÑĮÐ½Ð¾": 4051,
      "ĠÑĢÐ°ÑģÑģÐ¼Ð°ÑĤÑĢÐ¸": 4052,
      "it": 4053,
      "Ð½ÐµÐ½Ð¸Ðµ": 4054,
      "ĠÑĩÐµÐ»": 4055,
      "Ġ160": 4056,
      "ĠÐ¿Ð¾ÑĢÑĤÑĦÐµÐ»Ñı": 4057,
      "ĠÐĲÐ»ÑĮ": 4058,
      "ĠÑħÐ¾Ð´Ðµ": 4059,
      "54": 4060,
      "ĠÑĩÐ°ÑģÐ¾Ð²Ð¸ÐºÐµ": 4061,
      "ĠÐ¸Ð½Ð¾ÑģÑĤÑĢÐ°Ð½Ð½ÑĭÑħ": 4062,
      "ĠÐ¿Ð°Ð´Ð°ÑİÑīÐ¸Ð¹": 4063,
      "ĠVK": 4064,
      "ĠÐ¾Ð±ÑıÐ·Ð°ÑĤÐµÐ»ÑĮ": 4065,
      "ÑĩÐ½ÑĭÑħ": 4066,
      "ÐµÐ½ÑĤÐ°Ð±": 4067,
      "ÑĤÐ¾ÑĢÐµ": 4068,
      "ĠÐ¿Ð¾Ð½ÐµÐ´ÐµÐ»ÑĮÐ½Ð¸ÐºÐ°": 4069,
      "ÑĩÐ°ÑģÐ¾Ð²Ð¾Ð¹": 4070,
      "ĠÐ»ÑİÐ±": 4071,
      "Ð¾Ð²Ð°Ð»Ð°": 4072,
      "ÐµÑĢÐ°Ð»ÑĮ": 4073,
      "ÐµÐ½ÑĤÐ°Ð±ÐµÐ»ÑĮ": 4074,
      "ĠÐºÑĥÐ±": 4075,
      "ĠÑĥÐ´Ð°": 4076,
      "ĠÑģÐ¾ÑħÑĢÐ°Ð½ÑıÑİÑĤÑģÑı": 4077,
      "66": 4078,
      "ÑħÐ¾Ð¶Ð´": 4079,
      "Ð²Ð¸Ð»Ð¸": 4080,
      "analy": 4081,
      "ÐµÑĢÑĮÐµÐ·": 4082,
      "ĠÐ¡ÐŁÐĳ": 4083,
      "ĠÐ¾ÑĨÐµÐ½ÐºÐ¸": 4084,
      "RDV": 4085,
      "ÐºÐ½Ð¾Ð²": 4086,
      "ÐµÐºÑĤÐ¸Ð²": 4087,
      "ÐĵÐļ": 4088,
      "ĠÐ±ÑĥÐ¼Ð°Ð³Ð°Ð¼": 4089,
      "ĠÐ°Ð²Ð³ÑĥÑģÑĤÐµ": 4090,
      "analytic": 4091,
      "ÑĩÐ½ÑĭÐ¹": 4092,
      "ĠÑĥÐ²Ð¸Ð´": 4093,
      "ĠÐ¿ÑĢÐ¾Ð³Ð½Ð¾Ð·Ð¸": 4094,
      "ĠÐ½Ð°Ð¼ÐµÑĢ": 4095,
      "ĠÐ·Ð¾Ð»Ð¾ÑĤÐ°": 4096,
      "ĠÐłÐ¾Ð¼Ð°Ð½Ð¾Ð²": 4097,
      "88": 4098,
      "ĠÐ¾ÑĤÐ¼ÐµÑĤÐºÐ°": 4099,
      "ĠÐ´ÐµÐºÐ°Ð±ÑĢÐµ": 4100,
      "ĠÑĥÐ²ÐµÐ»Ð¸ÑĩÐ¸Ð»Ð°ÑģÑĮ": 4101,
      "ĠÑģÐºÐ¾Ð»ÑĮÐ·ÑıÑīÐ¸Ñħ": 4102,
      "Ġ450": 4103,
      "ĠÐ¾ÑģÐ½Ð¾Ð²Ð½ÑĭÑħ": 4104,
      "ĠÐ½Ð°Ð¹Ð´ÐµÐ½Ð°": 4105,
      "ÐµÑĢÐ¾Ð¼": 4106,
      "ĠÐºÐ¾Ð½ÑģÐ¾Ð»Ð¸Ð´Ð¸": 4107,
      "ĠÑĢÑĭÐ½ÐºÑĥ": 4108,
      "ĠÐ¿Ð¾ÑģÐ»ÐµÐ´Ð½Ð¸Ñħ": 4109,
      "rals": 4110,
      "ĠÐŁÐµÑĢÐµ": 4111,
      "ÑģÑĤÐ²Ð¸Ð¸": 4112,
      "ĠÐĲÑįÑĢÐ¾ÑĦÐ»Ð¾ÑĤÐ°": 4113,
      "ĠÑģÐ¼Ð¾Ð¶": 4114,
      "ĠÐ´Ð²Ð¸": 4115,
      "ÑĢÐ¾Ð²Ð°Ð»": 4116,
      "ĠÐľÐµÑĩ": 4117,
      "ÑģÐ»Ð¾": 4118,
      "Ð¸Ð½ÑĤ": 4119,
      "ĠÑįÐºÐ¾Ð½Ð¾Ð¼Ð¸ÐºÐµ": 4120,
      "ĠÐºÑĢÐ¸Ð¿": 4121,
      "ĠÐ°Ð»Ð¼Ð°": 4122,
      "ÑĢÐ°ÑģÑĤÑĢÑĥÐºÑĤÑĥ": 4123,
      "ĠÐ¿ÑĢÐ¾Ð¸Ð·Ð²Ð¾Ð´ÑģÑĤÐ²Ð¾": 4124,
      "ĠUrals": 4125,
      "ĠÐ²ÑĭÐ¿Ð»Ð°ÑĩÐ¸": 4126,
      "ÑģÑĤÐ²ÐµÐ½Ð½Ð¾": 4127,
      "ĠÐ´Ð¾Ð»Ð³Ð¾ÑģÑĢÐ¾ÑĩÐ½ÑĭÐµ": 4128,
      "ĠÐ¿ÑĢÐ¸Ð±Ð°Ð²Ð»ÑıÐµÑĤ": 4129,
      "ĠÐ¿Ð¸": 4130,
      "ĠÐ¢ÑĢÐ°Ð½Ñģ": 4131,
      "ĠÐ±Ð»Ð¸Ð¶Ð°Ð¹ÑĪÐµÐ¹": 4132,
      "ĠÐ²Ð»Ð¸ÑıÐµÑĤ": 4133,
      "ÑĢÑĥÐ±ÐµÐ¶": 4134,
      "unter": 4135,
      "Ð½Ð¸ÐºÐ°": 4136,
      "ÑĭÑĪÐ»": 4137,
      "Ð¾ÑģÐ»ÐµÐ´": 4138,
      "ĠÑĦÐ°Ð·": 4139,
      "ÑĨÐ¸ÑıÑħ": 4140,
      "ĠÑģÐ½Ð¸Ð¶ÐµÐ½Ð¸Ñİ": 4141,
      "lob": 4142,
      "ĠÐ½ÐµÑĢÐµÐ·Ð¸Ð´ÐµÐ½ÑĤ": 4143,
      "ĠÐ´ÑĢÑĥÐ³Ð¸Ðµ": 4144,
      "ĠÐŁÑĢÐ¾Ð±Ð¾Ð¹": 4145,
      "73": 4146,
      "Ð¸Ð»ÑĮ": 4147,
      "ĠÐ²Ð½ÐµÑĪÐ½Ð¸Ð¹": 4148,
      "ĠÐ±ÐµÑĢ": 4149,
      "ÑĪÐ¸ÑģÑĮ": 4150,
      "ĠÑĢÐ°ÑģÑģÐ¼Ð¾ÑĤ": 4151,
      "ĠÑĢÐµÐ¹ÑĤÐ¸Ð½Ð³": 4152,
      "lobal": 4153,
      "64": 4154,
      "Ð³ÑĢÐ¾": 4155,
      "Ð²Ð»ÐµÐ½Ð¸Ñİ": 4156,
      "ÐºÐ°Ð¼Ð¸": 4157,
      "Ġ32": 4158,
      "Ð¤Ð¸Ð½Ð°": 4159,
      "ĠÐ¾Ð¿ÐµÑĢÐ°ÑĨÐ¸Ð¾Ð½Ð½ÑĭÐµ": 4160,
      "ĠÑģÐ¾ÑĤÑĢÑĥÐ´": 4161,
      "ĠÐ¾ÑĤÑĢÐ°ÑģÐ»Ð¸": 4162,
      "Ð½Ð°Ð´Ð»Ðµ": 4163,
      "ĠÐ·ÐµÑĢ": 4164,
      "ĠÑĥÑĤÐ²ÐµÑĢÐ´Ð¸": 4165,
      "ĠÐ¼ÐµÐ¶Ð´ÑĥÐ½Ð°ÑĢÐ¾Ð´": 4166,
      "ĠÐ¾Ð¿ÑĥÐ±Ð»Ð¸ÐºÐ¾Ð²Ð°Ð»": 4167,
      "ĠÐ½ÐµÑĦÑĤÐµÐ¿ÑĢÐ¾Ð´Ñĥ": 4168,
      "ĠÑĥÑĢÐ¾Ð²Ð½ÐµÐ¼": 4169,
      "ĠÐ½Ð¾Ð²ÑĥÑİ": 4170,
      "ĠÐ´Ð¾Ð±ÑĭÑĩÐ¸": 4171,
      "ĠÐ¾Ð±Ð¾Ð·Ð½Ð°Ñĩ": 4172,
      "ĠHead": 4173,
      "ĠÐ½Ð°Ð¸Ð±Ð¾Ð»ÐµÐµ": 4174,
      "ÑģÑĤÐ¾ÑıÑī": 4175,
      "ĠÑĤÑĢÐµÑħ": 4176,
      "ĠÐ²ÐºÐ»Ð°Ð´": 4177,
      "Ð¿Ð¸": 4178,
      "ĠÐĺÑģÑĤÐ¾ÑĩÐ½Ð¸Ðº": 4179,
      "ĠÑĢÐµÐºÐ¾Ð¼ÐµÐ½Ð´Ð°ÑĨÐ¸Ð¸": 4180,
      "ĠGlobal": 4181,
      "ĠÐ²ÐµÑĢÐ¾ÑıÑĤÐ½Ð¾": 4182,
      "Ð¼Ð°ÑĢÐºÐµÑĤ": 4183,
      "ĠÐ¿ÑĢÐ¸Ð½Ð°Ð´Ð»Ðµ": 4184,
      "ĠÐ¡ÑĥÑĢÐ³ÑĥÑĤÐ½ÐµÑĦÑĤÐµÐ³Ð°Ð·": 4185,
      "..": 4186,
      "Ð½Ð³Ð°": 4187,
      "ĠÐ·Ð°Ð½Ð¸": 4188,
      "Ð°Ð³Ð¸": 4189,
      "ĠÐ¢ÑĥÑĢ": 4190,
      "ĠÐ³ÑĢÐ°Ð½Ð¸ÑĨÐµ": 4191,
      "ĠÑģÐ¾ÐºÑĢÐ°ÑīÐµÐ½Ð¸Ñı": 4192,
      "Ð¡Ð±": 4193,
      "ĠÐ·Ð°ÑĢÑĥÐ±ÐµÐ¶": 4194,
      "ÐµÐ³ÑĢÐ¸": 4195,
      "ĠÐ´Ð¾ÑħÐ¾Ð´Ð¾Ð²": 4196,
      "ĠÑĤÐ°ÐºÐ¸Ñħ": 4197,
      "Ð¾Ð½ÐºÐ¾Ð½Ð³": 4198,
      "ÑĪÐµÐ´": 4199,
      "ÐĳÐ°Ð½Ðº": 4200,
      "ĠÑĢÐµÐ·ÐºÐ¾": 4201,
      "ĠÐ´Ð¸Ð²ÐµÑĢÐ³ÐµÐ½": 4202,
      "ĠÑģÑĤÐ°Ð»Ð¾": 4203,
      "ĠÐ¿Ð¾Ð»Ð½Ð¾ÑģÑĤÑĮÑİ": 4204,
      "ĠÑģÐµÐ³Ð¾Ð´Ð½ÑıÑĪ": 4205,
      "RDVP": 4206,
      "ĠÐ¾ÐºÐ¾Ð½Ñĩ": 4207,
      "ĠÑģÐ²Ð¾Ñİ": 4208,
      "ĠÑĦÐ¾ÑĢÐ¼Ð¸ÑĢÐ¾Ð²Ð°Ð½Ð¸Ñı": 4209,
      "RDVPREMIUM": 4210,
      "TF": 4211,
      "ĠÑĢÐ°Ð·Ð¼ÐµÑĢ": 4212,
      "RDVPREMIUMbot": 4213,
      "ĠÐ¡Ð¾Ð±ÑĭÑĤÐ¸": 4214,
      "Ð½ÑĥÐ²": 4215,
      "ĠÐ³ÐµÐ¾Ð¿Ð¾Ð»Ð¸ÑĤÐ¸ÑĩÐµÑģÐºÐ¸Ñħ": 4216,
      "ĠÑĤÑıÐ½": 4217,
      "ÑĢÑĥÐµÐ¼": 4218,
      "Ð°Ð½ÑĤ": 4219,
      "ĠÑģÑĤÐ°Ð»Ð°": 4220,
      "ĠÐ¸Ð½ÑĦÑĢÐ°ÑģÑĤÑĢÑĥÐºÑĤÑĥ": 4221,
      "ĠÐ¾ÑģÐ»Ð°Ð±Ð»ÐµÐ½Ð¸Ðµ": 4222,
      "ĠÐĸÐ¸Ð¡": 4223,
      "Ð°ÑĤÐ¸ÑģÑĤÐ¸": 4224,
      "ĠÐ·Ð¾Ð»Ð¾ÑĤÐ¾": 4225,
      "ĠÐķÑģÑĤÑĮ": 4226,
      "ĠÐ¾ÑĤÑģÐºÐ¾": 4227,
      "ĠTe": 4228,
      "ĠÐ±ÑİÐ´Ð¶ÐµÑĤÐ°": 4229,
      "ĠÐĺÐ½Ð²ÐµÑģÑĤÐ¾ÑĢÑĭ": 4230,
      "ĠÐ·Ð°ÑģÐµÐ´Ð°Ð½Ð¸Ðµ": 4231,
      "89": 4232,
      "ĠÐ´ÐµÐ²": 4233,
      "ĠÐºÑĢÑĥÐ¿Ð½ÐµÐ¹ÑĪÐ°Ñı": 4234,
      "ĠÐĲÐ»ÑĮÑĦÐ°": 4235,
      "ÐµÑģÑıÑĩ": 4236,
      "Ð°Ð½Ð°Ð»Ð¸ÑĤÐ¸": 4237,
      "Ð¾Ð¹ÑĤÐ¸": 4238,
      "ĠÐ²ÐµÑĢÑĤÐ¸Ðº": 4239,
      "ĠÐ¿Ð¾ÐºÐ°Ð·Ð°ÑĤÐµÐ»ÑĮ": 4240,
      "ÑĢÐ°Ð±Ð°ÑĤ": 4241,
      "Ð±Ð¸ÑĢÐ°": 4242,
      "ĠÑĢÑıÐ´": 4243,
      "ÐµÑĨÐ¸": 4244,
      "ĠÐ´Ð°Ð²": 4245,
      "ĠÑģÑĭÑĢÑĮ": 4246,
      "Ð¾Ð»ÑĮÐºÑĥ": 4247,
      "ĠÑģÑĢÐµÐ´Ñĭ": 4248,
      "ĠÐ±Ð°Ð»": 4249,
      "ÐŁÐ¾Ð´": 4250,
      "ĠÐ³ÑĢÐ°Ð½Ð¸ÑĨ": 4251,
      "Ġ42": 4252,
      "ĠÐļÑĢÐ¸Ð²Ð°Ñı": 4253,
      "Ð²Ð°ÐµÐ¼": 4254,
      "ĠÐ¿ÑĢÐ¸Ð·Ð½Ð°": 4255,
      "Ġ900": 4256,
      "ĠÐ¿ÑĢÐ¾Ð´Ð¾Ð»Ð¶Ð¸ÑĤ": 4257,
      "ĠÑĢÐ°Ð·Ð²Ð¸ÑĤÐ¸Ðµ": 4258,
      "ĠÐ¡Ð¾Ð±ÑĭÑĤÐ¸Ñı": 4259,
      "ĠÐºÑĢÐ°Ð¹": 4260,
      "Ð´ÐµÑĢÐ¶ÐºÐ¸": 4261,
      "ĠÑĨÐ¸ÑĦÑĢÐ¾Ð²": 4262,
      "ĠÐ¾Ð´Ð¾Ð±ÑĢÐ¸": 4263,
      "ĠÐºÑĤÐ¾": 4264,
      "ĠÑĦÐ°ÐºÑĤÐ¾ÑĢÐ¾Ð¼": 4265,
      "Ð½Ð¸Ð¶ÐµÐ½Ð¸Ðµ": 4266,
      "Ð½Ð°Ð»Ð¸Ð·Ð¸": 4267,
      "ÑĢÐ¾ÑģÐ»Ð°": 4268,
      "ĠÐ¿Ð¾ÐºÑĥÐ¿Ð¾Ðº": 4269,
      "ĠÑĦÐµÐ²ÑĢÐ°Ð»ÑĮ": 4270,
      "ĠÐļÐ¸ÑĤÐ°Ðµ": 4271,
      "osi": 4272,
      "Hunter": 4273,
      "ÑģÐ½Ð¾": 4274,
      "ÑĨÐ¸Ð¾Ð½Ð°Ð»ÑĮ": 4275,
      "ÑģÐºÐ¾Ðµ": 4276,
      "ank": 4277,
      "63": 4278,
      "ĠÐ·Ð½Ð°ÑĩÐµÐ½Ð¸Ñı": 4279,
      "ÑĢÐ¾ÑģÑĤ": 4280,
      "ĠÑģÑĢÐµÐ´Ð½ÑıÑı": 4281,
      "ĠÐ¿ÑĢÐ¾Ð¼ÐµÐ¶ÑĥÑĤÐ¾Ñĩ": 4282,
      "ÑĨÐ¸Ð»Ð»ÑıÑĤÐ¾ÑĢÑĭ": 4283,
      "Ð¾Ð»Ð»": 4284,
      "ĠÐºÑĢÐ¸Ð·Ð¸": 4285,
      "ĠÑģÑĥÐ¼Ð¼Ñĥ": 4286,
      "ĠÐ´Ð²ÑĥÑħÐ»ÐµÑĤ": 4287,
      "ĠÐ¼Ð½Ð¾Ð³Ð¾Ð»ÐµÑĤÐ½Ð¸Ð¹": 4288,
      "Ð²Ð°Ð»Ð¸": 4289,
      "Ġ33": 4290,
      "Ð°ÑĤÐµÐ»ÐµÐ¹": 4291,
      "ĠÐ½Ð¾ÑıÐ±ÑĢÐµ": 4292,
      "ĠÐ»Ð¸Ð´ÐµÑĢÐ°Ñħ": 4293,
      "ĠÑĤÐ¾ÑĢÐ³Ð°Ñħ": 4294,
      "ĠÐ¸ÑģÐ¿Ð¾Ð»": 4295,
      "ĠÐ¼Ð½ÐµÐ½Ð¸Ñİ": 4296,
      "ĠÐŁÐ¾Ð»Ñİ": 4297,
      "ĠÐĿÐ¾Ð²Ð°ÑĤÑįÐºÐ°": 4298,
      "69": 4299,
      "ve": 4300,
      "ÐµÑī": 4301,
      "ĠÐĶÐ°Ð»ÐµÐµ": 4302,
      "Ð°ÐºÐ¸Ð¼": 4303,
      "ĠÐ²ÐµÑĢÑĤÐ¸ÐºÐ°Ð»ÑĮÐ½Ð¾": 4304,
      "ÑĭÑĤÐ°": 4305,
      "Ð²Ð°ÑİÑĤÑģÑı": 4306,
      "ÑĥÑĤÑģÑı": 4307,
      "ĠÑĢÑĭÐ½ÐºÐ¾Ð²": 4308,
      "ĠÐ¼Ð¸ÑĢÐµ": 4309,
      "ĠHeadHunter": 4310,
      "ĠÑĢÐ°Ð·ÑĢÐ°Ð±Ð¾ÑĤ": 4311,
      "ĠÑĥÐ²ÐµÐ»Ð¸ÑĩÐ¸ÑĤÑĮ": 4312,
      "ÑģÐ¸ÑĤÑĮ": 4313,
      "Ð¤Ðļ": 4314,
      "Ð¸Ð½Ñĥ": 4315,
      "Ð¿Ð¾Ð»Ð½Ðµ": 4316,
      "ĠÐ·Ð°Ð¿Ð°Ð´": 4317,
      "Ð§": 4318,
      "ĠÐ¾ÑģÑĤÐ°Ð»Ð¸ÑģÑĮ": 4319,
      "59": 4320,
      "ĠÑĢÐµÐµÑģÑĤ": 4321,
      "ĠÑģÐµÐºÑĤÐ¾ÑĢÐµ": 4322,
      "ĠÐ±ÐµÑĢÑĥÑīÐ¸Ð¹": 4323,
      "ÐµÐ³ÑĢÐ¸ÑĢÐ¾Ð²Ð°Ð½Ð½Ð°Ñı": 4324,
      "ĠÐ¿Ð¾Ðº": 4325,
      "ĠÐ½ÐµÐ³Ð¾": 4326,
      "ĠÐ¾ÑĤÐ»Ð¸Ñĩ": 4327,
      "ÐĶÐł": 4328,
      "ĠÐ²ÑĭÐ¹ÑĤÐ¸": 4329,
      "ĠÐļÐ°Ð·": 4330,
      "ĠCo": 4331,
      "Ð±ÑĭÐ»ÑĮ": 4332,
      "ĠÐ¦ÐµÐ»ÑĮÑİ": 4333,
      "Ð°Ð½Ð°Ð»Ð¸ÑĤÐ¸ÐºÐ°": 4334,
      "ÐµÐºÐ²Ð°ÑĢÑĤ": 4335,
      "ĠÐĶÐ°": 4336,
      "2023": 4337,
      "ĠÐ½ÐµÐ±Ð¾Ð»ÑĮÑĪ": 4338,
      "ÐµÐ½ÑģÑĥÑģ": 4339,
      "ĠÐ´Ð¾Ð»Ñİ": 4340,
      "600": 4341,
      "OEX": 4342,
      "ĠÐ½Ð¾ÑĢ": 4343,
      "ĠÑģÐµÑĢÑĮÐµÐ·": 4344,
      "Ð·Ð¼": 4345,
      "ĠÐĲÐŀ": 4346,
      "ĠÑĤÐ¾ÑĢÐ³Ð¾Ð²ÑĭÑħ": 4347,
      "ĠÑģÐ¸Ð»ÑĮÐ½ÑĭÐ¹": 4348,
      "ĠÐ¾Ð¶Ð¸Ð´Ð°Ð½Ð¸Ð¹": 4349,
      "ĠÐºÐ¾Ð¼Ð¼": 4350,
      "Ð¾Ð±Ð¸Ð»ÐµÐ¹": 4351,
      "ĠÑģÐºÐ¾ÑĢÐµÐµ": 4352,
      "Ġ350": 4353,
      "ĠÐ¾ÑģÑĤÐ°Ð½Ð¾Ð²": 4354,
      "ÑįÐ½ÐµÑĢÐ³Ð¾": 4355,
      "ĠÐ¿Ð¾Ð´Ð½ÑıÐ»Ð¸ÑģÑĮ": 4356,
      "ĠÐµÐ¶ÐµÐºÐ²Ð°ÑĢÑĤ": 4357,
      "ÑĤÐ¸Ð¹": 4358,
      "ÐµÐ³Ð°ÑĤÐ¸Ð²": 4359,
      "ĠÐ´Ð¾Ð»Ð¸": 4360,
      "Ġ109": 4361,
      "ĠÐ¿Ð¾Ð»Ð¾Ð³": 4362,
      "ĠÐ¢Ð°ÑĤ": 4363,
      "Ð¸Ð·Ð²Ð¾Ð´": 4364,
      "ĠÑģÑĢÐµÐ´ÑģÑĤÐ²Ð°": 4365,
      "ĠÐ¾Ð³ÑĢÐ°Ð½Ð¸ÑĩÐ¸": 4366,
      "ĠÐ´ÐµÐ½ÑĮÐ³Ð¸": 4367,
      "ĠÐ¸Ð·Ð¼ÐµÐ½ÐµÐ½Ð¸Ð¹": 4368,
      "ĠÐ¼ÐµÐ´Ð²Ðµ": 4369,
      "ĠÑĢÐ°ÑģÐ¿Ð¾Ð»Ð¾Ð¶": 4370,
      "ĠÐļÐ°Ð¿Ð¸ÑĤÐ°Ð»": 4371,
      "47": 4372,
      "Ð²ÑĪÐµÐ³Ð¾ÑģÑı": 4373,
      "ĠÐĸÐ´ÐµÐ¼": 4374,
      "ĠÐłÐµÐ·": 4375,
      "ĠÐ¿ÑĢÐ¾Ðº": 4376,
      "ĠÐĶÐ¾Ð»Ñı": 4377,
      "ĠÑįÑĤÐ¾Ð¼Ñĥ": 4378,
      "ĠÑĢÐ°ÑģÑĪÐ¸": 4379,
      "Ð¼Ð°Ð»ÑĮÐ½Ð¾": 4380,
      "ĠÐ¿Ð¾Ð´Ð½Ð¸Ð¼Ð°ÐµÑĤÑģÑı": 4381,
      "ÐµÑģÑĤÐ¸": 4382,
      "Ð´ÑĥÑĤ": 4383,
      "ĠÐ¿ÑĢÐµÐ´Ð»Ð°": 4384,
      "ĠÐ´Ð¾ÑħÐ¾Ð´Ñĭ": 4385,
      "ĠÑģÐ°Ð½ÐºÑĨÐ¸Ð¾Ð½": 4386,
      "ĠÐ¿Ð¾ÑıÐ²": 4387,
      "ĠÑģÐ»Ð°Ð±Ñĭ": 4388,
      "ĠÐ¿ÑĢÐ¾ÑĨÐµÐ½ÑĤÐ½ÑĭÑħ": 4389,
      "ĠÑģÐ¾ÑħÑĢÐ°Ð½Ð¸ÑĤÑĮ": 4390,
      "ĠÐĴÐ»Ð°Ð´Ð¸": 4391,
      "ĠÑĥÐ²Ð¸Ð´ÐµÑĤÑĮ": 4392,
      "ĠÐ¿ÑĢÐ¾ÑģÑĤÑĢÐ°Ð½": 4393,
      "Ð°Ð¹ÑĤÐµ": 4394,
      "52": 4395,
      "ÐºÐ°Ð·Ð°": 4396,
      "ĠÐ¿ÑĢÐ¸Ñĩ": 4397,
      "ĠÐ´Ð¾Ð»Ð³Ð¾ÑģÑĢÐ¾ÑĩÐ½Ð°Ñı": 4398,
      "ĠÑģÐ¸Ð³Ð½Ð°Ð»Ð°": 4399,
      "ĠÐºÑĢÑĥÐ¿Ð½ÐµÐ¹ÑĪÐ¸Ñħ": 4400,
      "ĠÐºÑĥÐ¿Ð¸ÑĤÑĮ": 4401,
      "Ð¶ÑĮ": 4402,
      "Ð°ÐºÑĨÐ¸Ñİ": 4403,
      "ĠÐ±ÑĥÐ¼Ð°Ð³Ð°Ñħ": 4404,
      "ĠÐ½ÐµÐ´ÐµÐ»ÑĮÐ½Ð°Ñı": 4405,
      "ĠÐ±Ð¾ÐºÐ¾Ð²Ð¾Ð¹": 4406,
      "ĠÐ¼ÐµÐ½ÑĮÑĪÐµ": 4407,
      "ÐµÐ½Ð½Ð°Ñı": 4408,
      "Ð±Ð¸Ð½Ð°": 4409,
      "ĠÐ¡Ðľ": 4410,
      "ĠÐ´Ð¸Ð²": 4411,
      "ĠÐ¿ÑĢÐ¾Ð¹ÑĤÐ¸": 4412,
      "ĠÑįÑĦÐ¸": 4413,
      "ĠÐ¢Ð°ÐºÐ¸Ð¼": 4414,
      "ĠÐ·Ð°Ð¼ÐµÑĤÐ½Ð¾": 4415,
      "ĠÐĿÐĶ": 4416,
      "ĠÐ¿ÑĢÐ¸Ð»Ð¾Ð¶": 4417,
      "Ð¾Ð¼Ð¸ÑĨÐ¸": 4418,
      "ĠÐ´Ð°Ð²Ð»ÐµÐ½Ð¸ÐµÐ¼": 4419,
      "ĠÐ±Ð°Ð½ÐºÐ¸": 4420,
      "43": 4421,
      "ia": 4422,
      "ÑģÐºÐ¾Ð»ÑĮÐºÑĥ": 4423,
      "ĠÐ·Ð°Ð¿Ð»": 4424,
      "ĠÐ¿Ð¾ÑģÐºÐ¾Ð»ÑĮÐºÑĥ": 4425,
      "ÑıÑĤÑĮÑģÑı": 4426,
      "ĠÐ¿Ð¾ÑĤÐµÑĢÑıÐ»": 4427,
      "ĠÐ°Ð¿ÑĢÐµÐ»Ðµ": 4428,
      "ĠÐ²ÑĤÐ¾ÑĢÐ½Ð¸ÐºÐ°": 4429,
      "ĠÐ²Ð¸Ð´Ð¸Ð¼": 4430,
      "ĠÑĢÐ°Ð·Ð¼ÐµÑīÐµÐ½Ð¸Ñı": 4431,
      "ÐºÐ»ÑİÑĩ": 4432,
      "ĠÐ³Ð¾Ð´Ð¾Ð¼": 4433,
      "ĠÑĥÑĩÐ°ÑģÑĤÐ½Ð¸ÐºÐ¾Ð²": 4434,
      "Ð¸Ð¼Ð¸": 4435,
      "Ð´Ð°Ð½": 4436,
      "Ð¶Ð¸ÑĤ": 4437,
      "ÑģÑĤÐ°Ð½Ð°Ð²Ð»Ð¸": 4438,
      "ĠÐ¿Ð¾ÐºÐ°Ð·Ð°Ð»Ð¸": 4439,
      "Ð½Ð¸Ñİ": 4440,
      "Ð¶Ð¸Ð¼": 4441,
      "ĠÐŁÑĢÐµ": 4442,
      "Ġ53": 4443,
      "ĠÐ¾ÑģÐ¾Ð±": 4444,
      "ĠÐºÑĥÑĢÑģÐ°": 4445,
      "ĠÐŀÐ¶Ð¸Ð´Ð°ÐµÐ¼": 4446,
      "58": 4447,
      "CS": 4448,
      "ĠÐ¼Ð¾Ð´": 4449,
      "ĠÐ½ÐµÐ´Ð°Ð²": 4450,
      "ĠÐ¾Ð´Ð½Ñĥ": 4451,
      "ĠÑĩÐµÑĤÐ²ÐµÑĢÐ³Ð°": 4452,
      "ĠÑģÐ½Ð¸Ð·Ñĥ": 4453,
      "ĠÐ¿ÑĢÐµÐ´ÐµÐ»": 4454,
      "ĠÐļÐ»ÑİÑĩÐµ": 4455,
      "ĠÐ´ÐµÑĦÐ¸ÑĨÐ¸": 4456,
      "ÐµÐ½ÑģÐ¸": 4457,
      "ĠÐ¡ÑĦÐ¾ÑĢÐ¼Ð¸ÑĢÐ¾Ð²": 4458,
      "Ð²Ð»ÑıÑİÑĤ": 4459,
      "ĠÐ¼Ð¸ÑĢÐ¾Ð²Ð¾Ð¹": 4460,
      "ĠÑģÐµÐ±Ñı": 4461,
      "ĠÑģÐµÐ·": 4462,
      "ÐµÑĤÐµÑĢÐ±": 4463,
      "ĠÐ¡Ð°Ð½Ðº": 4464,
      "ÐĲÐ³ÑĢÐ¾": 4465,
      "ĠÐ²ÑĭÐ¿Ð»Ð°ÑĤÑĥ": 4466,
      "ĠÐ´Ð°Ð»ÐµÐµ": 4467,
      "ĠÐŀÐ½": 4468,
      "ÑĩÐ¸Ð»Ð°": 4469,
      "ĠÑģÑĤÑĢÐ°Ð½Ð°": 4470,
      "49": 4471,
      "ĠÐ·Ð°Ð²Ð¾Ð´": 4472,
      "Ġ5000": 4473,
      "ĠÐ´Ð¾Ð¿ÑĥÑģÐºÐ°ÐµÑĤÑģÑı": 4474,
      "ĠÐ¾ÑģÐ»Ð°Ð±Ð»ÐµÐ½Ð¸Ñı": 4475,
      "ĠÐ³ÑĢÑĥÐ¿Ð¿Ñĭ": 4476,
      "ed": 4477,
      "ĠÐ²Ð¾Ð·Ð¼Ð¾Ð¶ÐµÐ½": 4478,
      "ĠÐ¾ÑĤÐ¼ÐµÑĤÐºÑĥ": 4479,
      "ba": 4480,
      "ĠÑģÐµÐ½ÑĤÐ¸": 4481,
      "ĠÐ³Ð¾Ð»": 4482,
      "Ġ\"#": 4483,
      "ĠÐĵÐ»Ð°Ð²Ð°": 4484,
      "ĠÐ²Ð¾Ð¿ÑĢÐ¾ÑģÑĭ": 4485,
      "ĠÑĢÐ¾Ð·Ð½Ð¸Ñĩ": 4486,
      "ĠÑģÐµÐ³Ð¼ÐµÐ½ÑĤ": 4487,
      "91": 4488,
      "ÑĥÐº": 4489,
      "ÐŀÐł": 4490,
      "Ð°Ð½Ð´ÐµÐ¼": 4491,
      "Ð²Ð°ÑĢ": 4492,
      "ĠÐ°ÐºÑĤÐ¸Ð²Ð½Ð¾ÑģÑĤÑĮ": 4493,
      "ĠÐ¿Ð¾Ð¼Ð¾Ñī": 4494,
      "ĠÐ·Ð°ÑıÐ²Ð¾Ðº": 4495,
      "ÐºÐ¾Ð³Ð¾": 4496,
      "ÐµÐ½ÐµÑģÑģ": 4497,
      "ĠÐ·Ð°ÑĢÐ°Ð±Ð¾ÑĤÐ°ÑĤÑĮ": 4498,
      "ÑħÐ°ÑģÑĤÐ¸": 4499,
      "ĠÐ¿Ð¾ÑģÑĤÑĥÐ¿": 4500,
      "Ð¾Ð±Ð¾Ð´": 4501,
      "ĠÐ¿ÑĢÐµÐº": 4502,
      "ÑģÑĤÐ¾ÑĢÐ¾Ð¶": 4503,
      "Ð³Ð¸Ð¸": 4504,
      "ĠÑģÐ°Ð¼ÑĭÑħ": 4505,
      "ĠÐ´ÐµÐ»Ð°ÑĤÑĮ": 4506,
      "Ð³Ð³": 4507,
      "ĠÑĢÐµÑĨÐµ": 4508,
      "ĠÐ·Ð°Ñī": 4509,
      "ĠÐ¾ÐºÐ°Ð·Ð°Ð»Ð¸ÑģÑĮ": 4510,
      "ĠÐ·Ð°Ð¿ÑĥÑģÐº": 4511,
      "ĠÐ²ÐµÑģ": 4512,
      "ÐµÐ½ÐµÑģÑģÐ°Ð½Ñģ": 4513,
      "57": 4514,
      "dex": 4515,
      "Ð½Ð¸Ð¼Ð¸": 4516,
      "ÐŁÐĺ": 4517,
      "ĠÑĢÐµÐ½ÑĤÐ°Ð±ÐµÐ»ÑĮ": 4518,
      "ĠÑĢÐµÐ°ÐºÑĨÐ¸Ñı": 4519,
      "ĠÑģÐºÐ¾ÑĢÑĢÐµÐºÑĤÐ¸ÑĢÐ¾Ð²": 4520,
      "ĠÐ¾Ð±ÑĭÐºÐ½Ð¾Ð²": 4521,
      "ĠÐĵÐ¾ÑģÐ´Ñĥ": 4522,
      "ĠÑĩÐµÐ»Ð¾Ð²": 4523,
      "ĠÐ²Ð¿Ð¾Ð»Ð½Ðµ": 4524,
      "ĠÐ·Ð°ÑĤÐµÐ¼": 4525,
      "ÐµÐ¹Ð»": 4526,
      "ĠÐłÐ¾ÑģÑģÐ¸Ñİ": 4527,
      "ĠÐ¿ÑĢÐ¾Ð±Ð¸Ð²": 4528,
      "ĠÐ´Ð¾Ð»Ð³Ð¾ÑģÑĢÐ¾ÑĩÐ½Ð¾Ð¼": 4529,
      "ĠÐ²ÑĭÐ³Ð»ÑıÐ´ÑıÑĤ": 4530,
      "ap": 4531,
      "ÐµÐ½Ð½ÑĥÑİ": 4532,
      "Ð¾Ð½Ð¾Ð²": 4533,
      "ĠÐ´Ð°Ð½Ð½ÑĭÑħ": 4534,
      "ĠÐ¿Ð¾ÑĤÑĢÐµÐ±ÑĥÐµÑĤÑģÑı": 4535,
      "ĠÑĦÑĮÑİÑĩÐµÑĢÑģ": 4536,
      "ÑĭÑĢÐµ": 4537,
      "ĠÐ²Ð°ÑĢÐ¸": 4538,
      "Ð¿Ð»Ð¸": 4539,
      "ĠÐ²ÑĭÑĢÐ°ÑģÑĤ": 4540,
      "ĠÐĺÐ¢": 4541,
      "ĠÐ¤ÑĥÐ½Ð´Ð°Ð¼ÐµÐ½ÑĤÐ°Ð»ÑĮ": 4542,
      "ĠÑĥÐ´Ð¾Ð±ÑĢÐµ": 4543,
      "ĠÐĺÐĺÐ¡": 4544,
      "ÐµÐ³Ð¸": 4545,
      "ĠÐĲÐ¤Ðļ": 4546,
      "ĠÑĥÐ¶ÐµÑģÑĤÐ¾Ñĩ": 4547,
      "ĠÐ³Ð»Ð¾Ð±": 4548,
      "ĠÐºÐ¾Ñģ": 4549,
      "ĠÑģÑĤÐ°ÑĤÐ¸ÑģÑĤÐ¸": 4550,
      "ĠÑģÐ¸ÑĤÑĥÐ°ÑĨÐ¸Ñı": 4551,
      "ĠÑĢÐ°ÑģÑħÐ¾Ð´Ð¾Ð²": 4552,
      "ĠÐĴÐ·": 4553,
      "ĠÐ²ÑĭÐ·": 4554,
      "ĠÐºÐ¾ÑĢÑĢÐµÐºÑĨÐ¸Ñİ": 4555,
      "ĠÑĦÐ¸Ð³Ñĥ": 4556,
      "Ð°Ð·Ð¸": 4557,
      "Ð»Ð¾Ð½": 4558,
      "ÑĥÐ·": 4559,
      "ĠÐ¿Ð¾Ð±": 4560,
      "Ð°Ð½Ð¸ÐµÐ¼": 4561,
      "Ð»ÑıÑĨÐ¸Ð¸": 4562,
      "ĠÐ³ÑĢÐ°ÑĦÐ¸Ðº": 4563,
      "ĠÐ´Ð¾Ð»Ñı": 4564,
      "ĠÑģÐ¾ÐºÑĢÐ°ÑĤÐ¸ÑĤÑĮ": 4565,
      "ĠÐŁÐ¾ÑĤÐµÐ½ÑĨÐ¸Ð°Ð»": 4566,
      "Ð°ÑĢÐ³ÐµÑĤ": 4567,
      "ĠÐ°Ð³": 4568,
      "ĠÐ¾Ð¶Ð¸Ð´Ð°ÑĤÑĮ": 4569,
      "ÑĥÐ´Ð¸": 4570,
      "Ġ74": 4571,
      "ĠÐ¿Ð¾Ð»Ð¾Ð³Ð¾Ð³Ð¾": 4572,
      "61": 4573,
      "ĠÐ´Ð¸Ð²Ð¸Ð´ÐµÐ½Ð´Ð½ÑĭÑħ": 4574,
      "Ð¾Ð»Ð¾ÑĤÐ¾": 4575,
      "ĠÐŁÑĥÐ»ÑĮÑģÐµ": 4576,
      "ĠÑĢÐµÐ´Ð¾Ð¼Ð¸ÑĨÐ¸": 4577,
      "ĠÐºÐ°ÑĢÑĤÐ¸Ð½Ñĭ": 4578,
      "ĠÐ½Ð¸ÑģÑħÐ¾Ð´ÑıÑīÐ¸Ð¹": 4579,
      "ĠÑĢÐµÐ³ÑĥÐ»Ñı": 4580,
      "ĠÑĤÐ¾Ð¿Ð»Ð¸": 4581,
      "ĠÐ²ÑģÑĤÑĢÐµ": 4582,
      "ĠÐ±Ð»Ð¾ÐºÐ¸": 4583,
      "ĠÑģÐ¿ÐµÑĨÐ¸": 4584,
      "ĠÐĿÐµÑģÐ¼Ð¾ÑĤÑĢÑı": 4585,
      "ĠÑģÐ¼Ð¾Ð¶ÐµÑĤ": 4586,
      "MOEX": 4587,
      "ĠÐ²Ð¾ÑģÑģÑĤÐ°Ð½Ð¾Ð²": 4588,
      "ĠÐ¿ÑĢÐ¾Ð´Ð°Ð¶Ðµ": 4589,
      "Ð¸ÑĤÐµÐ»Ð¸": 4590,
      "ĠÐ»Ð¾ÐºÐ°Ð»ÑĮÐ½Ð¾Ð³Ð¾": 4591,
      "ĠÐ·Ð°ÐºÑĢÐµÐ¿Ð»ÐµÐ½Ð¸Ðµ": 4592,
      "Ð¥": 4593,
      "ĠÐ²ÑĭÐ´ÐµÐ»": 4594,
      "Ð´Ð¾ÑħÐ¾Ð´Ð½Ð¾ÑģÑĤÑĮ": 4595,
      "ck": 4596,
      "Ð°ÑİÑĤÑģÑı": 4597,
      "Ð½Ð¸Ð¿ÑĢÐ¾": 4598,
      "ĠÐĿÐµÐ´ÐµÐ»ÑĮ": 4599,
      "ĠÐ¿ÑĢÐ¾Ð±Ð¾Ðµ": 4600,
      "Ð¼Ð°ÑĢÐºÐµÑĤÐ°": 4601,
      "ĠÑģÐ¾Ð¾ÑĤÐ²ÐµÑĤÑģÑĤÐ²ÐµÐ½Ð½Ð¾": 4602,
      "ÐĿÐł": 4603,
      "li": 4604,
      "Ð¼ÐµÑĤ": 4605,
      "ĠÑģÐºÐ°Ð·": 4606,
      "ĠÑĤÑĢÐ°": 4607,
      "ĠÐĺÐ½ÑĦ": 4608,
      "Ġ41": 4609,
      "ĠÑģÐ¸Ð³Ð½Ð°Ð»Ð¸Ð·Ð¸": 4610,
      "Ð¤Ð¸Ð½Ð°Ð¼Ð°": 4611,
      "no": 4612,
      "ĠÐ²ÑĭÐ±": 4613,
      "ĠÐºÐ¾Ð½ÐºÑĥÑĢ": 4614,
      "ĠÐ¿ÑĢÐ¾Ð²ÐµÐ´ÐµÑĤ": 4615,
      "Ð°ÑĤÐ¸Ð²Ñĥ": 4616,
      "ĠÐ¿ÐµÑĢÐµÐºÑĥÐ¿Ð»ÐµÐ½Ð½Ð¾ÑģÑĤÑĮ": 4617,
      "ĠUS": 4618,
      "ÑĢÐºÑĤÐ¸": 4619,
      "ĠÐŁÐ¾ÑįÑĤÐ¾Ð¼Ñĥ": 4620,
      "ĠÐ´Ð¾Ð»Ð¶Ð½Ñĭ": 4621,
      "ĠÐ¿Ð°Ð´Ð°ÑİÑĤ": 4622,
      "ĠÐĴÐµÑĢÐ¾ÑıÑĤ": 4623,
      "ĠÐ¾ÑĢÐ¸ÐµÐ½ÑĤÐ¸ÑĢÐ¾Ð¼": 4624,
      "Ð¾ÑĨÐ¸": 4625,
      "ĠÑĥÑĩÐ¸ÑĤÑĭÐ²Ð°": 4626,
      "ĠÑĦÐ¸Ð½Ð°Ð½": 4627,
      "ĠÐ±ÑĥÐ¼Ð°Ð³Ð°": 4628,
      "ĠÐ´ÑĢÐ°Ð¹Ð²ÐµÑĢÑĭ": 4629,
      "ÐµÑĢÐ¼": 4630,
      "ĠÐ¸Ð½Ð´Ð¸ÐºÐ°ÑĤÐ¾ÑĢÐµ": 4631,
      "ÐºÑģÐ¸": 4632,
      "ĠÑģÐ¼ÐµÑģÑĤ": 4633,
      "ĠÑģÑĥÑīÐµÑģÑĤÐ²ÐµÐ½Ð½Ð¾": 4634,
      "Ð²ÐµÑģÑĤ": 4635,
      "ĠÐ²ÑĭÑĪÐ»Ð°": 4636,
      "ĠÑĢÑĥÐ±ÐµÐ¶Ð°": 4637,
      "ĠÐ¿ÑĢÐµÐ¼Ð°ÑĢÐºÐµÑĤÐ°": 4638,
      "ĠÐ¿ÑĢÐ¾ÑĪÐ»Ð¾Ð¼": 4639,
      "ĠÐ¾ÑģÐ½Ð¾Ð²Ð½Ð°Ñı": 4640,
      "Ð½ÑĥÐ»Ð¸ÑģÑĮ": 4641,
      "ĠÐ·Ð°ÑģÐµÐ´Ð°Ð½Ð¸Ñı": 4642,
      "ĠÐ¡ÐľÐĺ": 4643,
      "Ġ130": 4644,
      "ĠÐ»Ð¸ÑģÑĤÐ¸": 4645,
      "ĠÐ°Ð²ÑĤ": 4646,
      "ĠÐ³ÑįÐ¿Ð°": 4647,
      "93": 4648,
      "Ð°Ð½Ð¾": 4649,
      "ĠÑģÐµÑĤÐ¸": 4650,
      "ĠÐ²Ð°Ð¼Ð¸": 4651,
      "ĠÐ¼Ð¾Ð½": 4652,
      "Ð¼Ð¸Ð½Ð¸": 4653,
      "ĠÐ±ÑĥÐ¼Ð°Ð³Ðµ": 4654,
      "ĠÐ¿Ð¾Ð»Ð¾Ð¶Ð¸ÑĤÐµÐ»ÑĮÐ½ÑĥÑİ": 4655,
      "ĠÐ¿ÑĢÐ¾Ð¸Ð·Ð¾ÑĪÐ»Ð¾": 4656,
      "120": 4657,
      "ĠÑģÐ¿Ð¸ÑģÐ¾Ðº": 4658,
      "ĠÐ¿Ð¾Ð»ÑĮÐ·Ð¾Ð²": 4659,
      "Ð¾Ð²ÑĥÑİ": 4660,
      "ÑĢÑĥÐ¶": 4661,
      "ĠÑģÑĢÐµÐ´Ð½ÐµÑģÑĢÐ¾ÑĩÐ½Ð¾Ð¼": 4662,
      "ĠÐºÐ»ÑİÑĩÐµÐ²ÑĭÐµ": 4663,
      "ĠÐ½Ð°ÐºÐ¾Ð¿": 4664,
      "Ġ2030": 4665,
      "ÑĪÑĤÐ°": 4666,
      "Ð°Ð»ÑĮÐ½Ð¾Ð³Ð¾": 4667,
      "ĠÑĩÐµÐ»Ð¾Ð²ÐµÐº": 4668,
      "99": 4669,
      "ĠÐ·Ð°Ð¿Ð°": 4670,
      "ĠÐ¶Ð¸Ð»ÑĮ": 4671,
      "ÐµÐ¼ÑģÑı": 4672,
      "ĠÐ¿Ð¾ÑģÐ»ÑĥÐ¶": 4673,
      "ĠÐ´Ð¸Ð²Ð¸Ð´ÐµÐ½Ð´Ð½Ð¾Ð³Ð¾": 4674,
      "ĠÐ²ÑĭÐ¿Ð»Ð°ÑĤÐ°": 4675,
      "Ð¿ÑĢÐ¾Ð³Ð½Ð¾Ð·": 4676,
      "ÑĪÐ¸ÑĢ": 4677,
      "Ð²Ð»ÐµÐ½Ð¸Ð¹": 4678,
      "ĠÐĲÐ²": 4679,
      "Ġ63": 4680,
      "ĠÐŃÑĤÐ¸": 4681,
      "ÑĨÐµÐ½Ð°ÑĢÐ¸Ð¹": 4682,
      "ĠÐ°ÐºÑĤÐ¸Ð²Ð½Ð¾": 4683,
      "ÑģÑĤÐµÐ¼Ð°": 4684,
      "ĠÑģÐ¾Ð¾Ð±ÑīÐ¸Ð»": 4685,
      "ĠÐ¸Ð´ÐµÑĤ": 4686,
      "ĠÐºÐ¾Ð¼Ð¸": 4687,
      "ĠÐ¼Ð°Ðµ": 4688,
      "ĠÑĢÐµÐ¶Ð¸Ð¼": 4689,
      "ĠÑģÐ¿Ð¾ÑģÐ¾Ð±ÑģÑĤÐ²Ð¾Ð²Ð°ÑĤÑĮ": 4690,
      "ĠÐļÐ¾Ð½Ñģ": 4691,
      "ĠÐºÑĢÑĥÐ³": 4692,
      "ĠÐ¿ÑĢÐ¾Ð¸ÑģÑħÐ¾Ð´Ð¸ÑĤ": 4693,
      "ÑĥÐ»ÑĮÑĤÐ¸": 4694,
      "ĠÐ·Ð°Ð¿ÑĢÐµÑĤ": 4695,
      "Ġ125": 4696,
      "ĠÐ¾ÑĤÑĩÐµÑĤÐ½Ð¾ÑģÑĤÐ¸": 4697,
      "Ð¸Ð½Ð°Ð¼": 4698,
      "ĠÐŀÐ¿Ð¾ÑĢÐ°": 4699,
      "ĠÑįÑĦÑĦÐµÐºÑĤ": 4700,
      "ĠÑħÐ¾ÑĤÑı": 4701,
      "ÑīÐ¸Ð¹": 4702,
      "ĠÐ¿ÐµÑĢÐµÐ²Ð¾Ð·": 4703,
      "ĠÑĩÐ°ÑģÑĤÐ½ÑĭÑħ": 4704,
      "gi": 4705,
      "ho": 4706,
      "Ð±Ð°": 4707,
      "ĠÐļÑĢÐ°ÑĤÐºÐ¾ÑģÑĢÐ¾Ñĩ": 4708,
      "ĠÐ¿Ð¾ÑģÐ»ÐµÐ´Ð½ÑİÑİ": 4709,
      "ĠÑģÐ¸Ð³Ð½Ð°Ð»Ñĭ": 4710,
      "ĠÐ¿Ð°ÐºÐµÑĤ": 4711,
      "ĠÑģÑĦ": 4712,
      "ĠÑģÐ²Ð¾Ð¹": 4713,
      "ĠÐ°Ð²Ð¸": 4714,
      "ĠÐłÐµÐ½ÐµÑģÑģÐ°Ð½Ñģ": 4715,
      "Ġ52": 4716,
      "ĠÐĹÐ½Ð°Ñĩ": 4717,
      "ĠÐĵÑĢÑĥÐ¿Ð¿Ð°": 4718,
      "ĠÐ½ÐµÐ´Ð²Ð¸Ð¶Ð¸Ð¼Ð¾ÑģÑĤÐ¸": 4719,
      "ÑĢÑıÑĤ": 4720,
      "ĠÐ¾Ñī": 4721,
      "ĠÑĨÐµÐ½ÑĤÑĢÐ°": 4722,
      "ĠÑĤÐµÐºÑĥÑīÐµÐ¼Ñĥ": 4723,
      "ĠÑģÐ¸Ð»ÑĮÐ½Ð¾Ð³Ð¾": 4724,
      "ĠÐ¾ÑĤÐ¼ÐµÑĩÐ°": 4725,
      "ĠÐ´Ð²Ð¸Ð³": 4726,
      "Ġ115": 4727,
      "ÐŀÐļ": 4728,
      "ĠÐļÐ¸": 4729,
      "ĠÐĵÐĶÐł": 4730,
      "ĠÐ²ÑĭÐºÑĥÐ¿Ð»": 4731,
      "ĠÑģÐ»Ð°Ð±ÐµÐµ": 4732,
      "ÑĢÐµÐ³Ð¸": 4733,
      "42": 4734,
      "ĠÐ¾ÑģÑĤÐ¾ÑĢÐ¾Ð¶": 4735,
      "ĠÑĢÑĥÐ±Ð»ÐµÐ²": 4736,
      "ĠÐºÐ¾ÑĤÐ¾ÑĢÐ¾Ðµ": 4737,
      "Ð¾ÑģÑĤÐ¾Ðº": 4738,
      "ĠÑĩÐµÑĤÑĭÑĢÐµ": 4739,
      "ĠÐĲÐ»ÐµÐºÑģÐ°Ð½Ð´": 4740,
      "ÐŁÐ¾Ð´Ð´ÐµÑĢÐ¶ÐºÐ¸": 4741,
      "ĠÐ²ÑĭÐ³Ð¾Ð´": 4742,
      "ĠÐ¿ÑĢÐ¾ÑĨÐµ": 4743,
      "ĠÑģÐ»Ð¾Ð²": 4744,
      "ĠÑĥÐ²ÐµÐ»Ð¸ÑĩÐµÐ½Ð¸Ðµ": 4745,
      "Ð¯Ð½Ð´ÐµÐºÑģ": 4746,
      "Ð²Ð»ÑıÑĤÑĮ": 4747,
      "ĠÐ¿ÑĢÐ¸Ð·": 4748,
      "ĠÑģÐ¼Ð¾Ð³Ð»Ð°": 4749,
      "ĠÑĦÐ¾ÑĢÐ¼Ð¸ÑĢÑĥÑİÑĤ": 4750,
      "ĠÐ²ÑĭÐ¿Ð»Ð°ÑĩÐ¸Ð²Ð°ÑĤÑĮ": 4751,
      "Ð±Ð¸Ð½Ð°ÑĢ": 4752,
      "ĠÐ¿Ð¾ÑĩÐµÐ¼Ñĥ": 4753,
      "ĠÐ¿Ð¾Ð¼Ð¾Ð³": 4754,
      "ĠÑģÐ¸Ð»Ñĥ": 4755,
      "ĠÑĥÑĤÑĢÐµÐ½Ð½ÐµÐ¹": 4756,
      "ĠÐºÐ¾Ð½ÑĤÑĢÐ¾Ð»Ð¸": 4757,
      "ĠÐ¿ÑĢÐµÐ¾Ð´Ð¾Ð»ÐµÐ½Ð¸Ðµ": 4758,
      "ĠTech": 4759,
      "ÐµÑĤÐµÑĢÐ±ÑĥÑĢÐ³": 4760,
      "he": 4761,
      "Ð±Ð¸Ð»Ð¸": 4762,
      "Ð¾ÑĤÐµÑħ": 4763,
      "ĠÐ¿ÐµÑĢÐ²Ð¾Ðµ": 4764,
      "is": 4765,
      "ra": 4766,
      "Ð¡Ð¾Ð¿ÑĢÐ¾ÑĤÐ¸Ð²Ð»ÐµÐ½Ð¸Ñı": 4767,
      "ÐºÐ¸Ð¼": 4768,
      "ÑĦÐ¸ÐºÑģÐ¸": 4769,
      "ĠÐ½ÐµÑĦÑĤÑıÐ½ÑĭÑħ": 4770,
      "ĠÐ´Ð¸ÑģÐºÐ¾Ð½": 4771,
      "Ð¾Ð½Ð¾Ð¹": 4772,
      "ÑĢÐ¾Ð²Ð°Ð½Ð½ÑĭÑħ": 4773,
      "ĠÑĢÐµÐ·ÑĥÐ»ÑĮÑĤÐ°ÑĤÐµ": 4774,
      "ĠÐ¸Ð½Ð´ÐµÐºÑģÐµ": 4775,
      "Ð¾ÐºÑĥ": 4776,
      "ĠÐ¿Ð¾Ð´Ð´ÐµÑĢÐ¶ÐºÐµ": 4777,
      "ĠÐ¿ÑĢÐ°ÐºÑĤÐ¸ÑĩÐµÑģÐºÐ¸": 4778,
      "SC": 4779,
      "Ð¶Ñĥ": 4780,
      "ĠÐ¾Ð¿Ð°Ñģ": 4781,
      "ĠÐºÐ°Ð¿Ð¸ÑĤÐ°Ð»": 4782,
      "ĠÐ¡ÑĤÐ°ÑĢÑĤ": 4783,
      "ĠÐ¿Ð¾ÑģÑĤÐµÐ¿ÐµÐ½Ð½Ð¾": 4784,
      "Ð²Ð°Ð½Ð¸Ñı": 4785,
      "ÑĢÑĭÐ²": 4786,
      "ĠÐ¾Ð¿ÑĥÑģÑĤ": 4787,
      "ĠÐ¿ÐµÑĢÐ²Ð¾Ð¼": 4788,
      "ĠÐ¿Ð¾Ð·Ð²Ð¾Ð»ÑıÑİÑĤ": 4789,
      "67": 4790,
      "ĠÐ·Ð°ÑĦÐ¸ÐºÑģÐ¸": 4791,
      "Ð¶ÐµÐ´Ð½ÐµÐ²": 4792,
      "ĠÐĿÐµÐ³Ð°ÑĤÐ¸Ð²": 4793,
      "ĠÐ´Ð°Ð½Ð½ÑĭÐ¹": 4794,
      "ĠÐ¾ÑĤÐ¼ÐµÐ½": 4795,
      "ĠÐ´Ð¸Ð²Ð¸Ð´ÐµÐ½Ð´Ð°Ñħ": 4796,
      "ĠÐ¾Ð±ÑĢÐ°ÑĤÐ¸ÑĤÑĮ": 4797,
      "ÐµÐ½Ð½Ð¾Ð¼": 4798,
      "ĠÐ¿ÑĢÐ¸Ð±Ð°Ð²Ð¸Ð»": 4799,
      "ÑĥÐ»ÑıÑĢ": 4800,
      "ĠÐ¾ÑĤÐºÑĢÑĭÑĤÐ¸Ð¸": 4801,
      "ĠÐ²ÐµÑĩÐµÑĢÐ½ÐµÐ¹": 4802,
      "ÑĥÐ»Ð»Ð¸": 4803,
      "ĠÐ¼Ð°Ð»": 4804,
      "ĠÑĥÐ´ÐµÑĢÐ¶Ð¸": 4805,
      "ĠÑĦÐ¸ÑĪ": 4806,
      "ĠÑĤÑĢÐµÐ±ÑĥÐµÑĤÑģÑı": 4807,
      "ÑĢÑıÐ¶": 4808,
      "ĠÐķÑīÐµ": 4809,
      "ĠÐ²ÑĭÑģÑĤÑĥÐ¿Ð¸ÑĤÑĮ": 4810,
      "ÑĤÑĢÐµÐ½Ð´": 4811,
      "ĠÑĤÐµÑħÐ½Ð¾Ð»Ð¾Ð³Ð¸": 4812,
      "ĠÑĨÐ¸ÐºÐ»Ð°": 4813,
      "ĠÐ¿ÑĭÑĤÐ°": 4814,
      "ĠÐ¡Ð½Ð¸Ð¶ÐµÐ½Ð¸Ðµ": 4815,
      "ĠÐ¼Ð¾Ð¼ÐµÐ½ÑĤÑĥ": 4816,
      "ĠÐ¸Ð¿Ð¾ÑĤÐµÐºÐ¸": 4817,
      "ÐºÑĢÐµÐ´Ð¸ÑĤ": 4818,
      "ÐµÐ½ÑĤÑĭ": 4819,
      "ĠÐ¶Ð´ÐµÑĤ": 4820,
      "Ġ2017": 4821,
      "ĠÑĢÐ°Ð·Ð½Ð¾Ð½Ð°Ð¿ÑĢÐ°Ð²Ð»ÐµÐ½Ð½ÑĥÑİ": 4822,
      "ĠÐľÐľ": 4823,
      "ĠÑģÐ´ÐµÐ»Ð¾Ðº": 4824,
      "ĠÐ¿Ð¾Ð¿ÑĭÑĤÐºÐ°": 4825,
      "ĠÐŁÐ¾ÐºÑĥÐ¿Ð°ÑĤÐµÐ»Ð¸": 4826,
      "ĠÐ¸Ð½Ð¸ÑĨÐ¸Ð°ÑĤÐ¸Ð²Ñĥ": 4827,
      "41": 4828,
      "53": 4829,
      "ĠÐ¿ÑĥÑĤÐ¸": 4830,
      "ĠÑĢÐ°ÑģÑĤÑĥÑīÐµÐ¼": 4831,
      "ÑħÐ¾Ð´ÑıÑĤ": 4832,
      "ĠÑģÐ¾ÑģÑĤÐ¾": 4833,
      "ĠÐ¿Ð¾Ð·Ð¸ÑĤÐ¸Ð²Ð½ÑĭÐµ": 4834,
      "ĠÑģÐ»ÐµÐ´ÑĥÑİÑīÐ¸Ðµ": 4835,
      "Ð¾Ð¿ÑĢÐ¾Ð²Ð¾Ð´": 4836,
      "Ġ51": 4837,
      "ÑĨÐ¸Ð¾Ð½Ð½ÑĭÐµ": 4838,
      "Ġ140": 4839,
      "ĠÐ¾ÑĤÑĩÐµÑĤÐ°": 4840,
      "ĠÑĢÐµÐ°ÐºÑĨÐ¸Ñİ": 4841,
      "ĠÐ½ÐµÑĢÐµÐ·Ð¸Ð´ÐµÐ½ÑĤÐ¾Ð²": 4842,
      "ĠÐ¿ÑĢÐ¸Ð½Ð°Ð´Ð»ÐµÐ¶Ð¸ÑĤ": 4843,
      "ÑĥÐ»ÑĮÑĤÐ¸Ð¿Ð»Ð¸": 4844,
      "ÐµÐ½Ð½Ð¾Ðµ": 4845,
      "ĠÐ²ÑĭÐ¿Ð»Ð°ÑĤÐµ": 4846,
      "ĠÑĤÐµÐ¼Ð¿Ñĭ": 4847,
      "ĠÑĤÐµÐ½Ð´ÐµÐ½ÑĨÐ¸Ñı": 4848,
      "ĠÐ¸Ð½Ð¸ÑĨÐ¸Ð°ÑĤÐ¸": 4849,
      "ĠÐ¿ÑĢÐ¾ÑĤÐ¾ÑĢÐ³Ð¾Ð²ÐºÐ¸": 4850,
      "ĠÑĢÑĥÐºÐ¾Ð²Ð¾Ð´Ð¸ÑĤÐµÐ»ÑĮ": 4851,
      "Ð¾ÑĢÐ¾Ð´": 4852,
      "Ġ250": 4853,
      "ĠÐĳÐµÐ»": 4854,
      "ĠÐ°Ð½Ð°Ð»": 4855,
      "ÑĪÐ¸Ð¹ÑģÑı": 4856,
      "ĠÐ¸Ð·Ð¼ÐµÐ½ÐµÐ½Ð¸Ñı": 4857,
      "ĠÑĦÐ¸ÐºÑģÐ°ÑĨÐ¸Ð¸": 4858,
      "71": 4859,
      "ĠÐ¿ÑĢÐµÐ´Ð»Ð¾Ð¶ÐµÐ½Ð¸Ñı": 4860,
      "ĠÐ±Ð»Ð°Ð³Ð¾Ð¿ÑĢÐ¸ÑıÑĤÐ½Ð¾Ð¹": 4861,
      "ÑģÐ¸Ð¼": 4862,
      "ÑįÐ¼Ð¸": 4863,
      "ĠÐ³Ð¾Ð´Ñĭ": 4864,
      "Ġ124": 4865,
      "ĠÐ²ÑĢÐµÐ¼ÐµÐ½Ð¸": 4866,
      "ĠÐ±ÑĥÐ´ÑĥÑīÐµÐ¼": 4867,
      "ÑĩÐ½ÑĭÐ¼": 4868,
      "ĠÐ¼Ð½Ð¾Ð³Ð¾": 4869,
      "ĠÐ¡ÑĨÐµÐ½Ð°ÑĢÐ¸Ð¹": 4870,
      "ĠÑĦÐ¸Ð½Ð°Ð½ÑģÐ¾Ð²ÑĥÑİ": 4871,
      "Ð·Ð°ÑĨÐ¸Ñİ": 4872,
      "ĠÑģÑĩÐµÑĤÐ°": 4873,
      "ĠÐ¾Ð±ÑĬÐµÐ¼Ñĭ": 4874,
      "ĠÐ³ÑĢÐ°Ð½Ð¸ÑĨÐ°": 4875,
      "ĠÐ¾ÑīÑĥÑĤÐ¸": 4876,
      "ĠÐĲÐ½": 4877,
      "ÑīÐ¸ÐºÐ¾Ð²": 4878,
      "ĠÐ¿ÑĢÐ¾Ð±Ð¾ÐµÐ¼": 4879,
      "ĠÐ£ÑĩÐ¸ÑĤÑĭÐ²Ð°ÐµÐ¼": 4880,
      "ĠÐ½ÐµÐ¾Ð±ÑħÐ¾Ð´Ð¸Ð¼Ð¾": 4881,
      "ĠÐ½Ð°ÑģÐµÐ»": 4882,
      "nolo": 4883,
      "ÑıÐ³": 4884,
      "ĠÐ²ÑĭÐ¿Ð¾Ð»": 4885,
      "ĠÐ¡Ð¸ÑĤÑĥÐ°": 4886,
      "ĠÐ¿Ð¾ÐºÐ°Ð·ÑĭÐ²Ð°ÐµÑĤ": 4887,
      "ĠÐ²Ð°Ð»ÑİÑĤÐ½Ð¾Ð¹": 4888,
      "ĠÑģÑĤÐ°ÑĢÑĤÐ¾Ð²Ð°Ð»Ð°": 4889,
      "ĠÐ·Ð°Ð½Ð¸Ð¼Ð°": 4890,
      "ÐµÑģ": 4891,
      "ĠÐ²Ð¸": 4892,
      "ĠÑĥÑĪÐ»Ð¸": 4893,
      "ĠÐ°Ð¿": 4894,
      "170": 4895,
      "ĠÑĪÐ°Ð³": 4896,
      "ĠÐĶÐ¾ÑģÑĤÑĥÐ¿": 4897,
      "ÐĺÐ½Ð²ÐµÑģÑĤÐ¸ÑĨÐ¸Ð¹": 4898,
      "Ð¿ÑıÑĤ": 4899,
      "ĠÐ¡ÐµÐ³": 4900,
      "ĠÐ¿ÑĢÐ¸Ð²ÐµÑģÑĤÐ¸": 4901,
      "ĠÐĿÐ°Ð±Ð¸": 4902,
      "ĠÐ²Ð¾ÑģÑģÑĤÐ°Ð½Ð°Ð²Ð»Ð¸": 4903,
      "ĠÐ¾ÑģÑĤÐ°Ð²Ð°ÑĤÑĮÑģÑı": 4904,
      "ĠÐ°ÐºÑĤÐ¸Ð²Ð½Ð¾ÑģÑĤÐ¸": 4905,
      "ĠÑģÐ¾ÑħÑĢÐ°Ð½ÑıÑİÑĤ": 4906,
      "ĠÐĿÐ°Ð±Ð¸ÑĥÐ»Ð»Ð¸": 4907,
      "ĠÐ¿ÑĢÐ°Ð²Ð¸ÑĤÐµÐ»ÑĮ": 4908,
      "ĠÐ²Ð»Ð°Ð´": 4909,
      "Ð°Ð½Ð½Ð°Ñı": 4910,
      "ĠÐ¿ÑĢÐ¾ÑĪÐµÐ´": 4911,
      "ĠÐ¿Ð¾Ð·Ð¸ÑĤÐ¸Ð²Ð½Ð¾": 4912,
      "ĠÐ¾Ð¶Ð¸Ð´Ð°Ð½Ð¸Ð¸": 4913,
      "ĠÐºÐ¾Ð½ÑĬÑİÐ½ÐºÑĤÑĥÑĢÑĭ": 4914,
      "Ð¡ÐµÐ²ÐµÑĢ": 4915,
      "ĠÐĵÐµÑĢÐ¼": 4916,
      "ĠPol": 4917,
      "ĠÑĢÐ°ÑģÑĤÑĥÑīÐ¸Ð¹": 4918,
      "ĠÑģÐ¾Ð¾Ð±ÑīÐ°ÐµÑĤ": 4919,
      "ĠUSD": 4920,
      "ĠÐ½Ð°Ð¿ÑĢÐ¸Ð¼ÐµÑĢ": 4921,
      "Ð¾ÑĢÑĮ": 4922,
      "ÑĨÐ¸ÑıÐ¼": 4923,
      "ÐĲÐĽ": 4924,
      "ÐĴÐĳ": 4925,
      "ĠÑĢÐ°ÑģÐ¿Ð¸ÑģÐºÐ¸": 4926,
      "ĠÐ·Ð½Ð°ÑĩÐµÐ½Ð¸Ð¹": 4927,
      "ĠÐ¿ÑĢÐ¾Ð¼ÑĭÑĪÐ»": 4928,
      "ĠÑĢÐµÐ³Ð¸Ð¾Ð½Ð°": 4929,
      "ĠÑįÐºÑģÐ¿ÐµÑĢÑĤÑĭ": 4930,
      "ĠÑĤÑıÐ½ÐµÑĤÑģÑı": 4931,
      "ĠÑģÑĤÐ¸": 4932,
      "Ð°ÑģÑĤÑĮ": 4933,
      "ÐµÐ´ÐµÑĢÐ°Ð»ÑĮ": 4934,
      "ĠÑĤÐ¾ÑĩÐºÐ¸": 4935,
      "ĠÐ¿ÑĢÐµÐ´Ð¿ÑĢÐ¸ÑıÑĤÐ¸": 4936,
      "ĠÐºÐ¾Ð»Ð¸ÑĩÐµÑģÑĤÐ²Ð¾": 4937,
      "ĠÑĩÐ»ÐµÐ½Ð°Ð¼": 4938,
      "Ð»ÑĥÐ±": 4939,
      "ĠÐ¾ÑĤÐ´ÐµÐ»ÑĮ": 4940,
      "ĠÑĢÐ°Ð·Ð²ÐµÑĢ": 4941,
      "ĠÑģÑĢÐµÐ´Ð½ÑİÑİ": 4942,
      "ĠÑģÐµÐ½ÑĤÑıÐ±ÑĢÑĮ": 4943,
      "ĠÐ²ÑĭÑģÐ¾ÐºÐ°Ñı": 4944,
      "ĠÑģÐ½Ð¸Ð·Ð¸Ð²ÑĪÐµÐ³Ð¾ÑģÑı": 4945,
      "ĠÐºÐ¾Ð½ÑĤÑĢÐ¾Ð»Ñı": 4946,
      "ĠÐ¡Ð¸ÑĤÑĥÐ°ÑĨÐ¸Ñı": 4947,
      "500": 4948,
      "Ð¼Ð±Ð°ÑĢ": 4949,
      "ĠÑĤÐ¾Ð¶Ðµ": 4950,
      "ĠÐ¾Ð±ÑĢÐ°Ñī": 4951,
      "ĠÑĢÐ°Ð·Ð²Ð¾ÑĢÐ¾ÑĤÐ°": 4952,
      "ĠÐ½Ð°ÑĪÐµÐ¼": 4953,
      "ĠÐ¯Ð¿Ð¾Ð½Ð¸Ð¸": 4954,
      "ĠTechnolo": 4955,
      "Ð¼Ð±Ð°ÑĢÐ³Ð¾": 4956,
      "96": 4957,
      "ÑĢÐ°ÑģÑĤÐ¸": 4958,
      "Ð¾Ð±Ð¸Ð»Ð¸": 4959,
      "ĠÐ¿ÑĢÐ¸ÑĤ": 4960,
      "ĠÐ¿ÑĢÐ¸Ð²ÐµÐ»": 4961,
      "ÐĲÐĹ": 4962,
      "ĠÑĤÑĢÐµÑĤÐ¸Ð¹": 4963,
      "ÑĥÐ»ÑĮÑĤÐ°ÑĤÑĭ": 4964,
      "ĠÐ´Ð¾Ð»Ð³Ð¾ÑģÑĢÐ¾ÑĩÐ½ÑĭÑħ": 4965,
      "ĠÑģÑĤÑĢÑĥÐºÑĤÑĥÑĢÐ¾Ð¹": 4966,
      "ĠÐ¶Ð´ÑĥÑĤ": 4967,
      "ĠÐ°ÐºÑĤÑĥÐ°Ð»ÑĮÐ½Ñĭ": 4968,
      "Ð½Ð¾Ð»Ð¾Ð³": 4969,
      "ym": 4970,
      "ÑĢÐ°Ð»": 4971,
      "ÑĢÐ°Ð»Ð¸": 4972,
      "ÐµÐ½ÑĮÑİ": 4973,
      "Ð½Ð¾ÑģÑĤÐµÐ¹": 4974,
      "ĠÐľÐ¾Ð¶": 4975,
      "ĠÑĢÐ°Ð·Ð´ÐµÐ»": 4976,
      "ĠÑĢÑĭÐ²": 4977,
      "ĠÐłÐ°Ñģ": 4978,
      "ers": 4979,
      "ĠÑĦÑĮÑİÑĩÐµÑĢÑģÑĭ": 4980,
      "ÑģÐºÐ¸Ð¼Ð¸": 4981,
      "ĠÐĺÐ¼Ð¿": 4982,
      "ĠÑĤÐ°ÐºÐ¾Ð¼": 4983,
      "ĠÑĤÐµÑħÐ½Ð¸ÑĩÐµÑģÐºÑĥÑİ": 4984,
      "ĠÐ¼Ð°ÐºÑģÐ¸Ð¼ÑĥÐ¼Ð°Ð¼": 4985,
      "ĠÐºÐ¾ÑĢÐ¿Ð¾ÑĢÐ°ÑĤÐ¸Ð²Ð½ÑĭÑħ": 4986,
      "ĠÐ¾ÑīÑĥÑĤÐ¸Ð¼": 4987,
      "ĠÐĳÐ¾Ð»ÑĮ": 4988,
      "ĠÑģÐ¼ÐµÐ½Ð¸": 4989,
      "ÐĺÐ½Ð²ÐµÑģÑĤÐ¸ÑĨÐ¸Ð¸": 4990,
      "gies": 4991,
      "51": 4992,
      "ĠÐ³Ð¾Ð´Ð¾Ð²Ð¾Ð¼": 4993,
      "ÑģÐ»Ñĥ": 4994,
      "ĠÑģÑĤÐ°Ð±Ð¸Ð»Ð¸": 4995,
      "ĠÐ¿Ð¾ÑĤÐ¾Ð»": 4996,
      "ĠÐ¿Ð¾Ð»Ð¸ÑĤÐ¸ÐºÑĥ": 4997,
      "ÑĥÐ²": 4998,
      "ÑĦÐ¸Ð½Ð°": 4999,
      "ĠÐ¿ÑĢÐ¾Ð²ÐµÑģÑĤÐ¸": 5000,
      "ĠÐ±ÑĥÐ¼Ð°Ð³Ð°Ð¼Ð¸": 5001,
      "ĠÐ²ÑĢÐµÐ¼ÐµÐ½Ð½Ð¾": 5002,
      "Ġ240": 5003,
      "ĠÐ¾ÑĤÐºÑĢÑĭÑĤÐ¸Ñİ": 5004,
      "ĠÐŃÐºÑģÐ¿ÐµÑĢ": 5005,
      "ĠÑĢÐ¸ÑĤ": 5006,
      "Ð¾Ð±Ð¾ÑĢÐ¾ÑĤ": 5007,
      "ĠÐ¿Ð¾Ð´Ð½ÑıÑĤÑĮ": 5008,
      "ĠÐĿÐ¾Ð²ÑĭÐ¹": 5009,
      "Ġ157": 5010,
      "ĠÐ§ÑĥÑĤÑĮ": 5011,
      "ĠÐ²ÑĭÑĢÐ°Ð¶ÐµÐ½Ð¸Ð¸": 5012,
      "ĠÐºÐ¾ÑĢÐ¸Ð´Ð¾ÑĢ": 5013,
      "da": 5014,
      "ĠÐ¸Ð½Ð²ÐµÑģÑĤÐ¸ÑĨÐ¸Ð¾Ð½Ð½ÑĭÑħ": 5015,
      "ĠÐ¿Ð¾Ð²ÐµÑģÑĤ": 5016,
      "ĠÐ½Ð¸ÑģÑħÐ¾Ð´ÑıÑīÐµÐ¼": 5017,
      "ĠÐ»Ð¾ÐºÐ°Ð»ÑĮÐ½ÑĭÑħ": 5018,
      "ĠÐ¿ÑĢÐ¾ÑģÐ°Ð´ÐºÐ°": 5019,
      "ĠÐľÐľÐĴÐĳ": 5020,
      "ÑĥÑĢÐ³Ð¸": 5021,
      "ĠÐ¶Ð´ÐµÐ¼": 5022,
      "ĠÑĢÐ°ÑģÑħÐ¾Ð´Ñĭ": 5023,
      "ĠÐ´Ð²ÑĥÑħÐ»ÐµÑĤÐ½Ð¸Ð¹": 5024,
      "pp": 5025,
      "ĠÑĢÐµÑĪÐ¸": 5026,
      "ĠÐ´Ð¸Ð²Ð¸Ð´ÐµÐ½Ð´Ð½ÑĥÑİ": 5027,
      "ĠÐ¿Ð¾Ð¿ÑĥÐ»ÑıÑĢ": 5028,
      "ĠCN": 5029,
      "ĠÐ¾ÑĤÑĢÐ¸ÑĨÐ°ÑĤÐµÐ»ÑĮÐ½ÑĥÑİ": 5030,
      "ĠÐ¾Ð±ÐµÑģÐ¿Ðµ": 5031,
      "ĠÐĿÑĥÐ¶Ð½Ð¾": 5032,
      "46": 5033,
      "ĠK": 5034,
      "ĠÐ¸ÑģÐºÐ»ÑİÑĩÐ°ÐµÑĤÑģÑı": 5035,
      "ĠÐ¼Ð°ÑģÑĪÑĤÐ°": 5036,
      "ĠÐ¿ÑĢÐµÐ´Ð¿": 5037,
      "ĠÐ´Ð¾Ð¿ÑįÐ¼Ð¸": 5038,
      "98": 5039,
      "ĠÐ¼ÑĥÐ»ÑĮÑĤÐ¸Ð¿Ð»Ð¸": 5040,
      "ÑĢÐ¾Ð²Ð°Ð½Ð½ÑĭÐµ": 5041,
      "ÐŀÐĵ": 5042,
      "ĠÐłÐŀÐ¡": 5043,
      "ĠÐ¿ÑĢÐ¾Ð±Ð¸ÑĤÑĮ": 5044,
      "Ġ2016": 5045,
      "ĠÐ·Ð°ÐºÑĢÑĭÐ»Ð°ÑģÑĮ": 5046,
      "ĠÐŃÐºÑģÐ¿Ð¾ÑĢÑĤ": 5047,
      "ÑħÐ°ÑģÑĤÐ¸Ðº": 5048,
      "ĠÑģÐµÐ¼": 5049,
      "ĠÐ¾ÑĤÐ¼ÐµÑĤÐ¾Ðº": 5050,
      "ĠÑĢÐ°ÑģÐ¿Ð¾Ð»Ð°Ð³Ð°ÐµÑĤ": 5051,
      "ĠÐ¾Ð³ÑĢÐ°Ð½Ð¸ÑĩÐµÐ½Ð¸Ð¹": 5052,
      "ĠÐĴÐ»Ð°Ð´Ð¸Ð¼Ð¸": 5053,
      "ÐłÑĥÑģ": 5054,
      "ĠÑĢÐ°ÑģÑĪÐ¸ÑĢ": 5055,
      "ĠÐ´Ð²Ð¸Ð¶ÐµÐ½Ð¸Ñİ": 5056,
      "ĠÑĥÑĩÐ°ÑģÑĤÐ¸Ðµ": 5057,
      "ÑĢÐµÑĤ": 5058,
      "ĠÐ¿ÑĢÐ¾Ð´Ð»": 5059,
      "ĠÐĵÐ»Ð°Ð²": 5060,
      "ĠÑĥÐ¿Ð¾Ð¼Ð¸Ð½Ð°": 5061,
      "ĠÑĤÐ°Ð¹Ð¼ÑĦÑĢÐµÐ¹Ð¼Ð°": 5062,
      "%);": 5063,
      "Ð½ÐµÐ½Ð¸Ñı": 5064,
      "ĠÑĨÐµÐ½Ð½ÑĭÑħ": 5065,
      "Ġ120": 5066,
      "ĠÐ½Ð°Ð¿ÑĢÐ°Ð²Ð»ÐµÐ½Ð¸Ñı": 5067,
      "ĠÑģÐ¾Ð±ÑĭÑĤÐ¸Ðµ": 5068,
      "ĠÑĤÐµÑģÑĤÐ°": 5069,
      "ĠÐļÐ°Ð·Ð°Ñħ": 5070,
      "ĠÐĶÐ¾ÑģÑĤÑĥÐ¿Ð½Ð¾": 5071,
      "be": 5072,
      "ĠÐ½Ð¸Ð¼": 5073,
      "ÑĪÐ°": 5074,
      "ĠÑĤÐ¾Ð³Ð´Ð°": 5075,
      "Ġ134": 5076,
      "ĠÑĤÐ¾ÑĢÐ³Ð¾Ð²Ð°ÑĤÑĮÑģÑı": 5077,
      "ĠÑģÐ´ÐµÐ»Ð°ÑĤÑĮ": 5078,
      "ĠÑģÑĤÑĢÐ°Ñħ": 5079,
      "ĠÐ½Ð¾Ð²Ð¾ÑģÑĤÑıÑħ": 5080,
      "ĠÑĥÐºÑĢÐµÐ¿": 5081,
      "ĠÑĢÐ°ÑģÐ¿ÑĢÐ¾Ð´Ð°Ð¶Ð¸": 5082,
      "ĠÐ¿Ð¾Ð¼Ð¾ÑīÑĮÑİ": 5083,
      "ĠÐ·Ð°ÑīÐ¸ÑĤ": 5084,
      "ĠÐ²Ð¾ÑĤ": 5085,
      "ĠÑĥÐ¼": 5086,
      "Ġ102": 5087,
      "ÑĢÑĥÑİÑīÐ¸Ñħ": 5088,
      "Ð²Ð¸ÑĢÑĥ": 5089,
      "ÐµÐ´Ð¸": 5090,
      "ÑĪÐ¸Ð»Ð°ÑģÑĮ": 5091,
      "ĠÐ¿ÑĢÐµÐ´ÑĭÐ´ÑĥÑīÐ¸Ñħ": 5092,
      "ĠÑĦÐ¾ÑĢÐ¼Ð¸ÑĢÐ¾Ð²": 5093,
      "etal": 5094,
      "ĠÐĿÐ¾Ð²Ð°ÑĤÑįÐº": 5095,
      "ĠÐ¿ÑĢÐ¾ÑģÑĤÑĢÐ°Ð½ÑģÑĤÐ²Ð¾": 5096,
      "ĠÑĤÑı": 5097,
      "Ð¡ÐŁ": 5098,
      "ĠÐ²ÑĭÑĪÐ»Ð¸": 5099,
      "ĠÐ¿ÑĢÐ¾ÑĪÐµÐ»": 5100,
      "ÐĵÐ»Ð°Ð²Ð½Ð¾Ðµ": 5101,
      "ĠÐ¼ÐµÑģÑıÑĨÑĭ": 5102,
      "ĠÐ´Ð°Ð²Ð»ÐµÐ½Ð¸Ñı": 5103,
      "ĠÐ´Ð¾Ð»Ð¶ÐµÐ½": 5104,
      "ĠÐ¿ÑĢÐ¸Ð½ÑıÐ»": 5105,
      "ĠÐĴÐ·Ð³Ð»ÑıÐ´": 5106,
      "LT": 5107,
      "ĠÑģÐ±": 5108,
      "ÑĩÐ½Ð¾Ð¹": 5109,
      "ĠÐ¿ÐµÑĢÐµÑĢÐ¾ÑģÐ»Ð°": 5110,
      "ĠÑģÑĤÑĢÐ°Ð½Ðµ": 5111,
      "ĠÑģÐµÑĢÐµÐ´Ð¸Ð½Ñĭ": 5112,
      "ĠÐ¼ÐµÐ´Ð²ÐµÐ¶ÑĮ": 5113,
      "ÑĩÐ½Ð¾Ð³Ð¾": 5114,
      "ĠÐ¿Ð¾ÑĤÐ¾ÐºÐ°": 5115,
      "ĠÑĥÐ±ÑĭÑĤÐ¾Ðº": 5116,
      "ĠÑħÐ¾": 5117,
      "ĠÐ¾ÑģÑĤÐ°Ð²": 5118,
      "ĠÐ¿ÑĢÐ¾Ð´Ð°Ð²Ð°ÑĤÑĮ": 5119,
      "ĠÐ¿ÑĢÐ¸Ð¾Ð±ÑĢÐµÑĤ": 5120,
      "ĠÑģÐ²ÑıÐ·Ð°Ð½Ð¾": 5121,
      "Ġ=": 5122,
      "ĠÐļÐ¾ÑĢ": 5123,
      "ĠÐ´Ð¸Ð²Ð¸Ð´ÐµÐ½Ð´Ð½ÑĭÐ¹": 5124,
      "ĠÑģÑĨÐµÐ½Ð°ÑĢÐ¸ÐµÐ¼": 5125,
      "ĠÐ·Ð½Ð°ÑĩÐ¸Ð¼": 5126,
      "ĠÐľÐ¸Ð½ÑĦÐ¸Ð½Ð°": 5127,
      "ĠÐ¾Ð±ÑģÑĥÐ´": 5128,
      "ĠÐ¼ÐµÐ½ÐµÐ´Ð¶Ð¼ÐµÐ½ÑĤÐ°": 5129,
      "ÑħÐ²Ð°ÑĤ": 5130,
      "Ð¾Ð¹Ð´ÐµÑĤ": 5131,
      "ĠÐ²ÑĭÐ¸Ð³": 5132,
      "ĠÑĢÐ¾ÑģÑģÐ¸Ð¹ÑģÐºÑĥÑİ": 5133,
      "Ġ142": 5134,
      "ĠÐ¿ÑĢÐ¾ÐµÐºÑĤÐ°": 5135,
      "ĠÑģÐ¿ÑĥÑģÐºÐ°": 5136,
      "ĠÐ´Ð¾Ð»Ð³Ð¾ÑģÑĢÐ¾ÑĩÐ½ÑĭÐ¹": 5137,
      "ĠÐ¢Ð¾ÑĢÐ³Ð¾Ð²ÑĭÐ¹": 5138,
      "ĠÐ¿Ð»Ð°Ð½Ð°": 5139,
      "ĠÐºÐ¾Ð¼Ð¼ÐµÐ½ÑĤÐ¸": 5140,
      "Ð±Ð°Ð½ÐºÐ°": 5141,
      "ĠÐĴÐµÐ´": 5142,
      "ĠÐ¦ÐµÐ½ÑĤ": 5143,
      "ĠÐ´Ð¾Ð±ÑĭÑĩÑĥ": 5144,
      "ĠÐ¾ÑĤÑģÑĥÑĤÑģÑĤÐ²Ð¸Ðµ": 5145,
      "ĠÐ¿Ð¾ÑıÐ²Ð¸Ð»Ð°ÑģÑĮ": 5146,
      "ymetal": 5147,
      "ĠÐ¿ÑĢÐ¾Ð²Ð¾Ð´Ð¸ÑĤ": 5148,
      "Ð¾Ð½Ð°Ð²Ð¸ÑĢÑĥ": 5149,
      "ĠÑĤÑĢÐ°Ð½ÑģÐ¿": 5150,
      "Ð½Ð¸ÑĤÑĮ": 5151,
      "Ġ535": 5152,
      "ĠÐ·Ð°Ð¿ÑĥÑģÑĤÐ¸": 5153,
      "ĠÑģÑĤÐ°ÑĢÑĤÐ°": 5154,
      "ĠÐ°Ð»Ð¼Ð°Ð·Ð¾Ð²": 5155,
      "ĠÐ³Ð³": 5156,
      "ĠÐ³ÑĢÐ°Ð¶": 5157,
      "ĠÐ¿ÑĢÐ¾ÑģÑĤÐ¾": 5158,
      "Ð½ÑĥÑĤÑģÑı": 5159,
      "Ð°ÑĤÐµÐ»ÑĮÐ½Ð¾": 5160,
      "ĠÐ¸Ð½Ð²ÐµÑģÑĤÐ¾ÑĢÑĥ": 5161,
      "ĠÑĥÐ²ÐµÐ»Ð¸ÑĩÐµÐ½Ð¸Ñı": 5162,
      "ĠÑįÑĦÑĦÐµÐºÑĤÐ¸Ð²": 5163,
      "ĠÐ¡Ð¾Ð²ÐºÐ¾Ð¼ÑĦÐ»Ð¾ÑĤ": 5164,
      "Ð»Ð°ÑĤ": 5165,
      "ĠÐ¿ÑĢÐ¾Ð´Ð¾Ð»Ð¶Ð¸ÑĤÑģÑı": 5166,
      "ĠÐ´Ð¾Ð¿ÑĥÑģÐº": 5167,
      "ÑĥÐµÐ¼": 5168,
      "ĠÐ¾ÐºÐ°Ð¶": 5169,
      "ĠÐºÐ°Ð½Ð°Ð»Ðµ": 5170,
      "ĠÑĤÐ¾Ð²Ð°ÑĢÐ¾Ð²": 5171,
      "ĠÐłÐŀÐ¡Ð¡": 5172,
      "ÑĤÐµÐ¹": 5173,
      "ÐµÑĢÐ³": 5174,
      "Ð»Ð°Ð²Ñĭ": 5175,
      "ÑĩÐµÑģÐºÐ¸Ð¼": 5176,
      "old": 5177,
      "ĠÐ³Ð¾ÑģÑĥÐ´Ð°ÑĢÑģÑĤÐ²Ñĥ": 5178,
      "ĠÐ¿ÐµÑĢÐµÑģÐµÐº": 5179,
      "\",": 5180,
      "Â¥": 5181,
      "ĠÐ¾ÑĦÐ¸ÑĨÐ¸": 5182,
      "ĠÑĥÑĩÐµ": 5183,
      "ĠÐ½ÐµÐ·Ð½Ð°Ñĩ": 5184,
      "ÐµÐ´Ð¸Ð½": 5185,
      "ĠÑĢÐ¾ÑģÑĤÐµ": 5186,
      "ÑĭÐ³ÑĢÑĭ": 5187,
      "osh": 5188,
      "ĠÑĥÑĩÐ¸ÑĤÑĭÐ²Ð°Ñı": 5189,
      "ĠÐ¤Ð¸Ð½Ð°Ð¼": 5190,
      "ĠÐ¿ÐµÑĢÐµÐ²Ð¾Ð´": 5191,
      "ĠÐ¾Ð±ÑĬÑıÑģ": 5192,
      "ĠÐłÐ¾ÑģÑĤÐµÐ»ÐµÐºÐ¾Ð¼": 5193,
      "ĠÑĢÐ°ÑģÐ¿ÑĢÐ¾Ð´Ð°Ð¶": 5194,
      "ĠÐºÐ¾Ð½ÑĬÑİÐ½ÐºÑĤÑĥÑĢÐ°": 5195,
      "ĠÐ´ÑĢÑĥÐ³Ð¾Ð¹": 5196,
      "Ð°ÑĢÐ°ÐºÑĤ": 5197,
      "ĠÐ¿Ð¾ÑģÐ»ÑĥÐ¶Ð¸ÑĤ": 5198,
      "97": 5199,
      "ÑĥÑİÑĤÑģÑı": 5200,
      "Ð±Ð½Ð¾Ð³Ð¾": 5201,
      "ĠÐ¼Ð°Ð³": 5202,
      "Ð¶ÐµÑģÑĤÐ²ÐµÐ½Ð½ÑĭÑħ": 5203,
      "ÑģÑĤÐ²Ð¾Ð¼": 5204,
      "Ð°Ð»ÑĮÐ½Ð°Ñı": 5205,
      "ĠÐ¿ÑĢÐµÐ¿ÑıÑĤ": 5206,
      "ĠÑħÐ°ÑĢÐ°ÐºÑĤ": 5207,
      "ĠIR": 5208,
      "ĠÐ¸ÑĤÐ¾Ð³Ð¸": 5209,
      "ĠÐ¼Ð¾": 5210,
      "ĠÐ¢ÐŀÐł": 5211,
      "ĠÐºÐ¾Ð¼Ð¿Ð°Ð½Ð¸Ñİ": 5212,
      "ĠÐ¿ÑĢÐ¾Ð´Ð°Ð¶Ñĥ": 5213,
      "ĠÐ¸Ð¼ÐµÐµÑĤ": 5214,
      "ÐĲÐ¡Ð¡": 5215,
      "ĠÐĹÐ½Ð°ÑĩÐµÐ½Ð¸Ðµ": 5216,
      "«ÐĿ": 5217,
      "ÑĢÐ°Ð¼Ð¸": 5218,
      "ĠÐ¤Ð¾Ñģ": 5219,
      "Ð¼ÐµÑģÑıÑĩ": 5220,
      "ÐĵÐŀÐĴ": 5221,
      "tive": 5222,
      "ĠÐ®Ð½Ð¸Ð¿ÑĢÐ¾": 5223,
      "ĠÑģÐ¾Ð¿ÑĢÐ¾Ð²": 5224,
      "Ġ95": 5225,
      "ĠÐ¿Ð¾Ð»Ð¸ÑĤÐ¸ÐºÐµ": 5226,
      "ĠÐ¿ÐµÑĢÐµÐ³Ð¾Ð²Ð¾ÑĢ": 5227,
      "ÐĺÐĻÐ¡Ðļ": 5228,
      "ĠPolymetal": 5229,
      "Ð¿ÑĢ": 5230,
      "ĠÐļÐ¾Ð¼Ð¿Ð°Ð½Ð¸Ð¸": 5231,
      "ĠÑĢÐµÐºÐ¾ÑĢÐ´Ð½ÑĭÐµ": 5232,
      "ĠÐ¿ÑĢÐµÐ²ÑĭÑĪ": 5233,
      "ĠÐ¸ÑģÑĤÐ¾ÑĩÐ½Ð¸ÐºÐ¾Ð²": 5234,
      "ĠÐłÐ«ÐĿ": 5235,
      "ĠÐĺÐ¢ÐŀÐĵ": 5236,
      "hoosh": 5237,
      "ÑĨÐµÐ²": 5238,
      "ĠÐĿÐ¸": 5239,
      "ĠTechnologies": 5240,
      "ĠÐłÐŀÐ¡Ð¡ÐĺÐĻÐ¡Ðļ": 5241,
      "ĠÐ¢ÐŀÐłÐĵÐŀÐĴ": 5242,
      "ÐµÑĢÐºÐ¸": 5243,
      "ĠÑĤÐ°Ð¼": 5244,
      "Ġ165": 5245,
      "ĠÐłÐŀÐ¡Ð¡ÐĺÐĻÐ¡ÐļÐĺÐĻ": 5246,
      "ĠÐ¼ÐµÑĢÑĭ": 5247,
      "ĠÐ¸Ð½Ð²ÐµÑģÑĤÐ¸ÑĢÐ¾Ð²Ð°ÑĤÑĮ": 5248,
      "ĠÑĥÐ¿Ð°Ð»Ð°": 5249,
      "ĠÐ¦Ð¸": 5250,
      "ĠÐ¾Ð¶Ð¸Ð´Ð°ÑİÑĤ": 5251,
      "ĠÑģÐ¿Ð¾ÑģÐ¾Ð±Ð½Ñĭ": 5252,
      "ĠÑĦÑĮÑİÑĩÐµÑĢÑģÐ°": 5253,
      "ĠÐłÐ«ÐĿÐŀÐļ": 5254,
      "Ð¾Ð»Ð»Ð°": 5255,
      "ĠÑĥÐ³Ð»Ñı": 5256,
      "ĠÑįÐ»ÐµÐºÑĤÑĢÐ¾Ð¼": 5257,
      "ĠÑįÐ½ÐµÑĢÐ³Ð¾": 5258,
      "ĠÑĤÑĢÐ¸Ð³Ð³": 5259,
      "ĠÑįÐ»ÐµÐºÑĤÑĢÐ¾ÑįÐ½ÐµÑĢ": 5260,
      "ĠÐĺÐ¢ÐŀÐĵÐĺ": 5261,
      "ĠÐľÐ½ÐµÐ½Ð¸Ðµ": 5262,
      "ĠÑĤÐ¾ÑĢÐ³Ð¾Ð²Ð»Ð¸": 5263,
      "ĠÑĢÐ¸ÑģÐºÐ°": 5264,
      "ĠÑģÐ¾Ð²ÐµÑĢÑĪ": 5265,
      "Ð¸Ð´ÐµÐ¾": 5266,
      "ĠÑģÑĤÐ¸Ð¼Ñĥ": 5267,
      "ĠÑģÐ½Ñı": 5268,
      "ĠÐ²ÑĭÑģ": 5269,
      "ĠÐ´Ð¾ÑĢÐ°Ð±Ð¾ÑĤ": 5270,
      "ĠIMOEX": 5271,
      "ĠÐ¢Ð°ÐºÐ¾Ð¹": 5272,
      "ĠÐłÑĥÑģÐ°Ð³ÑĢÐ¾": 5273,
      "ĠÐ¾ÑĤÑģÐºÐ¾ÑĩÐ¸Ð»Ð¸": 5274,
      "Ð¿Ð¾Ð´": 5275,
      "ĠÐ¿ÑĢÐ¾Ð´Ð¾Ð»Ð¶Ð°ÐµÑĤÑģÑı": 5276,
      "ÐŃÐ¡": 5277,
      "ĠÐ½Ð°ÑģÑĤÑĢÐ¾ÐµÐ½Ð¸Ñı": 5278,
      "ÑĢÐµÐ³Ð¸ÑģÑĤÑĢÐ¸": 5279,
      "Ð¾Ð²Ð°ÑĢ": 5280,
      "ĠÐ´Ð°Ð»": 5281,
      "ĠÐºÐ¾": 5282,
      "ĠÐ±ÐµÑģÐ¿": 5283,
      "ÑĢÐ¸ÑĦÐ¸": 5284,
      "ĠÐ¾Ð±Ð¼ÐµÐ½": 5285,
      "ÑģÑĤÐ²ÐµÐ½Ð½ÑĭÐµ": 5286,
      "ĠÐĿÐ°Ñĩ": 5287,
      "ĠÐ¿Ð¾ÑĢÑıÐ´ÐºÐ°": 5288,
      "Ġ73": 5289,
      "ou": 5290,
      "Ð°Ð¼Ð°": 5291,
      "Ð¿Ð¾Ð½": 5292,
      "ÑĢÑĥÑİÑĤÑģÑı": 5293,
      "ÑĢÐ¾ÑģÐ°": 5294,
      "ĠÐ¶ÐµÐ»": 5295,
      "Ð£Ð¡": 5296,
      "Ð¶Ð¸Ð½Ð°Ð»ÑĮ": 5297,
      "ĠÐ·Ð°ÐºÑĥÐ¿": 5298,
      "ÑĩÐ¸ÐºÐ¾Ð²": 5299,
      "ĠÐĵÐ°Ð·": 5300,
      "ĠÐ²ÑĭÑģÑĤÑĥÐ¿Ð¸ÑĤ": 5301,
      "ĠÑģÐ¾ÐºÑĢÐ°ÑīÐµÐ½Ð¸Ðµ": 5302,
      "ĠÐ´Ð»Ð¸Ð½Ð½ÑĭÐµ": 5303,
      "ÑĢÐµÐ¿": 5304,
      "Ġ118": 5305,
      "ĠÐ²ÑĭÐ´Ð°": 5306,
      "ÑĦÐ¾ÑĢÐ¼Ð¸": 5307,
      "ĠÐ¢ÐĲÐ¡Ð¡": 5308,
      "ĠÐ¿ÐµÑĢÐµÐ¾ÑĨÐµÐ½": 5309,
      "ĠÐ¾Ð´Ð½Ð°": 5310,
      "ĠÑģÐºÐ¾Ð»ÑĮÐ·ÑıÑīÑĥÑİ": 5311,
      "ĠÐ´Ð¸Ð½Ð°Ð¼Ð¸ÐºÐµ": 5312,
      "ĠApp": 5313,
      "ĠWhoosh": 5314,
      "ĠÐ¡Ð»ÐµÐ´ÑĥÑİÑī": 5315,
      "ÑĢÐ¾ÑģÑģÐ¸Ñı": 5316,
      "ĠÐļÐĿÐł": 5317,
      "ĠÐ¼Ð¸Ð½Ð¸Ð¼Ð°Ð»ÑĮ": 5318,
      "ĠÐ²ÑĤÐ¾ÑĢÐ¾Ð¼": 5319,
      "Ð²Ð¸Ð»ÐµÐ³Ð¸": 5320,
      "ĠÐ´Ð¾Ð±Ð°": 5321,
      "ĠÐ²Ð¾Ð»Ð°ÑĤÐ¸Ð»ÑĮÐ½Ð¾ÑģÑĤÑĮ": 5322,
      "ÑĥÐ³Ð¾Ð»ÑĮ": 5323,
      "Ð¾ÑģÐ»ÐµÐ´ÑģÑĤÐ²Ð¸Ð¸": 5324,
      "ĠÐ¿ÑĢÐµÐ´ÐµÐ»Ð°Ñħ": 5325,
      "ĠÑĥÑģÐ¸Ð»": 5326,
      "ĠÐ·Ð°Ð±Ð»Ð¾ÐºÐ¸": 5327,
      "ĠÐ²ÑĭÑĪÐµÐ»": 5328,
      "Ð¿Ð»Ð¾ÑĤ": 5329,
      "ĠÑįÐºÑģÑĤ": 5330,
      "Ġ88": 5331,
      "ĠÐ¿Ð¾Ð»ÑĥÐ³Ð¾Ð´Ð¸Ñı": 5332,
      "ĠÐ»Ð¸Ð´ÐµÑĢÐ¾Ð²": 5333,
      "ĠÐ¿ÑĥÐ±Ð»Ð¸ÐºÐ°ÑĨÐ¸Ð¸": 5334,
      "ÑģÐ¸Ð»Ð°": 5335,
      "Ð²Ð¸Ð´ÐµÑĤ": 5336,
      "ĠÐ¸ÑĤÐ¾Ð³Ðµ": 5337,
      "ĠÐŀÑģÑĨÐ¸Ð»Ð»ÑıÑĤÐ¾ÑĢÑĭ": 5338,
      "Ð²ÑĪÐ¸ÑģÑĮ": 5339,
      "ĠÐ²Ð¿Ð»Ð¾ÑĤ": 5340,
      "Ð·Ñı": 5341,
      "ÐµÐ»Ð¸ÑĤ": 5342,
      "ÑģÑĤÐ²ÑĥÑİÑīÐ¸": 5343,
      "ĠÑĦÐ¾Ð½Ð´Ð°": 5344,
      "ĠÑģÐ²Ð¾Ð±Ð¾Ð´": 5345,
      "Ð¾Ð±Ð¸Ð»ÑĮ": 5346,
      "ĠÐ²Ð²ÐµÐ´ÐµÐ½Ð¸Ð¸": 5347,
      "ĠÑĥÐ´ÐµÑĢÐ¶Ð°ÑĤÑĮÑģÑı": 5348,
      "ĠÐľÐµÑĩÐµÐ»": 5349,
      "ĠÑģÐ²Ð¸Ð´ÐµÑĤ": 5350,
      "Ð¸ÑĤÐµÐ»Ñı": 5351,
      "ĠÐ¢ÑĢÐµÐ½Ð´": 5352,
      "ÐµÐ½ÑĮÐ³Ð¸": 5353,
      "ĠÑĢÑĥÐ±Ð»ÑıÑħ": 5354,
      "ĠÐ¿ÑĢÐ¾Ð´ÑĥÐºÑĨÐ¸Ð¸": 5355,
      "ĠÐĴÑģ": 5356,
      "ĠÐ³Ð¾Ð´Ð¾Ð²Ð¾Ð³Ð¾": 5357,
      "ĠÑĤÑĢÐµÐ¹Ð´": 5358,
      "ĠÐĹÐ°Ð¼": 5359,
      "ĠÐ¿ÑĢÐµÐ´Ð»Ð¾Ð¶Ð¸Ð»": 5360,
      "ÐµÑĢÑĭÐ½Ð¾Ñĩ": 5361,
      "ĠÐ±Ð¾Ð»ÑĮÑĪÐ¸Ð½": 5362,
      "Ð¿ÐµÑĢÐ¸Ð¾Ð´Ð½Ð¾Ð¹": 5363,
      "ĠÐ¿ÑĢÐµÐ·Ð¸Ð´ÐµÐ½ÑĤÐ°": 5364,
      "ĠÐĺÐ½ÑĤÐµÑĢÑĦÐ°ÐºÑģ": 5365,
      "ĠâĤ½/Â¥": 5366,
      "ĠÑĥÐ´Ð¾Ð±ÑĢÐµÐ½Ð¸Ð¹": 5367,
      "ĠÐĺÐ½ÑĦÐ»ÑıÑĨÐ¸Ñı": 5368,
      "Ð¿Ð¾Ð¼": 5369,
      "ĠÐºÐ°ÑĤ": 5370,
      "ĠÐ¿ÑĢÐ¾Ñı": 5371,
      "Ġ4000": 5372,
      "ĠÑĢÐ¾ÑģÑģÐ¸ÑıÐ½": 5373,
      "ĠÐ¶ÐµÑģÑĤ": 5374,
      "ĠÐ²Ð°Ð¶Ð½Ð¾": 5375,
      "ĠÐ¡ÑĤÑĢÑĥÐºÑĤÑĥ": 5376,
      "ĠÑģÑĤÐ°Ð±Ð¸Ð»ÑĮÐ½ÑĭÐ¼Ð¸": 5377,
      "ĠÐ·Ð°Ð¼ÐµÐ´Ð»Ð¸": 5378,
      "ĠÑĦÐ¸ÐºÑģÐ¸": 5379,
      "ĠÐľÐ°ÐºÑģÐ¸Ð¼ÑĥÐ¼": 5380,
      "ositive": 5381,
      "ĠÐ½Ð¾Ð²Ð°Ñı": 5382,
      "ÐµÐ»ÑĮÐ·Ñı": 5383,
      "Ð¸ÑĤÐµÐ»ÑĮÐ½Ð¾Ð¹": 5384,
      "Ġ77": 5385,
      "ĠÐ¿Ð¾ÐºÑĥÐ¿ÐºÐµ": 5386,
      "ÑĥÑģÑĤÐ¸ÑĤÑĮ": 5387,
      "ĠIII": 5388,
      "ĠÐ»Ð¸ÐºÐ²Ð¸Ð´Ð½Ð¾ÑģÑĤÐ¸": 5389,
      "ĠÑģÐ²Ð¸Ð´ÐµÑĤÐµÐ»ÑĮ": 5390,
      "ĠÐ¾ÑģÐ½Ð¾Ð²Ð½ÑĭÐ¼": 5391,
      "ĠÐºÑĢÑĥÐ¿Ð½ÑĭÑħ": 5392,
      "ĠÐ³Ð¾Ð²Ð¾ÑĢÑıÑĤ": 5393,
      "ĠÑĢÐ°ÑģÐºÑĢÑĭ": 5394,
      "ĠÐ±Ð°Ð»Ð°Ð½": 5395,
      "ĠÐ¤ÑĥÐ½Ð´Ð°Ð¼ÐµÐ½ÑĤÐ°Ð»ÑĮÐ½ÑĭÐµ": 5396,
      "ĠÑģÑĢÐ°Ð·Ñĥ": 5397,
      "Ð±Ñĥ": 5398,
      "ÑĢÐ¾Ð²ÐµÐ½ÑĮ": 5399,
      "ÐĺÐĶ": 5400,
      "ÑĩÐµÑģÐºÐ¾Ð¼Ñĥ": 5401,
      "ÐŁÐµÑĤÐµÑĢÐ±ÑĥÑĢÐ³": 5402,
      "ĠÑģÐ¼Ð¾ÑĤÑĢÑıÑĤ": 5403,
      "ĠÐµÐ²ÑĢÐ¾Ð¿ÐµÐ¹ÑģÐºÐ¾Ð¼": 5404,
      "Ð°ÑĤÐµÐ»ÑıÐ¼": 5405,
      "ĠÐºÐ¾Ð½Ð²ÐµÑĢ": 5406,
      "ĠÐ´Ð°Ð»ÑĮÐ½ÐµÐ¹ÑĪÐµÐ¼": 5407,
      "ĠÐ¿ÑĥÐ±Ð»Ð¸ÐºÑĥÐµÑĤ": 5408,
      "ÐłÐ¾ÑģÑģÐµÑĤÐ¸": 5409,
      "Ð¾Ð´Ð¾Ð±Ñĭ": 5410,
      "ĠÐ¼Ð¾ÑĢ": 5411,
      "ĠÐ¼ÐµÑĤ": 5412,
      "ÑĩÐ°ÑģÑĤ": 5413,
      "Ġ61": 5414,
      "Ð¾ÐºÑĥÐ¿Ð°ÑĤÑĮ": 5415,
      "ĠÐºÐ¾Ð½ÑģÐ¾Ð»Ð¸Ð´Ð°ÑĨÐ¸Ñİ": 5416,
      "ĠÐ¿ÑĢÐ¾ÑĤÐ¸Ð²Ð¾ÑĢÐµ": 5417,
      "ĠÐ¼ÐµÑĤÐ°Ð»Ð»Ð¾Ð²": 5418,
      "ĠÐ´Ð¾Ð»Ð¶Ð½Ð°": 5419,
      "ÑĢÐ¸ÑĦÐ¸Ð½Ð³": 5420,
      "ÐµÐ»Ð¸ÑĤÐµÐ¹": 5421,
      "ÑĩÑĳÑĤ": 5422,
      "ĠÐ°Ð½": 5423,
      "ĠÐ²ÐµÐ±Ð¸Ð½Ð°ÑĢ": 5424,
      "ĠÐºÐ¾Ð¼Ð¿Ð»": 5425,
      "ĠÐłÐµÑĪÐµÐ½Ð¸Ðµ": 5426,
      "ĠÐ¾ÑģÐ¾Ð±ÐµÐ½Ð½Ð¾": 5427,
      "ĠÐºÐ¾Ð¼Ð¼ÐµÐ½ÑĤÐ¸ÑĢÑĥÑİÑĤ": 5428,
      "Ð¼ÑĥÐ¼Ñĥ": 5429,
      "ĠÑģÐ°Ð¼ÑĭÐ¹": 5430,
      "Ð±Ð°ÑĢÑĢ": 5431,
      "ĠÑģÐ´ÐµÑĢÐ¶Ð¸Ð²Ð°ÐµÑĤ": 5432,
      "ĠÐ´Ð¸Ð²ÐµÑĢÐ³ÐµÐ½ÑĨÐ¸Ñı": 5433,
      "ĠÐ²ÑĭÐºÑĥÐ¿Ð»ÐµÐ½Ð°": 5434,
      "ĠÑħÐ¾ÑĩÐµÑĤ": 5435,
      "Ð±ÑĢÐ¸ÑĦÐ¸Ð½Ð³": 5436,
      "ĠÐ±ÐµÐ½": 5437,
      "ĠÐ»Ð¾Ð³Ð¸": 5438,
      "ĠÑģÑĤÐ°Ð½": 5439,
      "ĠÐ½Ð°Ð¿ÑĢÐ°Ð²Ð»ÐµÐ½Ð¸Ðµ": 5440,
      "ĠÑģÐ¾ÑħÑĢÐ°Ð½ÐµÐ½Ð¸Ñı": 5441,
      "ĠÐ§Ð¸ÑģÑĤ": 5442,
      "ĠÐŀÐ¶Ð¸Ð´Ð°ÐµÐ¼ÑĭÐµ": 5443,
      "Ð£Ð¡ÐĲÐĽ": 5444,
      "Ð¾Ð»Ðº": 5445,
      "ĠÑĥÑĩ": 5446,
      "ĠÐĿÐŁ": 5447,
      "ÐµÐ»Ð¸Ðº": 5448,
      "ĠÑĦÐ¸Ð½Ð°Ð½ÑģÐ¸": 5449,
      "Ð·Ð°ÑĤ": 5450,
      "ĠÐ°ÑĥÐº": 5451,
      "Ð¾Ð³ÑĢÐ°ÑĦÐ¸": 5452,
      "ĠÑģÑĢÐµÐ´Ð½Ð¸Ð¼Ð¸": 5453,
      "ĠÐ¸Ð·Ð±": 5454,
      "ĠÐ¼ÐµÑģ": 5455,
      "ĠÐ½ÐµÐ´ÐµÐ»ÑĮÐ½ÑĭÐ¹": 5456,
      "Ġ122": 5457,
      "ĠÐļÑĥÑĢÑģ": 5458,
      "ĠQ": 5459,
      "ÑĦÑĢÑĭ": 5460,
      "Ġ2000": 5461,
      "ĠÑĢÐ°Ð²": 5462,
      "ĠSPO": 5463,
      "ĠÑģÑĤÐ°Ð½Ð¾Ð²": 5464,
      "ĠÐĹÐ¾Ð»Ð¾ÑĤÐ¾": 5465,
      "ÐłÐ¾ÑģÐ½ÐµÑĦÑĤÐµÐ³Ð°Ð·": 5466,
      "ĠÐºÑĢÑĥÐ³Ð»": 5467,
      "ĠÐ¿Ð»Ðµ": 5468,
      "ĠÐ²Ð²Ð¾Ð´": 5469,
      "ĠÑĢÐ°Ð±Ð¾": 5470,
      "ĠÑĢÐ°Ð·Ð³": 5471,
      "ĠÑĤÑĢÐµÑĥÐ³Ð¾Ð»ÑĮ": 5472,
      "ĠÑĢÐ°Ð±Ð¾ÑĤÑĭ": 5473,
      "ĠÑĥÐ³Ð¾Ð»ÑĮ": 5474,
      "ĠÐ¿ÑĢÐ¾Ð³ÑĢÐ°Ð¼Ð¼Ñĭ": 5475,
      "ĠÐ¿Ð¾Ð»Ð½Ð¾ÑĨÐµÐ½Ð½Ð¾Ð³Ð¾": 5476,
      "asda": 5477,
      "ĠÐ½ÐµÐ¾Ð¿ÑĢÐµÐ´ÐµÐ»ÐµÐ½Ð½Ð¾ÑģÑĤÑĮ": 5478,
      "ĠÐµÐ¶ÐµÐºÐ²Ð°ÑĢÑĤÐ°Ð»ÑĮÐ½ÑĭÐ¼Ð¸": 5479,
      "asdaq": 5480,
      "ÑģÑĤÑĢ": 5481,
      "ĠÐ¿ÐµÑĢÐ²ÑĭÐ¼": 5482,
      "ÐµÐ²ÑĭÐµ": 5483,
      "ĠÐ¿Ð¾Ð²ÑĭÑģÐ¸Ð»": 5484,
      "ĠFi": 5485,
      "ĠÐ¼Ð°ÐºÑģÐ¸Ð¼Ð°Ð»ÑĮÐ½Ð¾Ð¹": 5486,
      "ĠÐ¿Ð»Ð°ÑĤÐµÐ¶": 5487,
      "ĠÑģÐ¾Ð¿": 5488,
      "ÐµÐ½Ð½ÑĭÐ¼Ð¸": 5489,
      "ĠÐ¼Ð°Ð¹": 5490,
      "Ð»Ð¸ÑĩÐ¸": 5491,
      "ĠNasdaq": 5492,
      "ĠÐ¾ÑĤÐ¼ÐµÑĤÐ¸Ð»": 5493,
      "ĠÐ±Ð¾Ð»ÑĮÑĪÐµÐ¹": 5494,
      "ĠÑĢÐ°ÑģÑħÐ¾Ð¶Ð´": 5495,
      "ĠÑĤÐµÐºÑĥÑīÐ¸Ð¹": 5496,
      "ĠÐ°Ð½Ð°Ð»Ð¸ÑĤÐ¸ÐºÐ°": 5497,
      "ĠÐļÐ¾Ð½ÑģÐµÐ½ÑģÑĥÑģ": 5498,
      "ĠÐ½Ð°ÑģÐµÐ»ÐµÐ½Ð¸Ñı": 5499,
      "Ð¿Ð¾Ð²": 5500,
      "Ð»Ð¸ÑĨ": 5501,
      "ĠÑĤÐ°ÐºÐ¾Ðµ": 5502,
      "ĠÐŁÑĢÐ¸Ð±ÑĭÐ»ÑĮ": 5503,
      "ĠPri": 5504,
      "ĠÐ¾Ð±Ð½Ð¾Ð²Ð¸ÑĤÑĮ": 5505,
      "ĠÐ¾ÑĤÐ»Ð¸ÑĩÐ°Ð»Ð°ÑģÑĮ": 5506,
      "ĠÐ¡ÑĤÑĢÑĥÐºÑĤÑĥÑĢÐ°": 5507,
      "ÐµÑĩÐµ": 5508,
      "ĠÑĤÐ°ÑĢÐ³ÐµÑĤ": 5509,
      "ĠÐ¿Ð¾Ð½Ð¸": 5510,
      "ĠÐµÐ´": 5511,
      "ĠÑĢÐ°ÑģÐ¿Ð¸ÑģÐ¾Ðº": 5512,
      "ĠÑįÑĤÐ¸Ð¼": 5513,
      "ĠÐ½ÐµÑĦÑĤÐµÐ¿ÑĢÐ¾Ð´ÑĥÐºÑĤÑĭ": 5514,
      "220": 5515,
      "ÑĩÐ½ÑĭÐµ": 5516,
      "ĠÐ´Ð»": 5517,
      "ĠÐĳÑĭ": 5518,
      "ĠÐ¾ÑĤÐ¼ÐµÑĩ": 5519,
      "ĠÐ½ÐµÑģÐºÐ¾Ð»ÑĮ": 5520,
      "ĠÐŁÑĥÐ»ÑĮÑģ": 5521,
      "ĠÐºÑĢÐ°Ð¹Ð½Ðµ": 5522,
      "ĠÐ¿Ð°ÑĢÑĤ": 5523,
      "ÑĢÑĥÐ³": 5524,
      "ÑĪÐ¸Ð¼Ð¸": 5525,
      "ĠÐ£ÑĢÐ¾Ð²ÐµÐ½ÑĮ": 5526,
      "ĠÐ¿ÑĢÐ¾Ð´Ð¾Ð»Ð¶Ð¸ÑĤÑĮÑģÑı": 5527,
      "ĠÐ¾ÑĤÐºÑĢÑĭÑĤ": 5528,
      "ĠÐ¾Ð±ÑīÐµÑĢÑĭÐ½Ð¾Ñĩ": 5529,
      "ĠÐ¸Ð¼ÐµÐ½Ð½Ð¾": 5530,
      "ĠÐĿÐ°Ð±Ð¸ÑĥÐ»Ð»Ð¸Ð½Ð°": 5531,
      "ĠÐ·Ð¾Ð½Ð¾Ð¹": 5532,
      "ĠÐºÐ¾ÑĤÐ¾ÑĢÑĥÑİ": 5533,
      "Ð°ÑĢÐ¸ÑĦ": 5534,
      "ÑĳÐ¼": 5535,
      "ĠPositive": 5536,
      "ow": 5537,
      "âĥ": 5538,
      "ĠÐ¤ÐĲÐ¡": 5539,
      "ĠIV": 5540,
      "ï¸ıâĥ": 5541,
      "ÑĤÐ¾Ð²Ð°Ð»ÑİÑĤ": 5542,
      "ĠÑģÐ¸Ð»Ñĭ": 5543,
      "ĠÐŁÐ¾ÑģÐ»ÐµÐ´Ð½ÑıÑı": 5544,
      "ĠÑģÐ»Ð¾Ð²Ð°Ð¼": 5545,
      "ï¸ıâĥ£": 5546,
      "Ð´ÐµÐ½Ð¸Ðµ": 5547,
      "Ġ260": 5548,
      "ĠÑĥÑħÐ¾Ð´": 5549,
      "ĠÐłÐĲÐŀ": 5550,
      "ĠÑģÐ½Ð¸Ð¶Ð°ÑĤÑĮÑģÑı": 5551,
      "ĠÐ°ÐºÑĨÐ¸Ð¾Ð½ÐµÑĢÐ°Ð¼": 5552,
      "ĠÐ²Ð¾Ð·Ð¾Ð±Ð½Ð¾Ð²Ð»ÐµÐ½Ð¸Ðµ": 5553,
      "ĠÐ¾Ð±Ð¾Ð·Ð½Ð°ÑĩÐ¸ÑĤÑĮ": 5554,
      "ĠÐ·Ð°ÑĢÑĥÐ±ÐµÐ¶Ð½ÑĭÑħ": 5555,
      "ĠÐ¡Ð°Ð½ÐºÑĤ": 5556,
      "ĠÑģÐ¾Ð¿ÑĢÐ¾Ð²Ð¾Ð¶Ð´": 5557,
      "ĸÐĶ": 5558,
      "Ð»Ñĥ": 5559,
      "Ð²Ð°Ð½": 5560,
      "ĠÐ²ÑģÐ»ÐµÐ´": 5561,
      "Ð·Ð´": 5562,
      "ĠÐ·Ð°Ð»": 5563,
      "ĠÐ¿ÑĢÐ¸Ð²ÐµÐ´": 5564,
      "Ġ71": 5565,
      "ĠÑģÐºÐ¾Ð»ÑĮÐ·ÑıÑīÐ°Ñı": 5566,
      "ĠÐ¿Ð¾Ð»ÑĥÑĩÐ¸Ð»": 5567,
      "ĠÐ¡Ð¸ÑģÑĤÐµÐ¼Ð°": 5568,
      "ĠÐºÐ»ÑİÑĩÐµÐ²ÑĭÑħ": 5569,
      "ĠÐ¿ÑĢÐµÐ´Ð»Ð°Ð³": 5570,
      "Ð²Ð°Ð»Ð°": 5571,
      "ÑĢÐ°Ð´": 5572,
      "Ġ230": 5573,
      "ĠÐ¾Ð±Ð¾ÑĢ": 5574,
      "ĠÐ´ÐµÐ²ÐµÐ»": 5575,
      "ĠÐ¿ÐµÑĢÐ²ÑĭÐ¼Ð¸": 5576,
      "ĠÐ¾ÑĤÑģÐµÑĩÐºÐ¸": 5577,
      "ĠÐ´ÐµÐ²ÐµÐ»Ð¾Ð¿": 5578,
      "ĠÐ½Ð¾Ð²ÑĭÐ¼": 5579,
      "Ð½Ð°Ð»Ð¸Ð·": 5580,
      "ĠâĢľ": 5581,
      "Ġ320": 5582,
      "Ð¼ÐµÑĩ": 5583,
      "ĠÑģÐ²Ð¾ÐµÐ³Ð¾": 5584,
      "ĠÐ·Ð°ÑģÐµÐ´Ð°Ð½Ð¸Ð¸": 5585,
      "ĠÑģÐºÐ¾Ð»ÑĮÐ·ÑıÑīÐ¸Ð¼Ð¸": 5586,
      "ÐĵÐ°Ð·Ð¿ÑĢÐ¾Ð¼Ð°": 5587,
      "id": 5588,
      "ÐŀÐ±": 5589,
      "ĠÐ¤Ð¾Ð½Ð´": 5590,
      "ĠÐłÐ¾ÑģÑģÐ¸ÐµÐ¹": 5591,
      "ĠÑģÐ»Ð¾Ð¼Ð»ÐµÐ½": 5592,
      "ĠÑĥÐ²ÐµÐ»Ð¸ÑĩÐ¸Ð»ÑģÑı": 5593,
      "ĠÐ»Ð¾ÐºÐ°Ð»ÑĮÐ½ÑĭÐ¹": 5594,
      "ĠÑĥÑģÐ¸Ð»Ð¸": 5595,
      "ÑĢÑĥÑİÑīÐµÐ³Ð¾": 5596,
      "ĠÐĳÐ°Ð½": 5597,
      "ĠÐ²ÑĭÑĢÐ°ÑģÑĤÐ¸": 5598,
      "Ġ72": 5599,
      "Ġ78": 5600,
      "ÑĤÑĢÐµÐ½Ð´Ð°": 5601,
      "ĠÑĥÑģÐºÐ¾ÑĢÐµÐ½Ð¸Ðµ": 5602,
      "Ð¼Ð¸Ð½Ð¸ÑģÑĤÑĢÐ°": 5603,
      "ĠÐ¿Ð¾Ð´Ð½ÑıÑĤÑĮÑģÑı": 5604,
      "VI": 5605,
      "ÑģÐºÐ¾Ð»ÑĮÐºÐ¾": 5606,
      "ĠÐ³Ð¾Ð½ÐºÐ¾Ð½Ð³": 5607,
      "ĠÑĩÐ°ÑģÑĤÐ½Ð¾ÑģÑĤÐ¸": 5608,
      "BE": 5609,
      "ĠÐ¿Ð°ÑĢ": 5610,
      "âĢĿ": 5611,
      "ĠÐ·Ð°ÑģÑĤÑĢÐ¾Ð¹": 5612,
      "ĠÐ¡ÑĤÑĢÐ°": 5613,
      "ĠÐĿÐ°Ð¿ÑĢÐ¸Ð¼ÐµÑĢ": 5614,
      "ĠÑĥÐ¼ÐµÐ½ÑĮ": 5615,
      "ĠÑįÐºÑģÑĤÑĢÐµÐ¼": 5616,
      "ik": 5617,
      "Ġ220": 5618,
      "ĠÑĥÑĩÐ¸ÑĤ": 5619,
      "Ð¸Ð½Ð²ÐµÑģÑĤÐ¸": 5620,
      "inan": 5621,
      "ĠÐ°Ð½Ð°Ð»Ð¸ÑĤÐ¸Ðº": 5622,
      "ĠÐ¾ÐºÐ°Ð·Ð°Ð»ÑģÑı": 5623,
      "ĠTCS": 5624,
      "ĠÐłÐ¾Ð¼Ð°Ð½Ð¾Ð²ÑģÐºÐ¸Ð¹": 5625,
      "ĠÐŃÐºÑģÐ¿ÐµÑĢÑĤÑĭ": 5626,
      "ĠÑĥÑĩÐµÐ±Ð½Ð¾Ð³Ð¾": 5627,
      "AZ": 5628,
      "ĠÐ¸Ð´": 5629,
      "ĠÐĴÐ¿": 5630,
      "ĠÐ¾Ð±ÑĬÐµÐ¼Ð¾Ð²": 5631,
      "ĠÐ²Ð¾ÑģÑħÐ¾Ð´ÑıÑīÐµÐ¹": 5632,
      "ĠÐºÐ¾Ð¼Ð¼ÐµÑĢ": 5633,
      "ĠÐĿÐ¾Ð²Ð°Ðº": 5634,
      "ĠÐŁÑĢÐ¾Ð´Ð¾Ð»": 5635,
      "ĠÑģÑĤÑĢÐ°ÑĤÐµÐ³Ð¸Ñİ": 5636,
      "ÑİÐ·": 5637,
      "Ð»Ð¸Ð¶Ðµ": 5638,
      "ĠÐŁÑĢÐµÐ·Ð¸Ð´ÐµÐ½ÑĤ": 5639,
      "Ð°Ð´ÐµÐ½Ð¸Ðµ": 5640,
      "ĠÐ½Ð°ÑĩÐ½ÐµÑĤ": 5641,
      "Ġ85": 5642,
      "ĠÐļÑĢÐ°ÑĤÐºÐ¾ÑģÑĢÐ¾ÑĩÐ½ÑĭÐµ": 5643,
      "ĠÑħÐ°ÑĢÐ°ÐºÑĤÐµÑĢ": 5644,
      "Ð¾ÐºÐ¾Ð¹": 5645,
      "ĠÐ¿ÑĢÐ¸Ð²Ð¸Ð»ÐµÐ³Ð¸": 5646,
      "ĠÑĦÐ¾Ð½ÐĴÐ½ÐµÑĪÐ½Ð¸Ð¹": 5647,
      "ĠÐºÐ¾ÑĢÐ¾Ð½Ð°Ð²Ð¸ÑĢÑĥ": 5648,
      "Ð¸Ð»Ð¾": 5649,
      "ÐµÑĩÑĮ": 5650,
      "ĠÐ¼Ð¾Ð¼ÐµÐ½ÑĤÐ°": 5651,
      "ĠÐ¸ÑģÑĤÐ¾ÑĢÐ¸ÑĩÐµÑģÐºÐ¾Ð³Ð¾": 5652,
      "ĠÐŀÐ±Ð¾ÑĢÐ¾ÑĤÑĭ": 5653,
      "Ġc": 5654,
      "ĠÐ¿Ð¾Ð´Ð³Ð¾ÑĤ": 5655,
      "ĠÐ¢ÑĢÐ°": 5656,
      "ĠÐ¼Ð¸ÑĢÐ°": 5657,
      "ÑģÐµÑĤÑĮ": 5658,
      "ĠÐ³Ð°Ð·Ð¾Ð²Ð¾Ð¼": 5659,
      "ĠÐ¡ÑĢÐµÐ´Ð¸": 5660,
      "ĠÐ¸Ð½Ð´Ð¸ÐºÐ°ÑĤÐ¾ÑĢÐ°": 5661,
      "ĠÑĢÐµÑĨÐµÑģÑģÐ¸Ð¸": 5662,
      "ĠÐ¾ÑĤÐµÑĩÐµ": 5663,
      "ĠÐ¿ÑĢÐ¾Ð¿": 5664,
      "ĠÑĨÐµÐ»ÐµÐ²Ð¾Ð¹": 5665,
      "oft": 5666,
      "ĠÑĢÐ¸ÑĤÐµÐ¹Ð»": 5667,
      "el": 5668,
      "ĠÐ³ÐµÐ½": 5669,
      "ÑĢÐ¾Ð²Ð°Ð»Ð°": 5670,
      "Ġ62": 5671,
      "ĠÑĪÑĤÑĥ": 5672,
      "ĠÐ¾ÑĢÐ¸ÐµÐ½ÑĤÐ¸ÑĢÐ¾Ð²Ð°ÑĤÑĮÑģÑı": 5673,
      "ĠÑĢÐ°Ð±Ð¾ÑĤÐ°ÐµÑĤ": 5674,
      "ĠÐ¾ÐºÐ¾Ð½ÑĩÐ°Ð½Ð¸Ñı": 5675,
      "Ġ172": 5676,
      "ĠÐ¿Ð¾Ð»ÑĥÑĩÐ¸Ð»Ð¸": 5677,
      "ĠÑİÑĢÐ¸": 5678,
      "ĠÐ¿ÑĢÐ¾ÑģÐ°Ð´ÐºÑĥ": 5679,
      "ĠÐ½Ð°Ð¿ÑĢÐ°Ð²": 5680,
      "ĠÑģÐ¿ÐµÐºÑĥÐ»ÑıÑĤÐ¸Ð²Ð½ÑĭÑħ": 5681,
      "Ð°ÑĨÐ¸Ð¸": 5682,
      "ÑģÑĤÑģÑı": 5683,
      "ĠÐ½Ð¾Ð¼": 5684,
      "ĠÐĶÐ°Ð»ÑĮ": 5685,
      "ĠBank": 5686,
      "1300": 5687,
      "ĠÐ¿Ð¾Ð²Ð»Ð¸Ñı": 5688,
      "ĠÐ¼ÐµÐ½Ñı": 5689,
      "ĠÐ¾ÑĤÐºÑĢÑĭÐ²Ð°ÐµÑĤ": 5690,
      "ĠÐ¡Ð¸Ð³": 5691,
      "ĠApple": 5692,
      "st": 5693,
      "ĠÐĿÐ¾Ð²ÑĭÐµ": 5694,
      "Ġ155": 5695,
      "ĠÐ¾ÑĤÑĩÐµÑĤÑĭ": 5696,
      "ĠÐ½Ð°ÑĢÐ°ÑģÑĤ": 5697,
      "ĠÐĹÐ°ÐºÑĢÑĭÑĤÐ¸Ðµ": 5698,
      "ĠÑģÐµÐ·Ð¾Ð½": 5699,
      "Ð´Ð°ÑĤÑĮ": 5700,
      "Ð¾Ð²ÑģÐºÐ¾Ð¹": 5701,
      "ÑĨÐ¸ÑĦÑĢÑĭ": 5702,
      "ÑģÐºÐ¾ÑĢÐµ": 5703,
      "ĠÐ¼ÐµÑĢ": 5704,
      "ĠÐľÐ¾ÑģÐºÐ²Ðµ": 5705,
      "Ġ1290": 5706,
      "ĠÐ¿Ð¾Ð·Ð¸ÑĤÐ¸Ð²Ð½Ð¾Ð¹": 5707,
      "ĠÐºÑĢÐµÐ´Ð¸ÑĤÐ¾Ð²": 5708,
      "ĠÐ±ÐµÐ·Ð¾Ð¿Ð°ÑģÐ½ÑĭÐµ": 5709,
      "ĠÐ¾Ð¿ÑĤÐ¸Ð¼Ð°Ð»ÑĮÐ½Ð¾": 5710,
      "ĠÐ¿Ð¾Ð´ÑĤÐ²ÐµÑĢÐ´Ð¸": 5711,
      "ĠÐ²ÐµÐ»Ð¸": 5712,
      "Ð°Ð½Ð½Ð¾Ð¹": 5713,
      "ÐĺÐļ": 5714,
      "Ð¾Ð±Ð»Ð¸Ð³Ð°": 5715,
      "ĠÑĤÐ¾ÑĢÐ³Ð¾Ð²Ð°Ñı": 5716,
      "ĠÐ²Ð·Ð»ÐµÑĤ": 5717,
      "ĠÐ²ÐµÑĢÐ¾ÑıÑĤÐ½ÑĭÐ¼": 5718,
      "ĠÐ¾ÐºÐ°Ð·ÑĭÐ²Ð°ÐµÑĤ": 5719,
      "ĠÐ²Ð°Ð¶Ð½ÑĭÐµ": 5720,
      "ĠÐ¿Ð¾ÑĤÐµÑĢÑıÐ²ÑĪÐµÐ³Ð¾": 5721,
      "ĠÐ¸ÑģÑĤÐ¾ÑĩÐ½Ð¸ÐºÐ¸": 5722,
      "ĠÐ´ÐµÐ½ÐµÐ¶Ð½Ð¾": 5723,
      "ĠÐ¢ÐµÐºÑĥÑīÐ°Ñı": 5724,
      "ĠÑĢÐ¾Ð·ÑĭÐ³ÑĢÑĭ": 5725,
      "ĠÐłÐĸÐĶ": 5726,
      "ĠÑģÐµÐ½ÑĤÐ¸Ð¼ÐµÐ½ÑĤÐ°": 5727,
      "ĠÐ¿Ð¾Ð²ÐµÑģÑĤÐºÐµ": 5728,
      "ĠÑģÑĥ": 5729,
      "Ð¾Ð´Ð¾Ð»": 5730,
      "ĠÐ´Ð¾Ð»Ð³Ð¾ÑģÑĢÐ¾ÑĩÐ½Ð¾Ð³Ð¾": 5731,
      "ĠÐ¿Ð»Ð°Ð½Ð¸ÑĢÑĥÐµÑĤÑģÑı": 5732,
      "ĠÐłÐµÐ·ÑĥÐ»ÑĮÑĤÐ°ÑĤÑĭ": 5733,
      "ĠÑģÑĤÐ°ÑĤÐ¸ÑģÑĤÐ¸ÐºÐ°": 5734,
      "Ð«": 5735,
      "Ð²Ð¾Ðµ": 5736,
      "ĠÐ²ÑģÑĤÑĥÐ¿": 5737,
      "ÐļÐŁ": 5738,
      "ĠÐ§ÑĤÐ¾Ð±Ñĭ": 5739,
      "Ġ92": 5740,
      "ĠÐ½ÑĥÐ¶Ð½Ñĭ": 5741,
      "ĠÐ²ÑģÑİ": 5742,
      "ĠÐºÑĢÐ¸Ð¿ÑĤÐ¾Ð²Ð°Ð»ÑİÑĤ": 5743,
      "ĠÐ·Ð°ÑĢÐµÐ³Ð¸ÑģÑĤÑĢÐ¸": 5744,
      "ĠÐłÐ¸ÑģÐºÐ¸": 5745,
      "ĠÐ¾Ð¿ÐµÑĢÐµ": 5746,
      "Ġ330": 5747,
      "ĠÐ½Ð°ÑĩÐ°Ð»ÑģÑı": 5748,
      "ĠÐ·Ð°ÐºÑĢÑĭÑĤ": 5749,
      "ĠÑįÐ¼Ð¸ÑĤÐµÐ½ÑĤÐ¾Ð²": 5750,
      "ĠÐ¿Ð¾ÑĤÑĢÐµÐ±Ð¸ÑĤÐµÐ»ÑĮÑģÐºÐ¸Ñħ": 5751,
      "ĠÐ¡ÑĥÑĢÐ³ÑĥÑĤÐ½ÐµÑĦÑĤÐµÐ³Ð°Ð·Ð°": 5752,
      "me": 5753,
      "Ð°ÐºÐ°Ñı": 5754,
      "ĠÐ¿ÑĢÐ¸Ð½ÑıÑĤ": 5755,
      "ĠÐ¿Ð¾Ð·Ð¸ÑĤÐ¸Ð²Ð½Ð°Ñı": 5756,
      "ĠÐ¿Ð»Ð°ÑĤÑĦÐ¾ÑĢ": 5757,
      "ĠÑĥÑĩÐ°ÑģÑĤÐ½Ð¸ÐºÐ¸": 5758,
      "ĠÐĶÐ¸Ð²Ð¸Ð´ÐµÐ½Ð´Ñĭ": 5759,
      "ĠÐ½Ð¾ÑĢÐ¼": 5760,
      "ĠÐ¸ÑģÐ¿Ð¾Ð»ÑĮÐ·Ð¾Ð²Ð°ÑĤÑĮ": 5761,
      "ĠÐ¿ÐµÑĢÐµÐ¹ÑĤÐ¸": 5762,
      "ang": 5763,
      "ĠÑģÐµÑĢÐ²Ð¸Ñģ": 5764,
      "ĠÑĥÐºÑĢÐµÐ¿Ð»ÐµÐ½Ð¸Ñı": 5765,
      "Ð½Ð¸Ð»Ð¸": 5766,
      "Ġ111": 5767,
      "ĠÐ¿Ð¾Ð²ÑĭÑģÐ¸ÑĤÑĮ": 5768,
      "ĠÐ¼ÐµÑĤÐ°Ð»Ð»ÑĥÑĢÐ³Ð¸": 5769,
      "ĠÐ¿ÑĢÐµÐ´Ð¿Ð¾Ð»Ð°Ð³Ð°ÐµÑĤ": 5770,
      "ĠÐŁÑĢÐ¾Ð´Ð°Ð¶Ð¸": 5771,
      "ĠÐ°Ð²ÑĤÐ¾Ð¼Ð¾Ð±Ð¸Ð»ÐµÐ¹": 5772,
      "ĠÑĨÐµÐ»ÐµÐ²ÑĥÑİ": 5773,
      "ĠÐ°Ð½Ð°Ð»Ð¾Ð³Ð¸": 5774,
      "ÑĢÐ¾ÑģÐ»Ð¾": 5775,
      "ĠÐ¿Ð¾Ñģ": 5776,
      "ĠÐŃÑĤÐ°": 5777,
      "ĠÑģÐ¸Ð»ÑĮÐ½ÐµÐµ": 5778,
      "ĠÐ´Ð¾Ð¿ÑĥÑģÐºÐ°ÐµÑĤ": 5779,
      "ÑĥÐ¼Ð°": 5780,
      "ĠÐ³ÑĢÐ°ÑĦÐ¸ÐºÐ°Ñħ": 5781,
      "Ð°Ð²ÑĤÑĢÐ°": 5782,
      "ĠÑģÐ¸Ð»ÑĮÐ½ÑĭÐ¼": 5783,
      "ĠÐ¢ÐµÑħÐ½Ð¸ÑĩÐµÑģÐºÐ¸": 5784,
      "ĠÐ°ÐºÑĨÐ¸Ð¾Ð½ÐµÑĢÑĭ": 5785,
      "ĠÑĦÐ¾Ð½Ð´Ñĭ": 5786,
      "ĠÐ¿ÑĢÐ°Ð²Ð¾": 5787,
      "ĠÑģÐ»Ð°Ð±ÑĭÐ¹": 5788,
      "ĠÐ²ÑĭÑĢÐ°ÑģÑĤÐµÑĤ": 5789,
      "Ð°Ð´Ð°": 5790,
      "ĠÑĤÐ°ÑĢÐ¸ÑĦ": 5791,
      "ĠÐ³ÑĢÐ°ÑĦÐ¸ÐºÐ¾Ð¼": 5792,
      "050": 5793,
      "ĠÐ·Ð°Ð¿Ð°Ñģ": 5794,
      "ĠÐ¾Ð¿ÑĥÐ±Ð»Ð¸ÐºÑĥÐµÑĤ": 5795,
      "ĠÑĦÐ¾Ð½Ð´Ð¾Ð²Ð¾Ð¼": 5796,
      "ĠÐ¾ÑĤÑģÑĥÑĤÑģÑĤÐ²Ð¸Ñı": 5797,
      "ĠÐ¾Ð³ÑĢÐ°Ð½Ð¸ÑĩÐ¸Ð²Ð°ÐµÑĤ": 5798,
      "ĠÑĢÑĭÐ²Ð¾Ðº": 5799,
      "ĠÐĺÐ¼Ð¿ÑĥÐ»ÑĮ": 5800,
      "ĠÐ½ÐµÑģÐºÐ¾Ð»ÑĮÐºÐ¸Ñħ": 5801,
      "ĠÐ½Ð°ÑĨ": 5802,
      "Ð¼Ð°ÑĢÑĤ": 5803,
      "ĠÐ¡ÑĤÐ°": 5804,
      "ÑģÑģÐ¸Ñİ": 5805,
      "Ð¿Ð»Ð¾Ñħ": 5806,
      "ĠÑģÐ¾Ð²Ð¾ÐºÑĥÐ¿": 5807,
      "ĠÑĢÐµÐ³ÑĥÐ»Ð¸": 5808,
      "ĠÑĥÑģÐ¿ÐµÑĪÐ½Ð¾": 5809,
      "ÑĢÐ°Ñħ": 5810,
      "ĠÐ¿ÑĢÐ¸ÑħÐ¾Ð´": 5811,
      "ĠÐ½ÐµÐ´Ð¾": 5812,
      "ĠÐ¼Ð¸Ð½Ð¸Ð¼ÑĥÐ¼Ð°Ð¼": 5813,
      "ĠÐ´ÐµÐ¿Ð¾Ð·Ð¸ÑĤÐ°ÑĢ": 5814,
      "Ġ104": 5815,
      "ĠÐ¡Ð¾Ñħ": 5816,
      "ĠÑĨÐµÐ½Ð°Ð¼": 5817,
      "ĠÑģÐµÑģÑģÐ¸Ñı": 5818,
      "Ġ2012": 5819,
      "ĠÐ·Ð°Ð¼Ð¾ÑĢÐ¾Ð¶": 5820,
      "ĠÐ¾ÑĨÐµÐ½ÐºÐ°Ð¼": 5821,
      "ĠÐ¿ÑĢÐ¸Ð±Ð°Ð²Ð¸Ð»Ð¸": 5822,
      "ĠÐ¼Ð¸Ð»Ð»Ð¸Ð°ÑĢ": 5823,
      "ĠÐ¿Ð¾Ð±ÐµÐ´": 5824,
      "ĠÐ±Ð»Ð¾ÐºÐ¸ÑĢÑĥÑİÑīÐ¸Ñħ": 5825,
      "Ð°Ñĥ": 5826,
      "ĠÑģÑĥÐ±": 5827,
      "ĠÑģÐ¾Ð±Ð¸": 5828,
      "Ġ117": 5829,
      "Ġ158": 5830,
      "ĠÑĢÐµÐ·ÐµÑĢ": 5831,
      "Ġ166": 5832,
      "ÑİÑīÐ°Ñı": 5833,
      "ĠÑĥÐ²ÐµÐ»Ð¸ÑĩÐ¸Ð»": 5834,
      "ĠÑģÐ»ÐµÐ´ÑĥÑİÑīÐµÐ¼": 5835,
      "ĠÐŁÑĢÐµÐ¾Ð´Ð¾Ð»": 5836,
      "ĠÑĢÐµÐ´Ð¾Ð¼Ð¸ÑĨÐ¸Ð»ÑıÑĨÐ¸Ð¸": 5837,
      "RO": 5838,
      "SM": 5839,
      "ĠÐĴÐ¾Ñģ": 5840,
      "ĠÐĴÐ°Ð¶": 5841,
      "ĠÑģÐ½Ð¸Ð¶ÐµÐ½Ð¸Ð¸": 5842,
      "Ġ93": 5843,
      "ĠÑĥÐ²ÐµÐ»Ð¸ÑĩÐ¸Ð»Ð°": 5844,
      "ÑĤÐµÑĢÐ½": 5845,
      "ĠÑĢÐµÐ°ÐºÑĨÐ¸ÐµÐ¹": 5846,
      "ĠÐ·Ð°Ð²Ð¸ÑģÐµÑĤÑĮ": 5847,
      "ĠÑģÐ½ÑıÑĤÐ¸": 5848,
      "Ð¼ÐµÐ½Ð°": 5849,
      "ĠÐŁÐ°Ð´ÐµÐ½Ð¸Ðµ": 5850,
      "ĠÑĢÐ°Ð¼ÐºÐ¸": 5851,
      "ĠÐŁÑĢÐ¾Ð¸Ð·Ð²Ð¾Ð´": 5852,
      "ĠÑģÑĦÐ¾ÑĢÐ¼Ð¸ÑĢÐ¾Ð²Ð°Ð»ÑģÑı": 5853,
      "ĠÐ¿Ð»Ð°Ð½Ðµ": 5854,
      "ĠÐ£ÐºÑĢÐ°Ð¸Ð½Ðµ": 5855,
      "ĠÐ¿Ð¾Ð²Ð¾Ð´Ñĥ": 5856,
      "ĠÑĤÐ°Ð¹Ð¼ÑĦÑĢÐµÐ¹Ð¼Ð°Ñħ": 5857,
      "ĠÑĤÑıÐ½ÑĥÐ²": 5858,
      "EBITDA": 5859,
      "ÐµÐ±": 5860,
      "ĠÑĥÑĪÐ»Ð°": 5861,
      "Ð½ÐµÐ´ÐµÐ»ÑĮ": 5862,
      "ĠÑĦÐ¾Ðº": 5863,
      "ĠÐ¾ÑģÐµÐ½ÑĮÑİ": 5864,
      "Ġ7000": 5865,
      "ĠÑĢÐ°Ð±Ð¾ÑĤÑĥ": 5866,
      "ĠÐ¿ÑĢÐµÐ´Ð¿Ð¾Ð»Ð°Ð³": 5867,
      "ĠÐ´Ð¾Ð³Ð¾Ð²": 5868,
      "ĠÑĥÐ´Ð°ÑģÑĤÑģÑı": 5869,
      "ĠÑģÑĦÐµÑĢÐµ": 5870,
      "Ð½Ð¸ÑĩÐµ": 5871,
      "ĠÐŀÐ½Ð¸": 5872,
      "ĠÐĶÐ½ÐµÐ²": 5873,
      "ÐłÐĶ": 5874,
      "ĠÑĢÐ¸ÑģÐºÐ¾Ð¼": 5875,
      "ĠÐ²Ð¾ÑģÐ¿ÑĢÐ¸": 5876,
      "ĠÐ²ÑĭÐ¿ÑĥÑģÐºÐ°": 5877,
      "ĠÑĦÐ°ÐºÑĤÐ¾ÑĢÐ¾Ð²": 5878,
      "ĠÑĦÐ¾Ð½Ð´Ð¾Ð²": 5879,
      "ĠÐķÐ²ÑĢÐ¾Ð¿Ñĥ": 5880,
      "ĠÐ¢ÑĢÐ°Ð½ÑģÐ½ÐµÑĦÑĤÐ¸": 5881,
      "ĠÑĤÑıÐ½ÑĥÐ²ÑĪÐ¸Ð¹ÑģÑı": 5882,
      "ĠÐ²Ð°ÑĪ": 5883,
      "Ð²Ð¸Ð¼": 5884,
      "ĠÐ²ÑĭÐ²Ð¾Ð´": 5885,
      "Ð¾Ð±ÑĢÐ°Ð·": 5886,
      "ÐĲÑįÑĢÐ¾ÑĦÐ»Ð¾ÑĤ": 5887,
      "ĠÐĵÐļ": 5888,
      "ÐµÑħÐ°Ð½Ð¸": 5889,
      "ĠÑĥÐ¿ÑĢÐ°Ð²Ð»Ñı": 5890,
      "ĠÐºÐ»ÑİÑĩÐµÐ²ÑĥÑİ": 5891,
      "ĠÐŁÐ¾ÐºÐ°Ð·Ð°ÑĤÐµÐ»ÑĮ": 5892,
      "ÑĤÐ¾Ð½": 5893,
      "ÑģÑĤÐ²Ð¸ÐµÐ¼": 5894,
      "Ð¾Ð¼Ð¿Ð°Ð½Ð¸Ð¹": 5895,
      "ĠÐ¿Ð¾ÑģÑĤÐ°Ð²Ð»ÐµÐ½": 5896,
      "ĠÐĿÐ¾Ð²Ð¾ÑģÑĤÐ¸": 5897,
      "ĠÐ½Ð°ÑĩÐ¸Ð½Ð°ÐµÑĤ": 5898,
      "ĠÑģÐ¾Ð±ÑĢÐ°Ð½Ð¸Ðµ": 5899,
      "ĠÑĢÐµÐ¶Ð¸Ð¼Ðµ": 5900,
      "ĠÐ³ÑĢÐ°Ð¶Ð´Ð°Ð½": 5901,
      "Ð¾Ð»Ð»Ð°ÑĢ": 5902,
      "ĠÐºÐ¾ÑĢÐ¾Ð½Ð°Ð²Ð¸ÑĢÑĥÑģÐ°": 5903,
      "ĠÐ¿ÑĭÑĤ": 5904,
      "ĠÑĤÑĢÑĥ": 5905,
      "ĠÐ³Ð¾Ð´Ð¾Ð²ÑĭÐµ": 5906,
      "ĠÐ½Ð°ÑĩÐ°Ð»Ð°ÑģÑĮ": 5907,
      "ĠÐĺÐ½ÑĤÐµÑĢÑĦÐ°ÐºÑģÐ°": 5908,
      "ke": 5909,
      "Ð¾Ð²Ð°Ð»Ð¸": 5910,
      "ĠÐ´Ð½Ð¾": 5911,
      "Ð²Ð°Ð¹ÑĤÐµ": 5912,
      "ĠÐ¿ÑĢÐ¾ÑĤ": 5913,
      "ĠÐ½Ð¾Ð²Ð¾ÑģÑĤÑĮ": 5914,
      "ĠÑĢÐ°ÑģÐ¿ÑĢÐµÐ´ÐµÐ»": 5915,
      "ĠÐ¸Ð½ÑĤÐµÐ³ÑĢÐ¸ÑĢÐ¾Ð²Ð°Ð½Ð½Ð°Ñı": 5916,
      "ĠÐ²Ð°Ð¶Ð½ÑĭÑħ": 5917,
      "ĠÐºÐ¾Ð½ÑģÐ¾Ð»Ð¸Ð´Ð°ÑĨÐ¸Ñı": 5918,
      "Ð³Ð¾Ñģ": 5919,
      "Ġ116": 5920,
      "ĠÐĴÐ¾ÑģÑĤÐ¾Ðº": 5921,
      "ĠÐ²ÑĭÑĢÐ¾ÑģÐ»Ð¾": 5922,
      "ĠÐ¤Ð¸": 5923,
      "ĠÐ¾ÑĤÐ¼ÐµÐ½Ñĭ": 5924,
      "ĠÐķÐ³Ð¾": 5925,
      "ĠÐ¿Ð¾Ð¿ÑĭÑĤÐºÑĥ": 5926,
      "ĠÑĤÐµÑħÐ½Ð¾Ð»Ð¾Ð³": 5927,
      "ĠÐ½Ð°ÑģÑĤÑĢÐ¾ÐµÐ½Ð¸Ð¹": 5928,
      "ĠÐ²Ð´": 5929,
      "Ð¾Ð±ÑĢÐ¸ÑĤ": 5930,
      "Ġ595": 5931,
      "ĠÐĶÐ¶": 5932,
      "ĠÐºÐ¾ÑĤÐ¾ÑĢÐ¾Ð¼": 5933,
      "ĠÑģÐ¾Ð±ÑĭÑĤÐ¸Ð¹": 5934,
      "Ð¸ÑģÐºÐ°": 5935,
      "ĠÐºÐ¾Ð½ÑĤÑĢÐ¾Ð»Ð¸ÑĢÑĥÑİÑīÐµÐ³Ð¾": 5936,
      "ran": 5937,
      "ĠÐ¿Ð°Ð½Ð´ÐµÐ¼": 5938,
      "ĠÐ²Ð°Ð¼": 5939,
      "Ð±Ñģ": 5940,
      "ĠÐĴÐµÐ»Ð¸Ðº": 5941,
      "ÐºÐ¸Ð¼Ð¸": 5942,
      "Ð¶Ð°ÐµÐ¼": 5943,
      "ÑģÑģÐ¸Ð²": 5944,
      "ÐŁÐ¾ÐºÑĥÐ¿Ð°ÑĤÑĮ": 5945,
      "ĠÑģÑĢÐµÐ´Ð½ÐµÑģÑĢÐ¾ÑĩÐ½ÑĭÐµ": 5946,
      "ĠÑĥÑĤÐ²ÐµÑĢÐ¶": 5947,
      "ÑİÑīÐµÐµ": 5948,
      "ĠÑĢÐµÐ°Ð»Ð¸Ð·Ð¾Ð²Ð°Ð»ÑģÑı": 5949,
      "ĠÑĦÐ¸Ð³ÑĥÑĢÐ°": 5950,
      "ĠÐ¶Ð¸Ð»ÑĮÑı": 5951,
      "SN": 5952,
      "ÑĢÑıÐ¼": 5953,
      "ĠÐ½ÐµÐ»ÑĮÐ·Ñı": 5954,
      "ĠÐŁÐµÑĢÐ²": 5955,
      "ĠÐ²ÑĭÐ±Ð¾ÑĢ": 5956,
      "ĠÑĦÐ¸Ð½Ð°Ð½ÑģÐ¾Ð²Ð¾Ð¹": 5957,
      "Ð°Ð²Ð¾ÑĢÐ¸ÑĤ": 5958,
      "ĠÐ²ÑĭÑģÐ¾ÐºÐ¸Ð¼": 5959,
      "ĠÐ¾ÑĩÐµÑĢÐµÐ´Ð½Ð¾Ð¹": 5960,
      "ĠÑĥÑģÐ¿ÐµÑħ": 5961,
      "ĠÐ¿Ð¾Ð´Ð´ÐµÑĢÐ¶Ð¸Ð²Ð°ÑĤÑĮ": 5962,
      "ĠÐ¿Ð¾Ð´Ð½Ð¸Ð¼Ð°Ð»Ð¸ÑģÑĮ": 5963,
      "ĠÐĺÑģÑĤÐ¾ÑĩÐ½Ð¸ÐºÐ¸": 5964,
      "ĠFix": 5965,
      "Ð¶Ð´Ñĭ": 5966,
      "ĠÑĥÐºÐ°Ð·Ð°": 5967,
      "ĠÐ¿Ð¾Ð´ÑĢÐ°Ð·Ñĥ": 5968,
      "ĠSt": 5969,
      "ĠÐ´Ð°ÑİÑĤ": 5970,
      "ĠÐ¡Ð¸Ð³Ð½Ð°Ð»": 5971,
      "ĠÐĴÐµÐ»Ð¸ÐºÐ¾Ð±ÑĢÐ¸ÑĤ": 5972,
      "ĠÐ¿Ð¾Ð´ÑĢÐ°Ð·ÑĥÐ¼Ðµ": 5973,
      "ÑĥÐ±Ñĭ": 5974,
      "Ġ114": 5975,
      "ĠÐ¡Ð°": 5976,
      "ĠÐ¿ÑĢÐ¾Ð´Ð°ÑĤÑĮ": 5977,
      "ĠÐ±Ð°ÑĢÑĢÐµÐ»ÐµÐ¹": 5978,
      "ĠÐ´Ð¾Ð»Ð¶Ð½Ð¾": 5979,
      "ĠÐ¡Ð¸Ð»ÑĮ": 5980,
      "ĠÐ¸Ð¿Ð¾ÑĤÐµÑĩ": 5981,
      "ĠÐ¿Ð¾Ð´Ð´ÐµÑĢÐ¶Ð¸Ð²Ð°ÐµÑĤ": 5982,
      "ĠÐ°ÐºÑĤÐ¸Ð²Ð¸Ð·Ð°ÑĨÐ¸Ð¸": 5983,
      "ĠÑĥÑĤÐ²ÐµÑĢÐ´Ð¸Ð»Ð¸": 5984,
      "ĠÑĤÑĢÐ°Ð´Ð¸": 5985,
      "ĠÐ¼Ð¾Ð½ÐµÑĤ": 5986,
      "ĠÐĴÐ»Ð°Ð´Ð¸Ð¼Ð¸ÑĢ": 5987,
      "ÑĥÑģÐ»": 5988,
      "Ð²ÐºÐ¸": 5989,
      "Ð¾Ð²Ð¾Ðµ": 5990,
      "ÐµÐ¹Ñģ": 5991,
      "ĠÑıÐ²": 5992,
      "ĠÑĥÑģÐ»ÑĥÐ³": 5993,
      "ĠÐ¼Ð°ÑĢÐ¶Ð¸Ð½Ð°Ð»ÑĮ": 5994,
      "Ð»ÐµÐ²Ð¾Ð¹": 5995,
      "Ġ175": 5996,
      "Ġ2018": 5997,
      "ĠÐłÑĭÐ½ÐºÐ¸": 5998,
      "ĠÐ¾Ð±ÐµÑģÐ¿ÐµÑĩ": 5999,
      "ĠÑģÐµÐ±Ðµ": 6000,
      "ĠÐ¼ÐµÑģÑĤÐ¾ÑĢÐ¾Ð¶": 6001,
      "ÑĭÐ²Ð°ÑĤÑĮÑģÑı": 6002,
      "ÑĮÐµÑĢ": 6003,
      "Ġ190": 6004,
      "ĠÐĹÐ´ÐµÑģÑĮ": 6005,
      "ĠÐºÐ¾ÑĤÐ¸ÑĢÐ¾Ð²ÐºÐ°Ð¼": 6006,
      "ĠEn": 6007,
      "ĠÐ½ÐµÐ³Ð°ÑĤÐ¸Ð²Ð½Ð¾": 6008,
      "ĠÐ³Ð»Ð°Ð²Ð½ÑĭÐ¹": 6009,
      "Ð¸Ñİ": 6010,
      "ĠÐ¡Ð¸Ð»": 6011,
      "ÑģÑĤÐ²ÐµÐ½Ð½ÑĭÐ¹": 6012,
      "ĠÐ´ÐµÑģÑı": 6013,
      "Ð¸ÑĤÐµÐ»ÑĮÐ½Ð¾Ðµ": 6014,
      "ĠÑĢÐµÐ·ÐµÑĢÐ²": 6015,
      "ĠÑģÐ¾ÑħÑĢÐ°Ð½ÑıÐµÐ¼": 6016,
      "ĠÐ¿Ð»Ð°ÑĤÐ¸ÑĤÑĮ": 6017,
      "ĠÐ¼ÐµÐ´Ð¸": 6018,
      "ĠÑģÐ¾Ð·Ð´Ð°ÑĤÑĮ": 6019,
      "ĠÐ·Ð°Ð²ÐµÑĢÑĪÐ¸Ð»Ð¸": 6020,
      "ĠÐ¼Ð°Ð³Ð°Ð·Ð¸": 6021,
      "gan": 6022,
      "ĠÑĥÐ¹ÑĤÐ¸": 6023,
      "ĠÐĴÐ°Ð»ÑİÑĤ": 6024,
      "ĠÐ¿Ð¾ÑģÑĤÑĢÐ¾": 6025,
      "ĠÑĦÐ¸Ð½Ð°Ð»ÑĮ": 6026,
      "ĠÑģÑĢÐµÐ´Ð½Ð¸Ðµ": 6027,
      "ĠÐ±ÑĭÑĩÑĮ": 6028,
      "ĠÑĢÐµÐºÐ¾Ð¼ÐµÐ½Ð´Ð°ÑĨÐ¸Ñİ": 6029,
      "ĠÐ´Ð¾Ð»Ð»Ð°ÑĢÐ¾Ð²": 6030,
      "ĠÐ¿Ð¾ÑĢÑĤÑĦÐµÐ»Ðµ": 6031,
      "eng": 6032,
      "ĠÑĦÑĥÐ½Ð´Ð°Ð¼ÐµÐ½ÑĤÐ°Ð»ÑĮÐ½ÑĭÐ¹": 6033,
      "ĠÐ¿Ð¾Ð´ÑĢÐ°Ð·ÑĥÐ¼ÐµÐ²Ð°ÐµÑĤ": 6034,
      "ĠÐºÐ»Ð°": 6035,
      "Ð»ÑıÐµÑĤÑģÑı": 6036,
      "ÑĩÐµÐ²Ð¸Ð´": 6037,
      "ĠÐ²Ð¾ÑģÑģÑĤÐ°Ð½Ð¾Ð²Ð»ÐµÐ½Ð¸Ñİ": 6038,
      "ĠÐ¥Ð¾Ð»Ð´Ð¸Ð½Ð³": 6039,
      "ĠÐ¾ÑĤÐºÑĢÑĭÑĤÐ¸Ñı": 6040,
      "ON": 6041,
      "ĠÑĤÐ¾Ð¼Ñĥ": 6042,
      "ĠÑıÐ¿Ð¾Ð½": 6043,
      "ĠÐ²ÑĭÑģÐ¾ÐºÑĥÑİ": 6044,
      "ĠÑģÑĥÑīÐµÑģÑĤÐ²ÐµÐ½Ð½ÑĭÑħ": 6045,
      "ĠÐ¢ÑĢÐ°Ð¼Ð¿": 6046,
      "Ðĸ": 6047,
      "Ð´Ð°Ð¼": 6048,
      "ĠÐ¿ÑĢÐ¸ÑģÐ¾": 6049,
      "ÐĴÐŀ": 6050,
      "ĠÐ¸ÑģÐºÐ»ÑİÑĩÐµÐ½Ð¸ÐµÐ¼": 6051,
      "ĠÐ¸Ð¼ÐµÑİÑĤ": 6052,
      "ĠÑĢÑĥÐ±ÐµÐ¶Ð¾Ð¼": 6053,
      "ĠÑĢÐµÐµÑģÑĤÑĢÐ°": 6054,
      "Ð¶ÐµÐ´Ð½ÐµÐ²Ð½Ð¾": 6055,
      "ÐµÐ»Ð¸ÑĤÐµÐ¹ÑīÐ¸": 6056,
      "co": 6057,
      "Ð»ÐµÐ½Ð°": 6058,
      "Ð²Ð°Ð½Ð¸Ðµ": 6059,
      "ĠÐ·ÑĢÐµÐ½Ð¸Ñı": 6060,
      "ĠÐ½ÐµÐ¿Ð»Ð¾Ñħ": 6061,
      "ĠÐ·Ð°Ð¼ÐµÑī": 6062,
      "ÐĶÐµÐ½ÑĮÐ³Ð¸": 6063,
      "ÑĤÐ¾Ñĩ": 6064,
      "ĠÐ¿ÐµÑĢÐµÐ½Ð°": 6065,
      "ĠÑģÐ»Ð¾Ð¼Ð°Ð½": 6066,
      "ĠÐ´Ð¾Ð»Ð»Ð°ÑĢÑĥ": 6067,
      "ĠÑģÐ½Ð¸Ð·Ð¸ÑĤÑĮ": 6068,
      "Ð¼ÐµÐ½ÑĤÐ°ÑĢÐ¸Ð¹": 6069,
      "ĠÐ¢Ð¾ÑĢÐ³Ð¸": 6070,
      "ĠâĤ½/$": 6071,
      "Ð¾ÐºÑĥÐ¼ÐµÐ½ÑĤ": 6072,
      "ĠPrice": 6073,
      "AZP": 6074,
      "um": 6075,
      "ĠÑģÑĥÑĤ": 6076,
      "Ġ245": 6077,
      "ĠÑģÐ»ÐµÐ´ÑĥÑİÑīÐ¸Ñħ": 6078,
      "ĠÐ¿ÑĥÐ±Ð»Ð¸ÐºÐ°ÑĨÐ¸Ñı": 6079,
      "ÑĤÑģÑı": 6080,
      "ÑģÑĤÐ¾Ð²": 6081,
      "Ð´Ð²ÐµÑĢ": 6082,
      "ĠÐ´Ð°Ð½Ð½Ð¾Ð³Ð¾": 6083,
      "ĠÐ´Ð°ÑģÑĤ": 6084,
      "ĠÐŁÐ¾Ð´Ð´ÐµÑĢÐ¶ÐºÑĥ": 6085,
      "ÑģÐ»ÑĥÐ¶Ð¸": 6086,
      "ĠÐ¼Ð°ÑģÑĪÑĤÐ°Ð±": 6087,
      "ĠÐ¿ÑĢÐ¾ÑĤÐ¸Ð²Ð¾ÑĢÐµÑĩÐ¸Ð²": 6088,
      "ĠÑĤÑĥ": 6089,
      "Ġ105": 6090,
      "ĠÑĨÐµÐ½Ð¾Ð¹": 6091,
      "ÑģÑĤÐ²ÐµÐ½Ð½Ð¾Ð³Ð¾": 6092,
      "Ð¸ÑĤÐµÐ»ÑĮÐ½Ð¾Ð³Ð¾": 6093,
      "Ġ127": 6094,
      "ĠÐ¸ÑģÑĤÐ¾ÑĢÐ¸ÑĩÐµÑģÐºÐ¸": 6095,
      "ĠÐ°ÐºÑĨÐ¸Ð¾Ð½ÐµÑĢ": 6096,
      "ĠÐ½Ð°ÑĢÐ°ÑģÑĤÐ¸": 6097,
      "ĠÐ´Ð¸Ð°Ð¿Ð°Ð·Ð¾Ð½Ð¾Ð¼": 6098,
      "ĠÑĥÐºÑĢÐµÐ¿Ð»ÐµÐ½Ð¸Ðµ": 6099,
      "Ð¾Ñĥ": 6100,
      "Ð´Ð¾Ð²": 6101,
      "Ð´ÐµÑĢ": 6102,
      "ĠÐ²ÑħÐ¾Ð´ÑıÑĤ": 6103,
      "Ð¾Ð´Ð¾ÑĢÐ¾Ð´": 6104,
      "ĠÐ¿ÑĢÐµÐ´Ð´Ð²ÐµÑĢ": 6105,
      "ĠÐ»Ð¸ÑĨÐµÐ½Ð·Ð¸": 6106,
      "ĠÐ¸Ð½ÑģÑĤÑĢÑĥÐ¼ÐµÐ½ÑĤÐ¾Ð²": 6107,
      "ĠÐ¸ÑģÐ¿ÑĭÑĤ": 6108,
      "organ": 6109,
      "ĠÑģÐ¾ÑģÑĤÐ°Ð²Ð¸Ð»Ð¾": 6110,
      "ĠÑģÑĨÐµÐ½Ð°ÑĢÐ¸Ñİ": 6111,
      "ĠÑģÐ°Ð¼ÑĭÐµ": 6112,
      "ĠÑĩÐ¸ÑģÐ»Ð¾": 6113,
      "ĠÑģÐ¾Ð¾Ð±ÑīÐ¸Ð»Ð°": 6114,
      "ĠÑģÐ¾Ð±Ð¸ÑĢÐ°": 6115,
      "Ð»Ð»": 6116,
      "ĠÐ¡ÐµÑĢÐ³": 6117,
      "ĠNik": 6118,
      "ĠÐ¾Ð´Ð½Ð¾Ð³Ð¾": 6119,
      "ĠÐ¿ÑĢÐ¾Ð¸Ð·Ð²Ð¾Ð´Ð¸ÑĤÐµÐ»ÐµÐ¹": 6120,
      "Ġ571": 6121,
      "ĠÐ²Ð»Ð°ÑģÑĤÐ¸": 6122,
      "ĠÐ¿ÑĢÐµÐ´Ð»Ð°Ð³Ð°ÐµÑĤ": 6123,
      "ĠÐŁÑĢÐµÐ¾Ð´Ð¾Ð»ÐµÐ½Ð¸Ðµ": 6124,
      "ĠÐ¿ÑĢÐµÐ´Ð´Ð²ÐµÑĢÐ¸Ð¸": 6125,
      "ĠÐºÐ»ÑĥÐ±": 6126,
      "ĠÑĤÐ¸": 6127,
      "ĠÐ¿Ð¾Ð½Ð¸Ð¶": 6128,
      "Ġ164": 6129,
      "ÑģÑĤÐ²ÑĥÑİÑĤ": 6130,
      "ĠÑĢÐ°ÑģÑģÐ¼Ð°ÑĤÑĢÐ¸Ð²Ð°ÐµÑĤ": 6131,
      "ĠÐĴÐµÑĢÐ¾ÑıÑĤÐ½Ð¾": 6132,
      "ĠÐ´Ð²Ðµ": 6133,
      "Ð¸ÑĤÐºÐ¾": 6134,
      "ĠÐ¿ÑĢÐ¸Ð´": 6135,
      "ĠÐ³Ð¾ÑĢÐ¾Ð´": 6136,
      "Ġ163": 6137,
      "Ġ168": 6138,
      "ĠÑģÐ¼ÑıÐ³": 6139,
      "ĠÐ¿Ð¾ÐºÐ°Ð·Ð°ÑĤÐµÐ»ÐµÐ¹": 6140,
      "ĠÐ½Ð°Ð¿ÑĢÑıÐ¶": 6141,
      "ĠÐ²ÑĭÐºÑĥÐ¿Ð°ÑİÑĤÑģÑı": 6142,
      "ĠÐ°ÐºÑĤÐ¸Ð²Ð°Ð¼Ð¸": 6143,
      "ĠÐ½Ð°Ð³ÑĢÑĥÐ·ÐºÐ¸": 6144,
      "Ð²Ð°Ð»Ð°ÑģÑĮ": 6145,
      "Ð¹ÑģÐºÐ¸Ð¹": 6146,
      "ĠÐ´Ð¾Ð¼": 6147,
      "ĠÐ»Ð¾Ð¶": 6148,
      "ĠÐ¿ÑĢÐµÐ´ÑģÑĤÐ¾ÑıÑī": 6149,
      "ĠÑĦÐ¸Ð½Ð°Ð½ÑģÐ¾Ð²ÑĭÐ¹": 6150,
      "ĠÑģÐ¾ÑģÑĤÐ°Ð²Ð»Ñı": 6151,
      "ĠÑģÑĢÐµÐ´Ð½ÐµÑģÑĢÐ¾ÑĩÐ½ÑĭÑħ": 6152,
      "ĠÐ¼ÐµÑģÑıÑĩÐ½Ð¾Ð³Ð¾": 6153,
      "ĠÐ²ÐºÐ»ÑİÑĩÐ°Ñı": 6154,
      "ĠÐ¾ÑĤÑĩÐ¸ÑĤÐ°Ð»ÑģÑı": 6155,
      "BER": 6156,
      "ÐºÑĢÐ¾": 6157,
      "ĠÑģÑĦÐ¾ÑĢÐ¼Ð¸": 6158,
      "ĠÐ²ÑĢÑıÐ´": 6159,
      "ĠÑĩÐµÑĢÐµÐ´": 6160,
      "ĠÐĿÐłÐĶ": 6161,
      "ĠÐ½ÐµÐ³Ð°ÑĤÐ¸Ð²Ð½ÑĭÐ¼": 6162,
      "ĠÐ¾ÐºÐ°Ð·Ð°ÑĤÑĮÑģÑı": 6163,
      "ĠÑĥÑģÐºÐ¾ÑĢ": 6164,
      "ĠÐ¡ÑĢÐµÐ´Ð½ÐµÑģÑĢÐ¾ÑĩÐ½ÑĭÐµ": 6165,
      "ÑĢÐ°ÑĤÑĮÑģÑı": 6166,
      "ĠÐ¢ÐµÐºÑĥÑīÐ¸Ðµ": 6167,
      "ĠÐĿÐĶÐŁÐĺ": 6168,
      "ĠÑĢÑĥÐ±Ð»ÐµÐ²ÑĭÐµ": 6169,
      "Ð¼Ð¾Ð½": 6170,
      "ĠÐłÐ¾ÑģÑģÐµÑĤÐ¸": 6171,
      "Ð¾ÑĤÐµÑħÐ½Ð¾Ð»Ð¾Ð³Ð¸": 6172,
      "ĠÐĲÐ½Ð´": 6173,
      "ÑıÐ¹": 6174,
      "ÑĥÑİÑĤ": 6175,
      "Ġ112": 6176,
      "ÑĢÐ¾Ð²Ð°Ð½Ð¸Ñİ": 6177,
      "ĠÐ¿ÐµÑĢÐµÑģÐ¼Ð¾ÑĤ": 6178,
      "ĠÑģÐ¾ÑģÑĤÐ°Ð²Ð¸Ð»Ð¸": 6179,
      "Ġ82": 6180,
      "ĠÐºÐ°ÐºÐ¸Ñħ": 6181,
      "Ð¿ÑĢÐ°Ð²Ð»ÐµÐ½Ð¸Ðµ": 6182,
      "ĠÐ±Ð¾Ð»ÑĮÑĪÑĥÑİ": 6183,
      "ĠÐ²Ð¸Ð´Ð¸ÑĤÑģÑı": 6184,
      "ĠÐ½Ð°Ð»Ð¾Ð³Ð°": 6185,
      "ĠÑģÑĤÐ°ÑĢÑĤÐµ": 6186,
      "ĠÑĢÑĭÐ½Ð¾ÑĩÐ½Ð¾Ð¹": 6187,
      "ĠÑĨÐµÐ»ÐµÐ²ÑĭÐ¼": 6188,
      "ĠÐ´Ð²Ð¸Ð³Ð°ÑĤÑĮÑģÑı": 6189,
      "ĠÐ²ÑĭÑģÐ¾ÐºÐ°": 6190,
      "ĠÐ¾Ð¿ÐµÑĢÐµÐ¶Ð°": 6191,
      "ÑĢÐµÐ½Ð¸Ðµ": 6192,
      "ĠÐ·Ð°ÐºÐ°Ð·": 6193,
      "Ð¸Ð¼Ð¾ÑģÑĤÑĮ": 6194,
      "ĠÐ¾ÑĨÐµÐ½ÐºÐµ": 6195,
      "ĠÐ°Ð¼ÐµÑĢÐ¸ÐºÐ°Ð½ÑģÐºÐ¸Ñħ": 6196,
      "ĠÐ´ÐµÐ¿Ð¾Ð·Ð¸ÑĤÐ°ÑĢÐ¸": 6197,
      "ĠÐ¸Ð³ÑĢÐ¾Ðº": 6198,
      "ĠÐŁÐ¾Ð»ÑİÑģ": 6199,
      "ĠÐ²Ð°ÑĢÐ¸Ð°Ð½": 6200,
      "ĠÐ¿ÑĢÐ¸ÑĤÐ¾Ðº": 6201,
      "Ġ280": 6202,
      "ĠÑĢÐ°Ð»Ð»Ð¸": 6203,
      "ĠÐ¡Ð¾Ð³Ð»Ð°": 6204,
      "Ð°ÐºÑĢÐ¾": 6205,
      "ĠÐ¿Ð¾Ð´Ð¾Ð±": 6206,
      "ĠÐ¿ÐµÑĢÐ²Ð¸": 6207,
      "ĠÐĿÐ°Ð¿Ð¾Ð¼": 6208,
      "Ð¸ÑĤÐµÐ»ÑĮÐ½ÑĭÐ¹": 6209,
      "Ġ161": 6210,
      "ĠÐ²Ð¾Ð·Ð²ÑĢÐ°ÑĤ": 6211,
      "ĠÐ¾ÑĨÐµÐ½ÐºÐ°": 6212,
      "ĠÑĢÐµÑĪÐ¸ÑĤ": 6213,
      "ĠÑĢÐµÐ°Ð»Ð¸Ð·ÑĥÐµÑĤÑģÑı": 6214,
      "ĠÑĢÐ°ÑģÐ¿Ð¾Ð»Ð¾Ð¶ÐµÐ½Ð°": 6215,
      "ĠÐ²Ð»Ð°Ð´ÐµÐ»ÑĮ": 6216,
      "ĠÐ¿ÑĢÐ¸ÑĢÐ¾Ð´": 6217,
      "ĠÐ´Ð¾Ð»Ð³Ð¾Ð²Ð¾Ð¹": 6218,
      "ĠÑĢÐ¸ÑģÐºÐ¾Ð²Ð°Ð½": 6219,
      "ĠÐ±Ð¾Ð»ÑĮÑĪÐ¾Ð¹": 6220,
      "ĠÑģÐ¾Ð¿ÑĢÐ¾ÑĤÐ¸Ð²Ð»ÐµÐ½Ð¸ÐµÐ¼": 6221,
      "ĠÐ»ÑĮÐ³Ð¾ÑĤÐ½Ð¾Ð¹": 6222,
      "ĠÐºÐ°Ð¶Ð´ÑĭÐ¹": 6223,
      "ĠÐĿÐŀÐĴÐĲÐ¢ÐŃÐļÐ°": 6224,
      "ĠÐĲÐ»ÐµÐºÑģÐ°Ð½Ð´ÑĢ": 6225,
      "ĠÐ²Ð°Ñģ": 6226,
      "Ð°Ð»ÑĮÐ½ÑĭÐ¼": 6227,
      "ĠÐ¿ÐµÑĢÐµÑħÐ¾Ð´": 6228,
      "ĠÐ´Ð¾Ð±ÑĭÑĩÐµ": 6229,
      "ĠÐ¸Ð´ÐµÑİ": 6230,
      "ĠÐ¾Ð¿ÑĥÑģÑĤÐ¸Ð»Ð°ÑģÑĮ": 6231,
      "ĠÐŁÐ¾ÑģÐ»ÐµÐ´Ð½Ð¸Ð¹": 6232,
      "ÑįÐºÐ¾Ð½Ð¾Ð¼Ð¸": 6233,
      "ĠÐ¿ÑĢÐ¸Ð²ÐµÐ»Ð¾": 6234,
      "ĠÐ²Ð¾Ð¹": 6235,
      "ÑĩÐµÐ¼": 6236,
      "ÐµÑĤÑĢÐ¾Ð²": 6237,
      "Ð¸ÑĤÐ°": 6238,
      "ĠÐ°Ð»Ñİ": 6239,
      "ĠÐºÐ¾Ð¼Ð¿Ð°Ð½Ð¸ÐµÐ¹": 6240,
      "ĠÑģÐ¾Ð²Ð¼ÐµÑģÑĤ": 6241,
      "ĠÐŀÐ±Ñī": 6242,
      "ĠÑĢÐ°Ð·Ð²Ð¸ÑĤÑĮ": 6243,
      "ĠÑĥÐ´ÐµÑĢÐ¶Ð°ÑĤÑĮ": 6244,
      "ĠÐ²Ð¾Ð»Ð°ÑĤÐ¸Ð»ÑĮÐ½Ð¾ÑģÑĤÐ¸": 6245,
      "ĠÐ¿Ð¾ÑĪÐ»Ð¸Ð½": 6246,
      "ĠÐ¿Ð°Ð½Ð¸": 6247,
      "ĠÐ¼Ð¸ÑĢ": 6248,
      "ĠÐ³Ð»Ð°Ð²Ñĭ": 6249,
      "ĠÐ·Ð°Ð¹": 6250,
      "Ġ76": 6251,
      "ĠÑħÐ²": 6252,
      "ĠÐ²Ð°Ð»ÑİÑĤÑĥ": 6253,
      "ĠÐ´ÐµÐ½ÐµÐ³": 6254,
      "ĠÐ±Ð¾Ð»ÑĮÑĪÐ¾Ð¼": 6255,
      "end": 6256,
      "ĠÐľÐ°ÐºÑģÐ¸Ð¼Ð°Ð»ÑĮ": 6257,
      "ĠÐ¢Ð°ÑĤÐ½ÐµÑĦÑĤÑĮ": 6258,
      "ĠÑĢÐµÐ³ÑĥÐ»ÑıÑĤÐ¾ÑĢÐ°": 6259,
      "Ð¿ÑĢÐ¾Ð³ÑĢÐ°Ð¼": 6260,
      "TI": 6261,
      "ĠÑģÐ¼ÐµÑī": 6262,
      "ĠÐ½Ð°ÑĢÑĥ": 6263,
      "Ð¾ÑĢÑĤÐ¸": 6264,
      "ĠÐ¼ÐµÑħÐ°Ð½Ð¸": 6265,
      "ĠÐ¿ÑĢÐµÐ´ÑĥÐ¿": 6266,
      "ĠÐ¾ÑĤÐ¼ÐµÐ½Ð¸": 6267,
      "Ġ162": 6268,
      "ĠÐ¿Ð»ÑİÑģ": 6269,
      "ĠÑģÐ´ÐµÐ»ÐºÑĥ": 6270,
      "ĠÐ¿ÑĢÐ¸Ð±Ð°Ð²Ð»ÑıÑİÑĤ": 6271,
      "ĠÐ¿Ð¾Ð·Ð²Ð¾Ð»Ð¸ÑĤÑĮ": 6272,
      "Ð¾ÑĨÐµÐ½ÐºÐ°": 6273,
      "ĠÑĢÑıÐ´Ð¾Ð¼": 6274,
      "ĠÐ·Ð°Ð¿Ð°Ð´Ð½ÑĭÐµ": 6275,
      "ĠÐĶÐ°Ð²Ð»ÐµÐ½Ð¸Ðµ": 6276,
      "ĠÐĿÐµÐ³Ð°ÑĤÐ¸Ð²Ð½ÑĭÐ¼": 6277,
      "ĠÐ»Ð¾Ð³Ð¸ÑģÑĤÐ¸": 6278,
      "ĠÐª": 6279,
      "Ġ270": 6280,
      "ÐºÐ°Ð´ÐµÐ¼": 6281,
      "ÑģÑĤÐ²Ð¸Ð¹": 6282,
      "ĠÐ¸Ð·Ð²ÐµÑģÑĤ": 6283,
      "ĠÐ¿ÑĢÐ°Ð·Ð´": 6284,
      "ĠÑĤÐµÐºÑĥÑīÐµÐ¼": 6285,
      "ĠÐ¸Ð½ÑĦÐ¾Ð³ÑĢÐ°ÑĦÐ¸": 6286,
      "ÐķÐĿ": 6287,
      "ĠÐ¾Ð±Ð¾ÑĢÐ¾ÑĤÐ°Ñħ": 6288,
      "ĠÐºÐ»Ð¸ÐµÐ½ÑĤ": 6289,
      "ĠÐĶÐµÐ»": 6290,
      "ĠÐ¿Ð¾ÑĤÐµÑĢÐ¸": 6291,
      "ĠÐ¿Ð¾Ð»ÑĥÑĩÐ¸Ð»Ð°": 6292,
      "ĠÐºÑĢÐ°ÑĤÐºÐ¾ÑģÑĢÐ¾ÑĩÐ½Ð¾Ð³Ð¾": 6293,
      "ĠÐ´ÐµÐ½ÐµÐ¶Ð½ÑĭÐ¹": 6294,
      "ĠÑĥÑģÑĤÐ°Ð½Ð¾Ð²Ð¸Ð»Ð¸": 6295,
      "Ð¾Ð½Ð¾Ð¼": 6296,
      "ĠÐ°Ð»ÑĮ": 6297,
      "Ġ6000": 6298,
      "ĠÐ²Ð¾ÑģÑħÐ¾Ð´ÑıÑīÐµÐµ": 6299,
      "ĠÐ¾Ð±ÑĬÑıÐ²Ð¸Ð»": 6300,
      "ĠÑĥÐ³Ð»ÐµÐ²": 6301,
      "ĠÐ¿ÑĢÐ¸Ð²ÐµÐ´ÐµÑĤ": 6302,
      "ĠÑĥÐ³Ð»ÐµÐ²Ð¾Ð´Ð¾ÑĢÐ¾Ð´": 6303,
      "ÑĢÐ°Ð»ÑĮ": 6304,
      "ĠÐŀÐĲ": 6305,
      "ĠEU": 6306,
      "ĠÐ½Ð°Ð»Ð¾Ð³Ð¾Ð²": 6307,
      "ĠÐ±ÐµÐ·Ð¾Ð¿Ð°ÑģÐ½Ð¾ÑģÑĤÐ¸": 6308,
      "ĠÐ¾ÑĢÐ³Ð°Ð½Ð¸ÑĩÐ½Ð¾": 6309,
      "ĠÑģÐ¾ÐºÑĢÐ°ÑĤÐ¸Ð»ÑģÑı": 6310,
      "Ð¸Ð»ÑģÑı": 6311,
      "ĠÐ¡ÑĥÐ´": 6312,
      "ĠÐ¿ÑĢÐ°Ð²Ð¸Ð»Ð°": 6313,
      "ÐµÐ´Ð¶Ð¼ÐµÐ½ÑĤ": 6314,
      "ĠÐ½Ð°Ð·Ð°Ð´": 6315,
      "ĠÐ¿ÑĢÐ¾Ð±Ð»ÐµÐ¼Ñĭ": 6316,
      "ĠÐ¿ÐµÑĢÐµÐ³ÑĢÐµÑĤÐ¾": 6317,
      "ĠÑģÐ¸ÑģÑĤÐµÐ¼Ñĭ": 6318,
      "ĠÐ¾Ð´Ð¾Ð±ÑĢÐ¸Ð»Ð¸": 6319,
      "ĠÐºÐ¾Ð¼Ð¿Ð»ÐµÐºÑģ": 6320,
      "ĠÑģÑĥÑĤÐºÐ¸": 6321,
      "ÑģÐºÐ°Ð¶": 6322,
      "ĠÑĤÐ¾ÑĤ": 6323,
      "ĠÑĤÐ°ÐºÐ¸Ðµ": 6324,
      "Ð°Ð½Ð½Ð¾Ð³Ð¾": 6325,
      "ĠÑĩÐ¸Ñģ": 6326,
      "ĠSeng": 6327,
      "ĠÑģÐ¸ÑĤÑĥÐ°ÑĨÐ¸Ñİ": 6328,
      "ĠFor": 6329,
      "ĠÑĥÑģÑĤÐ¾Ð¹ÑĩÐ¸": 6330,
      "ĠÐ´Ð¾Ð³Ð¾Ð²Ð¾ÑĢ": 6331,
      "SMLT": 6332,
      "ĠÑĤÑĢÑĥÐ´Ð°": 6333,
      "kei": 6334,
      "ĠÐ¿Ð°Ð½Ð´ÐµÐ¼Ð¸Ð¸": 6335,
      "ĠNikkei": 6336,
      "ÑĢÐµÐ·": 6337,
      "ÐµÐºÑĤÑĥ": 6338,
      "ĠÐ¢ÐĵÐļ": 6339,
      "ÑĢÐ¾ÑģÐ¾": 6340,
      "ĠÐ¿Ð¾Ð»ÑĥÑĩÐ°ÑĤÑĮ": 6341,
      "ĠHang": 6342,
      "ĠÐ¡Ð±ÐµÑĢÐĺÐ½Ð²ÐµÑģÑĤÐ¸ÑĨÐ¸Ð¸": 6343,
      "ĠÐ¢ÑĢÐµÐ½Ð´Ð¾Ð²ÑĭÐµ": 6344,
      "Ð²Ð¸ÑĤÐ¸": 6345,
      "ÑĭÐ²Ð°Ð»": 6346,
      "ĠÐ½Ð°ÑĪÐ¸Ñħ": 6347,
      "ÑĢÐ¾ÑĤ": 6348,
      "ĠÑĤÑĢÑĥÐ´": 6349,
      "Ġ1000": 6350,
      "ÑĤÐ¸ÑĢÐ¾Ð²Ð°ÑĤÑĮÑģÑı": 6351,
      "ĠÐ°Ð±Ñģ": 6352,
      "ĠÐ¾Ð±Ð¾ÑĢÐ¾ÑĤÑĭ": 6353,
      "ĠÐ¿ÑĥÐ½ÐºÑĤÐ°": 6354,
      "ĠÐĴÐ¾Ð·Ð¼Ð¾Ð¶Ð½ÑĭÐ¼": 6355,
      "ĠÑģÐ¾ÑĤÑĢÑĥÐ´Ð½Ð¸ÑĩÐµ": 6356,
      "ĠÑģÐ¼ÐµÑģÑĤÑıÑĤÑģÑı": 6357,
      "ĠÐ·Ð°Ð»Ð¾Ð¶": 6358,
      "Ð·Ð¼Ð°": 6359,
      "ÑĦÐ¸ÐºÐ°": 6360,
      "ĠÐŃÐ¼Ð±Ð°ÑĢÐ³Ð¾": 6361,
      "ĠÐ¿ÑĢÐ¾Ð´Ð¾Ð»Ð¶Ð°ÑĤ": 6362,
      "andex": 6363,
      "ĠÐľÐ¸Ð½ÑįÐ½ÐµÑĢÐ³Ð¾": 6364,
      "ĠFinan": 6365,
      "ĠÑıÐ½Ð²Ð°ÑĢÑĮ": 6366,
      "ĠÐ¾Ð±ÑĬÑıÐ²Ð¸Ð»Ð°": 6367,
      "ĠÑģÐµÑĢÐ²Ð¸ÑģÐ¾Ð²": 6368,
      "ĠÑģÐ¿ÐµÐºÑĥÐ»ÑıÑĤÐ¸Ð²Ð½ÑĭÐµ": 6369,
      "ĠÑĢÐµÐ·ÐµÑĢÐ²Ñĭ": 6370,
      "Ð®": 6371,
      "ÑĩÐ½Ð¾Ð¼": 6372,
      "ĠÐ·Ð°Ð¼Ð¿": 6373,
      "ĠÐ¿ÑĢÐ¸ÑĩÐ¸": 6374,
      "ÐµÑĢÐ°Ð¼Ð¸": 6375,
      "ĠÐ¿ÑĢÐ¾Ð´Ð»Ð¸": 6376,
      "ĠÐŀÐ±ÑīÐ¸Ð¹": 6377,
      "ĠÐ²ÑĭÑģÐ¾ÐºÐ¾ÑĤÐµÑħÐ½Ð¾Ð»Ð¾Ð³Ð¸": 6378,
      "ÑİÑīÐ¸ÑħÑģÑı": 6379,
      "ĠÐ¿ÑĢÐ¾ÐµÐºÑĤÐ¾Ð²": 6380,
      "ĠÑĤÐ¾Ð¿Ð»Ð¸Ð²Ð°": 6381,
      "ĠÐĴÐµÐ´Ð¾Ð¼": 6382,
      "ĠÑĩÐ¸ÑģÐ»Ð°": 6383,
      "ĠÐ½Ñĥ": 6384,
      "ĠÐ´Ð¾Ð²": 6385,
      "ÑĦÐ»Ð¸": 6386,
      "ÑĢÑĥÑı": 6387,
      "ĠÐĴÐµ": 6388,
      "ĠÐ¾Ð±Ð·Ð¾ÑĢ": 6389,
      "Ġ340": 6390,
      "ÑģÑĭÑĢÑĮ": 6391,
      "ĠÑģÐ²Ð¾Ðµ": 6392,
      "ĠÑģÐ¸Ð»ÑĮÐ½ÑĭÐµ": 6393,
      "ĠÑģÐ¾ÑģÑĤÐ¾Ð¸ÑĤÑģÑı": 6394,
      "ĠÐ¾ÑīÑĥÑĤÐ¸Ð¼ÑĭÐµ": 6395,
      "ĠÐ·Ð°Ð¼Ð¿ÑĢÐµÐ´": 6396,
      "KO": 6397,
      "ĠÑĢÑı": 6398,
      "ĠÐ½Ð°ÑģÐºÐ¾Ð»ÑĮÐºÐ¾": 6399,
      "ÑīÑĳ": 6400,
      "ĠÐ¿Ð¾Ð´ÑĢÐ¾Ð±": 6401,
      "ĠÑįÑĤÑĥ": 6402,
      "Ð¸Ð¼Ð¾": 6403,
      "ĠSa": 6404,
      "ĠÐ¿ÑĢÐµÑĦ": 6405,
      "ĠÑĢÐ¾ÑģÑģÐ¸Ð¹ÑģÐºÐ¸Ð¼": 6406,
      "ĠÐ¿ÐµÑĢÐ¸Ð¾Ð´Ð°Ð¼Ð¸": 6407,
      "Ġ2013": 6408,
      "ĠÑĩÐµÑĤÐ²ÐµÑĢÑĤ": 6409,
      "ĠÐ²Ð¾Ð·Ð²ÑĢÐ°ÑīÐµÐ½Ð¸Ñı": 6410,
      "ĠCom": 6411,
      "ĠÐĿÐŁÐĹ": 6412,
      "ĠÐ¡Ð¸Ð»Ñĥ": 6413,
      "ÑĢÐ°Ð±Ð¾": 6414,
      "ĠÐºÑĢÐµÐ¿": 6415,
      "Ð¾Ð»Ð¾Ð²Ð°": 6416,
      "ĠÐĵÐ¾Ð´": 6417,
      "ĠÐ¿ÑĢÐ¾ÑĪÐ»ÑĭÐ¹": 6418,
      "ĠÑģÐ¸Ð»ÑĮÐ½ÑĭÑħ": 6419,
      "ĠÐ¿Ð¾Ð¿Ð°Ð»": 6420,
      "ĠÐºÐ¾Ð½ÑĬÑİÐ½ÐºÑĤÑĥÑĢÐµ": 6421,
      "ĠÑįÐºÑģÐ¿ÐµÑĢÑĤÐ¾Ð²": 6422,
      "ĠÐ¿ÑĢÐ¾ÑĤÐµÑģÑĤÐ¸ÑĢÐ¾Ð²Ð°ÑĤÑĮ": 6423,
      "ĠÐ¿ÐµÑĢÐµÐ³Ð¾Ð²Ð¾ÑĢÑĭ": 6424,
      "ĠÑĢÐ°Ð·Ð¼Ðµ": 6425,
      "ĠÐ¾Ð¿ÑĢÐ°Ð²": 6426,
      "Ġ360": 6427,
      "ĠÐ½ÐµÑĦÑĤÑıÐ½Ð¾Ð¼": 6428,
      "ĠÐ³Ð¾ÑĤÐ¾Ð²Ñĭ": 6429,
      "ĠÐŁÑĢÐ¾Ð´Ð°Ð²": 6430,
      "ÑĢÐ°Ð²Ð¸": 6431,
      "ÑħÐ¾Ð·": 6432,
      "ĠÐºÑĥÐ´Ð°": 6433,
      "ĠÐ²ÑĭÐ¿Ð¾Ð»Ð½ÐµÐ½Ñĭ": 6434,
      "ĠÐ»Ð¸Ð´Ð¸": 6435,
      "ĠÐ¿Ð¾Ð´ÑģÐºÐ¾": 6436,
      "ĠÑĥÑģÐ»Ð¾Ð²Ð¸Ð¹": 6437,
      "Ġ126": 6438,
      "ĠÑģÑĤÐ¾ÑħÐ°ÑģÑĤÐ¸Ðº": 6439,
      "ĠÑįÐºÐ¾Ð½Ð¾Ð¼Ð¸ÐºÐ°": 6440,
      "ĠÐķÐ²ÑĢÐ¾ÑģÐ¾": 6441,
      "ĠÐ¸Ð½ÑĦÐ»ÑıÑĨÐ¸Ñİ": 6442,
      "ĠÐ´Ð¾Ð¿Ð¾Ð»Ð½Ð¸ÑĤÐµÐ»ÑĮÐ½ÑĭÐµ": 6443,
      "ĠÑĢÐ°ÑģÐ¿Ð¾Ð»Ð°Ð³": 6444,
      "ĠÐĶÐ¸Ð²Ð¸Ð´ÐµÐ½Ð´Ð½Ð°Ñı": 6445,
      "ĠÐ¾Ð±Ð½Ð¾Ð²Ð»ÐµÐ½Ð¸Ðµ": 6446,
      "ĠÑĤÑĢÐ°Ð½Ð·": 6447,
      "ĠÐ´Ð¾ÑģÑĤÐ¾Ð¹": 6448,
      "ĠÐ²Ð°Ð¶Ð½ÑĭÐ¼": 6449,
      "ĠÐ¿Ð¾Ð»ÑĥÑĩÐµÐ½Ð¸Ðµ": 6450,
      "ĠÐ¢Ð°ÐºÐ¾Ðµ": 6451,
      "ĠÐ¿ÐµÑĢÐµÐ¿ÑĢÐ¾Ð´Ð°Ð½Ð½Ð¾ÑģÑĤÑĮ": 6452,
      "ĠÐ²Ð¿Ð»Ð¾ÑĤÑĮ": 6453,
      "ĠÑĤÑĢÐ°Ð´Ð¸ÑĨÐ¸Ð¾Ð½": 6454,
      "ÑĥÑģÐ»Ð¾Ð²": 6455,
      "Ð²ÑĭÑħ": 6456,
      "ĠÐ½Ð°ÑĨÐ¸Ð¾Ð½Ð°Ð»ÑĮ": 6457,
      "Ġ5500": 6458,
      "ĠÑĥÐ²ÐµÑĢÐµÐ½Ð½Ð¾ÑģÑĤÐ¸": 6459,
      "ĠDow": 6460,
      "ĠÑĥÑħÑĥÐ´ÑĪÐµÐ½Ð¸Ð¸": 6461,
      "ĠYandex": 6462,
      "ĠÑĢÐµÐ½ÑĤÐ°Ð±ÐµÐ»ÑĮÐ½Ð¾ÑģÑĤÑĮ": 6463,
      "ĠÑģÐ¸Ð³Ð½Ð°Ð»Ð¸Ð·Ð¸ÑĢÑĥÐµÑĤ": 6464,
      "ĠÐ¿ÑĭÑĤÐ°ÑİÑĤÑģÑı": 6465,
      "ĠÐ²Ð´Ð²Ð¾Ðµ": 6466,
      "ĠÐ¿ÑĢÐ¾ÑĤÐ¸Ð²Ð¾ÑĢÐµÑĩÐ¸Ð²ÑĥÑİ": 6467,
      "ĠÐºÐ¾Ð»": 6468,
      "ĠÐľÐ°ÑĢ": 6469,
      "Ð±Ð¾Ð½Ð°Ñĩ": 6470,
      "ĠÐ¿ÑĢÐ°Ð²Ð¸Ð»": 6471,
      "Ġ99": 6472,
      "Ġ86": 6473,
      "ÐľÐŁ": 6474,
      "ĠÐ¾ÑģÑĤÐ°Ð½ÐµÑĤÑģÑı": 6475,
      "Ð½Ð¸Ð¼Ð°ÑĤÑĮ": 6476,
      "ĠÐ¿ÑĢÐµÐ²ÑĭÑģÐ¸Ð»Ð¸": 6477,
      "Ð¡Ð±ÐµÑĢ": 6478,
      "ĠÐ¿ÑĢÐ¾Ð±Ð¸Ð²ÑĪÐ¸Ð¹": 6479,
      "ĠÐ¡Ð¾ÑħÑĢÐ°Ð½Ñı": 6480,
      "Ð±Ð¾Ð½Ð°ÑĩÑĩÐ¸": 6481,
      "va": 6482,
      "ÑıÐµÑĤ": 6483,
      "Ġ2026": 6484,
      "Ð¢Ð¾ÑĢÐ³": 6485,
      "ÑĩÐ¸ÑģÐ»": 6486,
      "ĠÐ§Ð°": 6487,
      "ries": 6488,
      "ĠÐĵÐ°Ð·Ð¿ÑĢÐ¾Ð¼Ð±Ð°Ð½Ðº": 6489,
      "ĠÐ¾Ð±ÑĬÐµÐ¼Ðµ": 6490,
      "ones": 6491,
      "ĠÑįÐºÑģÐ¿Ð¾ÑĢÑĤÐ½ÑĭÑħ": 6492,
      "ĠÐ¾Ð±Ð½Ð¾Ð²Ð»Ñı": 6493,
      "ĠÐ¿ÑĢÐ¾Ð¹Ð´": 6494,
      "ĠÐºÑĢÐµÐ´Ð¸ÑĤÐ¾Ð²Ð°Ð½Ð¸Ñı": 6495,
      "ĠÐ²ÐµÑĢÐ½ÑĥÐ»Ð°ÑģÑĮ": 6496,
      "ĠJones": 6497,
      "Ð¿ÐµÑĢÐ¸Ð¾Ð´Ð½ÑĥÑİ": 6498,
      "ĠÐ¾Ð¿ÑĤÐ¸Ð¼Ð¸Ð·Ð¼": 6499,
      "ĠÐ¢ÑĥÑĢÑĨÐ¸Ð¸": 6500,
      "ĠÐĺÐ¼Ð¿ÑĥÐ»ÑĮÑģÑĭ": 6501,
      "Ð°Ð¶Ð°": 6502,
      "ĠÑĤÑĢÑĥÐ±": 6503,
      "ĠÐ²ÑĭÑĩÐµÑĤ": 6504,
      "ĠÐ¾Ð±Ð²Ð°Ð»": 6505,
      "ÐµÑģÑĤÑĮ": 6506,
      "ĠÐ¢ÐľÐļ": 6507,
      "ĠÐ´ÐµÑĦ": 6508,
      "ĠÐ¾Ð´Ð½Ð¸Ð¼": 6509,
      "ĠÐ³ÑĢÐ°Ð½Ð¸ÑĨÑĥ": 6510,
      "ĠÑĢÐµÐ³Ð¸ÑģÑĤÑĢÐ°": 6511,
      "ĠÑĥÐ³ÑĢÐ¾Ð·": 6512,
      "ÑĩÐ°ÑģÐ¾Ð²Ð¾Ð³Ð¾": 6513,
      "ĠÐ²ÐµÑĩÐµÑĢÐ½Ð¸Ñħ": 6514,
      "ĠÐ¢ÐµÐ¼Ð¿Ñĭ": 6515,
      "ĠÑģÐ¿ÑĢÐ°Ð²ÐµÐ´Ð»Ð¸Ð²Ð¾Ð¹": 6516,
      "ĠÐ°ÐºÑĤÐ¸Ð²Ð¸Ð·Ð¸": 6517,
      "ĠÐ»Ð¸ÑģÑĤÐ¸Ð½Ð³Ð°": 6518,
      "ĠÐ°Ð¼": 6519,
      "Ð¾ÑģÑĭ": 6520,
      "ĠÑĨÐµÐ½Ð½ÑĭÐµ": 6521,
      "ĠÐķÐ¶ÐµÐ´Ð½ÐµÐ²Ð½Ð¾": 6522,
      "ĠÐ½Ð¾Ð²Ð¾Ð¼": 6523,
      "Ġ185": 6524,
      "ĠÑģÑĢÐµÐ´Ð½ÐµÑģÑĢÐ¾ÑĩÐ½Ð°Ñı": 6525,
      "ĠÑģÑĩÐµÑĤÐ°Ñħ": 6526,
      "ĠÑįÐ»ÐµÐºÑĤÑĢÐ¾Ð½": 6527,
      "ĠÐļÐ¾Ð¼Ð¼ÐµÐ½ÑĤÐ°ÑĢÐ¸Ð¹": 6528,
      "ĠÐ¤Ð¸Ð±Ð¾Ð½Ð°ÑĩÑĩÐ¸": 6529,
      "ÐºÑĨÐ¸Ñİ": 6530,
      "ĠÑĦÐ°Ð²Ð¾ÑĢÐ¸ÑĤ": 6531,
      "ĠÐ¤ÐĿ": 6532,
      "ÑģÐ»ÐµÐ¶Ð¸": 6533,
      "ÐµÐ·Ð´": 6534,
      "Ð¾Ð¿ÑĢÐ¾Ñģ": 6535,
      "ĠÐ¿ÑĢÐ¾Ð´ÐµÐ¼Ð¾Ð½ÑģÑĤÑĢÐ¸": 6536,
      "ĠÐ¿ÑĢÐ¾Ð±Ð¸Ð»Ð°": 6537,
      "ĠÐŀÐ±ÑĬ": 6538,
      "ĠÐ²ÑĭÐ¿Ð»Ð°ÑĤÐ¸": 6539,
      "ĠÐ¸Ð¼Ð¿Ð¾ÑĢÑĤÐ°": 6540,
      "ĠÐĺÐ½Ð´Ð¸Ð¸": 6541,
      "ĠÐŁÐµÑĢÐ²Ð°Ñı": 6542,
      "ÑĦÐµÑĢÐµÐ½": 6543,
      "ĠÐĴÐ¸ÐºÑĤÐ¾ÑĢÐ¾Ð¼": 6544,
      "ĠÐ½ÐµÐ±Ð¾Ð»ÑĮÑĪÐ¾Ð¹": 6545,
      "ÑĤÑĢÐµÐ½Ð´Ðµ": 6546,
      "ĠÑģÑĤÐ°Ð½Ð¾Ð²Ð¸ÑĤÑģÑı": 6547,
      "KOH": 6548,
      "ai": 6549,
      "ÑģÑĤÐµÑĢ": 6550,
      "ĠÐ·Ð°Ð²": 6551,
      "ĠÐ¡ÐĴÐŀ": 6552,
      "Ð¶ÐµÑģÑĤ": 6553,
      "Ð°ÐºÑĨÐ¸Ñı": 6554,
      "ĠÐºÐ¾Ð½ÑĦÐ»Ð¸": 6555,
      "Ð¼ÐµÑģÑĤÐ¾": 6556,
      "ĠETF": 6557,
      "ĠÐ²ÑĭÑģÐ¾ÐºÐ¸Ð¹": 6558,
      "ĠÐ³ÐµÐ¾Ð¿Ð¾Ð»Ð¸ÑĤÐ¸ÑĩÐµÑģÐºÐ¸Ðµ": 6559,
      "ĠÐłÐ¾Ð¼Ð°Ð½Ð¾Ð²ÑģÐºÐ¸Ð¼": 6560,
      "ĠÐ¿ÑĢÐ¸ÑĩÐ¸Ð½": 6561,
      "ÑĥÐ³Ð¸": 6562,
      "ĠÐ¿ÑıÑĤÑĮ": 6563,
      "ĠÐ¾ÑĩÐµÐ²Ð¸Ð´": 6564,
      "Ġ208": 6565,
      "Ġ101": 6566,
      "Ð´Ð°Ð¿": 6567,
      "ĠÑħÐ¾Ð»Ð´Ð¸Ð½Ð³": 6568,
      "Ġ174": 6569,
      "ĠÐ¿Ð¾ÑģÐ»ÐµÐ´Ð¾Ð²": 6570,
      "ĠÑģÐ¾Ð·Ð´Ð°": 6571,
      "ĠÐ¢Ð¾ÑĢÐ³Ð¾Ð²ÑĭÐµ": 6572,
      "ĠÐºÐ¸ÑĤÐ°Ð¹ÑģÐºÐ¸Ð¹": 6573,
      "ĠÑģÐ¾Ð³Ð»Ð°ÑģÐ¾Ð²": 6574,
      "ÑĢÐ¸Ð¹": 6575,
      "Ð½ÑĥÐ»Ð¸": 6576,
      "esla": 6577,
      "ĠÐ¸ÑģÑĤÐ¾ÑĢÐ¸Ð¸": 6578,
      "ĠÑĦÐ¾Ð½Ð´Ð¾Ð²Ð¾Ð³Ð¾": 6579,
      "ĠÐ¾ÑĤÑĢÐ°ÑģÐ»": 6580,
      "ild": 6581,
      "ĠÐºÐ¾ÑĢÑĢÐµÐºÑĨÐ¸Ð¾Ð½Ð½Ð¾Ð³Ð¾": 6582,
      "...": 6583,
      "ĠÑĢÐ°Ð½ÑĮ": 6584,
      "Ð°Ð½ÑģÐ¸": 6585,
      "ÑĥÑĤÑģÐ°Ð¹Ð´": 6586,
      "ĠÐ¿ÑĢÐ¸ÑĢÐ¾ÑģÑĤ": 6587,
      "ĠÐ°Ð²ÑĤÐ¾ÑĢ": 6588,
      "Ð¿ÑĢÐ°Ð²ÐµÐ´Ð»Ð¸": 6589,
      "ĠÑĤÐµÑĢÑıÑİÑĤ": 6590,
      "ĠÐŁÐ¾Ð»ÑİÑģÐ°": 6591,
      "ĠÑĩÐµÑĤÑĭÑĢÐµÑħ": 6592,
      "ĠÐ¿Ð¾Ð½Ð¸Ð·Ð¸": 6593,
      "ĠÑĢÐ°Ð½ÑĮÑĪÐµ": 6594,
      "FL": 6595,
      "ĠÐłÐ£Ð¡ÐĲÐĽ": 6596,
      "ĠÑģÐ¿Ð¾Ð»": 6597,
      "ÐĴÐ¸Ð´ÐµÐ¾": 6598,
      "ĠÐ¼Ð¸Ð½Ð¸Ð¼ÑĥÐ¼Ñĥ": 6599,
      "ĠTesla": 6600,
      "ĠÐ²ÑĭÑĢÑĥÑĩÐºÑĥ": 6601,
      "ĠÐ·Ð¾Ð»Ð¾ÑĤÐ¾Ð´Ð¾Ð±Ñĭ": 6602,
      "ĠÑģÑĥÑīÐµÑģÑĤÐ²ÐµÐ½Ð½ÑĭÐ¹": 6603,
      "ĠÐ¿ÑĢÐ¾Ð³ÑĢÐ°Ð¼Ð¼Ñĥ": 6604,
      "ĠÑĪÐ¸ÑĢÐ¾ÐºÐ¾Ð³Ð¾": 6605,
      "ĠÐļÐ¾ÑĢÑĢÐµÐº": 6606,
      "ĠÐ°Ð½ÑĤÐ¸": 6607,
      "ĠÐĿÐ°Ð¿Ð¾Ð¼Ð½Ð¸Ð¼": 6608,
      "ÑĤÐ°Ðº": 6609,
      "ĠÐŀÑĤÐ¼ÐµÑĩ": 6610,
      "ĠGold": 6611,
      "ĠÑĢÐ°ÑģÑĤÑĥÑīÐµÐ¹": 6612,
      "ĠÑĥÐ²ÐµÑĢÐµÐ½Ð½Ð¾": 6613,
      "ĠÑģÐ²ÑıÐ·Ð°Ð½Ð½ÑĭÑħ": 6614,
      "ĠÐ·Ð°Ð¿Ð»Ð°ÑĤ": 6615,
      "ĠCNY": 6616,
      "Ð¹Ð´ÐµÑĤ": 6617,
      "ĠÐ°Ð´Ð°Ð¿": 6618,
      "ÑģÑĤÐ¾ÑıÑīÐ¸": 6619,
      "ÐµÐ»ÑĮÑħÐ¾Ð·": 6620,
      "ĠÐ¿ÑĢÐµÐ´Ð²Ð°ÑĢ": 6621,
      "ĠÐ¾Ð¿Ð¾ÑĢ": 6622,
      "ÐŁÐ¾Ð»": 6623,
      "ĠÐ´Ð¸Ð²Ð¸Ð´ÐµÐ½Ð´Ð½ÑĭÐµ": 6624,
      "Ġ81": 6625,
      "Ġ138": 6626,
      "ĠÑģÐ¾Ð¿ÑĢÐ¾ÑĤÐ¸Ð²Ð»ÐµÐ½Ð¸Ð¹": 6627,
      "ĠÐ¿ÑĢÐ¾ÐµÐºÑĤÑĭ": 6628,
      "ĠÐ¡Ð»ÐµÐ´Ð¸Ð¼": 6629,
      "ĠÐ³ÑĢÐ°Ð½Ð¸ÑĨÐµÐ¹": 6630,
      "ĠÐµÐ´Ð¸Ð½": 6631,
      "ĠÐ¡Ð¾Ð³Ð»Ð°ÑģÐ½Ð¾": 6632,
      "ĠÐ²Ð½ÐµÑģ": 6633,
      "ĠÐºÑĢÐ°ÑĤÐºÐ¾ÑģÑĢÐ¾ÑĩÐ½Ð°Ñı": 6634,
      "ÐµÐºÐ¾": 6635,
      "ĠÐŀÐ½Ð°": 6636,
      "ĠÐľÐµÑģÑıÑĩ": 6637,
      "ĠÐļÑĢÑĥÐ¿": 6638,
      "Ġ1500": 6639,
      "ĠÐłÐ¾ÑģÑģÑĤÐ°ÑĤ": 6640,
      "ĠÐ¿ÑĢÐµÑģÑģ": 6641,
      "ĠÑģÑĤÑĢÑĥÐºÑĤÑĥÑĢÐµ": 6642,
      "ĠÑģÐ°Ð¼ÑĭÐ¼": 6643,
      "ĠÐ¸Ð½Ð´ÐµÐºÑģÐ¾Ð²": 6644,
      "ĠÐ¿Ð¾ÑıÐ²Ð¸ÑĤÑģÑı": 6645,
      "erson": 6646,
      "ĠÐ¸Ð½ÑĦÐ¾Ð³ÑĢÐ°ÑĦÐ¸ÐºÐµ": 6647,
      "ÑĢÐ°Ð±Ð¾ÑĤÐ¸": 6648,
      "ÑģÑĩÐµÑĤ": 6649,
      "Ð³Ð»Ð°": 6650,
      "ĠÐĴÐŀÐ¡ÐĲ": 6651,
      "Ð¶Ð°ÐµÑĤÑģÑı": 6652,
      "ĠÑħÐ¾ÑĤÑıÑĤ": 6653,
      "ĠÐ¿ÑĢÐµÐ¶Ð´Ðµ": 6654,
      "ĠÐ·Ð°Ð½Ð¸Ð¼Ð°ÐµÑĤ": 6655,
      "ĠÐºÐ¾Ð½Ð²ÐµÑĢÑĤÐ°": 6656,
      "rans": 6657,
      "ĠÑĩÐµÑĢÐµÐ´ÑĥÑİÑĤÑģÑı": 6658,
      "ĠÐ°Ð»ÑİÐ¼Ð¸": 6659,
      "enderson": 6660,
      "ÑģÑĤÑĢÑĭ": 6661,
      "ĠÐ½Ð°ÑģÑĤÐ¾ÑıÑī": 6662,
      "ÐļÐ°Ðº": 6663,
      "ĠÑĢÐµÐºÐ»Ð°": 6664,
      "ĠÐ¼Ð¾Ð¶ÐµÐ¼": 6665,
      "ĠÐĵÑĢÐµ": 6666,
      "ĠÐ½ÐµÐ¹ÑĤÑĢÐ°Ð»ÑĮÐ½ÑĭÐµ": 6667,
      "ĠÐ²Ð¾ÑĪÐ»Ð¸": 6668,
      "ĠÑĦÐ¸Ð·Ð¸": 6669,
      "ĠMSC": 6670,
      "ĠÐ²Ð¸Ð´Ð¸ÑĤ": 6671,
      "ĠÑĤÐµÑģÑĤÑĥ": 6672,
      "ĠÐºÐ¸ÑĤÐ°Ð¹ÑģÐºÐ¸Ñħ": 6673,
      "ĠÐ¢ÑĢÐ°Ð½ÑģÐ½ÐµÑĦÑĤÑĮ": 6674,
      "ĠÐ´Ð¾ÑģÑĤÐ¾Ð¹Ð½ÑĭÐµ": 6675,
      "ĠÑģÐ²Ð¸": 6676,
      "ÑĢÐµÐ°Ð³Ð¸": 6677,
      "ĠÐ´Ð¾ÐºÑĥÐ¼ÐµÐ½ÑĤ": 6678,
      "Ð½Ð¾Ð²Ð¾Ð¹": 6679,
      "Ġ424": 6680,
      "Ġ655": 6681,
      "140": 6682,
      "Ġ137": 6683,
      "ĠÐ²Ð»Ð¸ÑıÐ½Ð¸Ñı": 6684,
      "ĠÐŁÐ¾ÐºÑĥÐ¿Ð°ÑĤÐµÐ»ÑıÐ¼": 6685,
      "ĠÑģÑĤÑĢÐ¾Ð¸ÑĤÐµÐ»ÑĮÑģÑĤÐ²Ð¾": 6686,
      "ĠÐľÐµÐ¶Ð´ÑĥÐ½Ð°ÑĢÐ¾Ð´": 6687,
      "ĠÑĨÐ¸ÑĦÑĢÐ¾Ð²ÑĭÑħ": 6688,
      "ĠÐ´Ð¾Ð¿ÑįÐ¼Ð¸ÑģÑģÐ¸Ð¸": 6689,
      "ĠÐ¿ÑĢÐ¸ÑħÐ¾Ð´Ð¸ÑĤÑģÑı": 6690,
      "Ð¾ÑĢÑĤÐ¸ÑĢÐ¾Ð²": 6691,
      "ĠÐ¼Ð°Ð½": 6692,
      "ĠÐ°ÑĥÑĤÑģÐ°Ð¹Ð´": 6693,
      "ĠÐŀÑĢÐ¸ÐµÐ½ÑĤÐ¸": 6694,
      "ĠÑĦÐ¸Ð½": 6695,
      "ĠÑĦÐ¸Ð·": 6696,
      "ĠÐ¤Ð¾ÑĢ": 6697,
      "Ġ415": 6698,
      "ĠÐ¿ÐµÑĢÐµÑħÐ²Ð°ÑĤ": 6699,
      "ĠÐ¼ÐµÑģÑĤÐ¾": 6700,
      "ĠÐ²ÑĭÑģÐ¾ÐºÐ¸Ð¼Ð¸": 6701,
      "ĠHenderson": 6702,
      "ĠÐ¿ÑĢÐ¾ÑĨÐµÐ½ÑĤÐ½ÑĭÐµ": 6703,
      "ĠÐ¿ÐµÑĢÑģÐ¿ÐµÐºÑĤÐ¸Ð²Ð°Ñħ": 6704,
      "ÑĢÐºÑĤÐ¸Ðº": 6705,
      "ĠEUR": 6706,
      "ĠMSCI": 6707,
      "ĠÐ¡Ð¿ÑĢÐ°Ð²ÐµÐ´Ð»Ð¸": 6708,
      "ÑĦÐ¾ÑĢÐ¼": 6709,
      "Ġ91": 6710,
      "Ð³Ð¾Ð´Ð°": 6711,
      "ĠCh": 6712,
      "ĠÑĥÑħÑĥÐ´ÑĪÐµÐ½Ð¸Ñı": 6713,
      "ĠÑĥÑģÐºÐ¾ÑĢÐ¸Ð»ÑģÑı": 6714,
      "ĠÑģÐ¿ÑĢÐ°Ð²ÐµÐ´Ð»Ð¸Ð²Ð°Ñı": 6715,
      "ĠÑĢÐµÐ·ÑĥÐ»ÑĮÑĤÐ°ÑĤÐ°Ñħ": 6716,
      "ĠÐ¸Ð½Ð¸ÑĨÐ¸Ð°ÑĤÐ¸Ð²Ñĭ": 6717,
      "ĠÑģÐ¼ÐµÐ½Ð¸Ð»ÑģÑı": 6718,
      "ĠÐ¤Ð¾Ð½Ð´Ð¾Ð²ÑĭÐµ": 6719,
      "ĠÐ¿ÑĢÐ¸Ð´ÐµÑĤÑģÑı": 6720,
      "WI": 6721,
      "Ð½Ð¸Ð»": 6722,
      "Ġ79": 6723,
      "Ġ84": 6724,
      "ĠÐŀÑĤÑģÐº": 6725,
      "Ġ135": 6726,
      "ĠÑģÑĩÐµÑĤÐ¾Ð²": 6727,
      "ĠÐ¾ÑģÐ»Ð°Ð±Ð»": 6728,
      "ĠÐ²Ð¾Ð¿ÑĢÐ¾ÑģÑĥ": 6729,
      "ĠÐ½Ð°ÑĪÐ¸Ð¼": 6730,
      "ĠÐ½Ð¸Ð·ÐºÐ¾Ð¹": 6731,
      "ĠÑĢÐµÐ°Ð»Ð¸Ð·Ð¾Ð²Ñĭ": 6732,
      "ĠÑįÑĦÐ¸ÑĢÐµ": 6733,
      "ĠÐľÐ¾Ð¶Ð½Ð¾": 6734,
      "ĠÐ½ÐµÐ·Ð½Ð°ÑĩÐ¸ÑĤÐµÐ»ÑĮÐ½Ð¾": 6735,
      "110": 6736,
      "ĠÐ¿Ð°Ñģ": 6737,
      "ĠÐ±Ð¸ÑĤÐºÐ¾": 6738,
      "ÑĢÐ¾Ð²Ð°Ð»Ð¸ÑģÑĮ": 6739,
      "ĠÐľÐµÐ½": 6740,
      "ĠÑĢÐ°Ð·Ð³ÑĢÑĥÐ·": 6741,
      "ĠÐ¿ÑĢÐ¸ÑģÑĥÑĤ": 6742,
      "ÑģÑĤÐ²ÐµÐ½Ð½Ð¾Ð¹": 6743,
      "Ð´Ð½ÐµÐ²Ð½ÑĭÑħ": 6744,
      "ĠÐ¿ÑĢÐ¾Ð¸Ð·Ð¾Ð¹Ð´ÐµÑĤ": 6745,
      "ĠÐ¸ÑģÑĤÐ¾ÑĢÐ¸ÑĩÐµÑģÐºÐ¸Ðµ": 6746,
      "ĠÐ½Ð°Ð±Ð»ÑİÐ´Ð°ÐµÐ¼": 6747,
      "ĠÐŁÐµÑĢÐ²Ð¾Ð¹": 6748,
      "ĠÐ½ÐµÐºÐ¾ÑĤÐ¾ÑĢÑĭÐµ": 6749,
      "ĠÐ½Ð°Ð¼ÐµÑĢÐµÐ½": 6750,
      "ĠÐºÑĢÐ¸Ð·Ð¸Ñģ": 6751,
      "Ð½Ð¾ÑĢÐ¸": 6752,
      "ÐµÐºÑĤÐ¾ÑĢ": 6753,
      "ĠÐ°Ð´": 6754,
      "ÑĢÐ¸Ð»Ð»Ð¸": 6755,
      "ÐºÐ°Ñĩ": 6756,
      "ĠÐĲÑĤÐ¾Ð½": 6757,
      "ĠÑĤÐ°ÐºÐ¾Ð¼Ñĥ": 6758,
      "ĠÑĨÐµÐ½Ð°Ñħ": 6759,
      "ĠÐ¿Ð¾ÐºÑĥÐ¿Ð°ÑĤÐµÐ»ÑıÐ¼": 6760,
      "ĠÐ¼Ð¸Ð½ÑĥÑĤ": 6761,
      "ĠÑįÐºÑģÐ¿Ð¾ÑĢÑĤÐµÑĢÐ¾Ð²": 6762,
      "ĠÐ¾Ð±ÑīÐµÐµ": 6763,
      "berries": 6764,
      "ĠWild": 6765,
      "ĠÑģÐºÐ¾Ð»ÑĮÐ·ÑıÑīÐ¸Ðµ": 6766,
      "ĠÐ¿Ð¾Ð´Ð½Ð¸Ð¼Ð°ÑİÑĤÑģÑı": 6767,
      "ĠÑĤÐ¾Ð²Ð°ÑĢÑĭ": 6768,
      "ĠGlobalt": 6769,
      "Ð¢Ð¾ÑĢÐ³Ð¾Ð²ÑĭÐµ": 6770,
      "ĠWildberries": 6771,
      "Ġ215": 6772,
      "Ġ225": 6773,
      "Ð°Ð½ÑĮ": 6774,
      "ÑģÑģÐ¸Ð¹": 6775,
      "Ð¾Ð²Ð°ÑĤÑĮÑģÑı": 6776,
      "Ġ97": 6777,
      "Ġ1600": 6778,
      "ÑĪÐ»Ð°Ñı": 6779,
      "ĠÐ¡ÑĤÑĢÐ°ÑĤÐµÐ³": 6780,
      "ĠÑĢÐ°ÑģÑĩÐµÑĤÐ°": 6781,
      "ĠÐ²ÑĭÐ¿Ð¾Ð»Ð½ÐµÐ½Ð¸Ñı": 6782,
      "ĠÑįÐ»ÐµÐºÑĤÑĢÐ¾ÑįÐ½ÐµÑĢÐ³Ð¸Ð¸": 6783,
      "ĠÐ¿ÐµÑĢÐµÐ½Ð°Ð¿ÑĢÐ°Ð²Ð»ÐµÐ½Ð¸Ðµ": 6784,
      "ĠÐŀÑĤÐ¼ÐµÑĩÐ°Ð»Ð¾ÑģÑĮ": 6785,
      "ÐµÐ½Ð³": 6786,
      "ĠÐ±Ð»": 6787,
      "ĠÐŁÐ¾Ð¼": 6788,
      "ĠÐĶÐ¾Ð»Ð»Ð°ÑĢ": 6789,
      "ÐłÐĺ": 6790,
      "ĠÐķÐµ": 6791,
      "Ġ87": 6792,
      "ĠÐ¿ÑĢÐµÐ´ÑģÑĤÐ°Ð²Ð¸Ð»Ð°": 6793,
      "ĠÐ²ÑĤÐ¾ÑĢÐ¾Ð³Ð¾": 6794,
      "ĠÑģÐ°Ð¼Ð¾Ð»ÐµÑĤ": 6795,
      "ĠÐ¿Ð¾Ð»ÑĥÑĩÐ°ÑĤ": 6796,
      "ĠÐ·Ð°ÐºÑĢÐµÐ¿Ð¸Ð»Ð¸ÑģÑĮ": 6797,
      "ĠÐŁÑĥÑĤÐ¸Ð½Ð°": 6798,
      "ĠÑģÐ²ÑıÐ·Ð°Ð½Ð°": 6799,
      "ĠÐ¡Ð¾ÑĦÑĤ": 6800,
      "ĠÐ´ÐµÐ²ÑıÑĤÑĮ": 6801,
      "ĠÐ²ÑĭÐ±ÑĢÐ°ÑĤÑĮ": 6802,
      "ĠÑĥÐ¿Ð¾Ð¼Ð¸Ð½Ð°Ð½Ð¸Ð¹": 6803,
      "ĠÐ²Ð²ÐµÑģÑĤÐ¸": 6804,
      "ÑĪÐµÐ½Ð¸": 6805,
      "ĠÑĤÐ¾ÑĢ": 6806,
      "ÑĢÐ¾Ð²Ð°Ð½Ñĭ": 6807,
      "ĠÐ¾ÑĤÑĢÐ°Ñģ": 6808,
      "ĠÐ¾ÑĤÑĢÐµÐ°Ð³Ð¸": 6809,
      "Ð°ÑĤÐµÐ»Ñı": 6810,
      "ĠÑĢÐ°ÑģÑĤÑĳÑĤ": 6811,
      "180": 6812,
      "ĠÐ¿Ð¾Ð»ÑĥÑĩÐ°": 6813,
      "ĠÐ¿ÑĢÐ¾Ð¸Ð·Ð¾Ð¹ÑĤÐ¸": 6814,
      "Ð±Ð¸ÑĢÐ¸": 6815,
      "ĠÐķÐ²ÑĢÐ¾Ð¿Ñĭ": 6816,
      "ĠÐ¾Ð±Ð¾ÑĢÐ¾ÑĤÐ°": 6817,
      "ĠÑģÑĥÐ¼Ð¼Ð°": 6818,
      "ÑģÑĤÑĢÑĥÐºÑĤÑĥÑĢÐ¸": 6819,
      "ĠÐ¾ÑĤÑĩÐ¸ÑĤÐ°Ð»Ð°ÑģÑĮ": 6820,
      "ĠÐ¿ÑĢÐ¾ÑĨÐµÑģÑģ": 6821,
      "ĠÐ§Ð¸ÑģÑĤÑĭÐ¹": 6822,
      "bu": 6823,
      "ube": 6824,
      "ĠÐºÐ°Ð·": 6825,
      "ÑĪÐµÐ½": 6826,
      "ĠÐ·Ð°ÑĢÐ°Ð±Ð°ÑĤ": 6827,
      "ĠÐ¾Ð±ÑģÐ»ÑĥÐ¶Ð¸": 6828,
      "ĠÑĢÐ°Ð·Ð±Ð»Ð¾ÐºÐ¸": 6829,
      "ĠÐ´Ð°Ð½Ð½Ð¾Ð¹": 6830,
      "ĠÑģÐºÐ¾ÑĢÐ¾": 6831,
      "ĠÐ¾ÑĤÑĩÐµÑĤÐ¾Ð²": 6832,
      "ĠÐ²Ð°Ð»ÑİÑĤÐ½ÑĭÑħ": 6833,
      "ĠÑĦÐ°ÐºÑĤÐ¾ÑĢÐ°": 6834,
      "ĠÑģÐ¾ÑħÑĢÐ°Ð½ÑıÐµÑĤ": 6835,
      "ÑģÑĤÐ²ÑĥÑı": 6836,
      "ĠÐ¼Ð½Ð¾Ð³Ð¾Ð¼": 6837,
      "ĠÑĩÐ¸ÑģÑĤÑĥÑİ": 6838,
      "ĠÐ¡Ð°ÑĥÐ´": 6839,
      "ĠÐ¡Ð¸Ð»ÑĥÐ°Ð½Ð¾Ð²": 6840,
      "GAZP": 6841,
      "Ð»Ð¾Ð²": 6842,
      "ĠÐ²ÑģÐºÐ¾ÑĢÐµ": 6843,
      "ĠÐµÑīÑĳ": 6844,
      "ÑĨÐ¸Ð¾Ð½Ð½ÑĭÑħ": 6845,
      "ĠÐ¶Ð¸Ð·": 6846,
      "ĠÐ±Ð»Ð¸Ð¶Ð°Ð¹ÑĪÐ¸Ñħ": 6847,
      "ĠÐ¾ÐºÐ°Ð·Ð°ÑĤÑĮ": 6848,
      "ÑĤÐ¾ÑĢÐ°Ñı": 6849,
      "ĠÐ¾ÑĢÐ¸ÐµÐ½ÑĤÐ¸ÑĢ": 6850,
      "ĠÐ²ÐºÐ»Ð°": 6851,
      "ĠÐ¡Ð¸Ð±Ð¸ÑĢÐ¸": 6852,
      "ĠÐ¿Ð»Ð¾ÑīÐ°Ð´ÐºÐ°": 6853,
      "ĠÑĦÐ¾ÐºÑĥÑģÐµ": 6854,
      "ÑĨÐµÐ´": 6855,
      "Ð°ÑĤÐµ": 6856,
      "ÑĦÐµ": 6857,
      "ĠÑĤÑĥÑĤ": 6858,
      "ĠÐŁÐ¾Ð²Ñĭ": 6859,
      "ĠÑĢÐµÑĤ": 6860,
      "ĠÑĢÐµÑģÑĤÑĢÑĥÐºÑĤÑĥÑĢÐ¸": 6861,
      "ÑĢÐ°ÑĤÑĭ": 6862,
      "ĠÐºÐ¾Ð½ÑĤÐµÐ¹": 6863,
      "Ð°ÑĤÐµÐ»ÑĮÐ½ÑĭÐ¹": 6864,
      "ÐµÑĤÐ°Ð»Ð»Ð°": 6865,
      "ĠÑĦÐ¾Ð½Ð´Ð¾Ð²ÑĭÐ¹": 6866,
      "ĠÑģÐ¾ÑħÑĢÐ°Ð½ÐµÐ½Ð¸Ðµ": 6867,
      "ĠÑĥÐ»ÑĥÑĩÑĪÐµÐ½Ð¸Ðµ": 6868,
      "ĠÐ´Ð¾ÑģÑĤÑĥÐ¿Ð½Ñĭ": 6869,
      "ĠÐ·Ð°Ð²Ð¸ÑģÐ¸Ð¼": 6870,
      "ĠÑĢÐµÐ·ÑĥÐ»ÑĮÑĤÐ°ÑĤÐ°Ð¼": 6871,
      "ĠÐºÑĢÐ¸Ð·Ð¸ÑģÐ°": 6872,
      "Ġ113": 6873,
      "ĠÑĢÐ°Ð½Ð¾": 6874,
      "ĠÑĢÐ°Ð·Ð½ÑĭÑħ": 6875,
      "ĠÐĿÐļ": 6876,
      "ĠÐķÐ¦Ðĳ": 6877,
      "ĠÐ´Ð¾Ð»Ð³Ð°": 6878,
      "Ġ173": 6879,
      "ĠÐ²Ð¾ÑģÑħÐ¾Ð´ÑıÑīÐ°Ñı": 6880,
      "ĠÐĳÐ»Ð¸Ð¶Ð°Ð¹ÑĪÐ°Ñı": 6881,
      "ĠÐ¾Ð±ÑīÐµÐ³Ð¾": 6882,
      "ĠÐ¼Ð¾Ð³Ð»Ð¾": 6883,
      "ĠÐ¢Ð°ÑĤÐ½ÐµÑĦÑĤÐ¸": 6884,
      "ĠÐ´ÐµÑĦÐ¸ÑĨÐ¸ÑĤ": 6885,
      "ĠÐ¿Ð¾Ð¼Ð¾Ð³Ð°ÐµÑĤ": 6886,
      "ĠÐŀÑĤÑģÐºÐ¾Ðº": 6887,
      "LKOH": 6888,
      "ÑĪÐµÐ¼Ñĥ": 6889,
      "Ð°Ð»Ð¾Ð½": 6890,
      "ĠÐłÐ¸": 6891,
      "ĠÐ¸Ð½ÑĦÐ¾ÑĢÐ¼Ð°ÑĨÐ¸Ñİ": 6892,
      "ĠÐ³Ð¾Ð´Ð¾Ð²": 6893,
      "ĠÐ¿ÑĢÐ¸Ð½ÑıÑĤÑĮ": 6894,
      "ĠÐ¿Ð¾Ð»Ð³Ð¾Ð´Ð°": 6895,
      "ĠÐºÐ°ÑģÐ°": 6896,
      "Ġ123": 6897,
      "ĠÐ³Ð°Ð·Ð¾Ð¿ÑĢÐ¾Ð²Ð¾Ð´": 6898,
      "ĠÐ²Ð°Ð¶Ð½Ð¾Ðµ": 6899,
      "ĠÐ¿ÑĢÐ¾Ð±Ð¸ÑĤÐ°": 6900,
      "ĠÐ°ÐºÑĤÑĥÐ°Ð»ÑĮÐ½Ð°": 6901,
      "ĠÐ½ÐµÐ¾Ð±ÑħÐ¾Ð´Ð¸Ð¼Ð¾ÑģÑĤÐ¸": 6902,
      "ĠÐŀÑģÐ½Ð¾Ð²Ð½ÑĭÐµ": 6903,
      "ĠÐ½ÐµÐ¾Ð¿ÑĢÐµÐ´ÐµÐ»ÐµÐ½Ð½Ð¾ÑģÑĤÐ¸": 6904,
      "ĠÐ¡ÑĤÐ¾Ð¸ÑĤ": 6905,
      "ĠÐ¿Ð»ÐµÑĩÐ¸": 6906,
      "ĠÐ°Ð»ÑĮÑĤÐµÑĢÐ½": 6907,
      "Ð¾Ð¶ÐµÑĤ": 6908,
      "ĠÑĦÐµÐ´ÐµÑĢÐ°Ð»ÑĮ": 6909,
      "ÐµÐ³Ð´Ð°": 6910,
      "Ġ390": 6911,
      "Ġ159": 6912,
      "ĠÑģÑĤÐ°Ð½ÑĥÑĤ": 6913,
      "Ġ760": 6914,
      "ĠÑģÐ»ÑĥÑĩ": 6915,
      "Ð½Ð¾Ð·Ð½Ð°Ñĩ": 6916,
      "ĠÐ¿Ð¾ÑıÐ²Ð»ÐµÐ½Ð¸Ñı": 6917,
      "ĠÐ¾ÑĨÐµÐ½ÐºÑĥ": 6918,
      "ĠÐ²Ð¿Ð¾ÑģÐ»ÐµÐ´ÑģÑĤÐ²Ð¸Ð¸": 6919,
      "ĠÐŁÐ¾Ð»Ð¸Ð¼": 6920,
      "ĠÐ¿Ð»Ð¾ÑīÐ°Ð´ÐºÐ¸": 6921,
      "ĠÐ¸Ð¿Ð¾ÑĤÐµÐºÐµ": 6922,
      "ĠÐ·Ð½Ð°ÑĩÐµÐ½Ð¸ÑıÐ¼": 6923,
      "ĠÐ¿ÑĢÐ¸Ð»Ð¾Ð¶ÐµÐ½Ð¸Ð¸": 6924,
      "ĠÐĿÐµÐ´ÐµÐ»ÑĮÐ½ÑĭÐ¹": 6925,
      "ha": 6926,
      "ĠÐ¿ÑıÑĤÐ¸": 6927,
      "ÑĨÐ¸Ð¾Ð½Ð°": 6928,
      "ĠÐŁÐ¾Ð¿": 6929,
      "ĠÐ¸ÑģÐ¿Ð¾Ð»ÑĮÐ·Ñĥ": 6930,
      "ĠÐ¾ÑĤÐ¼ÐµÑĤÐ¸ÑĤÑĮ": 6931,
      "Ð´Ð¸Ð²Ð¸Ð´ÐµÐ½Ð´": 6932,
      "Ġ181": 6933,
      "ĠÐ¾ÐºÑĤÑıÐ±ÑĢÑĮ": 6934,
      "ĠÑĤÐ¾Ð½Ð½Ñĥ": 6935,
      "ĠÐµÐ²ÑĢÐ¾Ð¾Ð±Ð»Ð¸Ð³Ð°": 6936,
      "ĠÐ²ÑĩÐµÑĢÐ°ÑĪÐ½Ð¸Ñħ": 6937,
      "ĠÐĿÐµÐ´ÐµÐ»ÑĮÐ½Ð°Ñı": 6938,
      "ÐºÑĢÐµÐ´Ð¸ÑĤÐ½Ð¾Ð¹": 6939,
      "to": 6940,
      "ĠÐ¿ÑĢÐ°Ð²Ð¸ÑĤÐµÐ»ÑĮÑģÑĤÐ²Ð¾": 6941,
      "ĠÐ½Ð°Ð¹ÑĤÐ¸": 6942,
      "Ð¾Ð»Ð¾Ð³Ð¸": 6943,
      "ÑĪÐ¾": 6944,
      "Ð¾ÐºÑĢÑĥÐ³": 6945,
      "ĠÑĥÐ·Ð½Ð°": 6946,
      "ÑĢÑĥÑİÑīÐ¸Ðµ": 6947,
      "ÑĢÐ¾Ð²Ð¾ÑĨÐ¸": 6948,
      "ĠÐĵÐŀÐ¡ÐĲ": 6949,
      "ĠÐ¸Ð½Ð²ÐµÑģÑĤÐ¾ÑĢÐ°Ð¼Ð¸": 6950,
      "ĠÑģÐ¿ÑĢÐ¾Ð²Ð¾ÑĨÐ¸": 6951,
      "ĠÐ¾ÑĤÐºÐ°ÑĤÐ¸": 6952,
      "Ð¾ÑģÑĤÐ¸Ð³": 6953,
      "ĠEV": 6954,
      "Ġ131": 6955,
      "ĠÐ±Ð°Ð½ÐºÐ¾Ð²ÑģÐºÐ¾Ð¹": 6956,
      "ĠÐ´ÐµÐ»Ð°ÐµÑĤ": 6957,
      "ĠÐ´ÐµÐ½ÐµÐ¶Ð½Ð¾Ð³Ð¾": 6958,
      "ĠÐ³Ð¾ÑģÑĥÐ´Ð°ÑĢÑģÑĤÐ²Ð°": 6959,
      "ĠIndex": 6960,
      "ĠÐ¸ÑģÑģÐ»ÐµÐ´": 6961,
      "ĠÐŁÐ¾ÐºÐ°Ð·ÑĭÐ²Ð°ÐµÐ¼": 6962,
      "ĠÐ¿ÑĢÐ°Ð²Ð¸ÑĤÐµÐ»ÑĮÑģÑĤÐ²Ð°": 6963,
      "ĠÐ¼ÑĥÐ»ÑĮÑĤÐ¸Ð¿Ð»Ð¸ÐºÐ°ÑĤÐ¾ÑĢ": 6964,
      "Ð¾Ð»Ð°ÑĤÐ¸Ð»ÑĮ": 6965,
      "ÐĺÐĲ": 6966,
      "ĠÐ¿Ð¾Ð´ÐºÐ»ÑİÑĩ": 6967,
      "ĠÑģÑĤÐ°Ð»ÑĮ": 6968,
      "Ġ89": 6969,
      "Ġ121": 6970,
      "ĠÐ¸ÑİÐ»ÑĮ": 6971,
      "ĠÐ²Ð²ÐµÑĢÑħÑĥ": 6972,
      "ĠÐ·Ð°Ð²ÐµÑĢÑĪÐµÐ½Ð¸Ñı": 6973,
      "ĠÑģÐ½Ð¸Ð·Ð¸ÑĤÑĮÑģÑı": 6974,
      "ĠÑģÑĥÑīÐµÑģÑĤÐ²ÐµÐ½Ð½Ð¾Ð³Ð¾": 6975,
      "ĠÑĪÐ¸ÑĢÐ¾ÐºÐ¾Ð¹": 6976,
      "ĠÑĥÑģÐºÐ¾ÑĢÐ¸Ð»Ð¾ÑģÑĮ": 6977,
      "ĠÐ´Ð¾ÑģÑĤÐ¸Ð³Ð½ÑĥÑĤÐ°": 6978,
      "Ð¸Ð½ÑĤÐµÐ³ÑĢÐ¸ÑĢÐ¾Ð²Ð°Ð½Ð½Ð°Ñı": 6979,
      "ĠÐºÑĢÑĥÐ³Ð»Ð¾Ð¹": 6980,
      "ĠÐ·Ð°Ð²ÑĤÑĢÐ°": 6981,
      "Ð¼ÑĮÐµÑĢ": 6982,
      "ĠÐ¿ÑĪÐµÐ½Ð¸": 6983,
      "ĠÐ±ÑĢÐµÐ½Ð´": 6984,
      "ĠÐ°ÑĢ": 6985,
      "ĠÐŁÐĺÐļ": 6986,
      "Ġ538": 6987,
      "ÐµÐ½Ð´Ð¸": 6988,
      "ĠÐľÐ¸ÑĪ": 6989,
      "ĠÐºÐ°ÐºÐ¾Ð¹": 6990,
      "ĠÑįÐºÐ¾Ð½Ð¾Ð¼Ð¸ÐºÑĥ": 6991,
      "ÑģÐµÐ´Ð°ÑĤÐµÐ»ÑĮ": 6992,
      "ĠÐĺÐ½Ð´Ð¸Ñı": 6993,
      "ĠÑĦÐ¾ÑĢÐ¼Ð¸ÑĢÑĥÐµÑĤÑģÑı": 6994,
      "ĠÐ²Ð¿ÐµÑĢÐµÐ´": 6995,
      "ĠÐ¿Ð¾Ð´Ð½Ð¸Ð¼ÑĥÑĤÑģÑı": 6996,
      "ĠÐ¿Ð¾Ð´Ð¿Ð¸ÑģÐ°Ð»": 6997,
      "ĠÐ·Ð°Ð¿Ð»Ð°Ð½Ð¸": 6998,
      "ĠÐ¿Ð»Ð°Ð½Ð°Ñħ": 6999,
      "ÑĤÐ¾Ð¹": 7000,
      "ÑĥÐ½Ðµ": 7001,
      "ÑįÐºÐ¾Ð½": 7002,
      "Ġ375": 7003,
      "ĠÐĶÐ¼Ð¸ÑĤ": 7004,
      "ÑĩÐ¸Ð»Ð¾ÑģÑĮ": 7005,
      "ĠÐŁÑĢÐ¾ÑĪÐ»Ð°Ñı": 7006,
      "ĠÑĤÐµÐºÑĥÑīÐ¸Ðµ": 7007,
      "Ð¾ÑģÑĤÐ°ÑĤ": 7008,
      "ĠÐ¾Ð±ÑĬÐµÐ¼Ð°": 7009,
      "ĠÐ¸Ð½ÑĤÐµÑĢÐµÑģÐ½Ñĭ": 7010,
      "ĠÐ½Ð°Ð¿ÑĢÑıÐ¼": 7011,
      "ÑĢÐ°Ð±Ð°ÑĤÑĭ": 7012,
      "ĠÑģÑĥÐ´Ð¸ÑĤÑĮ": 7013,
      "ĠÐ½Ð°Ð¼ÐµÐº": 7014,
      "ĠÐ°Ð¿ÑģÐ°Ð¹Ð´": 7015,
      "VID": 7016,
      "ĠÐ¡ÐµÑĢÐ³ÐµÐ¹": 7017,
      "ĠÐ½Ð°Ð¿ÑĢÑıÐ¼ÑĥÑİ": 7018,
      "am": 7019,
      "ĠÑĤÐµÐ»Ðµ": 7020,
      "ĠÐľÐ°": 7021,
      "ÑįÑĦÐ¸ÑĢ": 7022,
      "ĠÐ¸Ð½Ð²ÐµÑģÑĤÐ¸ÑĨÐ¸Ð¾Ð½Ð½ÑĭÐµ": 7023,
      "Ð°Ð»ÑĮÐ½Ð¾Ðµ": 7024,
      "ĠÐ¿Ð¾ÐºÐ°Ð·Ð°Ð»": 7025,
      "ĠÑĦÐ°Ð·Ñĭ": 7026,
      "ĠÐŁÑĢÐ¾Ð´Ð°Ð²ÑĨÑĭ": 7027,
      "ND": 7028,
      "per": 7029,
      "ÑıÑģ": 7030,
      "Ð¾Ð¼ÐµÑĤÑĢÐ¾Ð²": 7031,
      "ĠÑĨÐµÐ½ÑĤ": 7032,
      "Ġ83": 7033,
      "Ġ177": 7034,
      "ĠÑĤÐµÐ¼Ð¿Ð°": 7035,
      "ĠÑģÑĤÑĢÐ°ÑĤÐµÐ³Ð¸Ñı": 7036,
      "ĠÑĥÐ»ÑĥÑĩÑĪÐµÐ½Ð¸Ñı": 7037,
      "ĠÐŁÐ¾ÑģÐ»ÐµÐ´Ð½Ð¸Ðµ": 7038,
      "ĠÐ¿Ð¾ÑıÐ²Ð¸Ð»ÑģÑı": 7039,
      "Ð½ÑıÑĤÐ°": 7040,
      "ĠÐĿÑĥÐ¶ÐµÐ½": 7041,
      "ĠÐ¼ÐµÐ½ÐµÐ´Ð¶Ð¼ÐµÐ½ÑĤ": 7042,
      "Ð¾Ð²Ð°ÑĢÐ½Ð¾": 7043,
      "ĠÐŀÑĤÑĢÐ°": 7044,
      "ĠÐ±Ð¸ÑĢÐ¶Ñĥ": 7045,
      "ĠÑĥÑģÐ»Ð¾Ð²Ð¸ÑıÐ¼": 7046,
      "ĠÐĿÐµÐ´Ð°Ð²": 7047,
      "ĠÑģÐ°Ð½ÐºÑĨÐ¸ÑıÐ¼Ð¸": 7048,
      "ĠÑĢÐµÐ°ÐºÑĨÐ¸Ð¸": 7049,
      "ĠÐ¡ÑĢÐµÐ´Ð½ÐµÑģÑĢÐ¾ÑĩÐ½Ð¾": 7050,
      "ĠÑįÐ¼Ð¸ÑĤÐµÐ½ÑĤÐ°": 7051,
      "ĠÑĢÐ°ÑģÑģÐºÐ°Ð·Ð°Ð»": 7052,
      "ĠÐ¸Ð½Ð²ÐµÑģÑĤÐ¿ÑĢÐ¾Ð³ÑĢÐ°Ð¼": 7053,
      "ĠÐļÐ°Ð·Ð°ÑħÑģÑĤÐ°": 7054,
      "ĠÐ¾Ð±Ð¾ÑĢÑĥÐ´": 7055,
      "ĠÐľÐ¸ÑĪÑĥÑģÑĤÐ¸": 7056,
      "ÑĢÐµÐ¶": 7057,
      "ĠÐ´ÐµÐ»Ð¸": 7058,
      "ĠÑģÑĤÐ°ÑĤ": 7059,
      "ĠÐ¼Ð°ÑĢÐºÐ¸": 7060,
      "ĠÐ¿ÑĢÐµÐ´Ð»Ð¾Ð¶ÐµÐ½Ð¸Ðµ": 7061,
      "ĠÑĢÐ°ÑģÑģÐºÐ°Ð¶": 7062,
      "ĠÐºÐ¾Ð¼Ð¿Ð°Ð½Ð¸ÑıÐ¼": 7063,
      "ĠÑĪÐ¾ÑĢÑĤ": 7064,
      "ĠÐ¿Ð¾Ð·Ð¸ÑĨÐ¸Ñİ": 7065,
      "ĠAs": 7066,
      "ĠÑįÐºÑģÐ¿Ð¾ÑĢÑĤÐ½Ð¾Ð¹": 7067,
      "ĠÐķÐ²ÑĢÐ¾Ð¿Ð°": 7068,
      "ĠÐ¼Ð¾Ð³Ð»Ð¸": 7069,
      "ĠÐ¡ÑĤÐ¾Ð¸Ð¼Ð¾ÑģÑĤÑĮ": 7070,
      "ĠÐ³Ð¾Ð½ÐºÐ¾Ð½Ð³ÑģÐºÐ¸Ð¹": 7071,
      "CF": 7072,
      "IA": 7073,
      "ĠÐ¾Ð±Ð¼ÐµÐ½Ð°": 7074,
      "Ð°Ð»Ð¸Ð·Ð°ÑĨÐ¸Ð¸": 7075,
      "ĠÑģÑĢÐµÐ´Ð½ÐµÐ³Ð¾": 7076,
      "ĠÐ¾ÑģÐ½Ð¾Ð²Ð°Ð½Ð¸Ðµ": 7077,
      "ĠÐ¿Ð¾Ð·Ð²Ð¾Ð»Ð¸": 7078,
      "ĠÐ¾Ð±ÑĢÐ°Ð·Ð¾Ð²": 7079,
      "ĠÐĲÐ»ÐµÐºÑģÐµÐ¹": 7080,
      "ĠÐ¿Ð»Ð°Ð½Ñĭ": 7081,
      "ĠÐ½Ð°Ð¼ÐµÑĢÐµÐ½Ð°": 7082,
      "ĠÐ¤Ð¾ÑģÐĲÐ³ÑĢÐ¾": 7083,
      "ÑģÑĭÑĢÑĮÐµÐ²Ð¾Ð¹": 7084,
      "ĠComp": 7085,
      "ĠÑģÐµÑĢÐ¸": 7086,
      "Ð¸ÑĤÑı": 7087,
      "ĠÐ¡ÐºÐ¾ÑĢ": 7088,
      "ĠÐĿÐ¾Ð²Ð°Ñı": 7089,
      "ĠÐ¿ÑĢÐ¾Ñĩ": 7090,
      "ĠÑįÑĦÐ¸ÑĢ": 7091,
      "Ð½ÑıÐµÑĤ": 7092,
      "ĠÑĨÐ²ÐµÑĤ": 7093,
      "ĠÐŁÐ¾Ð´ÐºÐ»ÑİÑĩ": 7094,
      "ĠÐ¿ÑĢÐµÐ¼Ð¸": 7095,
      "ĠÐ¿ÑĢÐµÐ´ÑģÑĤÐ°Ð²Ð¸Ð»": 7096,
      "ĠÐŀÐ¿ÐµÑĢÐ°": 7097,
      "Ð°ÑħÐ°Ð»": 7098,
      "all": 7099,
      "ĠÐ½Ð°Ð´Ð¾": 7100,
      "ĠÐ£ÐºÑĢÐ°Ð¸Ð½Ñĭ": 7101,
      "ĠÐ²Ð¸Ð´ÐµÐ¾": 7102,
      "ĠÑĢÐ°ÑģÑģÐ¼Ð¾ÑĤÑĢÐ¸ÑĤ": 7103,
      "ĠÐĲÐ½Ð´ÑĢÐµÐ¹": 7104,
      "ÑĢÐ°Ð½Ð°": 7105,
      "Ð°ÑĤÐ¾Ð²": 7106,
      "ĠÐ¼Ð¾Ð±Ð¸Ð»Ð¸": 7107,
      "ÑĢÐ¾Ð²Ð°Ð½Ð°": 7108,
      "ĠÐ¾ÑĤÐ»Ð¾Ð¶": 7109,
      "Ġ370": 7110,
      "ĠÐ¿ÐµÑĢÐ¸Ð¾Ð´Ñĭ": 7111,
      "Ġ128": 7112,
      "ĠÑģÑĦÐ¾ÑĢÐ¼Ð¸ÑĢÐ¾Ð²Ð°Ð»Ð°ÑģÑĮ": 7113,
      "ĠÑĢÐ°Ð±Ð¾ÑĤÐ°ÑĤÑĮ": 7114,
      "ĠÐ¿ÑĢÐ¾Ð´ÑĥÐºÑĤÐ¾Ð²": 7115,
      "ĠÐ¿Ð¾Ð´Ð½ÑıÐ»Ð°ÑģÑĮ": 7116,
      "ĠÐ¿Ð¾ÑĪÐ»Ð¸Ð½Ñĭ": 7117,
      "ĠÑģÑĤÐ¸Ð¼ÑĥÐ»Ð¸": 7118,
      "ĠÐ¼Ð°Ð³Ð°Ð·Ð¸Ð½Ð¾Ð²": 7119,
      "ÑįÐºÐ¾Ð½Ð¾Ð¼": 7120,
      ".).": 7121,
      "201": 7122,
      "ĠÐ²Ð¾ÐºÑĢÑĥÐ³": 7123,
      "Ð¾ÑĢÐ¾Ð²": 7124,
      "ÑĢÑĥÐ¶ÐµÑģÑĤÐ²ÐµÐ½Ð½ÑĭÑħ": 7125,
      "ĠÐ¾Ð±ÑĥÑģÐ»Ð¾Ð²": 7126,
      "ÑģÑĤÐ²ÑĥÑİÑī": 7127,
      "ĠÐĲÑĢÐ°Ð²Ð¸": 7128,
      "Ð°Ð»ÑĮÐ²Ð°": 7129,
      "ĠSe": 7130,
      "ÑĢÐµÐºÑĤÐ¾ÑĢÐ°": 7131,
      "ĠÑĢÐ°Ð·ÑĢÐµÑĪÐ¸": 7132,
      "Ð¾ÑĩÐ¸ÑĤÑĮ": 7133,
      "ĠÐ¿ÑĢÐ¾Ð³Ð½Ð¾Ð·Ð¾Ð²": 7134,
      "ĠÐ´Ð°Ð»ÑĮÐ½ÐµÐ¹ÑĪÐµÐµ": 7135,
      "ĠÐ¿Ð¾Ð»Ð¸ÑĤÐ¸ÐºÐ°": 7136,
      "ĠÐ´Ð¾ÑģÑĤÐ¸Ð¶ÐµÐ½Ð¸Ðµ": 7137,
      "ĠÐ¢ÐµÐºÑĥÑīÐ¸Ð¹": 7138,
      "ĠÑİÐ°Ð½ÐµÐ¹": 7139,
      "ĠÑĩÐ¸ÑģÑĤÑĭÐ¹": 7140,
      "ĠÐ¿ÑĢÐ¾ÑĨÐµÑģ": 7141,
      "man": 7142,
      "Ð¾ÑĩÐµÑĢÐµÐ´": 7143,
      "ÑĮÑı": 7144,
      "ĠÑģÐ°Ð¼Ð°": 7145,
      "ÑĢÐµÐ¿Ð»": 7146,
      "ĠÑĥÑħÐ¾Ð´Ð°": 7147,
      "ĠÐ½ÐµÐ·Ð°": 7148,
      "ĠÐ¡Ð´ÐµÐ»": 7149,
      "ĠÐĶÐ¾Ð¿Ð¾Ð»Ð½Ð¸ÑĤÐµÐ»ÑĮ": 7150,
      "ĠÐ¿ÑĢÐµÐ²": 7151,
      "ĠÐ¿ÑĢÐ°Ð²Ð»ÐµÐ½Ð¸Ñı": 7152,
      "ĠÐ¿Ð¾Ð²ÑĭÑģÐ¸": 7153,
      "ĠÑģÑĩÐ¸ÑĤÐ°ÐµÐ¼": 7154,
      "ĠÐ´Ð¾Ð¿Ð¾Ð»Ð½Ð¸ÑĤÐµÐ»ÑĮÐ½ÑĭÑħ": 7155,
      "ĠÐ³Ð»Ð°Ð²Ð½ÑĭÐµ": 7156,
      "ĠÐ²ÐµÐ´ÑĥÑī": 7157,
      "Ġ\"ï¸ıï¸ı": 7158,
      "ĠÐºÐ¾Ð½ÑĤÑĢÐ°ÐºÑĤ": 7159,
      "ÑİÑīÐ¸Ð¼ÑģÑı": 7160,
      "ĠÑĦÐ¸Ð·Ð»Ð¸ÑĨ": 7161,
      "ÑĢÐ¾Ð¶": 7162,
      "Ð¿ÐµÑĢÐµ": 7163,
      "ĠÐ¼Ð°": 7164,
      "Ð´Ð°ÑĢ": 7165,
      "ĠÐļÑĢÐ°Ñģ": 7166,
      "ĠÐ·Ð°ÐºÐ»ÑİÑĩ": 7167,
      "ĠÑģÑģÑĭÐ»ÐºÐ¾Ð¹": 7168,
      "ĠÐ¿ÐµÑĢÐµÑħÐ¾Ð´Ð°": 7169,
      "ĠÐŀÐ±ÑĬÐµÐ¼Ñĭ": 7170,
      "ĠÐ²ÑĤÐ¾ÑĢÐ¸": 7171,
      "ĠÑģÐ°Ð¼Ð¾Ð¹": 7172,
      "ĠÐ±Ð°Ð½ÐºÐ¾Ð²ÑģÐºÐ¾Ð³Ð¾": 7173,
      "ĠÐ¸Ð½ÑĤÐµÑĢÐµÑģÐ½Ð¾Ð¹": 7174,
      "ĠÐ¾ÑĢÐ³Ð°Ð½Ð¸Ð·Ð°": 7175,
      "ĠÑĢÐ°ÑģÑģÑĩÐ¸ÑĤÑĭÐ²Ð°ÐµÑĤ": 7176,
      "ĠÐ²Ð²ÐµÐ´ÐµÐ½Ð¸Ñı": 7177,
      "ĠÐ´Ð¾Ð»Ð»Ð°ÑĢÐ°Ñħ": 7178,
      "ĠÐĴÐ»Ð°ÑģÑĤÐ¸": 7179,
      "ĠÑģÐ±ÐµÑĢÐµ": 7180,
      "ĠÐļÐ¾ÑĢÑĢÐµÐºÑĨÐ¸Ñı": 7181,
      "ÑģÐºÐ°": 7182,
      "Ð»Ð¸ÑĪ": 7183,
      "Ð±Ð¾ÑĢÐ°": 7184,
      "Ġ145": 7185,
      "ĠÐ¼Ð¸Ð½ÑĥÑģ": 7186,
      "ĠÑĥÐ²ÐµÐ»Ð¸ÑĩÐ¸Ð»Ð¸ÑģÑĮ": 7187,
      "ĠÐ²ÑĭÐºÑĥÐ¿Ð¸ÑĤÑĮ": 7188,
      "ĠÐ¨Ð¸ÑĢÐ¾Ðº": 7189,
      "ĠÐ·Ð°Ð²Ð¸ÑģÑıÑĤ": 7190,
      "ĠÐ²Ð½ÑĥÑĤÑĢÐµÐ½Ð½ÐµÐ¼": 7191,
      "ĠÐºÑĥÐ±Ð¾Ð¼ÐµÑĤÑĢÐ¾Ð²": 7192,
      "ĠÐ²Ð¸ÑĨÐµ": 7193,
      "ĠÐ¶ÐµÐ»ÐµÐ·": 7194,
      "ĠÑģÐ²Ð¸Ð´ÐµÑĤÐµÐ»ÑĮÑģÑĤÐ²ÑĥÑı": 7195,
      "Ð»Ð¸ÑĩÐ¸Ðµ": 7196,
      "ĠÑĢÐ°ÑģÑħÐ¾Ð¶Ð´ÐµÐ½Ð¸Ð¹": 7197,
      "ĠÑģÐ¾Ð¿ÑĢÐ¾Ð²Ð¾Ð¶Ð´Ð°Ð»Ð¾ÑģÑĮ": 7198,
      "ail": 7199,
      "ĠÑĤÑĥÑĢ": 7200,
      "ÑĩÐµÐ³Ð¾": 7201,
      "ĠÐ¢ÐļÐ¡": 7202,
      "ĠÐŁÐ¾Ð´ÑĬÐµÐ¼": 7203,
      "Ð½ÑĥÐ»Ð°ÑģÑĮ": 7204,
      "ĠÐ¿Ð¾ÑģÐ»ÐµÐ´Ð½ÐµÐ¹": 7205,
      "ĠÐ²Ð°Ð¶Ð½Ð¾Ð¹": 7206,
      "Ð»Ð¾Ð°ÑĤ": 7207,
      "ĠÐ¿ÑĢÐ¾Ð¸Ð·Ð¾ÑĪÐµÐ»": 7208,
      "ĠÐŁÐµÑĢÐ²ÑĭÐ¹": 7209,
      "ÑģÑĤÐ°Ð»": 7210,
      "ÑĢÐ°Ð½ÐµÐµ": 7211,
      "ÑĢÐ¾Ð²Ð°Ð²": 7212,
      "Ð°Ð½ÑĤÐ¾Ð²": 7213,
      "ine": 7214,
      "ĠÐ¢Ð¾Ð²Ð°ÑĢÐ½Ð¾": 7215,
      "ĠÐ´ÐµÐ¹ÑģÑĤÐ²Ð¾Ð²Ð°ÑĤÑĮ": 7216,
      "ĠSh": 7217,
      "ĠÐ·Ð°ÐºÑĢÑĭÑĤÐ¸Ñİ": 7218,
      "ÑĢÐµÑģÑģ": 7219,
      "Ġ129": 7220,
      "ĠÑģÐ¸Ð»ÑĮÐ½Ð¾Ð¹": 7221,
      "ĠÑĥÑħÑĥÐ´ÑĪÐµÐ½Ð¸Ðµ": 7222,
      "ĠâĤ¬": 7223,
      "ĠÐŀÑģÐ½Ð¾Ð²Ð½Ð°Ñı": 7224,
      "ĠÐ¿ÑĢÐµÐ´Ð¿Ð¾ÑģÑĭ": 7225,
      "ĠÐ¿ÑĢÐ¸Ð½ÑıÑĤÐ¾": 7226,
      "ĠÐ¤ÐĿÐĳ": 7227,
      "ĠÑĤÐµÐ¼Ð¿Ð°Ð¼Ð¸": 7228,
      "pi": 7229,
      "ĠÑģÑĢÐ¾Ñĩ": 7230,
      "ĠÑģÑĥÑīÐµ": 7231,
      "ĠÑģÐ±Ð¾ÑĢ": 7232,
      "ÑĢÐ¾Ð¾Ð±Ð¾ÑĢÐ¾ÑĤ": 7233,
      "ĠÐĳÐ°Ð¹Ð´": 7234,
      "ĠÐ»Ð¾Ðº": 7235,
      "ĠÐ¾Ð±Ð·": 7236,
      "ĠÐĶÑĢÐ°Ð¹Ð²ÐµÑĢ": 7237,
      "Ġ448": 7238,
      "ĠÐ£ÑĩÐ°ÑģÑĤ": 7239,
      "ĠÐ§ÐµÐ¼": 7240,
      "ĠÐºÐ°Ñģ": 7241,
      "Ð²ÑĭÐ¼Ð¸": 7242,
      "Ġ143": 7243,
      "ĠÐ²Ð¾Ð»Ð½Ðµ": 7244,
      "ĠÐ¿Ð¾Ð´ÑĬÐµÐ¼Ðµ": 7245,
      "ĠÐ¸Ð¼Ð¿ÑĥÐ»ÑĮÑģÐ¾Ð²": 7246,
      "ĠÐ¿Ð»Ð°Ð½Ð¸ÑĢÑĥÑİÑĤ": 7247,
      "ĠÑĥÐ»ÑĥÑĩÑĪÐ¸": 7248,
      "Ð²ÐµÐ»Ð°": 7249,
      "ĠÑģÐ¾ÐºÑĢÐ°ÑīÐ°ÑĤÑĮ": 7250,
      "ĠÐ·Ð°ÐºÐ¾Ð½Ð¾Ð¿ÑĢÐ¾": 7251,
      "Ġ361": 7252,
      "lear": 7253,
      "ĠÐŀÑģÐ½Ð¾Ð²Ð½Ð¾Ð¹": 7254,
      "ĠÐ¡Ð°Ð¼Ð¾Ð»ÐµÑĤÐ°": 7255,
      "ĠÐ¾ÑĤÐ¼ÐµÑĩÐ°ÐµÐ¼": 7256,
      "ĠÐ¼ÐµÐ´Ð²ÐµÐ¶ÑĮÑı": 7257,
      "ĠÑĥÐºÐ°Ð·Ð°Ð½Ñĭ": 7258,
      "VT": 7259,
      "Ġ~": 7260,
      "ÑģÑĤÑĭ": 7261,
      "ĠÐ²ÑĭÐ´": 7262,
      "ĠÐĵÐ¾Ð½ÐºÐ¾Ð½Ð³": 7263,
      "ĠÑģÐ»ÐµÐ´ÑĥÐµÑĤ": 7264,
      "Ġ132": 7265,
      "ĠÐ¿Ð¾ÑĤÐµÐ½ÑĨÐ¸Ð°Ð»ÑĮÐ½ÑĭÐ¹": 7266,
      "ĠÐºÑĥÑĢÑģÐ¾Ð²": 7267,
      "ĠÐ±Ð°ÑĢÑĢ": 7268,
      "ĠMed": 7269,
      "ĠÐ¿Ð¾Ð»Ð¾Ð²Ð¸Ð½Ñĭ": 7270,
      "ĠÐ¿ÑĢÐ¾Ð´Ð¾Ð»Ð¶Ð¸Ð»Ð¾ÑģÑĮ": 7271,
      "ĠÐŁÑĥÐ»ÑĮÑģÐ°": 7272,
      "ĠÑĥÑģÐºÐ¾ÑĢÐµÐ½Ð¸Ñı": 7273,
      "ĠÐ²Ð°ÑĢÐ¸Ð°Ð½ÑĤ": 7274,
      "Ð¡ÐŁÐĳ": 7275,
      "ĠÐ¿ÐµÑĢÐµÑģÐµÐºÐ»Ð¸ÑģÑĮ": 7276,
      "ĠÑĢÐ°Ð±Ð¾ÑĩÐ¸": 7277,
      "ĠÐ½ÐµÐ´Ð¾Ð¾ÑĨÐµÐ½": 7278,
      "ĠÐ´Ð¾Ð³Ð¾Ð²Ð¾ÑĢÐ¸": 7279,
      "ĠÐľÐ°ÐºÑģÐ¸Ð¼Ð°Ð»ÑĮÐ½Ð°Ñı": 7280,
      "ĠAsia": 7281,
      "!\"": 7282,
      "Tube": 7283,
      "ÐµÐ½ÑĤÐ¸ÑĢÐ¾Ð²": 7284,
      "ĠÐŁÐµÑĢÐ²ÑĭÐµ": 7285,
      "Ð´Ð°ÑĢÑĤ": 7286,
      "ĠÑģÐ¾ÑĨÐ¸": 7287,
      "ĠÑĢÐµÐ°Ð³Ð¸": 7288,
      "ĠÐ±ÐµÐ·ÑĢÐ°Ð±Ð¾ÑĤÐ¸": 7289,
      "ĠÐ¿Ð¾Ð·Ð¸ÑĤÐ¸Ð²Ð½ÑĭÑħ": 7290,
      "Ġ1490": 7291,
      "ĠÐ¸ÑİÐ½ÑĮ": 7292,
      "ĠÐ¿Ð¾Ð»ÑĥÑĩÐµÐ½Ð¸Ñı": 7293,
      "ĠÐ¿ÑĢÐ¾Ð³Ð½Ð¾Ð·Ð°": 7294,
      "ĠÐ¼Ð½Ð¾Ð¶Ðµ": 7295,
      "ĠÑĥÑĩÐ°ÑģÑĤÐ¸Ñı": 7296,
      "ĠÐ¸ÑģÐ¿Ð¾Ð»Ð½ÐµÐ½Ð¸Ñı": 7297,
      "ĠÐ¿Ð¾ÑĤÐ¾Ð»ÐºÐ°": 7298,
      "ĠGlobaltrans": 7299,
      "SBER": 7300,
      "Ġex": 7301,
      "ĠÐ´Ð°Ð¹Ð´": 7302,
      "Ġ290": 7303,
      "ĠÐ³ÑĢÑĥÐ·": 7304,
      "ĠÐĳÐ¸ÑĢÐ¶Ð¸": 7305,
      "ĠÐŁÐ¾ÑģÑĤÐ°": 7306,
      "Ġ331": 7307,
      "Ð°Ð¹Ð±": 7308,
      "ĠÑĤÐ¾ÑĢÐ³Ð¾Ð²ÑĭÐµ": 7309,
      "ĠÐ¢Ð¾Ð¿": 7310,
      "ĠÐ½Ð¸ÐºÐ°": 7311,
      "Ġ169": 7312,
      "ĠÐ²Ð°Ð»ÑİÑĤÐµ": 7313,
      "ĠÐ·Ð°ÑıÐ²Ð»ÐµÐ½Ð¸Ñı": 7314,
      "ĠÐ¾ÑĤÐºÑĢÑĭÑĤÑĮ": 7315,
      "ĠÐ¿Ð¾Ð¼Ð¾Ð¶ÐµÑĤ": 7316,
      "ĠÐ¿Ð¾ÐºÐ°Ð·Ð°ÑĤÐµÐ»Ñı": 7317,
      "ĠÐĴÐ¾Ð·Ð²": 7318,
      "ĠÐ·Ð°Ð¼ÐµÐ´Ð»ÐµÐ½Ð¸Ðµ": 7319,
      "ĠÐ¿Ð¾Ð³Ð°ÑĪ": 7320,
      "ĠÑģÐ¾ÐºÑĢÐ°ÑĤÐ¸Ð»Ð°ÑģÑĮ": 7321,
      "ĠÐ´Ð¾ÑģÑĤÐ¸Ð³Ð½ÑĥÑĤÑĭ": 7322,
      "ĠYou": 7323,
      "ĠÐ»Ð¸ÑģÑĤÐ¸Ð½Ð³": 7324,
      "ĠÐ¿ÑĢÐµÐ²ÑĭÑĪÐ°ÐµÑĤ": 7325,
      "ĠÑıÐ¿Ð¾Ð½ÑģÐºÐ¸Ð¹": 7326,
      "ĠÐºÐ¾Ð»ÐµÐ±": 7327,
      "ĠÐ½ÐµÐ¸Ð·": 7328,
      "ÑģÑĤÐ¾Ð¸ÑĤ": 7329,
      "ĠÐ»Ð¸Ð¼Ð¸ÑĤ": 7330,
      "ĠÐ²Ð¾Ð·Ð½Ð¸Ðº": 7331,
      "ĠÐĵÐ»Ð°Ð²Ð½Ð¾Ðµ": 7332,
      "ÐµÐ»Ð¸Ð³": 7333,
      "ĠÑģÐ¿Ð°Ð´": 7334,
      "ĠÑĢÐ¾ÑģÑģÐ¸Ð¹ÑģÐºÐ¸Ð¼Ð¸": 7335,
      "ĠÐ¿Ð¾Ð»ÑĥÑĩÐ¸ÑĤ": 7336,
      "ĠÐ¼Ð½Ð¾Ð³Ð¸Ðµ": 7337,
      "ĠÑģÐ»Ð¾Ð¶Ð½Ð¾ÑģÑĤÐ¸": 7338,
      "ĠÑĢÐµÐ°Ð»Ð¸Ð·Ð¾Ð²Ð°Ð»Ð°ÑģÑĮ": 7339,
      "ĠÐ´Ð¸Ð²ÐµÑĢÑģÐ¸": 7340,
      "ĠÐ²ÑĩÐµÑĢÐ°ÑĪÐ½ÐµÐ³Ð¾": 7341,
      "ĠÐļÐ¾Ð¼Ð¼ÐµÑĢ": 7342,
      "ÑıÐ¶ÐµÐ½Ð¸Ð¸": 7343,
      "ĠÐ½ÐµÑĦÑĤÐµÐ¿ÑĢÐ¾Ð´ÑĥÐºÑĤÐ¾Ð²": 7344,
      "Ð°Ð¹ÑĤÐµÑģÑĮ": 7345,
      "ĠÐ²Ð¾ÑģÑģÑĤÐ°Ð½Ð°Ð²Ð»Ð¸Ð²Ð°ÑĤÑĮÑģÑı": 7346,
      "ĠÑĤÑĢÐ¸Ð³Ð³ÐµÑĢÐ¾Ð²": 7347,
      "NDX": 7348,
      "IB": 7349,
      "ÐµÑģÐº": 7350,
      "ÑĢÐµÑģÑģÐ¸Ð²": 7351,
      "Ġ119": 7352,
      "ĠÐ¾ÑĤÑģÑĤÑĥÐ¿": 7353,
      "Ð¢ÑĢÐ°Ð½Ñģ": 7354,
      "ĠÐĲÑģÑĤÑĢÐ°": 7355,
      "ĠÑģÐ¿ÑıÑĤ": 7356,
      "ĠÐ¿Ð¾ÐºÑĥÐ¿ÐºÐ°": 7357,
      "ĠÐ¿Ð¾ÐºÑĥÐ¿Ð°ÑĤÐµÐ»ÑıÐ¼Ð¸": 7358,
      "ĠÐ·Ð°ÐºÑĢÑĭÐ»Ð¸": 7359,
      "ĠÐ¾Ð±ÑīÐµÐ¹": 7360,
      "ĠÐŀÐ¶Ð¸Ð´Ð°ÐµÑĤÑģÑı": 7361,
      "Ð°ÑĢÐ¾Ð²": 7362,
      "ÑĤÐµÑħ": 7363,
      "ÑģÐµÐ¼": 7364,
      "ĠÐ´Ð½Ð°": 7365,
      "ĠÐ´Ð½ÐµÐ¼": 7366,
      "ĠÐ±ÑĢÐ¸Ð»Ð»Ð¸": 7367,
      "ÑĢÐ¾ÑģÐ»Ð¸": 7368,
      "ÐĿÐ¾ÑĢÐ½Ð¸Ðº": 7369,
      "ĠÑģÐ½Ð¸Ð¶Ð°Ð»Ð¸ÑģÑĮ": 7370,
      "Ġ96": 7371,
      "ĠÑģÐ½Ð¸Ð·Ð¸Ð»": 7372,
      "ĠÐ¾ÑĤÑģÐºÐ¾ÑĩÐ¸ÑĤÑĮ": 7373,
      "Ġ289": 7374,
      "Ð¸Ð´ÐµÑı": 7375,
      "ĠÐ´ÐµÐ¿Ð¾Ð·Ð¸ÑĤÐ°Ñħ": 7376,
      "ĠÐ¿Ð¾Ð³Ð°": 7377,
      "ĠJap": 7378,
      "ĠÐ¿ÑĢÐ¾Ð³Ð½Ð¾Ð·Ð¸ÑĢÑĥÐµÑĤ": 7379,
      "ĠÐ³Ð¾Ð»Ð¾Ñģ": 7380,
      "ĠÑĢÐµÐ³ÑĥÐ»ÑıÑĢ": 7381,
      "ĠÐ²ÑĭÐ¿Ð»Ð°ÑĤÐ°Ð¼": 7382,
      "ĠÑįÐ»ÐµÐºÑĤÑĢÐ¾Ð¼Ð¾Ð±Ð¸Ð»ÐµÐ¹": 7383,
      "ĠÐ¿Ð¾Ð´Ð³Ð¾ÑĤÐ¾Ð²": 7384,
      "ĠÐ¨Ð¸ÑĢÐ¾ÐºÐ¸Ð¹": 7385,
      "ĠYouTube": 7386,
      "ĠJapan": 7387,
      "im": 7388,
      "Ð»Ð°Ð½": 7389,
      "ÑĢÐ°ÑĤÐ°": 7390,
      "ĠÐ½ÐµÐ²Ñĭ": 7391,
      "ÑĤÐ¸Ð¸": 7392,
      "ĠÐ´Ð¾ÑĩÐµÑĢ": 7393,
      "ĠÐĲÑĢ": 7394,
      "ĠÑĢÐµÐ¼Ð¾Ð½": 7395,
      "Ð¾Ð²ÑĭÐ¼Ð¸": 7396,
      "ÑģÐµÑĤÐµÐ¹": 7397,
      "ĠÐ¾ÑģÐ½Ð¾Ð²Ðµ": 7398,
      "ĠÑģÐ²Ð¾Ð¸Ð¼": 7399,
      "ĠÑģÐ°Ð¼Ð¾Ðµ": 7400,
      "ĠÐ¼Ð°ÐºÑģÐ¸Ð¼Ð°Ð»ÑĮÐ½ÑĭÑħ": 7401,
      "ĠÐ¼Ð¸ÑĢÐ¾Ð²Ð¾Ð¼": 7402,
      "ĠÐĲÐ»ÑĢÐ¾ÑģÐ°": 7403,
      "ĠÑģÐ¾Ð³Ð»Ð°ÑĪÐµÐ½Ð¸Ðµ": 7404,
      "ĠDe": 7405,
      "ĠÑģÐ¾ÑģÑĤÐ¾ÑıÐ½Ð¸Ñİ": 7406,
      "ĠÑĤÐµÑģÑĤÐ¸ÑĢÐ¾Ð²Ð°Ð½Ð¸Ðµ": 7407,
      "ĠÐľÐµÑĩÐµÐ»Ð°": 7408,
      "ĠÐĴÐµÐ´Ð¾Ð¼Ð¾ÑģÑĤÐ¸": 7409,
      "TR": 7410,
      "Ð²Ð¸ÑĤÑĮ": 7411,
      "ĠÐ´ÑĢÐ°": 7412,
      "ĠÐĳÐ¸ÑĢÐ¶Ðµ": 7413,
      "ÑĢÐ¾Ð²Ð¾Ð´": 7414,
      "Ð¾Ð¶Ð¸Ð´": 7415,
      "Ð¾ÑĤÑĩÐµÑĤ": 7416,
      "ĠÐ¡Ðº": 7417,
      "ĠÑģÑĤÐ¾Ð»Ðº": 7418,
      "Ð»ÑİÑĩÐµÐ½Ð¸Ñı": 7419,
      "Ð°Ð»Ð¸Ð·Ð°ÑĤ": 7420,
      "ĠÐŀÐ±Ñģ": 7421,
      "ĠÑĩÐ°ÑģÑĤÐ¾": 7422,
      "ĠÑģÑĢÐµÐ´Ð½ÐµÑģÑĢÐ¾ÑĩÐ½ÑĭÐ¼": 7423,
      "ĠÐ²Ð¾Ð»Ð½Ñĥ": 7424,
      "ĠTTF": 7425,
      "ĠAC": 7426,
      "ĠÐºÑĥÑĢÑģÑĭ": 7427,
      "ĠÐ·Ð°ÐºÑĢÑĭÑĤÑĮ": 7428,
      "ĠÐµÐ²ÑĢÐ¾Ð±": 7429,
      "ĠÑĢÐ¾Ð»ÑĮ": 7430,
      "ĠÐ·Ð°ÑıÐ²ÐºÐ¸": 7431,
      "ĠÐ¸Ð½ÑĦÑĢÐ°ÑģÑĤÑĢÑĥÐºÑĤÑĥÑĢÑĭ": 7432,
      "ĠÐ¡ÑĦÐ¾ÑĢÐ¼Ð¸ÑĢÐ¾Ð²Ð°Ð½Ð½ÑĭÐµ": 7433,
      "ĠÑģÐµÐ³Ð¼ÐµÐ½ÑĤÐµ": 7434,
      "ĠÐĵÐ¾ÑģÐ´ÑĥÐ¼Ð°": 7435,
      "ĠÐ´ÐµÑģÑıÑĤÐ¸": 7436,
      "ĠÑįÐ»ÐµÐºÑĤÑĢÐ¾Ð½Ð½Ð¾Ð¹": 7437,
      "oo": 7438,
      "Ð°ÑİÑīÐ¸Ðµ": 7439,
      "ĠÐ²Ð¼ÐµÑģÑĤÐ¾": 7440,
      "Ð¡Ðł": 7441,
      "Ð²Ð¾Ð´Ð¸Ð¼": 7442,
      "ĠÐ½ÐµÐ¹ÑĤÑĢÐ°Ð»ÑĮÐ½ÑĥÑİ": 7443,
      "ĠÑĥÐºÐ°Ð·ÑĭÐ²": 7444,
      "ĠÑĢÐµÐºÐ¾Ð¼ÐµÐ½Ð´ÑĥÐµÐ¼": 7445,
      "ĠÐ¿ÑĢÐµÐ¾Ð´Ð¾Ð»ÐµÐ½Ð¸Ñı": 7446,
      "ĠÑħÐ¾ÑĢÐ¾ÑĪÐ¾": 7447,
      "ĠÑĥÐ¿ÑĢÐ°Ð²Ð»ÐµÐ½Ð¸Ñı": 7448,
      "ĠÐ·ÐµÑĢÐ½Ð°": 7449,
      "ĠÑĢÐµÑĪÐ¸Ð»Ð¸": 7450,
      "ĠÐ¿ÐµÐ½ÑģÐ¸": 7451,
      "ĠÐºÐµÐ¹Ñģ": 7452,
      "ĠÐ¾ÑĤÐ¿": 7453,
      "Ð»Ð¸ÑıÑĤÑĮ": 7454,
      "ÑĩÐµÑģÐºÐ¾Ðµ": 7455,
      "Ġ107": 7456,
      "Ð¿ÑĢÐ¾Ð¼ÑĤÐ¾ÑĢÐ³": 7457,
      "ĠÑĨÐµÐ½Ð°Ð¼Ð¸": 7458,
      "ĠÐ²ÑģÐµÐ³Ð´Ð°": 7459,
      "ĠÐ¿ÑĢÐ¸Ð±Ð»Ð¸": 7460,
      "one": 7461,
[...]
