{
  "version": "1.0",
  "truncation": null,
  "padding": null,
  "added_tokens": [
    {
      "id": 0,
      "content": "<pad>",
      "single_word": false,
      "lstrip": false,
      "rstrip": false,
      "normalized": false,
      "special": true
    },
    {
      "id": 1,
      "content": "<unk>",
      "single_word": false,
      "lstrip": false,
      "rstrip": false,
      "normalized": false,
      "special": true
    },
    {
      "id": 2,
      "content": "<bos>",
      "single_word": false,
      "lstrip": false,
      "rstrip": false,
      "normalized": false,
      "special": true
    },
    {
      "id": 3,
      "content": "<eos>",
      "single_word": false,
      "lstrip": false,
      "rstrip": false,
      "normalized": false,
      "special": true
    }
  ],
  "normalizer": {
    "type": "NFKC"
  },
  "pre_tokenizer": {
    "type": "ByteLevel",
    "add_prefix_space": false,
    "trim_offsets": true,
    "use_regex": true
  },
  "post_processor": {
    "type": "TemplateProcessing",
    "single": [
      {
        "SpecialToken": {
          "id": "<bos>",
          "type_id": 0
        }
      },
      {
        "Sequence": {
          "id": "A",
          "type_id": 0
        }
      },
      {
        "SpecialToken": {
          "id": "<eos>",
          "type_id": 0
        }
      }
    ],
    "pair": [
      {
        "Sequence": {
          "id": "A",
          "type_id": 0
        }
      },
      {
        "Sequence": {
          "id": "B",
          "type_id": 1
        }
      }
    ],
    "special_tokens": {
      "<bos>": {
        "id": "<bos>",
        "ids": [
          2
        ],
        "tokens": [
          "<bos>"
        ]
      },
      "<eos>": {
        "id": "<eos>",
        "ids": [
          3
        ],
        "tokens": [
          "<eos>"
        ]
      }
    }
  },
  "decoder": {
    "type": "ByteLevel",
    "add_prefix_space": true,
    "trim_offsets": true,
    "use_regex": true
  },
  "model": {
    "type": "BPE",
    "dropout": null,
    "unk_token": "<unk>",
    "continuing_subword_prefix": null,
    "end_of_word_suffix": null,
    "fuse_unk": false,
    "byte_fallback": false,
    "ignore_merges": false,
    "vocab": {
      "<pad>": 0,
      "<unk>": 1,
      "<bos>": 2,
      "<eos>": 3,
      "!": 4,
      "\"": 5,
      "#": 6,
      "$": 7,
      "%": 8,
      "&": 9,
      "'": 10,
      "(": 11,
      ")": 12,
      "*": 13,
      "+": 14,
      ",": 15,
      "-": 16,
      ".": 17,
      "/": 18,
      "0": 19,
      "1": 20,
      "2": 21,
      "3": 22,
      "4": 23,
      "5": 24,
      "6": 25,
      "7": 26,
      "8": 27,
      "9": 28,
      ":": 29,
      ";": 30,
      "<": 31,
      "=": 32,
      ">": 33,
      "?": 34,
      "@": 35,
      "A": 36,
      "B": 37,
      "C": 38,
      "D": 39,
      "E": 40,
      "F": 41,
      "G": 42,
      "H": 43,
      "I": 44,
      "J": 45,
      "K": 46,
      "L": 47,
      "M": 48,
      "N": 49,
      "O": 50,
      "P": 51,
      "Q": 52,
      "R": 53,
      "S": 54,
      "T": 55,
      "U": 56,
      "V": 57,
      "W": 58,
      "X": 59,
      "Y": 60,
      "Z": 61,
      "[": 62,
      "\\": 63,
      "]": 64,
      "^": 65,
      "_": 66,
      "`": 67,
      "a": 68,
      "b": 69,
      "c": 70,
      "d": 71,
      "e": 72,
      "f": 73,
      "g": 74,
      "h": 75,
      "i": 76,
      "j": 77,
      "k": 78,
      "l": 79,
      "m": 80,
      "n": 81,
      "o": 82,
      "p": 83,
      "q": 84,
      "r": 85,
      "s": 86,
      "t": 87,
      "u": 88,
      "v": 89,
      "w": 90,
      "x": 91,
      "y": 92,
      "z": 93,
      "{": 94,
      "|": 95,
      "}": 96,
      "~": 97,
      "¡": 98,
      "¢": 99,
      "£": 100,
      "¤": 101,
      "¥": 102,
      "¦": 103,
      "§": 104,
      "¨": 105,
      "©": 106,
      "ª": 107,
      "«": 108,
      "¬": 109,
      "®": 110,
      "¯": 111,
      "°": 112,
      "±": 113,
      "²": 114,
      "³": 115,
      "´": 116,
      "µ": 117,
      "¶": 118,
      "·": 119,
      "¸": 120,
      "¹": 121,
      "º": 122,
      "»": 123,
      "¼": 124,
      "½": 125,
      "¾": 126,
      "¿": 127,
      "À": 128,
      "Á": 129,
      "Â": 130,
      "Ã": 131,
      "Ä": 132,
      "Å": 133,
      "Æ": 134,
      "Ç": 135,
      "È": 136,
      "É": 137,
      "Ê": 138,
      "Ë": 139,
      "Ì": 140,
      "Í": 141,
      "Î": 142,
      "Ï": 143,
      "Ð": 144,
      "Ñ": 145,
      "Ò": 146,
      "Ó": 147,
      "Ô": 148,
      "Õ": 149,
      "Ö": 150,
      "×": 151,
      "Ø": 152,
      "Ù": 153,
      "Ú": 154,
      "Û": 155,
      "Ü": 156,
      "Ý": 157,
      "Þ": 158,
      "ß": 159,
      "à": 160,
      "á": 161,
      "â": 162,
      "ã": 163,
      "ä": 164,
      "å": 165,
      "æ": 166,
      "ç": 167,
      "è": 168,
      "é": 169,
      "ê": 170,
      "ë": 171,
      "ì": 172,
      "í": 173,
      "î": 174,
      "ï": 175,
      "ð": 176,
      "ñ": 177,
      "ò": 178,
      "ó": 179,
      "ô": 180,
      "õ": 181,
      "ö": 182,
      "÷": 183,
      "ø": 184,
      "ù": 185,
      "ú": 186,
      "û": 187,
      "ü": 188,
      "ý": 189,
      "þ": 190,
      "ÿ": 191,
      "Ā": 192,
      "ā": 193,
      "Ă": 194,
      "ă": 195,
      "Ą": 196,
      "ą": 197,
      "Ć": 198,
      "ć": 199,
      "Ĉ": 200,
      "ĉ": 201,
      "Ċ": 202,
      "ċ": 203,
      "Č": 204,
      "č": 205,
      "Ď": 206,
      "ď": 207,
      "Đ": 208,
      "đ": 209,
      "Ē": 210,
      "ē": 211,
      "Ĕ": 212,
      "ĕ": 213,
      "Ė": 214,
      "ė": 215,
      "Ę": 216,
      "ę": 217,
      "Ě": 218,
      "ě": 219,
      "Ĝ": 220,
      "ĝ": 221,
      "Ğ": 222,
      "ğ": 223,
      "Ġ": 224,
      "ġ": 225,
      "Ģ": 226,
      "ģ": 227,
      "Ĥ": 228,
      "ĥ": 229,
      "Ħ": 230,
      "ħ": 231,
      "Ĩ": 232,
      "ĩ": 233,
      "Ī": 234,
      "ī": 235,
      "Ĭ": 236,
      "ĭ": 237,
      "Į": 238,
      "į": 239,
      "İ": 240,
      "ı": 241,
      "Ĳ": 242,
      "ĳ": 243,
      "Ĵ": 244,
      "ĵ": 245,
      "Ķ": 246,
      "ķ": 247,
      "ĸ": 248,
      "Ĺ": 249,
      "ĺ": 250,
      "Ļ": 251,
      "ļ": 252,
      "Ľ": 253,
      "ľ": 254,
      "Ŀ": 255,
      "ŀ": 256,
      "Ł": 257,
      "ł": 258,
      "Ń": 259,
      "ĠÐ": 260,
      "Ð¾": 261,
      "Ðµ": 262,
      "Ð°": 263,
      "Ð¸": 264,
      "ÑĤ": 265,
      "Ð½": 266,
      "Ð¾Ð": 267,
      "Ñģ": 268,
      "ÑĢ": 269,
      "Ð»": 270,
      "ĠĠ": 271,
      "Ñĥ": 272,
      "Ð°Ð": 273,
      "Ñĭ": 274,
      "Ñı": 275,
      "ÐµÐ": 276,
      "ÑĮ": 277,
      "Ð¸Ð": 278,
      "ĠÐ¿": 279,
      "ÑģÑĤ": 280,
      "Ñĩ": 281,
      "ÐµÐ½": 282,
      "ĠÐ¸": 283,
      "ĠÐ²": 284,
      "Ðº": 285,
      "ĠÑģ": 286,
      "Ð²": 287,
      "Ð¾Ð²": 288,
      "Ñħ": 289,
      "ĠÐº": 290,
      "ĠÐ¾": 291,
      "ĠÐ½": 292,
      "ÐµÑĤ": 293,
      "Ð¼": 294,
      "Ð´": 295,
      "ĠĠĠĠ": 296,
      "ĠÐ´": 297,
      "ÐµÑĢ": 298,
      "Ð¾Ð»": 299,
      "Ð°Ð½": 300,
      "Ð½Ñĭ": 301,
      "Ð¿": 302,
      "Ñİ": 303,
      "Ð°ÑĤ": 304,
      "ĠÐ¼": 305,
      "Ð¾ÑĢ": 306,
      "Ð¸ÑĤ": 307,
      "ĠÐ¿ÑĢ": 308,
      "in": 309,
      "Ġ\\": 310,
      "er": 311,
      "ÑĨ": 312,
      "Ð½Ð¾": 313,
      "Ð¾Ð´": 314,
      "ÐµÐ½Ð¸": 315,
      "ÐµÐ»": 316,
      "ÑĢÐ°Ð": 317,
      "ĠÑĤ": 318,
      "Ð¾Ð¼": 319,
      "ÑĪ": 320,
      "Ð¾ÑĤ": 321,
      "Ð±": 322,
      "Ð¾Ð³": 323,
      "**": 324,
      "Ð·": 325,
      "an": 326,
      "on": 327,
      "Ġt": 328,
      "ÐµÐ¼": 329,
      "Ð¸Ð¼": 330,
      "ÐµÐ´": 331,
      "st": 332,
      "Ð°Ðº": 333,
      "en": 334,
      "Ð°Ð»": 335,
      "ĠÑ": 336,
      "at": 337,
      "ĠÑĩ": 338,
      "re": 339,
      "ĠÐ±": 340,
      "Ð»Ñı": 341,
      "ĠÑĥ": 342,
      "Ð¾Ð¹": 343,
      "Ñī": 344,
      "Ð³": 345,
      "Ð»Ð¸": 346,
      "ĠĠĠ": 347,
      "ĠÐ·": 348,
      "or": 349,
      "ÐµÑģ": 350,
      "Ð¾Ð±": 351,
      "Ġ=": 352,
      "Ð¾Ð¶": 353,
      "ĠÐ½Ð°": 354,
      "Ġc": 355,
      "Ð¾Ð½": 356,
      "Ġa": 357,
      "ÑĨÐ¸": 358,
      "ĠÑĢ": 359,
      "ÑģÑĤÐ²": 360,
      "ÑģÑı": 361,
      "Ġ-": 362,
      "ÑĤÐ¾": 363,
      "Ð¾Ð»ÑĮ": 364,
      "es": 365,
      "Ð¸Ð½": 366,
      "ÐµÐº": 367,
      "Ð°Ð½Ð¸": 368,
      "Ġs": 369,
      "Ð¶": 370,
      "ĠÑį": 371,
      "Ġp": 372,
      "he": 373,
      "Ð¸Ð²": 374,
      "ÑĢÑĥ": 375,
      "Ð°ÑĤÑĮ": 376,
      "Ġd": 377,
      "ÐµÐ½Ð¸Ñı": 378,
      "as": 379,
      "ĠÐ¾Ð±": 380,
      "al": 381,
      "Ð¾Ñģ": 382,
      "Ġ(": 383,
      "Ð¹": 384,
      "ÑĦ": 385,
      "ÐµÐ¹": 386,
      "le": 387,
      "Ð°Ð¼": 388,
      "Ð¾Ð³Ð¾": 389,
      "Ð¾ÑģÑĤ": 390,
      "ĊĠĠĠĠ": 391,
      "Ð½ÑĭÑħ": 392,
      "ĠÑĢÐ°Ð": 393,
      "Ð°Ð²": 394,
      "|>": 395,
      "<|": 396,
      "it": 397,
      "Ð½Ð°": 398,
      "Ð¾Ðº": 399,
      "Ð¸Ðº": 400,
      "Ð¸Ñģ": 401,
      "ar": 402,
      "ÐµÐ½Ð¸Ðµ": 403,
      "Ġ1": 404,
      "Ġ**": 405,
      "Ð°Ñģ": 406,
      "Ð¸Ñĩ": 407,
      "Ð¾Ð·": 408,
      "Ð¸Ð·": 409,
      "Ġ\\(": 410,
      "ĠÐ²Ñĭ": 411,
      "Ð¸Ð¹": 412,
      "ion": 413,
      "ĠÐ³": 414,
      "ĠÐ´Ð»Ñı": 415,
      "Ġf": 416,
      "ĠÐ°": 417,
      "ĠÑģÑĤ": 418,
      "ÐºÐ¸": 419,
      "us": 420,
      "Ð½Ð¾ÑģÑĤ": 421,
      "ac": 422,
      "Ð½ÑĭÐµ": 423,
      "ro": 424,
      "ÐµÐ»ÑĮ": 425,
      "Ð°ÑĢ": 426,
      "Ġm": 427,
      "ĠÐ¾ÑĤ": 428,
      "ic": 429,
      "Ġthe": 430,
      "Ð¸ÑĤÑĮ": 431,
      "ĠÐ»": 432,
      "ing": 433,
      "ĊĠĠ": 434,
      "Ð°ÐµÑĤ": 435,
      "ĊĠĠĠ": 436,
      "ÑĥÑİ": 437,
      "el": 438,
      "ÑĢÐ¾Ð²": 439,
      "ent": 440,
      "si": 441,
      "ÑģÐ¿": 442,
      "Ġin": 443,
      "Ð°Ð»ÑĮ": 444,
      "ĠÐ¸Ð·": 445,
      "ed": 446,
      "ĠÐµ": 447,
      "ÐµÐ½ÑĤ": 448,
      "ĠÑĦ": 449,
      "--": 450,
      "ĠÐŁ": 451,
      "Ð°Ñı": 452,
      "Ġi": 453,
      "Ġb": 454,
      "Ġ+": 455,
      "``": 456,
      "Ð°ÑĨÐ¸": 457,
      "ĠÑĩÑĤÐ¾": 458,
      "Ð°Ð´": 459,
      "ĠÐ½Ðµ": 460,
      "Ð¾ÑĤÐ¾ÑĢ": 461,
      "ÑħÐ¾Ð´": 462,
      "Ġn": 463,
      "Ġo": 464,
      "ant": 465,
      "et": 466,
      "Ð¾Ñĩ": 467,
      "Ġ2": 468,
      "and": 469,
      "Ð°Ð¹": 470,
      "Ð°Ð¿": 471,
      "ÐµÐ³": 472,
      "Ġl": 473,
      "Ð¸Ð»": 474,
      "ĠÑĢÐ°Ð·": 475,
      "ÑĥÑĩ": 476,
      "Ð¾Ð»ÑĮÐ·": 477,
      "ÑĥÑĤ": 478,
      "Ð¸Ðµ": 479,
      "Ð°Ð·": 480,
      "ÐµÑģÑĤÐ²": 481,
      "Ð°Ð¶": 482,
      "ĠÐĴ": 483,
      "Ġ\\)": 484,
      "ou": 485,
      "ĠÐ¼Ð¾Ð¶": 486,
      "ĠÐºÐ¾ÑĤÐ¾ÑĢ": 487,
      "##": 488,
      "user": 489,
      "ÐµÐ·": 490,
      "Ð½Ð¾Ð¹": 491,
      "ĠÐºÐ°Ðº": 492,
      "Ð¸Ñħ": 493,
      "Ð¾Ð¿": 494,
      "**:": 495,
      "mp": 496,
      "Ð¼Ð¸": 497,
      "Ġw": 498,
      "ÑİÑĤ": 499,
      "ÐºÐ°": 500,
      "Ð½Ð¾Ð³Ð¾": 501,
      "ÐµÐ²": 502,
      "sist": 503,
      "ex": 504,
      "ĠÑģÐ²": 505,
      "Ð¸Ñı": 506,
      "ÑģÐ¿Ð¾Ð»ÑĮÐ·": 507,
      "sistant": 508,
      "assistant": 509,
      "Ð½ÑĭÐ¹": 510,
      "ĠÑĤÐ°Ðº": 511,
      "Ġâ": 512,
      "Ġre": 513,
      "ÑĭÐµ": 514,
      "ÐŁ": 515,
      "ÑĢÐ°": 516,
      "ÐµÑĩ": 517,
      "ĠÑģÐ»": 518,
      "ĠÐ¿ÐµÑĢ": 519,
      "ÑĢÐµÐ´": 520,
      "Ġ\"": 521,
      "ĠÐ±Ñĭ": 522,
      "ĠÐ¸Ð»Ð¸": 523,
      "ct": 524,
      "ÐµÐºÑĤ": 525,
      "Ð°Ð½Ð¸Ñı": 526,
      "Ð¸ÑĩÐµÑģ": 527,
      "ĠÐ¸Ð½": 528,
      "un": 529,
      "Ġto": 530,
      "ut": 531,
      "ri": 532,
      "ĊĠĠĠĠĠĠĠ": 533,
      "ÐµÐ±": 534,
      "ĠÐ¿Ð¾Ð´": 535,
      "ÐµÑģÑĤ": 536,
      "am": 537,
      "ÑıÑĤ": 538,
      "ĠÑı": 539,
      "Ġand": 540,
      "ad": 541,
      "Ġ`": 542,
      "ĠÐ¿Ð¾": 543,
      "ĠÐŀ": 544,
      "ot": 545,
      "ĠÐ¡": 546,
      "ÑģÐº": 547,
      "ĠÐ¿ÑĢÐ¾": 548,
      "ÑĤÐµ": 549,
      "00": 550,
      "Ġy": 551,
      "ĠA": 552,
      "ÐĴ": 553,
      "Ð°ÑģÑĤ": 554,
      "Ð°Ð½Ð¸Ðµ": 555,
      "ĠÐ¸ÑģÐ¿Ð¾Ð»ÑĮÐ·": 556,
      "Ð°Ð³": 557,
      "ĠÐ¿ÑĢÐµÐ´": 558,
      "ÑĢÐ°Ð²": 559,
      "ĊĠĠĠĠĠĠĠĠ": 560,
      "Ð½Ð¾ÑģÑĤÑĮ": 561,
      "ÑĭÐ²": 562,
      "Ð½Ð¾Ðµ": 563,
      "rac": 564,
      "Ð´Ð°": 565,
      "Ð°Ð¼Ð¸": 566,
      "Ð»Ñİ": 567,
      "os": 568,
      "ÐµÑĪ": 569,
      "od": 570,
      "qu": 571,
      "is": 572,
      "±Ð¾ÑĤ": 573,
      "ol": 574,
      "id": 575,
      "ÐµÐµ": 576,
      "ĠÐ¾Ð¿": 577,
      "Ð¸Ð´": 578,
      "ÑĥÐ´": 579,
      "ĠÐ¼Ð¾Ð¶ÐµÑĤ": 580,
      "Ð¸ÑĤÐµ": 581,
      "ĠÐ¿Ð¾Ð»": 582,
      "Ð½Ð¾ÑģÑĤÐ¸": 583,
      "ĠÐĿ": 584,
      "\\)": 585,
      "ĠS": 586,
      "ÐµÐ¶": 587,
      "ĠÑĨ": 588,
      "Ð¸ÑģÑĤ": 589,
      "Ġe": 590,
      "ĠC": 591,
      "ĠÑįÑĤ": 592,
      "Ð¸ÑĢÐ¾Ð²": 593,
      "ur": 594,
      "Ð½Ð¸Ðº": 595,
      "Ġ3": 596,
      "om": 597,
      "il": 598,
      "ĠâĢ": 599,
      "ÑĭÑħ": 600,
      "Ð½Ð°Ñĩ": 601,
      "ÑĭÐ¹": 602,
      "ĠÐ²Ñģ": 603,
      "}{": 604,
      "Ġof": 605,
      "Ð¾Ðµ": 606,
      "Ð¸ÑĤÐµÐ»ÑĮ": 607,
      "ĠÐ´Ð°Ð½": 608,
      "Ġde": 609,
      "ĠÑģÐ¿": 610,
      "im": 611,
      "frac": 612,
      "Ðŀ": 613,
      "Ð¸Ð¸": 614,
      "Ð¾Ð±Ñĭ": 615,
      "ÐµÐ¿": 616,
      "ĠÐºÐ¾Ð½": 617,
      "ch": 618,
      "```": 619,
      "ÐµÑĤÑģÑı": 620,
      "Ð¡": 621,
      "Ġ0": 622,
      "ĠÑģÐ¾": 623,
      "ÑĢÐ°Ð½": 624,
      "ÑĢÐ°Ð·": 625,
      "ÑģÐ»Ð¸": 626,
      "Ð¸Ð¼ÐµÑĢ": 627,
      "ÑĥÐ¼": 628,
      "um": 629,
      "Ġh": 630,
      "Ð½Ð¾Ð²": 631,
      "ĠÑįÑĤÐ¾": 632,
      "ation": 633,
      "Ð½Ð°Ñı": 634,
      "ÑĥÑĢ": 635,
      "Ð½ÑĭÐ¼": 636,
      "ge": 637,
      "ĠÑħ": 638,
      "ĠÐ¶": 639,
      "Ð¾ÑĢÐ¼": 640,
      "ĠÐŃ": 641,
      "ul": 642,
      "ate": 643,
      "ĠT": 644,
      "ÑģÐ»": 645,
      "ĠÑĢÐ°Ñģ": 646,
      "ÑĢÑĥÐ³": 647,
      "Ð»ÑİÑĩ": 648,
      "Ð°ÑĨÐ¸Ð¸": 649,
      "ĠP": 650,
      "ext": 651,
      "ĠâĢĶ": 652,
      "th": 653,
      "ĠÐĶ": 654,
      "ĠÐļ": 655,
      ":**": 656,
      "ig": 657,
      "Ġv": 658,
      "ĠÐ²Ð¾Ð·": 659,
      "ÑĥÐ»": 660,
      "ÑĤÐ¾Ð±Ñĭ": 661,
      "ÑĤÑĮ": 662,
      "Ġcon": 663,
      "ĠÐĺ": 664,
      "Ð°Ñĩ": 665,
      "Ð¢": 666,
      "Ð½Ð¸": 667,
      "Ð¸ÑģÐ»": 668,
      "Ġfor": 669,
      "ÐĿ": 670,
      "ĠÐºÐ¾Ð¼": 671,
      "ÑĢÐµÐ¼": 672,
      "Ġg": 673,
      "Ð²ÐµÑĤ": 674,
      "iv": 675,
      "ÐµÑħ": 676,
      "Ð°ÑĪ": 677,
      "Ð¸ÑĩÐµÑģÐº": 678,
      "Ð°ÑĤÐµÐ»ÑĮ": 679,
      "Ġth": 680,
      "Ð¸Ð±": 681,
      "ab": 682,
      "Ð°Ð¶Ð´": 683,
      "Ð¸ÑĢ": 684,
      ").": 685,
      "ĠÐ¿Ð¾Ñģ": 686,
      "Ġst": 687,
      "Ð°Ð±": 688,
      "ÑİÑī": 689,
      "lo": 690,
      "ÐºÑĥ": 691,
      "ĠÐ¾Ñģ": 692,
      "ĠÑĤÑĢ": 693,
      "ÑĥÐ½": 694,
      "Ð°ÑİÑĤ": 695,
      "ĠÐ¢": 696,
      "ÑĥÑī": 697,
      "ĠÐ¿Ð¾Ð¼": 698,
      "ra": 699,
      "ĠÐ¸ÑģÐ¿Ð¾Ð»ÑĮÐ·Ð¾Ð²": 700,
      "ÐµÐ½ÑĮ": 701,
      "ÐºÐ¾": 702,
      "Ġx": 703,
      "Ð°Ñħ": 704,
      "ĠI": 705,
      "Ġ$": 706,
      "ĠÐ¸Ð¼": 707,
      "ht": 708,
      "Ð¾Ð»Ð½": 709,
      "ĠÐ¾Ð´": 710,
      "ÐµÐ³Ð¾": 711,
      "em": 712,
      "ĠÑĩÑĤÐ¾Ð±Ñĭ": 713,
      "ÑĢÐ°ÑĤ": 714,
      "Ðļ": 715,
      "ĠĠĠĠĠĠĠĠ": 716,
      "ĠÐ¼Ð¾Ð³": 717,
      "ce": 718,
      "ÐµÑĢÐ¶": 719,
      "ÑĢÐµÐ´ÐµÐ»": 720,
      "ÐĶ": 721,
      "Ġ4": 722,
      "ÐµÐ½Ð¸Ð¹": 723,
      "ÑĢÐ¾": 724,
      "ĠÑĪ": 725,
      "Ð¼Ð¾Ð¶": 726,
      "ĠÑģÐ²Ð¾": 727,
      "###": 728,
      "ÐºÑĤ": 729,
      "ĠÐ´ÑĢÑĥÐ³": 730,
      "()": 731,
      "ers": 732,
      "ĠÐł": 733,
      "ÑĥÐ¶": 734,
      "Ð¾Ð·Ð´": 735,
      "Ð½Ð¾Ð¼": 736,
      "Ð°Ð¿ÑĢ": 737,
      "ÑĤÐµÑĢ": 738,
      "Ġ{": 739,
      "Ð½ÑĥÑİ": 740,
      "ort": 741,
      "Ð¸Ð³": 742,
      "ĠÐľ": 743,
      "ĠÐ±ÑĭÑĤÑĮ": 744,
      "ĊĠĠĠĠĠĠĠĠĠĠĠ": 745,
      "Ðĺ": 746,
      "Ñĳ": 747,
      "ap": 748,
      "Ġ'": 749,
      "ĠÐºÐ¾Ð»": 750,
      "ĠD": 751,
      "Ð½ÑĭÐ¼Ð¸": 752,
      "Ð´Ñĥ": 753,
      "ci": 754,
      "Ð³Ð¾": 755,
      "),": 756,
      "ess": 757,
      "ĠÐºÐ°Ð¶Ð´": 758,
      "Ð°ÐµÑĤÑģÑı": 759,
      "int": 760,
      "Ġpro": 761,
      "ÐµÑģÑĤÐ²Ð¾": 762,
      "Ð°Ð»Ð¸Ð·": 763,
      "ĠÐ´Ð°Ð½Ð½ÑĭÑħ": 764,
      "----": 765,
      "ĠÐ·Ð½Ð°Ñĩ": 766,
      "Ð¸Ð»ÑĮ": 767,
      "ÐºÑĨÐ¸": 768,
      "Ð¾Ð³Ð´Ð°": 769,
      "ÐµÑģÑģ": 770,
      "ĠÐ¿Ð»": 771,
      "se": 772,
      "Ġ5": 773,
      "ĠB": 774,
      "ĠÐ´Ð¾Ð»": 775,
      "ĠÐ·Ð°": 776,
      "Ð»ÐµÐ¼": 777,
      "ÑĤÐ¸": 778,
      "ĠÐºÐ¾ÑĤÐ¾ÑĢÑĭÐµ": 779,
      "end": 780,
      "ÑĥÑģ": 781,
      "Ð¸Ð¿": 782,
      "res": 783,
      "ĠÐ±ÑĥÐ´": 784,
      "Ð¾Ñı": 785,
      "text": 786,
      "est": 787,
      "ĠÐ´Ð²": 788,
      "ĊĠ": 789,
      "Ð¸ÑĩÐµÑģÐºÐ¸": 790,
      "Ð´Ðµ": 791,
      "Ð¾Ð»ÑĮÐºÐ¾": 792,
      "Ð¶Ðµ": 793,
      "ÑĢÐ°Ð¼": 794,
      "Ð¾Ð»ÑĮÑĪ": 795,
      "ÑĥÐ¿": 796,
      "ĠÐ¿Ð¾ÑģÐ»": 797,
      "Ġun": 798,
      "Ġis": 799,
      "pl": 800,
      "ĠÐ·Ð°Ð´": 801,
      "ow": 802,
      "ĠÐ¿ÑĢÐ¸": 803,
      "ĠM": 804,
      "ĠÐ»Ñİ": 805,
      "Ġyou": 806,
      "ĠÐ¸Ñħ": 807,
      "iz": 808,
      "Ġ/": 809,
      "Ð°ÐµÐ¼": 810,
      "ist": 811,
      "ĠÑĢÐ°Ð±Ð¾ÑĤ": 812,
      "ĠÐ¼Ð¾Ð³ÑĥÑĤ": 813,
      "ÑĬ": 814,
      "ĠÐ¼Ð¾Ð´": 815,
      "Ñį": 816,
      "ĠÐµÐ³Ð¾": 817,
      "pt": 818,
      "ĠÐ²ÑĢÐµÐ¼": 819,
      "Ġ<": 820,
      "ect": 821,
      "ĠE": 822,
      "ÑĥÐ»ÑĮ": 823,
      "ÑĢÐ¾Ðº": 824,
      "ĠÐ¾Ð±ÑĢÐ°Ð·": 825,
      "Ġk": 826,
      "ith": 827,
      "ata": 828,
      "ĠÑĤÐ¾Ñĩ": 829,
      "ĠÐŃÑĤÐ¾": 830,
      "Ġr": 831,
      "ÑĥÑİÑī": 832,
      "ÑģÑĤÑĮ": 833,
      "Ð°ÑĨÐ¸Ñı": 834,
      "Ð¾Ñī": 835,
      "ame": 836,
      "ÐºÑĢ": 837,
      "ÑĢÐ¸": 838,
      "ÑıÐ·": 839,
      "ÑģÑĤÐ°Ð²": 840,
      "Ð°ÑģÑģ": 841,
      "ĠÑĩÐ¸ÑģÐ»": 842,
      "ÑĢÐ°Ð±Ð¾ÑĤ": 843,
      "ÑĤÐ¾ÑĢ": 844,
      "if": 845,
      "ÑĥÐµÑĤ": 846,
      "Ð¾Ð»ÐµÐµ": 847,
      "^{": 848,
      "ķÑģÐ»Ð¸": 849,
      "ir": 850,
      "Ð¸Ð¶": 851,
      "ÐºÐµ": 852,
      "ÑĢÐ°Ð¶": 853,
      "Ð²Ð»Ñı": 854,
      "Ð»ÐµÐ½": 855,
      "ĠR": 856,
      "Ð¸Ð¼Ð¸": 857,
      "ĠÐ£": 858,
      "Ð°ÑİÑī": 859,
      "ÑĥÐ½ÐºÑĨÐ¸": 860,
      "Ð»Ð¸Ñĩ": 861,
      "de": 862,
      "ter": 863,
      "ÐºÐ»ÑİÑĩ": 864,
      "ue": 865,
      "ĠÐ´Ð¾ÑģÑĤ": 866,
      "ĠN": 867,
      "ĠÑĢÐµÑĪ": 868,
      "ĠÐ²Ð°ÑĪ": 869,
      "Ð¸ÑģÑĤÐµÐ¼": 870,
      "Ð´ÐµÐ»": 871,
      "ĠF": 872,
      "ĠÐ²ÐµÑĢ": 873,
      "ĠÐºÐ¾Ð»Ð¸Ñĩ": 874,
      "ĠL": 875,
      "Ð¾ÑĤÑĢ": 876,
      "ĠÐ¼Ð¾Ð¶Ð½Ð¾": 877,
      "Ð²Ð¾Ð»": 878,
      "ĠÐ²Ð¾Ð·Ð¼Ð¾Ð¶": 879,
      "ver": 880,
      "ĠÐ¿Ð¾Ð²": 881,
      "ĠÑĩÐ°ÑģÑĤ": 882,
      "Ð°Ð¹ÑĤÐµ": 883,
      "ÐµÐ»Ð¸": 884,
      "ĠÐĹ": 885,
      "ĠÐ´Ð¾Ð»Ð¶": 886,
      "ĠÑĢÐ°Ð²": 887,
      "..": 888,
      "Ġ[": 889,
      "ÐµÐ´Ð¾Ð²": 890,
      "Ð¼ÐµÐ½": 891,
      "ÐºÐ¾Ð²": 892,
      "ÑĥÐ»ÑĮÑĤ": 893,
      "ĠÑĥÑĩ": 894,
      "ment": 895,
      "Ġen": 896,
      "ĠÑıÐ²Ð»Ñı": 897,
      "Ð¸ÑĨÐ¸": 898,
      "ĠÐ¾Ð¿ÑĢÐµÐ´ÐµÐ»": 899,
      "ma": 900,
      "ÑĦÑĦ": 901,
      "ĠÐ´Ð¾": 902,
      "):": 903,
      "Ġla": 904,
      "Ð°Ð½Ð¾Ð²": 905,
      "ÑģÑĤÑĢ": 906,
      "Ðł": 907,
      "Ġ}": 908,
      "ĠÑģÐ¾Ð·Ð´": 909,
      "ÐµÑģÐº": 910,
      "Ġ#": 911,
      "up": 912,
      "ĠÐĲ": 913,
      "to": 914,
      "ĠÐ¿Ð¾Ð·": 915,
      "ÑıÑĤÑĮ": 916,
      "Ġal": 917,
      "ĠÐ±Ð¾Ð»ÑĮÑĪ": 918,
      "_{": 919,
      "Ð°ÑĤÑĮÑģÑı": 920,
      "ve": 921,
      "ĠÐ´ÐµÐ»": 922,
      "ÑĦÐ¾ÑĢÐ¼": 923,
      "ĠÑĤÐ¾": 924,
      "ÐĲ": 925,
      "ĠÐ²ÑģÐµ": 926,
      "\\[": 927,
      "pe": 928,
      "ĠÐ¼ÐµÑĤ": 929,
      "ĠÐ½Ð¾Ð²": 930,
      "all": 931,
      "ÑĤÐ¾Ð¼": 932,
      "ĠÐ±Ð¾Ð»ÐµÐµ": 933,
      "ÑĢÐ¾Ñģ": 934,
      "Ġas": 935,
      "Ð²Ð¾Ð´": 936,
      "ÐµÐ¹ÑģÑĤÐ²": 937,
      "ĠÐ½Ð¾": 938,
      "ĠÐ¼Ð½": 939,
      "Ð°Ð¿ÑĢÐ¸Ð¼ÐµÑĢ": 940,
      "ÑĥÐ³": 941,
      "Ð¸ÑĢÑĥ": 942,
      "Ð»ÐµÐ½Ð¸Ñı": 943,
      "ĠÐ¾Ðº": 944,
      "oc": 945,
      "ĠÑģÐ¸ÑģÑĤÐµÐ¼": 946,
      "ĠÐºÐ¾Ð¼Ð¿": 947,
      "ft": 948,
      "Ġ6": 949,
      ");": 950,
      "ĠÐµÑģÐ»Ð¸": 951,
      "ÑĥÑĩÑĪ": 952,
      "Ð¾ÑģÑĤÐ°Ð²": 953,
      "Ġwith": 954,
      "\",": 955,
      "ÑĥÐ±": 956,
      "ay": 957,
      "ile": 958,
      "ine": 959,
      "ÐµÐ¶Ð´Ñĥ": 960,
      "omp": 961,
      "ĠÐ²Ð½": 962,
      "ĠÐ¿ÑĢÐ°Ð²": 963,
      "ĠÐºÐ»": 964,
      "ĠÐ¾ÑģÐ½Ð¾Ð²": 965,
      "Ġor": 966,
      "yth": 967,
      "Ð¾ÑģÑĤÑĮ": 968,
      "ĠÑĦÑĥÐ½ÐºÑĨÐ¸": 969,
      "ĠÐ¿ÑĢÐ¾Ð´": 970,
      "ĠÐ¾Ð±Ñī": 971,
      "Ð¾ÑģÑĤÐ¸": 972,
      "art": 973,
      "10": 974,
      "ĠG": 975,
      "ĠÐ¿Ð¾Ðº": 976,
      "ĠÐŁÑĢ": 977,
      "Ð·Ñĭ": 978,
      "ĠÑĨÐµÐ»": 979,
      "ĠÑĤÐ°ÐºÐ¶Ðµ": 980,
      "age": 981,
      "Ġon": 982,
      "ĠÐ¼Ñĭ": 983,
      "ĠÑįÐº": 984,
      "ÐŁÑĢ": 985,
      "Ġif": 986,
      "ython": 987,
      "ÑıÐµÑĤ": 988,
      "Ð³ÑĢ": 989,
      "ĠÑģÐ»ÐµÐ´": 990,
      "ĊĊĠĠĠ": 991,
      "Ð¼Ð°": 992,
      "ĠÐ¿Ð¾Ð»ÑĥÑĩ": 993,
      "Ðľ": 994,
      "ult": 995,
      "ĠÐ·Ð°Ð´Ð°Ñĩ": 996,
      "ĠÐ¼ÐµÐ¶Ð´Ñĥ": 997,
      "Ð°Ð½ÑĤ": 998,
      "ÐµÐ½Ð¸Ð¸": 999,
      "Ð¾Ð»Ð¾Ð³": 1000,
      "rt": 1001,
      "ity": 1002,
      "dot": 1003,
      "ÐµÑģÑĮ": 1004,
      "ÐµÐ½ÑĤÐ¾Ð²": 1005,
      "ÑĭÐ¼": 1006,
      "rom": 1007,
      "ĠÐµÑģÑĤÑĮ": 1008,
      "ĠÐ²ÑĭÐ¿": 1009,
      "ÑĭÑĤ": 1010,
      "Ġex": 1011,
      "ĠÐĳ": 1012,
      "ÑıÐ¼": 1013,
      "ĠÐ°Ð½": 1014,
      "ÑĢÐ°Ð²Ð½": 1015,
      "ĠÑĥÐ´": 1016,
      "for": 1017,
      "rig": 1018,
      "ĠÐķÑģÐ»Ð¸": 1019,
      "ĠÐ¿ÑĢÐ¸Ð²": 1020,
      "ÑĢÑĥÐ¶": 1021,
      "ĠÐºÐ¾ÑĤÐ¾ÑĢÑĭÐ¹": 1022,
      "ÑģÑĤÐ²Ð°": 1023,
      "ath": 1024,
      "Ð»Ð°": 1025,
      "ĠÐºÐ¾ÑĢ": 1026,
      "ĠH": 1027,
      "Ð¾ÑģÐ¾Ð±": 1028,
      "Ġ*": 1029,
      "ĠÐ²ÑĭÐ±": 1030,
      "ĠÐ²ÐºÐ»ÑİÑĩ": 1031,
      "ĠÑĥÑģÐ»": 1032,
      "Ġ|": 1033,
      "put": 1034,
      "Ġ10": 1035,
      "ĠÑģÐº": 1036,
      "ĠÐ²Ð¸Ð´": 1037,
      "ĠÐ¿ÑĢÐ¾Ð²": 1038,
      "Ġqu": 1039,
      "ÑģÑĤÐ²ÐµÐ½": 1040,
      "Ð»ÐµÐ½Ð¸Ðµ": 1041,
      "\\]": 1042,
      "ĠÐºÐ¾Ð»Ð¸ÑĩÐµÑģÑĤÐ²Ð¾": 1043,
      "ÑħÐ¾Ð´Ð¸Ð¼": 1044,
      "Ġan": 1045,
      "ĠÐ¿ÑĢÐ¾Ð³": 1046,
      "Ġse": 1047,
      "ĠÑĥÐ¿": 1048,
      "ÑĥÑīÐµÑģÑĤÐ²": 1049,
      "mport": 1050,
      "og": 1051,
      "ĠÑĤÐµÐº": 1052,
      "ÐµÑģÐ¿": 1053,
      "ÐµÐ½Ð¸Ñİ": 1054,
      "Ġ\\).": 1055,
      "ĠÐ±ÑĥÐ´ÐµÑĤ": 1056,
      "li": 1057,
      "Ð¼ÐµÑĢ": 1058,
      "Ð½Ñı": 1059,
      "ĠO": 1060,
      "Ð¸ÑĪ": 1061,
      "ĠÑĢÐµ": 1062,
      "Ð¸ÑĤÑģÑı": 1063,
      "Ġdi": 1064,
      "ew": 1065,
      "Ġbe": 1066,
      "elf": 1067,
      "ĠÑģÑĤÑĢÐ¾Ðº": 1068,
      "Ð¾Ð´Ð°": 1069,
      "ĠÐ¿ÑĢÐ¾ÑĨ": 1070,
      "sq": 1071,
      "Ð¸Ð½Ð¸Ð¼": 1072,
      "con": 1073,
      "ĠÐ¾Ð±ÑĬ": 1074,
      "ĠÐ¿ÑĢÐ¾Ð¸Ð·": 1075,
      "right": 1076,
      "Ð¾ÑıÐ½": 1077,
      "ĠÐ½Ð°Ñĩ": 1078,
      "ub": 1079,
      "ĠÐ±ÐµÐ·": 1080,
      "Ġ\\),": 1081,
      "ĠÑıÐ²Ð»ÑıÐµÑĤÑģÑı": 1082,
      "ÐµÐºÑĤÐ¸Ð²": 1083,
      "ĠÐ¸Ð¼Ðµ": 1084,
      "ĠÐ½ÑĥÐ¶": 1085,
      "Ð¹ÑĤÐµ": 1086,
      "ĠÑĢÐµÐ·": 1087,
      "Ġit": 1088,
      "op": 1089,
      "ĠÐ¾Ð½": 1090,
      "ĠÑģÐ¿Ð¾ÑģÐ¾Ð±": 1091,
      "ĠÐ¾Ð±ÑĢÐ°Ð·Ð¾Ð¼": 1092,
      "ĠÑģÑĢÐµÐ´": 1093,
      "Ġthat": 1094,
      "ĠÐ¿ÑĢÐ¾ÑģÑĤ": 1095,
      "ere": 1096,
      "Ð°Ð»Ð°": 1097,
      "cl": 1098,
      "Ð²ÐµÑĢ": 1099,
      "ĠÐ»ÑİÐ±": 1100,
      "ĠÑĢÐ°Ð·Ð»Ð¸Ñĩ": 1101,
      "urn": 1102,
      "ure": 1103,
      "Ð¿ÑĢ": 1104,
      "Ð¸Ñİ": 1105,
      "Ã³": 1106,
      "Ð°ÑĤÐµÐ»": 1107,
      "Ġus": 1108,
      "ĠÑĩÐµÑĢ": 1109,
      "ĠĠĠĠĠĠĠ": 1110,
      "ĠÑģÐ²ÑıÐ·": 1111,
      "ag": 1112,
      "ĠÑģÐ°Ð¼": 1113,
      "ction": 1114,
      "odel": 1115,
      "',": 1116,
      "ĠÐºÑĢ": 1117,
      "ÑĥÐ»Ñı": 1118,
      "ore": 1119,
      "Ð°ÑĢÑĤ": 1120,
      "ĠÑģÑĥÐ¼": 1121,
      "ÐµÑĤÑĮ": 1122,
      "ĠÐ·Ð°Ð²": 1123,
      "ÑģÑĤÐ²Ð¾": 1124,
      "Ð°Ð½Ð´": 1125,
      "ĠÐºÐ¾Ð½ÑĤ": 1126,
      "ĠÐ¸Ð½ÑĤÐµÑĢ": 1127,
      "ĠÐ³Ð´Ðµ": 1128,
      "oun": 1129,
      "ĠÐ¸ÑģÐ¿Ð¾Ð»ÑĮÐ·Ñĥ": 1130,
      "Ġret": 1131,
      "Ġwh": 1132,
      "ĠÐ·Ð°Ð¿": 1133,
      "ĠÐ¸Ð·Ð¼ÐµÐ½": 1134,
      "ĠÐ²ÑĭÐ¿Ð¾Ð»Ð½": 1135,
      "ãģ": 1136,
      "ĠÑĦÐ¾ÑĢÐ¼": 1137,
      "Ġle": 1138,
      "Ð¾Ð±ÑħÐ¾Ð´Ð¸Ð¼": 1139,
      "ĠÐ¸ÑģÐ¿Ð¾Ð»ÑĮÐ·Ð¾Ð²Ð°ÑĤÑĮ": 1140,
      "sqrt": 1141,
      "ÐŃ": 1142,
      "Ġel": 1143,
      "cdot": 1144,
      "ĠÑįÐ»ÐµÐ¼": 1145,
      "ud": 1146,
      "ÐµÐ½ÑĤÑĭ": 1147,
      "Â»": 1148,
      "Â«": 1149,
      "ĠW": 1150,
      "ĠÐ·Ð°Ðº": 1151,
      "Ð¾ÑĢÑĤ": 1152,
      "ÑĮÑİ": 1153,
      "are": 1154,
      "ain": 1155,
      "Ð°Ð»Ð¸": 1156,
      "ÐµÑī": 1157,
      "ÑĥÐ»ÑĮÑĤÐ°ÑĤ": 1158,
      "ĠÑģÐ¾Ð±": 1159,
      "Ð¾Ð±Ð°Ð²": 1160,
      "ĠÐ¸Ñģ": 1161,
      "ĠÐĵ": 1162,
      "ke": 1163,
      "ÑĨÐ¸Ð¹": 1164,
      "ind": 1165,
      "ĠÑıÐ·Ñĭ": 1166,
      "Ġcan": 1167,
      "ass": 1168,
      "ĠÐ¿ÑĢÐ¸Ð¼ÐµÑĢ": 1169,
      "Ð¼Ñĭ": 1170,
      "Ð·Ð°": 1171,
      "ĠÐ¿Ð¾Ð·Ð²Ð¾Ð»": 1172,
      "ly": 1173,
      "ĠU": 1174,
      "ĠÐ±Ð»": 1175,
      "Ġ\\]": 1176,
      "ĠÐ¿ÑĢÐ¾Ð±": 1177,
      "ord": 1178,
      "pro": 1179,
      "ĠÑĤÐµÐ¼": 1180,
      "Ð¸ÑĤÑĮÑģÑı": 1181,
      "Ð¸ÐºÐ¸": 1182,
      "ĠÐ²ÑĢÐµÐ¼Ñı": 1183,
      "ÑĨÐ¸Ð°Ð»ÑĮ": 1184,
      "ĠÑįÑĦÑĦ": 1185,
      "ĠÐ¿Ð¾Ð½": 1186,
      "ĠÐŀÐ±": 1187,
      "ĠÐ½ÐµÐ¾Ð±ÑħÐ¾Ð´Ð¸Ð¼": 1188,
      "Ð½Ð°Ðº": 1189,
      "Ð¸ÑĢÐ¾Ð²Ð°ÑĤÑĮ": 1190,
      "ÑģÑĤÐ°Ð½Ð¾Ð²": 1191,
      "Ð»Ð¾Ð¶": 1192,
      "ĠÑģÐ¾Ð²": 1193,
      "Ð´Ð¸Ð½": 1194,
      "ĠÐ³Ð»": 1195,
      "ĠÐ¾Ð±ÑĥÑĩ": 1196,
      "Ð½ÐµÑĢ": 1197,
      "io": 1198,
      "ÐµÐ½Ð¸ÐµÐ¼": 1199,
      "ĠÐ¿ÑĢÐ¾ÑĨÐµÑģÑģ": 1200,
      "Ð¸Ð»Ð¸": 1201,
      "ĠÑĥÑģÐ»Ð¾Ð²": 1202,
      "Ġreturn": 1203,
      "ĠÑģÐµÑĢ": 1204,
      "ĠÑģÐ¾Ð¾ÑĤ": 1205,
      "ĠÐ¸ÑģÑĤ": 1206,
      "ÑĨÐµÐ½": 1207,
      "ÑĮÑĤÐµ": 1208,
      "ĠÑģÐ»ÐµÐ´ÑĥÑİÑī": 1209,
      "ĠÐ¸Ð½ÑĦÐ¾ÑĢÐ¼": 1210,
      "Ġj": 1211,
      "ÑĥÐ³Ð¾Ð»ÑĮ": 1212,
      "ĠÐ²Ð°Ð¶": 1213,
      "ĠÐ¿Ð¾ÑĤ": 1214,
      "ĠÐ½ÐµÑģÐº": 1215,
      "Ġ8": 1216,
      "ÑĥÑİÑĤ": 1217,
      "tim": 1218,
      "ÐµÐ»Ð¾Ð²": 1219,
      "Ð£": 1220,
      "ÑĭÑĩ": 1221,
      "ĠÑĢÐµÐ·ÑĥÐ»ÑĮÑĤÐ°ÑĤ": 1222,
      "Ð°ÑĨÐ¸Ñİ": 1223,
      "ÑĢÐ°Ñī": 1224,
      "able": 1225,
      "ĠÐ½Ð°Ð¿": 1226,
      "ĠÐ¿ÐµÑĢÐ²": 1227,
      "ĠÑģÐ»ÑĥÑĩ": 1228,
      "Ð¸ÑĢÐ¾Ð²Ð°Ð½": 1229,
      "Ð°Ð½Ð¸Ð¸": 1230,
      "Ð¾Ð´Ñĭ": 1231,
      "ÐµÑģÐ¿ÐµÑĩ": 1232,
      "ĠÐ¿Ð¾Ð´ÑħÐ¾Ð´": 1233,
      "ÑĭÑĪ": 1234,
      "ÐµÐ½Ð½ÑĭÑħ": 1235,
      "Ġ7": 1236,
      "ĠÐ½Ð°Ð¹": 1237,
      "Ð»ÐµÐºÑĤ": 1238,
      "rint": 1239,
      "Ð»Ð¾": 1240,
      "ĠÐ¾Ð½Ð¸": 1241,
      "left": 1242,
      "per": 1243,
      "Ġch": 1244,
      "__": 1245,
      "ĠÂ«": 1246,
      "}\\": 1247,
      "form": 1248,
      "ÑĨÐ°": 1249,
      "Ð¾Ð»ÑĮÐ·Ð¾Ð²": 1250,
      "ÐµÐ½ÑĮÑĪ": 1251,
      "Ġcomp": 1252,
      "))": 1253,
      "ĠÐ»Ð¸": 1254,
      "ĠÐĶÐ»Ñı": 1255,
      "Ð¾Ð¼Ñĥ": 1256,
      "Ġcom": 1257,
      "ÑİÑĤÑģÑı": 1258,
      "ost": 1259,
      "Ð¾ÑĢÐ¾": 1260,
      "ĠÑĤÐµÑħ": 1261,
      "ÑĨÐ¸Ð¸": 1262,
      "bo": 1263,
      "yst": 1264,
      "ack": 1265,
      "Ð´ÐµÑĢÐ¶": 1266,
      "eg": 1267,
      "ĊĠĠĠĠĠĠĠĠĠĠĠĠĠĠĠ": 1268,
      "ĠÐ¾ÑĤÐ²ÐµÑĤ": 1269,
      "Ð¼Ð¾ÑĤÑĢ": 1270,
      "ĠÐ½ÑĥÐ¶Ð½Ð¾": 1271,
      "20": 1272,
      "ran": 1273,
      "ĠÐ¾Ð±Ð»": 1274,
      "ĠÐ¤": 1275,
      "ust": 1276,
      "ies": 1277,
      "Ġres": 1278,
      "ÐµÐ½Ñĭ": 1279,
      "cess": 1280,
      "ĠÑĤÐ¾Ð»ÑĮÐºÐ¾": 1281,
      "ÐµÐ±Ñı": 1282,
      "ĠÐ°Ð²": 1283,
      "Ð°ÐºÑĤ": 1284,
      "ip": 1285,
      "ĠÐ²ÑģÐµÑħ": 1286,
      "ĠÐ¿Ð°ÑĢ": 1287,
      "Ð°Ð·ÑĭÐ²": 1288,
      "Ð°ÐºÐ¸Ð¼": 1289,
      "ÑģÑĤÑĢÑĥ": 1290,
      "ĠÐ¿ÑĢÐµÐ´ÑģÑĤÐ°Ð²": 1291,
      "ÐµÑģÑĤÐ²Ð°": 1292,
      "ĠÑĥÐ²": 1293,
      "ĠÑģÐ»Ð¾Ð²": 1294,
      "ĠÐ¾Ð±ÐµÑģÐ¿ÐµÑĩ": 1295,
      "ÑıÐ´": 1296,
      "ĠÑģÐ¾Ð¾ÑĤÐ²ÐµÑĤ": 1297,
      "av": 1298,
      "ep": 1299,
      "Ð¸ÑĩÐµÑģÐºÐ¸Ðµ": 1300,
      "ions": 1301,
      "ial": 1302,
      "Ġ20": 1303,
      "=\"": 1304,
      "Ð¾ÑĤÐ¾Ð²": 1305,
      "ĠÐ¾ÑĢ": 1306,
      "our": 1307,
      "ĠÑĥÐ»": 1308,
      "(\"": 1309,
      "ÑĥÐ³Ð¾Ð»ÑĮÐ½Ð¸Ðº": 1310,
      "Ð°ÑİÑĤÑģÑı": 1311,
      "out": 1312,
      "Ð§": 1313,
      "ÑĢÑĥÐ¿": 1314,
      "Ġ9": 1315,
      "ÐµÐ¼Ñĥ": 1316,
      "Ð¾Ð´ÐµÑĢÐ¶": 1317,
      "ive": 1318,
      "Ð¸ÑĦ": 1319,
      "ph": 1320,
      "ode": 1321,
      "ÐµÐ´Ð¾Ð²Ð°ÑĤÐµÐ»ÑĮ": 1322,
      "ÑĢÐ°ÑĦ": 1323,
      "ĠÐ¶Ð¸Ð·": 1324,
      "ÐµÐ½Ð½Ð¾": 1325,
      "ĠÐ²ÑĭÑģ": 1326,
      "ystem": 1327,
      "'s": 1328,
      "ĠÑĩÐµÐ»Ð¾Ð²": 1329,
      "ĠÐºÐ¾": 1330,
      "Ð¸ÐºÐ°": 1331,
      "Ġper": 1332,
      "ĠÐ¼Ð°ÑĤ": 1333,
      "Ð²ÐµÐ´": 1334,
      "Ġyour": 1335,
      "get": 1336,
      "act": 1337,
      "ĠÑĤÑĢÐµÐ±": 1338,
      "ĠÑĤÐµÐºÑģÑĤ": 1339,
      "ĠÑĩÐµÑĢÐµÐ·": 1340,
      "ĠÑįÑĦÑĦÐµÐºÑĤÐ¸Ð²": 1341,
      "\\).": 1342,
      "ĠÐ¿ÑĢÐ¾Ð³ÑĢÐ°Ð¼": 1343,
      "der": 1344,
      "ÐµÐ½Ð½ÑĭÐµ": 1345,
      "ĠÑģÐ¾Ð´ÐµÑĢÐ¶": 1346,
      "ĠÐĽ": 1347,
      "Ð¾ÑĢÐ¾Ð²": 1348,
      "Ġare": 1349,
      "ĠÑĤÐ¾Ð³Ð¾": 1350,
      "ĠÐ¼ÐµÐ½": 1351,
      "ĠÐ¿ÑĥÑĤ": 1352,
      "ĠÐºÐ¾Ð³Ð´Ð°": 1353,
      "ÑĢÐ¾Ð½": 1354,
      "Ġdel": 1355,
      "ĠÐ²Ð°Ð¼": 1356,
      "ĠÐºÐ²": 1357,
      "ĠÐ¿ÑĢÐ¾Ð±Ð»ÐµÐ¼": 1358,
      "Ð¾Ð²Ð°ÑĤÑĮ": 1359,
      "ĠÐ¿Ð¾Ð¼Ð¾Ñī": 1360,
      "ÑĨÑĭ": 1361,
      "ÑĩÐ¸ÑĤ": 1362,
      "ĠÐ³Ð¾ÑĢ": 1363,
      "ÐĹ": 1364,
      "ĠÐ¿Ð¾Ð¿": 1365,
      "ĠÐ»ÑİÐ´": 1366,
      "ff": 1367,
      "ÐµÑģÑĤÐ¸": 1368,
      "Ð¾Ð±ÑĢÐ°Ð·": 1369,
      "ĠÑģÐ¾ÑģÑĤ": 1370,
      "mple": 1371,
      "Ð¸ÑĩÐµÑģÐºÐ¸Ñħ": 1372,
      "ĠÑĥÑĢÐ°Ð²Ð½": 1373,
      "ĠÐ¿Ð¾Ð»ÑĮÐ·Ð¾Ð²": 1374,
      "Ġ\\(\\": 1375,
      "ĠÐ¼ÐµÑģÑĤ": 1376,
      "ÑĥÑħ": 1377,
      "ĠÑĥÐ³": 1378,
      "ĠÑĢÐ°Ð·ÑĢÐ°Ð±Ð¾ÑĤ": 1379,
      "-----": 1380,
      "ÐºÐ¸Ñħ": 1381,
      "ĠÐ´ÐµÐ¹ÑģÑĤÐ²": 1382,
      "Ð»ÑıÐµÑĤ": 1383,
      "ÑĩÐµÑĤ": 1384,
      "ÑĤÐ°": 1385,
      "Ġcont": 1386,
      "Ð¿ÑĢÐµÐ´ÐµÐ»": 1387,
      "ĠÐ¾ÑĤÐ½Ð¾": 1388,
      "ice": 1389,
      "ÑĢÐ°Ðº": 1390,
      "ÑıÑģ": 1391,
      "Ð¾Ð½Ð°Ð»ÑĮ": 1392,
      "Ðĳ": 1393,
      "Ð°ÐºÑģ": 1394,
      "ĠÐ°Ð»": 1395,
      "ĠÐ¿ÑĢÐ¾Ð²ÐµÑĢ": 1396,
      "Ġ\\[": 1397,
      "Ð²Ð¾ÑĢ": 1398,
      "val": 1399,
      "000": 1400,
      "ĠÑģÐ¾Ð¾ÑĤÐ²ÐµÑĤÑģÑĤÐ²": 1401,
      "ight": 1402,
      "Ð°Ð½Ð¸Ð·": 1403,
      "ĠÐ¿Ð¾ÑģÑĤ": 1404,
      "Ð¸Ð½Ð°": 1405,
      "ach": 1406,
      "ĠThe": 1407,
      "ĠÐ´Ð°Ð½Ð½ÑĭÐµ": 1408,
      "ĠÐ´Ð¾Ð±Ð°Ð²": 1409,
      "Ð½ÐµÐ¹": 1410,
      "Ġ>": 1411,
      "Ð¸ÑĤÐµÐ»": 1412,
      "Ġma": 1413,
      "Ð¾Ð½Ð¾Ð¼": 1414,
      "Ð¾ÑĢÐ°": 1415,
      "Ð¿ÐµÑĢ": 1416,
      "str": 1417,
      "python": 1418,
      "ase": 1419,
      "12": 1420,
      "ĠÑģÑĥÑīÐµÑģÑĤÐ²": 1421,
      "ĠÑĦÐ°Ð¹": 1422,
      "ĠÐ¿ÑĢÐµ": 1423,
      "cri": 1424,
      "ĠV": 1425,
      "Ã³n": 1426,
      "Ð»ÐµÐº": 1427,
      "ĠIn": 1428,
      "Ð¾ÑĢÐ¸ÑĤ": 1429,
      "ĠÑĢÐ°Ð·Ð²": 1430,
      "Ðĵ": 1431,
      "ĠÐ¿Ð¾Ð´Ð´ÐµÑĢÐ¶": 1432,
      "ĠÐ¾ÑģÑĤ": 1433,
      "Ð¿Ð¾Ð»": 1434,
      "Ð¾Ð¿ÑĢÐ¾Ñģ": 1435,
      "ÑĥÑģÑĤ": 1436,
      "Ġad": 1437,
      "ÐµÐ½Ð°": 1438,
      "ÐµÑĤÑĢ": 1439,
      "la": 1440,
      "ang": 1441,
      "ĠÐºÐ¾ÑĤÐ¾ÑĢÐ°Ñı": 1442,
      "ÐµÐºÐ¾ÑĤÐ¾ÑĢ": 1443,
      "Ġ```": 1444,
      "ÑĢÑĥÐ´": 1445,
      "ĠÑĩÐ¸ÑģÐ»Ð°": 1446,
      "Ð¸Ð½Ð³": 1447,
      "ĠÐ¿Ð¾ÑģÐ»Ðµ": 1448,
      "ĠÑģÐ»Ð¾Ð¶": 1449,
      "ĠÑĥÐ»ÑĥÑĩÑĪ": 1450,
      "ens": 1451,
      "ÑıÐ¼Ð¸": 1452,
      "ÑĥÐº": 1453,
      "ĠÐ¾ÐºÑĢÑĥÐ¶": 1454,
      "ec": 1455,
      "\")": 1456,
      "Ġap": 1457,
      "ia": 1458,
      "ĠÐ´Ð¾ÑģÑĤÑĥÐ¿": 1459,
      "`,": 1460,
      "ÑĭÐ¼Ð¸": 1461,
      "Ð»Ðµ": 1462,
      "du": 1463,
      "ĠÐ´Ð¸": 1464,
      "ĠÐ·Ð´": 1465,
      "ĠÐĺÑģÐ¿Ð¾Ð»ÑĮÐ·": 1466,
      "ÑħÑĢÐ°Ð½": 1467,
      "ĠÐ½ÐµÑģÐºÐ¾Ð»ÑĮÐºÐ¾": 1468,
      "row": 1469,
      "ĠÑĥÐ¼": 1470,
      "ĠÐĴÑĭ": 1471,
      "ĠÐºÐ°Ð¶Ð´Ð¾Ð³Ð¾": 1472,
      "ÑĥÑĢÑģ": 1473,
      "ĠÑģÐ´ÐµÐ»": 1474,
      "ĠÐ¿Ð¾ÑĢ": 1475,
      "ĠÐ¸Ð¼ÐµÐµÑĤ": 1476,
      "Ġsu": 1477,
      "ÑĥÐ»ÑıÑĢ": 1478,
      "ĠÑģÐ¸Ð¼": 1479,
      "`.": 1480,
      "ard": 1481,
      "Ð°Ð½Ð¸Ð¹": 1482,
      "ĠÑĤÐ°ÐºÐ¸Ðµ": 1483,
      "ĠÐ·Ð°Ð²Ð¸Ñģ": 1484,
      "Ġself": 1485,
      "Ð¾Ð²Ð°Ð½Ð¸Ðµ": 1486,
      "ĠÑĪÐ°Ð³": 1487,
      "{(": 1488,
      "Ð¾ÑıÑĤ": 1489,
      "Ð°ÑĢÐ¸": 1490,
      "Ð°Ð½Ñģ": 1491,
      "\\),": 1492,
      "ĠÑĤÑĭ": 1493,
      "ĠÐ§": 1494,
      "ĠÐ¸ÑģÐº": 1495,
      "ĠÐ¿ÐµÑĢÐµÐ´": 1496,
      "Ð½Ðµ": 1497,
      "ÐµÑĢÐ°": 1498,
      "ĠÑģÐ¼": 1499,
      "ĠÐ¿ÑĢÐ¾ÑĤ": 1500,
      "Ð½ÐµÑĢÐ³": 1501,
      "ĠÐ¿Ð¾Ð¼Ð¾Ð³": 1502,
      "ÐµÐ´Ð¸Ð½": 1503,
      "ÐµÐ½ÑĤÐ°": 1504,
      "('": 1505,
      "Ð¾ÑĩÑĮ": 1506,
      "red": 1507,
      "Ð¸Ð¼Ð°Ð»ÑĮ": 1508,
      "ĠÐ²ÑħÐ¾Ð´": 1509,
      "ld": 1510,
      "ĠÐºÐ°Ñĩ": 1511,
      "Ð¾Ð±Ñī": 1512,
      "Ġpar": 1513,
      "Ġ//": 1514,
      "In": 1515,
      "ĠÐ´Ð»Ð¸": 1516,
      "}}": 1517,
      "ser": 1518,
      "ÐŀÐ±": 1519,
      "ĠÐ¿Ð¾ÑģÐ»ÐµÐ´": 1520,
      "ĠÐºÐ¾Ð´": 1521,
      "ĠÑĢÐµÐ³": 1522,
      "name": 1523,
      "ÐµÐ½ÐµÑĢ": 1524,
      "ÑĢÑĥÐºÑĤ": 1525,
      "ĠÐ·Ð½Ð°ÑĩÐµÐ½Ð¸Ðµ": 1526,
      "ount": 1527,
      "Ġint": 1528,
      "rain": 1529,
      "ÐµÐ½Ð´": 1530,
      "Ð¾ÑĤÑĢÐµÐ±": 1531,
      "ÑģÑĤÑĢÐ¾Ð¹": 1532,
      "ace": 1533,
      "ĠÐ°ÐºÑĤ": 1534,
      "ĊĠĠĠĠĠĠĠĠĠĠĠĠĠĠĠĠ": 1535,
      "Ð¢Ð°ÐºÐ¸Ð¼": 1536,
      "ÑĢÑĥÐ¿Ð¿": 1537,
      "Ð¼Ñĥ": 1538,
      "ĠÐ²Ð¾": 1539,
      "ÐµÐ»Ð¸Ñĩ": 1540,
      "Ð°Ð½Ð¸Ñĩ": 1541,
      "ÐµÑĪÑĮ": 1542,
      "Ð»Ð°Ð´": 1543,
      "ations": 1544,
      "ta": 1545,
      "Ġcl": 1546,
      "ĠÐ¾Ð´Ð¸Ð½": 1547,
      "Ġnot": 1548,
      "Ð¼ÐµÑģÑĤ": 1549,
      "ĠÐ¿ÑĢÐ¾Ð¸Ð·Ð²Ð¾Ð´": 1550,
      "ĠÐ¾Ñĩ": 1551,
      "ĠÑĩÐ¸ÑģÐ»Ð¾": 1552,
      "ĠÑĤÐ°ÐºÐ¸Ñħ": 1553,
      "Ð¸Ð²Ð°ÐµÑĤ": 1554,
      "Ð¸ÑĤÐµÐ»ÑĮÐ½Ð¾": 1555,
      "\":": 1556,
      "ĠÑĥÐº": 1557,
      "Ð¸Ð½Ñĭ": 1558,
      "ÑĥÑĪ": 1559,
      "Ð²ÐµÑģÑĤ": 1560,
      "ÐĶÐ»Ñı": 1561,
      "ence": 1562,
      "times": 1563,
      "ork": 1564,
      "Ġfrom": 1565,
      "ÑĢÐ¾Ð²ÐµÑĢ": 1566,
      "Ð¾Ð¶Ð´": 1567,
      "ÐºÐ¾Ð¹": 1568,
      "ÑģÑĮ": 1569,
      "ÑĢÑĥÐ·": 1570,
      "ÐµÑĤÑĭ": 1571,
      "ĠÑĩÐµÐ»Ð¾Ð²ÐµÐº": 1572,
      "ĠÑģÐµÑĤ": 1573,
      "ÑĢÐ¾Ð±": 1574,
      "Ð°Ð½Ð¸ÐµÐ¼": 1575,
      "ÑĢÐ¾Ð¼": 1576,
      "ÑĢÐ°Ð´": 1577,
      "ĠÑĥÑĢÐ¾Ð²": 1578,
      "ÑĥÐ°Ð»ÑĮ": 1579,
      "ĠÐ²Ð¾Ð¿ÑĢÐ¾Ñģ": 1580,
      "fer": 1581,
      "ĠÐ½Ð°Ð¹ÑĤÐ¸": 1582,
      "{\\": 1583,
      "quad": 1584,
      "ĠÐºÐ»Ð¸": 1585,
      "ĠÑĥÐ¿ÑĢÐ°Ð²": 1586,
      ")^": 1587,
      "ĠÐ¼Ð¾Ð´ÐµÐ»Ð¸": 1588,
      "Ðķ": 1589,
      "ÑĥÐ²": 1590,
      "ĠÐ²Ð¾Ñģ": 1591,
      "Ġstr": 1592,
      "...": 1593,
      "ĠÐ¼Ð¸Ð½Ð¸Ð¼": 1594,
      "Ġhe": 1595,
      "ĠÐ½Ð°ÑĪ": 1596,
      "ĠÐ¿ÑĢÐ¸Ð½": 1597,
      "Ġimport": 1598,
      "ĠÐ¼ÐµÑĤÐ¾Ð´": 1599,
      "ĠÐ½Ð°Ð´": 1600,
      "low": 1601,
      "ÑıÐ½": 1602,
      "ck": 1603,
      "Ð½Ð¸Ð¼": 1604,
      "ie": 1605,
      "ĠÑĢÐ°ÑģÑģ": 1606,
      "Ð½Ð¾Ð¼Ñĥ": 1607,
      "Ġat": 1608,
      "ĠÐ·Ð°Ð¼": 1609,
      "ill": 1610,
      "ĠÐ°Ð½Ð°Ð»Ð¸Ð·": 1611,
      "Ġes": 1612,
      "ĠÑĤÐµÑħÐ½": 1613,
      "ĠÐ±Ð¾Ð»ÑĮÑĪÐµ": 1614,
      "ÑĪÐ¸Ð±": 1615,
      "ĠÑĢÐ°Ð±Ð¾ÑĤÑĭ": 1616,
      "bf": 1617,
      "ÃŃ": 1618,
      "ance": 1619,
      "ÐºÐ¸Ðµ": 1620,
      "ĠÑĢÐµÐº": 1621,
      "ÑıÑī": 1622,
      "11": 1623,
      "ĠÐ²ÑĭÐ·": 1624,
      "com": 1625,
      "ĊĊĠĠ": 1626,
      "Ð¸Ð¼ÐµÐ½": 1627,
      "ĠÐ¸Ð½ÑĤ": 1628,
      "Ġz": 1629,
      "ĠÐ¾ÑĢÐ³": 1630,
      "ĠÐĿÐ¾": 1631,
      "Ġ==": 1632,
      "tr": 1633,
      "Ġque": 1634,
      "rans": 1635,
      "ÐµÑĢÑĮ": 1636,
      "Ð»Ð¸Ð²": 1637,
      "one": 1638,
      "Ð·Ð°Ð¸Ð¼": 1639,
      "Ð¾Ð±ÑĢÐ°Ð¶": 1640,
      "ĠÑģÐµÐ±Ñı": 1641,
      "ign": 1642,
      "ĠÑģÐ¿Ð¸Ñģ": 1643,
      "ĠÐºÐ»Ð°ÑģÑģ": 1644,
      "ĠÐ¼Ð¾Ð¶ÐµÑĤÐµ": 1645,
      "Ð°ÑĤÐ¸Ð²": 1646,
      "ĠÐ¿Ð¾Ð¼Ð¾ÑĩÑĮ": 1647,
      "ange": 1648,
      "cript": 1649,
      "ÐµÐ½Ð½Ð¾Ð¹": 1650,
      "ze": 1651,
      "ĠÐ¿Ð¾Ð·Ð²Ð¾Ð»ÑıÐµÑĤ": 1652,
      "Ġval": 1653,
      "ĠÑįÐ½ÐµÑĢÐ³": 1654,
      "Ġdata": 1655,
      "Ð°Ð´ÑĢÐ°ÑĤ": 1656,
      "ÑıÐµÐ¼": 1657,
      "ĠÐ¾Ð½Ð°": 1658,
      "ite": 1659,
      "Ð¸ÑģÐµÐ»": 1660,
      "ĠÐ½Ð°ÑħÐ¾Ð´": 1661,
      "Ġpl": 1662,
      "ĠÐ´Ð¾Ð¿": 1663,
      "ĠÑĩÐ¸ÑģÐµÐ»": 1664,
      "ĠÑħÐ¾ÑĤ": 1665,
      "import": 1666,
      "urr": 1667,
      "ĠÐ¿Ð¾Ð»ÑĮÐ·Ð¾Ð²Ð°ÑĤÐµÐ»": 1668,
      "ĠÑįÑĤÐ¾Ð¼": 1669,
      "Ð±ÐµÐ´": 1670,
      "ĠÐ¼Ð¾Ð´ÐµÐ»ÑĮ": 1671,
      "unction": 1672,
      "ÑĥÐºÑĤ": 1673,
      "ÑīÐµ": 1674,
      "Ġsh": 1675,
      "ÑĨÐ¸ÑĦ": 1676,
      "Ð½Ð¾ÑģÑĤÑĮÑİ": 1677,
      "Ð»ÐµÑĤ": 1678,
      "ĠJ": 1679,
      "ener": 1680,
      "Ð¸Ð¼Ð¾ÑģÑĤÐ¸": 1681,
      "ĠK": 1682,
      "data": 1683,
      "ĠTh": 1684,
      "ĠÐ¼Ð½Ð¾Ð¶": 1685,
      "ÐĿÐ¾": 1686,
      "Ð¾Ð·Ð¼Ð¾Ð¶": 1687,
      "ble": 1688,
      "ÑĥÐ¹ÑĤÐµ": 1689,
      "ĠÐ·Ð°ÑĤ": 1690,
      "ĊĠĠĠĠĠ": 1691,
      "te": 1692,
      "ĠÑįÑĤÐ¾Ð³Ð¾": 1693,
      "Ð¾Ð¿Ð°Ñģ": 1694,
      "ĠÐ³ÑĢÑĥÐ¿Ð¿": 1695,
      "ĠÐ¿ÑĢÐµÐ´Ð»Ð¾Ð¶": 1696,
      "ĠÐ½ÐµÐºÐ¾ÑĤÐ¾ÑĢ": 1697,
      "ÑĥÑĢÑĭ": 1698,
      "ĠÑģÐ²Ð¾Ð¹": 1699,
      "ask": 1700,
      "ÐµÑĥÐ³Ð¾Ð»ÑĮÐ½Ð¸Ðº": 1701,
      "Ġdef": 1702,
      "ĠÐ¸Ð³": 1703,
      "ĠÐ¾ÑģÐ¾Ð±": 1704,
      "Ð°Ð½Ð°": 1705,
      "ÑĤÐ¾ÑĤ": 1706,
      "ber": 1707,
      "Ð½Ð¸ÐºÐ¾Ð²": 1708,
      "Ġby": 1709,
      "ĠÑģÑĤÑĢ": 1710,
      "ÐŀÑĤ": 1711,
      "Ġ12": 1712,
      "')": 1713,
      "Ð¾ÑĢÐ¸Ð¸": 1714,
      "ory": 1715,
      "ĠÑģÑĤÐ¾Ð»": 1716,
      "ĠÐ¿Ð¾ÑĤÑĢÐµÐ±": 1717,
      "Ð¸Ð»Ð¾Ð¶": 1718,
      "ĠÐ²ÑĢÐµÐ¼ÐµÐ½Ð¸": 1719,
      "ĠÐ²ÑĭÑĩ": 1720,
      "],": 1721,
      "Ð¾ÑĢÐ¾Ð½": 1722,
      "ĠÐ´Ð¾Ðº": 1723,
      "ĠÐ¼Ð°ÐºÑģ": 1724,
      "ÐµÑĤÐ°": 1725,
      "ĠÐ²Ð·Ð°Ð¸Ð¼": 1726,
      "--------": 1727,
      "Ð»Ð¾Ð²": 1728,
      "sum": 1729,
      "ĠÐºÐ»ÑİÑĩ": 1730,
      "ĠÐ¿ÑĢÐ¾ÐµÐºÑĤ": 1731,
      "ÑģÑĤÑĢÐ¾": 1732,
      "Ð¸ÑģÑĮ": 1733,
      "ime": 1734,
      "ĠÑĤÐ¸Ð¿": 1735,
      "ĠÐ·Ð½": 1736,
      "ict": 1737,
      "ÑģÐ»ÐµÐ´Ð¾Ð²": 1738,
      "ÐµÑĢÐ¸": 1739,
      "ĠÐ·Ð½Ð°ÑĩÐµÐ½Ð¸Ñı": 1740,
      "Ġtr": 1741,
      "ĠÐ¿ÑĢÑıÐ¼": 1742,
      "//": 1743,
      "pi": 1744,
      "ĠÐµÐµ": 1745,
      "Ð°Ð½Ñĭ": 1746,
      "ĠÐ½Ð°Ð±": 1747,
      "ave": 1748,
      "ĠÐºÐ²Ð°Ð´ÑĢÐ°ÑĤ": 1749,
      "ĠÐ¸Ð½ÑģÑĤÑĢÑĥ": 1750,
      "ĠÐ²Ð»Ð¸": 1751,
      "Ð³Ð¾ÑĢÐ¸ÑĤ": 1752,
      "ĠX": 1753,
      "ĠÑĤÑĢÐµÑĥÐ³Ð¾Ð»ÑĮÐ½Ð¸Ðº": 1754,
      "ÐļÐ°Ðº": 1755,
      "ĠÐŁÐ¾Ñģ": 1756,
      "ÐĴÑĭ": 1757,
      "ĊĊĠĠĠĠĠĠĠ": 1758,
      "ĠÑģÐ½": 1759,
      "ĠÑįÐ»ÐµÐºÑĤ": 1760,
      "Ð½Ð°ÐºÐ¾": 1761,
      "ĠÐ¿Ð°": 1762,
      "Ġpre": 1763,
      "Ġte": 1764,
      "ĠÐ¿Ð¾Ð»Ð¾Ð¶": 1765,
      "ĠâĢĵ": 1766,
      "ĠÐ¿Ð¾Ð¼Ð¾ÑīÑĮÑİ": 1767,
      "Ð¸Ð²Ð°ÑĤÑĮ": 1768,
      "ÑĨÐµ": 1769,
      "ĠÐ¿ÑĢÐµÐ´Ð¾ÑģÑĤÐ°Ð²": 1770,
      "Ð°Ð¿ÑĢÐ¾Ñģ": 1771,
      "Ġwe": 1772,
      "Ġâī": 1773,
      "ĠÐ¸ÑģÐ¿": 1774,
      "ok": 1775,
      "Ð°Ð½Ð¸Ñİ": 1776,
      "Ð¤": 1777,
      "Ð°ÑĤÑĭ": 1778,
      "Ġac": 1779,
      "Ġthis": 1780,
      "Ð¾Ð²Ð°Ð½Ð¸Ñı": 1781,
      "ary": 1782,
      "Ð»ÑıÐµÐ¼": 1783,
      "Ġne": 1784,
      "ject": 1785,
      "Ð°ÑĨÐ¸Ð¾Ð½": 1786,
      "ĠÐ²Ð°Ñģ": 1787,
      "ĠÐ¼Ð°ÑģÑģ": 1788,
      "ÐºÐ¾Ð»ÑĮ": 1789,
      "ĠÐ´Ð¾Ð¼": 1790,
      "ĠÐ²ÑĭÑģÐ¾Ðº": 1791,
      "ĠÑģÐ¸ÑģÑĤÐµÐ¼Ñĭ": 1792,
      "ĠÑģÐ»ÑĥÑĩÐ°": 1793,
      "box": 1794,
      "ĠÑĦÑĥÐ½ÐºÑĨÐ¸Ð¸": 1795,
      "ĠÑĩÐµÐ¼": 1796,
      "ĠÐ¿ÑĢÐ¾Ð´ÑĥÐºÑĤ": 1797,
      "ĠÐ»ÑĥÑĩÑĪ": 1798,
      "ĠÐ·Ð°Ð³": 1799,
      "ÑıÐµÑĤÑģÑı": 1800,
      "Ġprint": 1801,
      "ĠÑĤÐ¾Ð¼": 1802,
      "ĠÐŁÐ¾Ð´": 1803,
      "Ð¸ÑĤÐµÑģÑĮ": 1804,
      "ÐµÑĨ": 1805,
      "ĠÐ½ÐµÐ¿": 1806,
      "Ġcol": 1807,
      "ents": 1808,
      "ĠÐ°Ð´": 1809,
      "def": 1810,
      "atch": 1811,
      "ĠÐ¿Ð¾ÑģÐ»ÐµÐ´Ð¾Ð²Ð°ÑĤÐµÐ»ÑĮ": 1812,
      "ĠÐ°ÑĢ": 1813,
      "ĠÐ´ÑĢÑĥÐ³Ð¸Ñħ": 1814,
      "Ġmodel": 1815,
      "app": 1816,
      "ÑıÑħ": 1817,
      "Ð¾ÑĢÐ¾ÑĪ": 1818,
      "ÐĽ": 1819,
      "Ã¡": 1820,
      "ÑģÐºÐ¸Ð¹": 1821,
      "ĠÐ¾ÑĪÐ¸Ð±": 1822,
      "Ð¸ÑĩÐµÑģÐºÐ¾Ð¹": 1823,
      "ãĤ": 1824,
      "ĠÑģÑĤÑĢÑĥÐºÑĤ": 1825,
      "par": 1826,
      "Ð½Ð¾ÑģÑĤÐµÐ¹": 1827,
      "zion": 1828,
      "ĠÐ°Ð²ÑĤÐ¾Ð¼": 1829,
      "enc": 1830,
      "ĠÐ¿ÑĢÐ°Ð²Ð¸Ð»ÑĮ": 1831,
      "fic": 1832,
      "ĠÐĿÐ°Ð¿ÑĢÐ¸Ð¼ÐµÑĢ": 1833,
      "ĠÐ·Ð°Ð´Ð°ÑĩÐ¸": 1834,
      "ize": 1835,
      "ÐµÑĢÐµÐ²": 1836,
      "ĠÑģÐ¾Ð¾Ð±Ñī": 1837,
      "ĠÑĢÐµÑĪÐµÐ½Ð¸Ñı": 1838,
      "min": 1839,
      "ĠÐ¾Ð±ÑĢÐ°Ð±Ð¾ÑĤ": 1840,
      "Ġnum": 1841,
      "Ð¿ÑĢÐ°Ð²": 1842,
      "ÐµÐ¿ÐµÑĢÑĮ": 1843,
      "sh": 1844,
      "ated": 1845,
      "Ġche": 1846,
      "ÐµÐ½Ð½ÑĭÐ¹": 1847,
      "ĠÐĴÐ¾ÑĤ": 1848,
      "ĠÑĢÐ°Ð´": 1849,
      "ĠÑĨÐ²ÐµÑĤ": 1850,
      "ĠÐ¾Ð±Ð»Ð°ÑģÑĤ": 1851,
      "Ð°ÑĤÐ°": 1852,
      "ast": 1853,
      "âĢ": 1854,
      "Ġnew": 1855,
      "ĠÐ¿ÐµÑĢÐµÐ¼": 1856,
      "ĠÑģÐ²Ð¾Ð¸": 1857,
      "Ð¾Ð½Ð°": 1858,
      "ĠÐ¶Ð¸Ð·Ð½Ð¸": 1859,
      "col": 1860,
      "ide": 1861,
      "ical": 1862,
      "urrent": 1863,
      "ell": 1864,
      "ype": 1865,
      "ĠÐ½Ð°Ñģ": 1866,
      "ĠÐ¶Ðµ": 1867,
      "from": 1868,
      "ĠÐ±ÑĭÐ»": 1869,
      "Ð´Ð½Ð°ÐºÐ¾": 1870,
      "Ð»Ð°Ð³": 1871,
      "ĠÐ¾Ð³ÑĢ": 1872,
      "peci": 1873,
      "ĠÐ¼ÐµÐ´": 1874,
      "ĠÐ¸ÑģÐ¿Ð¾Ð»ÑĮÐ·Ð¾Ð²Ð°Ð½Ð¸Ñı": 1875,
      "ĠÐ±ÐµÐ·Ð¾Ð¿Ð°Ñģ": 1876,
      "ug": 1877,
      "Ġ100": 1878,
      "ĠÑĤÐµÑħÐ½Ð¾Ð»Ð¾Ð³": 1879,
      "ĠÐ°ÐºÑĤÐ¸Ð²": 1880,
      "ÑĮÑı": 1881,
      "lic": 1882,
      "ĠÐ¾Ð±ÑĥÑĩÐµÐ½Ð¸Ñı": 1883,
      "ĠÐ¯": 1884,
      "ĠPython": 1885,
      "Ġuna": 1886,
      "19": 1887,
      "ual": 1888,
      "ror": 1889,
      "ĠÐ¾ÑĨÐµÐ½": 1890,
      "25": 1891,
      "Ã©": 1892,
      "Ð½Ð°Ð¿ÑĢÐ¸Ð¼ÐµÑĢ": 1893,
      "ĠÐŀÑĤ": 1894,
      "ition": 1895,
      "math": 1896,
      "ak": 1897,
      "ĠÑĤÐ¾ÑĩÐºÐ¸": 1898,
      "Ð¿Ð¾Ð»Ð¾Ð¶": 1899,
      "Ð°Ð»ÑĮÐ½ÑĭÐµ": 1900,
      "16": 1901,
      "ĠÐ¾Ð¿ÑĤ": 1902,
      "ĠÑĢÐ°Ð·Ð¼ÐµÑĢ": 1903,
      "Ð¢Ñĭ": 1904,
      "ĠÐ¿ÑĢÐ¸Ð»Ð¾Ð¶": 1905,
      "ĠÑģÐ¿Ðµ": 1906,
      "ĠÐ¥": 1907,
      "ÑĥÐ»Ð¸": 1908,
      "ĠÐļÐ°Ðº": 1909,
      "system": 1910,
      "ÐķÑģÐ»Ð¸": 1911,
      "ÐµÑĢÐ²": 1912,
      "ĠÐ»Ð¸Ð½": 1913,
      "Ð¼Ð¸ÑĢÐ¾Ð²": 1914,
      "Ġ&": 1915,
      "ÑĭÐ²Ð°ÑĤÑĮ": 1916,
      "ĠÑĢÐ°Ð·Ð²Ð¸ÑĤ": 1917,
      "ram": 1918,
      "Ð¸ÑĢÐ¾Ð²Ð°Ð½Ð¸Ñı": 1919,
      "ash": 1920,
      "ĠÐ´Ð¾Ð»Ð¶ÐµÐ½": 1921,
      "ĠÐ¸Ð³ÑĢ": 1922,
      "ÐºÐ¾Ð»ÑĮÐºÑĥ": 1923,
      "ĠÐĺÐ½": 1924,
      "ĠÐ¾ÑĢÐ³Ð°Ð½Ð¸Ð·": 1925,
      "Ð°ÑĢÐ¸Ð°Ð½ÑĤ": 1926,
      "Ð½ÑĥÑĤ": 1927,
      "ĠÑģÐ¸Ð¼Ð²Ð¾Ð»": 1928,
      "ÑĭÐ²Ð°ÐµÑĤ": 1929,
      "Ġme": 1930,
      "ĠÐ´ÐµÑĤ": 1931,
      "ĠÑģÐ¾ÑħÑĢÐ°Ð½": 1932,
      "ÐµÐ±Ðµ": 1933,
      "15": 1934,
      "so": 1935,
      "ample": 1936,
      "</": 1937,
      "port": 1938,
      "ĠÐŀÐ½": 1939,
      "Ð¸ÑĢÐ¾Ð²Ð°Ð½Ð¸Ðµ": 1940,
      "ĠÐºÐ¾ÑĤÐ¾ÑĢÐ¾Ðµ": 1941,
      "ĠÑĥÑģÐ»Ð¾Ð²Ð¸Ñı": 1942,
      "ÑĤÐ¾Ð¼Ñĥ": 1943,
      "ĠÑĥÑģÑĤ": 1944,
      "ÐµÐ½Ð½Ð¾Ð³Ð¾": 1945,
      "ĠÑģÐ´ÐµÐ»Ð°ÑĤÑĮ": 1946,
      "ĠÐ¼Ð¸ÑĢ": 1947,
      "ĨĴ": 1948,
      "iÃ³n": 1949,
      "ĠY": 1950,
      "ĠÐ¾Ð¿Ð¸Ñģ": 1951,
      "ally": 1952,
      "ÑĤÑĢ": 1953,
      "ĠÐ²ÑĭÑĢÐ°Ð¶": 1954,
      "Ġser": 1955,
      "self": 1956,
      "ÑıÑģÐ½": 1957,
      "ĠÐ½ÐµÑĤ": 1958,
      "Ð¸Ð»Ð°": 1959,
      "ÑįÑĤÐ¾Ð¼Ñĥ": 1960,
      "ÐºÑĢÐµÑĤ": 1961,
      "Ġdes": 1962,
      "(\\": 1963,
      "ient": 1964,
      "Ð°Ð·Ð¾Ð²": 1965,
      "ĠÑĢÐ°Ð·Ð»Ð¸ÑĩÐ½ÑĭÑħ": 1966,
      "ĠÐ¿Ð¾Ñĩ": 1967,
      "Ð¸ÑıÑĤ": 1968,
      "ress": 1969,
      "ĠÐ´Ð²Ð°": 1970,
      "Ð¾ÑīÐ°Ð´": 1971,
      "ĠÑģÑĤÐ¾": 1972,
      "les": 1973,
      "pon": 1974,
      "ÑĦÐµÑĢ": 1975,
      "ll": 1976,
      "ÐµÐ½ÑĤÑĢ": 1977,
      "':": 1978,
      "Ð¾Ð´ÐµÐ¹ÑģÑĤÐ²": 1979,
      "ĠÐ¼Ð½Ð¾Ð³Ð¾": 1980,
      "Ð¾Ð´Ñĥ": 1981,
      "ĠÐ°Ð»Ð³Ð¾ÑĢÐ¸ÑĤ": 1982,
      "ĠÑĥÑģÑĤÐ°Ð½Ð¾Ð²": 1983,
      "ĠÐķ": 1984,
      "ĠÑĥÐ²ÐµÐ»Ð¸Ñĩ": 1985,
      "Ð¸ÑĩÐµÑģÐºÐ¸Ð¹": 1986,
      "ÐºÐ°Ñħ": 1987,
      "ĠÑģÑĥÐ¼Ð¼Ð°": 1988,
      "ÐºÐ¾Ð¼": 1989,
      "ĠÑĨÐ¸ÑĦ": 1990,
      "ĠÐ²ÑĭÐ²Ð¾Ð´": 1991,
      "ould": 1992,
      "ĠÑģÐ¾ÑģÑĤÐ¾ÑıÐ½": 1993,
      "Ġar": 1994,
      "ey": 1995,
      "ĠĠĠĠĠĠĠĠĠĠĠĠĠĠĠĠ": 1996,
      "']": 1997,
      "ire": 1998,
      "ĠÐ¾Ð±ÑĭÑĩ": 1999,
      "Ð¯": 2000,
      "Ġout": 2001,
      "ĠÑĤÐµÑģÑĤ": 2002,
      "ĠÑĥÑģÐ¿": 2003,
      "Ġ19": 2004,
      "mat": 2005,
      "ÐµÑĢÑĪ": 2006,
      "ĠÐ·Ð°Ð¿ÑĢÐ¾Ñģ": 2007,
      "Ġsc": 2008,
      "\".": 2009,
      "Ð°ÑĤÐ¾ÑĢ": 2010,
      "ĠÐ²ÐºÐ»ÑİÑĩÐ°Ñı": 2011,
      "ÑĭÐ»": 2012,
      "Ġinter": 2013,
      "eng": 2014,
      "Ð¾Ð»Ð½Ð¸ÑĤÐµÐ»ÑĮ": 2015,
      "ĠÑģÑĤÐ¾ÑĢÐ¾Ð½": 2016,
      "^{-": 2017,
      "ĠÑĩÐ°ÑģÑĤÐ¾": 2018,
      "boxed": 2019,
      "ĠÐ¿Ð¾Ð½Ð¸Ð¼": 2020,
      "ĠÐ¶Ð¸Ð²": 2021,
      "ÐµÐ³Ð´Ð°": 2022,
      "ER": 2023,
      "ĠÑģÐ¾ÑģÑĤÐ°Ð²": 2024,
      "ont": 2025,
      "ĠÐ·Ð°Ð±": 2026,
      "ĠÐ²ÑĤÐ¾ÑĢ": 2027,
      "ĠÐ¼Ð°ÐºÑģÐ¸Ð¼Ð°Ð»ÑĮ": 2028,
      "Ð°Ð»Ð¾Ð³": 2029,
      "ich": 2030,
      "Ð½ÐµÐµ": 2031,
      "vel": 2032,
      "Ð¾Ñħ": 2033,
      "log": 2034,
      "Ġli": 2035,
      "Ð¸Ð¼Ð¸Ð·": 2036,
      "ĠÐ¸ÑģÑģÐ»ÐµÐ´Ð¾Ð²": 2037,
      "Ð¾ÑĤÐ°": 2038,
      "Ð·Ð½Ð°Ñĩ": 2039,
      "ÑĥÐµÑĤÑģÑı": 2040,
      "Ð¾Ð·Ð¼Ð¾Ð¶Ð½Ð¾": 2041,
      "ĠÐłÐ°Ð·": 2042,
      "ĠÐºÐ°Ð¶Ð´ÑĭÐ¹": 2043,
      "ĠÑĤÐµ": 2044,
      "ĠÑĤÑĢÐ°Ð½": 2045,
      "Ð¼ÐµÑĤ": 2046,
      "Ġro": 2047,
      "ĠÑįÑĤÐ¸Ñħ": 2048,
      "ĠÐ´Ð¾Ð»Ð¶Ð½Ñĭ": 2049,
      "ĠÑĥÐ´Ð°Ð»": 2050,
      "['": 2051,
      "ĠÐ²ÐµÑĢÑĪ": 2052,
      "ĠÐ¾Ð±ÑĬÐµÐºÑĤ": 2053,
      "ĠQ": 2054,
      "ÑģÐºÐ¾Ð¹": 2055,
      "Ð°Ð½Ð¾": 2056,
      "abel": 2057,
      "sc": 2058,
      "Ð¸Ð±Ð¾": 2059,
      "ĠÐ²Ð½ÑĥÑĤ": 2060,
      "Ġdis": 2061,
      "Ġcre": 2062,
      "ĠÐ·Ð´Ð¾ÑĢÐ¾Ð²": 2063,
      "Ð°Ð»ÑĮÐ½ÑĭÑħ": 2064,
      "Ð¸Ð¶ÐµÐ½Ð¸Ñı": 2065,
      "ĠÑĦÐ°Ð¹Ð»": 2066,
      "}}{": 2067,
      "ĠÑįÑĤÐ¾Ð¹": 2068,
      "ĠÐ½Ð°Ð¿ÑĢÐ°Ð²": 2069,
      "ÑĩÐ¸Ð²": 2070,
      "ding": 2071,
      "Ð¸Ð·Ð½": 2072,
      "ãĥ": 2073,
      "ÑĥÑĢÐ°": 2074,
      "ĠÑģÐ¾ÑĨÐ¸Ð°Ð»ÑĮ": 2075,
      "ĠÐ¸Ð´Ðµ": 2076,
      "ĠÑĤÐµÑĢ": 2077,
      "ĠÐ¼ÐµÑĢ": 2078,
      "ĠÑĤÐµÐ»": 2079,
      "ĠÐ¾ÑĤÐºÑĢ": 2080,
      "ĠÐ±ÑĭÐ»Ð¾": 2081,
      "ĠÐºÐ¾Ð½ÐºÑĢÐµÑĤ": 2082,
      "Ð»ÑıÑĤÑĮ": 2083,
      "ĠÐ¿ÑĢÐ¾ÑĤÐ¸Ð²": 2084,
      "ÐºÐ°Ð¼Ð¸": 2085,
      "qquad": 2086,
      "ÑĤÐ²": 2087,
      "ÑıÐ¶": 2088,
      "ĠÑģÐ»ÑĥÑĩÐ°Ðµ": 2089,
      "ÐµÐºÑģ": 2090,
      "ÐµÑĤÐµ": 2091,
      "ĠÐ²Ð½Ð¸Ð¼": 2092,
      "ĠÐ½ÐµÐ´": 2093,
      "Ð°ÐºÑĤÐ¾ÑĢ": 2094,
      "Ġab": 2095,
      "ĠÐ¼Ð½Ð¾Ð³": 2096,
      "Ð¸ÑĩÐµÑģÐºÐ¾Ð³Ð¾": 2097,
      "ĠÐ¸ÑģÑħÐ¾Ð´": 2098,
      "ÐŁÑĢÐ¸Ð¼ÐµÑĢ": 2099,
      "ÑĥÐµÐ¼": 2100,
      "ĠÑĢÐ°Ð²Ð½Ð¾": 2101,
      "ĠÐ½Ð°Ð²": 2102,
      "ĠÐ²Ð·": 2103,
      "ĠÐ¸Ð·Ð¼ÐµÐ½ÐµÐ½Ð¸Ñı": 2104,
      "ĠÑĥÐ·": 2105,
      "ĠÐ¿ÑĢÐ¸Ð¼ÐµÐ½": 2106,
      "yn": 2107,
      "Ġlo": 2108,
      "Ð¸ÑĤÑĥ": 2109,
      "ĠÐ¾Ð±ÑĢÐ°ÑĤ": 2110,
      "Ġso": 2111,
      "ĠÐ²Ð¾Ð·Ð¼Ð¾Ð¶Ð½Ð¾": 2112,
      "Ð¾Ð»Ð¶": 2113,
      "ĠÐ´ÑĢÑĥÐ³Ð¸Ðµ": 2114,
      "Ð°Ð»ÑĮÐ½Ð¾Ðµ": 2115,
      "tp": 2116,
      "ĠÐºÐ¾Ð½ÑĦ": 2117,
      "ĠÑĤÐµÐºÑĥÑī": 2118,
      "ĠÑĩÑĥÐ²": 2119,
      "ĠÐ¸Ð½ÑģÑĤÑĢÑĥÐ¼": 2120,
      "ĠÃ": 2121,
      "ĠÐ¿Ð¾Ð¸Ñģ": 2122,
      "ĠÐ¸Ð½Ð´": 2123,
      "ÑĨÐ¸Ñı": 2124,
      "ĠÐ´ÐµÐ½ÑĮ": 2125,
      "ĠÐºÐ°Ð¶Ð´Ð¾Ð¹": 2126,
      "Ð¾Ð²Ð¾Ð¹": 2127,
      "ĠÐ¿ÐµÑĢÐµÑģ": 2128,
      "cos": 2129,
      "Ð°Ñī": 2130,
      "ĠÐ¼Ð¸Ð½": 2131,
      "Ð¾ÑĢÐ´Ð¸Ð½": 2132,
      "ĠÐ¾ÑĤÐ½Ð¾ÑĪ": 2133,
      "ÐµÑģÑı": 2134,
      "ĠÐ²Ð°ÑĢÐ¸Ð°Ð½ÑĤ": 2135,
      "plic": 2136,
      "ÑĨÑĥ": 2137,
      "line": 2138,
      "^^": 2139,
      "pen": 2140,
      "ĠÐ²Ð¸Ð´Ðµ": 2141,
      "path": 2142,
      "ĠÑĥÐ´Ð¾Ð²": 2143,
      "Ġfunction": 2144,
      "ific": 2145,
      "fig": 2146,
      "Ð°Ð½Ð½ÑĭÑħ": 2147,
      "ĠÐ¸Ð·Ð²ÐµÑģÑĤ": 2148,
      "Ð¸Ñī": 2149,
      "Ġrange": 2150,
      "ĠÐ½ÐµÐ¹": 2151,
      "ĠÑĩÐ°ÑģÑĤÐ¸": 2152,
      "Ð¿Ð¸Ñģ": 2153,
      "Ð¸Ð¼Ð¾ÑģÑĤÑĮ": 2154,
      "ÑģÑĤÐ¾ÑıÐ½": 2155,
      "ÑĢÐ°Ð±": 2156,
      "ÐµÑģÑĥÑĢÑģ": 2157,
      "ĠÑĢÐ¸Ñģ": 2158,
      "ĠâĨĴ": 2159,
      "textbf": 2160,
      "Ð±Ð¾ÑĢ": 2161,
      "ĠÐ¸Ð´": 2162,
      "size": 2163,
      "ator": 2164,
      "eta": 2165,
      "ĠÐºÐ½": 2166,
      "ÑĮÑİÑĤ": 2167,
      "Ġ15": 2168,
      "ÑĢÐµÐ½": 2169,
      "Ġlos": 2170,
      "ery": 2171,
      "Ġ:": 2172,
      "Ġup": 2173,
      "ĠÑĦÑĥÐ½ÐºÑĨÐ¸Ñİ": 2174,
      "oint": 2175,
      "ĠÐºÐ¾Ð¼Ð°Ð½Ð´": 2176,
      "ĠÐ¨": 2177,
      "Ð¾Ð²ÑĭÐµ": 2178,
      "Ð°Ð½Ð½ÑĭÐµ": 2179,
      "ĠÑģÐºÐ¾ÑĢ": 2180,
      "Ð½Ñĥ": 2181,
      "ÑĳÑĤ": 2182,
      "arn": 2183,
      "Ġpos": 2184,
      "ĠÑĢÐ°Ð·Ð´ÐµÐ»": 2185,
      "sin": 2186,
      "Ġset": 2187,
      "eth": 2188,
      "vice": 2189,
      "Ġind": 2190,
      "ĠÐ²Ð·Ð°Ð¸Ð¼Ð¾Ð´ÐµÐ¹ÑģÑĤÐ²": 2191,
      "Ð»ÐµÑĩ": 2192,
      "Ð¸ÑĩÐµÑģÐºÐ¾Ðµ": 2193,
      "ĠÐ¿Ð°ÑĢÐ°Ð¼": 2194,
      "ĠÐ·Ð°Ñī": 2195,
      "ĠÐ¾Ð³ÑĢÐ°Ð½Ð¸Ñĩ": 2196,
      "::": 2197,
      "file": 2198,
      "model": 2199,
      "ÑħÐ¾Ð´Ð¸ÑĤ": 2200,
      "},": 2201,
      "ĠÐ¸Ð·Ð¾Ð±ÑĢÐ°Ð¶": 2202,
      "Ð°ÑĢÐ°Ðº": 2203,
      "und": 2204,
      "Ð»ÑİÐ´": 2205,
      "ĠÐ¼Ð°ÑĪ": 2206,
      "ĠÑįÑĤÐ¸": 2207,
      "ĠÐ½Ð°ÑĩÐ¸Ð½": 2208,
      "rc": 2209,
      "ÑĢÐµÐ·": 2210,
      "$,": 2211,
      "Ð¾Ð½ÐµÑĩ": 2212,
      "Ġresult": 2213,
      "Ġ.": 2214,
      "ĠÐŀÐ´Ð½Ð°ÐºÐ¾": 2215,
      "ĠÑĦÐ¸Ð·": 2216,
      "ĠÑįÐºÐ¾Ð½Ð¾Ð¼": 2217,
      "ÑĢÐ°Ñģ": 2218,
      "ĠÑĢÐ°Ð²Ð½Ð°": 2219,
      "Ð¸ÑĢÐ°": 2220,
      "equ": 2221,
      "ĠÐ¼ÐµÐ½ÑĮÑĪ": 2222,
      "ÑıÑİÑĤ": 2223,
      "ĠÐ½ÐµÐ¾Ð±ÑħÐ¾Ð´Ð¸Ð¼Ð¾": 2224,
      "Ð¸ÐºÐ¾Ð²": 2225,
      "ĠÐ²ÐµÑĢÐ¾ÑıÑĤ": 2226,
      "ates": 2227,
      "ĠÑĢÑĭ": 2228,
      "ÑıÐ²": 2229,
      "Ð°Ñİ": 2230,
      "Ð°ÑĢÐ°ÐºÑĤÐµÑĢ": 2231,
      "ĠÑħÐ¾ÑĢÐ¾ÑĪ": 2232,
      "ĠThis": 2233,
      "Ð°Ð¶Ðµ": 2234,
      "ĠÐ½Ð°Ð·": 2235,
      "ĠÐ³ÑĢ": 2236,
      "ĠÐ³ÑĢÐ°ÑĦ": 2237,
      "ÐµÐºÑģÑĤ": 2238,
      "ÑĢÐ°ÑĤÑĮ": 2239,
      "ĠÑĢÐµÑģÑĥÑĢÑģ": 2240,
      "ĠÑģÐµÐ¼": 2241,
      "ĠÐ¾Ð¿ÐµÑĢ": 2242,
      "ov": 2243,
      "Ð¾Ð²Ð¾ÑĢ": 2244,
      "Ð°Ð¹ÑĤ": 2245,
      "ĠÐ²ÑĭÐ±Ð¾ÑĢ": 2246,
      "ĠÑĢÐ°ÑģÑĤ": 2247,
      "ĠÐ»Ð¾Ð³": 2248,
      "ĠÐ¿Ð¾ÑĢÑıÐ´": 2249,
      "24": 2250,
      "ĠÐ´ÐµÑĢÐµÐ²": 2251,
      "ĠÐ¸Ð½ÑĤÐµÑĢÐµÑģ": 2252,
      "ĠÐ¼Ð½Ðµ": 2253,
      "ome": 2254,
      "ĠÐ½ÐµÐ²": 2255,
      "Ð°Ð»ÑĮÐ½ÑĭÐ¹": 2256,
      "lect": 2257,
      "ari": 2258,
      "ÐµÑģÑĤÐ²Ðµ": 2259,
      "ĠÑĨÐµÐ½": 2260,
      "Ġuse": 2261,
      "orch": 2262,
      "ude": 2263,
      "ĠÐ¢Ð¾Ð³Ð´Ð°": 2264,
      "ĠÐ¿ÑĢÐ¸Ð½Ð¸Ð¼": 2265,
      "Ð»ÐµÑĤÐ²Ð¾ÑĢ": 2266,
      "ÑģÐºÐ¾Ð³Ð¾": 2267,
      "Ð§ÑĤÐ¾Ð±Ñĭ": 2268,
      "Ġest": 2269,
      "ĠSt": 2270,
      "ĠÑģÐ²Ð¾Ñİ": 2271,
      "ĠÑģÐ²Ð¾ÐµÐ¹": 2272,
      "set": 2273,
      "ĠÑģÐ¿Ð¸ÑģÐ¾Ðº": 2274,
      "ĠÐ´Ð²ÑĥÑħ": 2275,
      "ĠÑģÑĤÑĢÐ°Ð½": 2276,
      "ns": 2277,
      "ĠÐ¸ÑģÐ¿Ð¾Ð»ÑĮÐ·ÑĥÐµÑĤÑģÑı": 2278,
      "ÑģÐºÐ°Ð·": 2279,
      "ĠÐ´Ð¾Ð»Ð¶Ð½Ð°": 2280,
      "ĠÑĥÑĢÐ°Ð²Ð½ÐµÐ½Ð¸Ðµ": 2281,
      "Ð°Ð»Ð¾": 2282,
      "ĠÐ·Ð°Ð²Ð¸ÑģÐ¸Ð¼Ð¾ÑģÑĤÐ¸": 2283,
      "Ð½Ð¸Ð¹": 2284,
      "Ð±ÐµÑĢ": 2285,
      "ĠÐ·Ð°Ð½": 2286,
      "Ð¸ÑĪÐ¸": 2287,
      "100": 2288,
      "ĠÐ²ÑĭÑĩÐ¸ÑģÐ»": 2289,
      "ĠÐ»ÐµÐ³": 2290,
      "ĠÑįÑĤÐ¾ÑĤ": 2291,
      "ÑıÑĤÑģÑı": 2292,
      "Ġrequ": 2293,
      "14": 2294,
      "ĠÐ¼ÐµÐ½Ñı": 2295,
      "ys": 2296,
      "Ġdo": 2297,
      "ĠÐ³Ð»ÑĥÐ±": 2298,
      "ock": 2299,
      "rame": 2300,
      "PI": 2301,
      "ĠÐ½Ð°Ð¿ÑĢÐ¸Ð¼ÐµÑĢ": 2302,
      "ÑģÐ¾Ð½": 2303,
      "ĠÑıÐ²Ð»ÑıÑİÑĤÑģÑı": 2304,
      "ĠÐ±Ð»Ð°Ð³": 2305,
      "13": 2306,
      "ĠÑįÐºÑģÐ¿": 2307,
      "Ð¨": 2308,
      "---": 2309,
      "Ð¾ÑģÑĮ": 2310,
      "Ð½Ð¸ÐºÐ¸": 2311,
      "Ð¾Ð²ÑĭÑħ": 2312,
      "ÑįÑĦÑĦ": 2313,
      "ĠÐºÐ»ÑİÑĩÐµÐ²": 2314,
      "ken": 2315,
      "ĠÐ³Ð¾Ð»": 2316,
      "ĠÐ¿Ð¾Ð»Ð¾Ð¶Ð¸ÑĤÐµÐ»ÑĮ": 2317,
      "ĠÐ»Ð¸Ñĩ": 2318,
      "ĠÑĥÐ´Ð¾Ð²Ð»ÐµÑĤÐ²Ð¾ÑĢ": 2319,
      "Ð°ÑģÑĮ": 2320,
      "ĠÐºÑĢÐ°Ñģ": 2321,
      "we": 2322,
      "ĠÑĥÐ½Ð¸Ðº": 2323,
      "ĠÐ¿Ð¾Ð²ÑĭÑĪ": 2324,
      "Ð²ÑĢÐ°Ñī": 2325,
      "ĠÐ¾ÑĤÐ´": 2326,
      "ĠÐ·Ð²": 2327,
      "ĠÐ¸Ð½ÑĦÐ¾ÑĢÐ¼Ð°ÑĨÐ¸Ð¸": 2328,
      "print": 2329,
      "Ġman": 2330,
      "ark": 2331,
      "Ġinput": 2332,
      "Ð¾ÑĤÑĢÑĥÐ´": 2333,
      "ĠÐ¾ÑģÐ½Ð¾Ð²Ðµ": 2334,
      "ĠÑĢÑĥÑģ": 2335,
      "ĠÑģÐ¾Ð·Ð´Ð°Ð½Ð¸Ñı": 2336,
      "18": 2337,
      "ĠÑıÐ·ÑĭÐºÐ¾Ð²": 2338,
      "ÑĥÑģÐº": 2339,
      "ÐµÐºÑĤÐ¾ÑĢ": 2340,
      "Ð±ÐµÐ´Ð¸ÑĤÐµÑģÑĮ": 2341,
      "ãĢ": 2342,
      "ĠÑģÐ²Ð¾Ð¸Ñħ": 2343,
      "ĠÐ»ÑİÐ´ÐµÐ¹": 2344,
      "Ð¸ÑĦÐ¸Ðº": 2345,
      "aciÃ³n": 2346,
      "ĠÐ´Ð¾Ð¿Ð¾Ð»Ð½Ð¸ÑĤÐµÐ»ÑĮ": 2347,
      "pos": 2348,
      "ÐµÐ½Ð½Ð¾Ðµ": 2349,
      "ĠÐ¾ÑģÑĤÐ°Ð²": 2350,
      "input": 2351,
      ")}\\": 2352,
      "ong": 2353,
      "ĊĠĠĠĠĠĠĠĠĠĠĠĠĠĠĠĠĠĠĠ": 2354,
      "Ġpart": 2355,
      "ÑĢÐµÑģÑģ": 2356,
      "ĠÐ±ÑĭÐ»Ð¸": 2357,
      "Ð¾Ð³Ð»": 2358,
      "pre": 2359,
      "ĠÑģÐ¾Ðº": 2360,
      "Ð¾Ð¿ÑĢ": 2361,
      "ĠÑģÐ¾Ð´ÐµÑĢÐ¶Ð¸ÑĤ": 2362,
      "ĠÐĿÐ°": 2363,
      "Ð¾ÑĢÐ¾Ð½Ñĭ": 2364,
      "ĠÐ¾Ð¿ÑĢÐµÐ´ÐµÐ»Ð¸ÑĤÑĮ": 2365,
      "ese": 2366,
      "ĠEx": 2367,
      "ĠÐ¼Ð¾Ð»": 2368,
      "ÑĢÑĭ": 2369,
      "ĠÐ½Ð°Ð¸Ð±": 2370,
      "ĠÐ¼Ð°Ñģ": 2371,
      "ÑĥÐ¹": 2372,
      "ĠÐ¸Ð¼ÐµÑİÑĤ": 2373,
      "ĠÑĢÐ°Ð²ÐµÐ½": 2374,
      "Ġincl": 2375,
      "ĠÑįÐ¼": 2376,
      "ĠÐµÑīÐµ": 2377,
      "ĠÐ½Ð¸Ñħ": 2378,
      "ĠÐ¿Ð»Ð¾ÑīÐ°Ð´": 2379,
      "ÑĢÐ°ÑģÑĤ": 2380,
      "Ð¸ÑĤÐ¾ÑĢ": 2381,
      "ĠÐ²ÑħÐ¾Ð´Ð½ÑĭÑħ": 2382,
      "Ġspeci": 2383,
      "zione": 2384,
      "rue": 2385,
      "Ġhave": 2386,
      "ĠÑĢÐ°ÑģÑģÑĤÐ¾ÑıÐ½": 2387,
      "ĠÑĢÐµÐ°Ð»Ð¸Ð·": 2388,
      "ĠÑĤÐ¾Ð³Ð´Ð°": 2389,
      "ĠÐ¾Ð·Ð½Ð°Ñĩ": 2390,
      "ĠÑģÑĤÑĢÐ¾ÐºÐ¸": 2391,
      "Ġtheir": 2392,
      "ĠÐĺÐ·": 2393,
      "ĠÑĥÐ¼ÐµÐ½ÑĮÑĪ": 2394,
      "])": 2395,
      "over": 2396,
      "ente": 2397,
      "Ġil": 2398,
      "Ð°Ð½Ð½Ð°Ñı": 2399,
      "Ġuser": 2400,
      "ĠÐ¼Ð°ÑĢ": 2401,
      "ĠÑĥÑģÑĤÑĢÐ¾Ð¹": 2402,
      "ĠÐ¿Ð¾ÑįÑĤÐ¾Ð¼Ñĥ": 2403,
      "ry": 2404,
      "date": 2405,
      "$.": 2406,
      "Ð°Ð¹Ð´": 2407,
      "}\\)": 2408,
      "arch": 2409,
      "ĠÐ¾ÑĤÐ»Ð¸Ñĩ": 2410,
      "essage": 2411,
      "ĠÐºÐ¾ÑĤÐ¾ÑĢÑĭÑħ": 2412,
      "Ð°Ð²Ð°Ð¹ÑĤÐµ": 2413,
      "Ð¸ÑĩÐµÑģÐºÐ°Ñı": 2414,
      "ĠÑģÑĤÐ¾ÑĢÐ¾Ð½Ñĭ": 2415,
      "ĠÐºÐ¾Ð¾ÑĢÐ´Ð¸Ð½": 2416,
      "ĠÑĥÐ¶Ðµ": 2417,
      "vent": 2418,
      "ĠÐ¼Ð°ÑĤÐµÑĢÐ¸": 2419,
      "Ġpara": 2420,
      "://": 2421,
      "ÑģÐ°": 2422,
      "ÑĤÐ²ÐµÑĢÐ¶": 2423,
      "Ġ16": 2424,
      "Ð¾Ð±ÑĢ": 2425,
      "AB": 2426,
      "Ð°Ð»ÑĮÐ½Ð¾Ð¹": 2427,
      "ĠÑħÐ°ÑĢÐ°ÐºÑĤÐµÑĢ": 2428,
      "rect": 2429,
      "Ġmod": 2430,
      "ĠÐºÐ°ÑĢÑĤ": 2431,
      "Ġcurrent": 2432,
      "cept": 2433,
      "ĠÐ²ÑģÐµÐ³Ð´Ð°": 2434,
      "ĠÐ´Ð¸Ñģ": 2435,
      "ĠÑģÐ¾Ð±Ð¾Ð¹": 2436,
      "Ð¸Ð±Ð»Ð¸": 2437,
      "ÐµÐ½ÑĨÐ¸Ð°Ð»ÑĮ": 2438,
      "ĠÐ¾Ð±ÑĭÑĩÐ½Ð¾": 2439,
      "own": 2440,
      "ĠÐ¸ÑģÑĤÐ¾ÑĢ": 2441,
      "ĠÑħÑĢÐ°Ð½": 2442,
      "ĠÐ²Ð°Ð¶Ð½Ð¾": 2443,
      "ĠÐµÐ´Ð¸Ð½": 2444,
      "Ġid": 2445,
      "Ġì": 2446,
      "ðŁ": 2447,
      "ĠAn": 2448,
      "ĠÐ¸Ð½ÑĦÐ¾ÑĢÐ¼Ð°ÑĨÐ¸Ñİ": 2449,
      "Ð»ÑĮ": 2450,
      "ces": 2451,
      "Ð¾Ð·Ð½": 2452,
      "####": 2453,
      "ĠÐ²Ð¼ÐµÑģÑĤ": 2454,
      "ĠÐ¿ÑĢÐ¾Ð¸Ð·Ð²ÐµÐ´": 2455,
      "Ġmin": 2456,
      "ĠÐ¶Ð¸Ð·Ð½": 2457,
      "ĠÑģÐ¾Ñģ": 2458,
      "ĠÐ¿Ð¾ÐºÐ°Ð·": 2459,
      "Ġall": 2460,
      "Ð¾ÑĤÐµÐº": 2461,
      "Ġmax": 2462,
      "Â».": 2463,
      "py": 2464,
      "St": 2465,
      "ĠÐºÐ¾Ð¼Ð¿ÑĮÑİÑĤ": 2466,
      "Ð¾Ð½ÑĤ": 2467,
      "ĠÑįÐ»ÐµÐ¼ÐµÐ½ÑĤ": 2468,
      "ther": 2469,
      "ĠÐ¼Ð°ÑģÑģÐ¸Ð²": 2470,
      "ĠÐ¡ÑĤ": 2471,
      "ĠÐºÐ¾Ð½ÑĤÑĢ": 2472,
      "Ġ\\):": 2473,
      "ĠÐ±ÑĥÐ´ÑĥÑĤ": 2474,
      "ĠÐ¿ÑĢÐµÐ¾Ð±ÑĢÐ°Ð·": 2475,
      "atas": 2476,
      "ale": 2477,
      "Ġâī¤": 2478,
      "Ð½Ð¸Ñħ": 2479,
      "Ġusing": 2480,
      "ĠÑĩÐµÑĤ": 2481,
      "ĠCon": 2482,
      "Ð½Ð¸ÐºÐ°": 2483,
      "son": 2484,
      "ix": 2485,
      "Ð½Ð¸Ðµ": 2486,
      "Ð°Ð»ÑĮÐ½Ð¾Ð³Ð¾": 2487,
      "ÑĥÑĤÑģÑĤÐ²": 2488,
      "ĠÐ¿Ð»Ð°Ð½": 2489,
      "ues": 2490,
      "work": 2491,
      "but": 2492,
      "Ð¼Ð¾ÑĤÑĢÐ¸Ð¼": 2493,
      "ĠÐŁÑĢÐ¸Ð¼ÐµÑĢ": 2494,
      "pha": 2495,
      "ĠÐ´Ð°Ð¶Ðµ": 2496,
      "ÑĢÑĥÑĪ": 2497,
      "ating": 2498,
      "Ġelse": 2499,
      "ĠÐ¶ÐµÐ»": 2500,
      "Ð¾Ð¶ÐµÑĤ": 2501,
      "Ð¸ÑĤÐµÐ»ÐµÐ¹": 2502,
      "Ġtrans": 2503,
      "ĠÐºÑĥÐ»ÑĮÑĤ": 2504,
      "leq": 2505,
      "ob": 2506,
      "ataset": 2507,
      "Ġtext": 2508,
      "ĠÐ±ÑĭÐ»Ð°": 2509,
      "ĠÐ¾Ð±Ð»Ð°ÑģÑĤÐ¸": 2510,
      "ÐµÑģÐ°": 2511,
      "Ġprocess": 2512,
      "Ð¸Ð±Ð»Ð¸Ð¾ÑĤÐµÐº": 2513,
      "ĠÐ¼Ð¾Ð¼": 2514,
      "ÑıÑİÑī": 2515,
      "ĠÑĢÐ°ÑģÐ¿ÑĢÐµÐ´ÐµÐ»": 2516,
      "ĠÐ½Ð°Ð¼": 2517,
      "ĠÐ¿ÑĢÐ¾Ð´Ð¾Ð»Ð¶": 2518,
      "Ġ18": 2519,
      "Ð°Ð±Ð»Ð¸": 2520,
      "ĠÑĢÐµÐºÐ¾Ð¼": 2521,
      "ĠÑįÐ»ÐµÐ¼ÐµÐ½ÑĤÐ¾Ð²": 2522,
      "ures": 2523,
      "ray": 2524,
      "ĠÑģÐ¸Ð»": 2525,
      "ĠÐ±Ð°Ð·": 2526,
      "\">": 2527,
      "train": 2528,
      "ĠÐ¸ÑģÐºÑĥÑģ": 2529,
      "ĠÑģÐ¾ÑĤÑĢÑĥÐ´": 2530,
      "50": 2531,
      "ĠÑĪÐ¸ÑĢ": 2532,
      "ĠÐ¸ÑģÐ¿Ð¾Ð»ÑĮÐ·Ð¾Ð²Ð°Ð½Ð¸Ðµ": 2533,
      "ĠÐ¾ÑĤÐ½Ð¾Ñģ": 2534,
      "ors": 2535,
      "Ð»Ð¸Ðº": 2536,
      "ract": 2537,
      "ÑĥÑģÑĤÑĮ": 2538,
      "ĠÑģÑĤÐ¾Ð»Ð±": 2539,
      "ml": 2540,
      "df": 2541,
      "ne": 2542,
      "Ð°Ð¶Ð¸": 2543,
      "ĠÐ»ÐµÑĤ": 2544,
      "ices": 2545,
      "ĠÐ¾Ð±Ð½Ð¾Ð²": 2546,
      "ÑĤÐ¸ÑĢÑĥ": 2547,
      "Ð°ÑİÑīÐ¸Ñħ": 2548,
      "ĠÑĥÑģ": 2549,
      "ĠÐ¿ÑĢÐ¾ÑĦ": 2550,
      "ĠÑģÐ¾Ð¾ÑĤÐ²ÐµÑĤÑģÑĤÐ²ÑĥÑİÑī": 2551,
      "ĠÑĥÑĩÐ¸ÑĤ": 2552,
      "ĠÑĩÐµÐ»Ð¾Ð²ÐµÐºÐ°": 2553,
      "ÐŁÑĢÐ¾Ð²ÐµÑĢ": 2554,
      "za": 2555,
      "ĠÐ¸ÑģÑĤÐ¾Ñĩ": 2556,
      "ĠÑģÑĩÐ¸ÑĤ": 2557,
      "ä¸": 2558,
      "ĠÑĤÑĢÐ¸": 2559,
      "ĠÐºÐ»ÐµÑĤ": 2560,
      "Ð¸ÑĪÐ¸ÑĤÐµ": 2561,
      "Ġdif": 2562,
      "ĠÐŁÐ¾": 2563,
      "ÑĢÐ°ÑĤÐµÐ³": 2564,
      "ĠÐ¾Ð´Ð½Ð¾Ð¹": 2565,
      "Ð½Ð¾Ð¶": 2566,
      "ĠÑĥÑĩÐ°ÑģÑĤ": 2567,
      "ments": 2568,
      "Ġmore": 2569,
      "ĠÐ¿ÑĢÐ¾Ð³ÑĢÐ°Ð¼Ð¼": 2570,
      "ĠÑģÑĤÐµÐ¿": 2571,
      "mo": 2572,
      "ÑģÐµ": 2573,
      "iew": 2574,
      "ĠÐ¡Ð¾Ð·Ð´": 2575,
      "Ð°Ð½Ð´Ð°ÑĢÑĤ": 2576,
      "ĠÐºÐ¾Ð½ÑĨ": 2577,
      "Ð¼Ð°ÑĤ": 2578,
      "Ġpu": 2579,
      "cre": 2580,
      "ĠÐ²ÐµÐ±": 2581,
      "Ð¼Ð¸Ð½": 2582,
      "Ð¸ÐºÑĥ": 2583,
      "ĠÐºÐ»Ð¸ÐµÐ½ÑĤÐ¾Ð²": 2584,
      "ĠÑĤÐµÐºÑģÑĤÐ°": 2585,
      "ics": 2586,
      "Ġclass": 2587,
      "ÐµÐ½Ð½Ð°Ñı": 2588,
      "ĠÐ¿ÐµÑĢÐµ": 2589,
      "Ð¡Ð¾Ð·Ð´": 2590,
      "ĠÐŁÐµÑĢ": 2591,
      "Ð¾ÑĤÑĭ": 2592,
      "Ð¸ÐºÐµ": 2593,
      "Ð°Ð¹Ð½": 2594,
      "ÐµÐ¶Ð´": 2595,
      "ĠÐ¸ÑģÐ¿Ð¾Ð»ÑĮÐ·Ð¾Ð²Ð°Ð½Ð¸ÐµÐ¼": 2596,
      "Ð²Ð¾": 2597,
      "ÑĪÐ¸ÑĢ": 2598,
      "Ġer": 2599,
      "ĠÑĦÐ°ÐºÑĤÐ¾ÑĢ": 2600,
      "Ð°Ð±Ð¾ÑĤ": 2601,
      "ĠÐŁÑĢÐ¾Ð²ÐµÑĢ": 2602,
      "ĠÐ¸Ð·Ð±": 2603,
      "ĠÐĺÐĺ": 2604,
      "Ð½ÐµÐ²": 2605,
      "ÐµÐ½Ð¾": 2606,
      "ĠÐ²Ð¾Ð»": 2607,
      "ĠÑĨÐ¸Ðº": 2608,
      "max": 2609,
      "ĠÐºÐ¾ÑĢÑĢ": 2610,
      "Ð°Ð·ÑĭÐ²Ð°ÐµÑĤ": 2611,
      "Ð°Ð²Ð°ÑĤÑĮ": 2612,
      "uct": 2613,
      "ĠÐ¼Ð°ÑĪÐ¸Ð½": 2614,
      "ÑĤÑĭ": 2615,
      "sp": 2616,
      "ÑĥÑĢÑĥ": 2617,
      "ĠÐ°Ð²ÑĤÐ¾Ð¼Ð°ÑĤ": 2618,
      "ĠÐ²Ð°ÑĪÐµÐ³Ð¾": 2619,
      "arg": 2620,
      "ĠPro": 2621,
      ".\"": 2622,
      "Ġfile": 2623,
      "ail": 2624,
      "Ġcomm": 2625,
      "word": 2626,
      "ĠÐ¾Ð·Ð½Ð°ÑĩÐ°ÐµÑĤ": 2627,
      "ĠÐ°Ðº": 2628,
      "ĠÐ¼Ð°Ð³": 2629,
      "ÑĢÐ°Ð±Ð°ÑĤ": 2630,
      "ĠÐ¿Ð»Ð°ÑĤ": 2631,
      "Ġinst": 2632,
      "ÑĭÐ²Ð°Ñı": 2633,
      "ĠÐ±Ð¸Ð±Ð»Ð¸Ð¾ÑĤÐµÐº": 2634,
      "ĠÐ¼Ð¾Ð´ÐµÐ»": 2635,
      "ument": 2636,
      "ĠÐ¾ÑģÐ¾Ð±ÐµÐ½Ð½Ð¾": 2637,
      "ateg": 2638,
      "Ð¥": 2639,
      "Ġsi": 2640,
      "23": 2641,
      "ĠÎ": 2642,
      "ĠÐµÑĳ": 2643,
      "ÐŁÐ¾Ð´": 2644,
      "amb": 2645,
      "Ð¾Ð»ÐµÐ²": 2646,
      "ĠÑĦÐ¾ÑĢÐ¼ÑĥÐ»": 2647,
      "ĠÐ¸ÑģÐ¿Ð¾Ð»ÑĮÐ·ÑĥÑİÑĤ": 2648,
      "Ð°ÑĢÐ¾Ð²": 2649,
      "Ġ$\\": 2650,
      "count": 2651,
      "ĠÐ¿ÑĢÐ¾Ð±Ð»ÐµÐ¼Ñĭ": 2652,
      "ert": 2653,
      "ĠÐ´ÑĢÑĥÐ³Ð¾Ð¹": 2654,
      "the": 2655,
      "que": 2656,
      "IN": 2657,
      "Ð¿ÑĢÐ¾ÑģÑĤ": 2658,
      "][": 2659,
      "ĠÐŀÐ½Ð¸": 2660,
      "ĠÑĩÐ°ÑģÑĤÑĮ": 2661,
      "ÑģÐ½Ð¾Ð²": 2662,
      "da": 2663,
      "ÑĤÐ²ÐµÑĢÐ¶Ð´": 2664,
      "mod": 2665,
      "Ġneed": 2666,
      "ĠÐ·Ð°ÑĤÐµÐ¼": 2667,
      "ÑģÐ¸Ð¸": 2668,
      "ĠÑĥÐºÐ°Ð·": 2669,
      "read": 2670,
      "ton": 2671,
      "arget": 2672,
      "Ð°ÑĢÑĮ": 2673,
      "Ġtime": 2674,
      "ĠÐ¸ÑģÐ¿Ð¾Ð»ÑĮÐ·ÑĥÑı": 2675,
      "Ġsol": 2676,
      "ÑĢÐµ": 2677,
      "Con": 2678,
      "ĠÐ²ÐµÑī": 2679,
      "ull": 2680,
      "ĠÐ²ÑģÐµÐ³Ð¾": 2681,
      "ĠÐĿÐµ": 2682,
      "ĠÑģÐ¸Ð½": 2683,
      "ree": 2684,
      "Ġprov": 2685,
      "ĠÑĢÐµÐ±": 2686,
      "Ð¾Ð±ÑĭÑĤ": 2687,
      "mb": 2688,
      "ÑģÐºÐ¸Ñħ": 2689,
      "ĠÐ»ÑĥÑĩÑĪÐµ": 2690,
      "amp": 2691,
      "ĠÐ¼Ð¾": 2692,
      "abil": 2693,
      "ethod": 2694,
      "Ġimp": 2695,
      "ĠÐºÐ¾Ð½ÑĤÐµÐºÑģÑĤ": 2696,
      "ĠÐ¾ÑĤÐ¿ÑĢÐ°Ð²": 2697,
      "ĠÐ¿Ð¾Ð·Ð¸ÑĨÐ¸": 2698,
      "Ð¸Ð²Ð°Ð½Ð¸Ñı": 2699,
      "Ġlist": 2700,
      "oth": 2701,
      "ĠÐ°Ð»Ð³Ð¾ÑĢÐ¸ÑĤÐ¼": 2702,
      "ÐµÐ½Ð½ÑĭÐ¼": 2703,
      "ĠÐ³ÐµÐ½ÐµÑĢ": 2704,
      "ose": 2705,
      "Ð¾Ð³ÑĢÐ°ÑĦ": 2706,
      "Ġob": 2707,
      "ON": 2708,
      "ĠÐ¾ÑĩÐµÐ½ÑĮ": 2709,
      "Ġu": 2710,
      "ÐŃÑĤÐ¾ÑĤ": 2711,
      "ĠÑģÐµÑĤÐ¸": 2712,
      "Ġnp": 2713,
      "alpha": 2714,
      "ÐµÑĢÑħ": 2715,
      "Ð¾Ð½Ð¾Ð²": 2716,
      "alse": 2717,
      "Ð³Ð¾ÑĤÐ¾Ð²": 2718,
      "ĠÑģÑĥÑīÐµÑģÑĤÐ²ÑĥÐµÑĤ": 2719,
      "igh": 2720,
      "Ð¿ÐµÑĢÐ°ÑĤ": 2721,
      "ĠÐ³Ð°ÑĢ": 2722,
      "Ð¢ÐµÐ¿ÐµÑĢÑĮ": 2723,
      "ĠÐ¿Ð¾Ð»ÐµÐ·": 2724,
      "ĠÐ¿ÑĢÐ¸Ð²Ð¾Ð´": 2725,
      "Ġadd": 2726,
      "ÑĢÐ¾Ð´": 2727,
      "ĠÐ¿ÑĢÐ¸Ñĩ": 2728,
      "ĠÑģÐºÑĢ": 2729,
      "ĠÑĢÐ¾ÑģÑĤ": 2730,
      "ĠÐŁÑĢÐ¸": 2731,
      "Ð²ÐµÑĩ": 2732,
      "17": 2733,
      "ĠÐĲÐ½": 2734,
      "ÑįÑĦÑĦÐ¸ÑĨÐ¸": 2735,
      "ĠÑĥÐ³Ð»": 2736,
      "Ġsp": 2737,
      "ĠÐ¼Ð¾ÑĢ": 2738,
      "roup": 2739,
      "ann": 2740,
      "ĠÑĦÐ¸Ð»ÑĮ": 2741,
      "Ãł": 2742,
      "ÑĥÐ¶Ð´": 2743,
      "ĠÐ³Ð¾ÑĤÐ¾Ð²": 2744,
      "ĠÐ½ÐµÐ±": 2745,
      "ÐĴÐ¾ÑĤ": 2746,
      "num": 2747,
      "ÑĥÑı": 2748,
      "ĠÐ¼Ð°Ð»": 2749,
      "ĠÐ¿ÑĢÐ¸ÑĢ": 2750,
      "ÐµÑĦ": 2751,
      "ĠÐºÐ¾Ð´Ð°": 2752,
      "Ð½ÐµÐ³Ð¾": 2753,
      "ĠÐ¾Ð¿ÑĤÐ¸Ð¼Ð¸Ð·": 2754,
      "ound": 2755,
      "ĠÑįÐ½ÐµÑĢÐ³Ð¸Ð¸": 2756,
      "ĠÐ¦": 2757,
      "mpt": 2758,
      "Ð½Ð¾Ð·": 2759,
      "ĠÐºÐ¾Ð¼Ð¿Ð°Ð½Ð¸Ð¸": 2760,
      "ĠÐ²Ð¾Ð´": 2761,
      "ĠÑĩÐ°Ñģ": 2762,
      "Ð¸Ð·Ð°ÑĨÐ¸Ð¸": 2763,
      "ĠÐ²ÐºÐ»ÑİÑĩÐ°ÐµÑĤ": 2764,
      "pp": 2765,
      "ĠÐ¿ÑĢÐ°ÐºÑĤ": 2766,
      "ĠÐ±Ð»Ð¾Ðº": 2767,
      "();": 2768,
      "bin": 2769,
      "].": 2770,
      "cul": 2771,
      "The": 2772,
      "ÐµÐ½Ð½Ð¾ÑģÑĤÐ¸": 2773,
      "ĠÐ¿ÑĢÐ¾Ð¸Ñģ": 2774,
      "ĠÐ¸Ð·ÑĥÑĩ": 2775,
      "ength": 2776,
      "Ġlog": 2777,
      "ĠÐ±Ð¸Ð·Ð½": 2778,
      "ĠÐ·Ð°Ð¿Ð¸Ñģ": 2779,
      "Ġcor": 2780,
      "ĠÐ²ÑĭÑħÐ¾Ð´": 2781,
      "ĠÐ´Ð¾ÐºÑĥÐ¼": 2782,
      "ST": 2783,
      "Ð½ÐµÐ¼": 2784,
      "ĠÐ²Ð¾Ð·Ð½Ð¸Ðº": 2785,
      "ĠÑģÑĤÑĢÐ°ÑĤÐµÐ³": 2786,
      "ĠÐ¢Ð°Ðº": 2787,
      "ĠÐºÐ¾Ð¼Ð¿Ð¾Ð½": 2788,
      "ĠÐ¿ÑĢÐ¸Ð²ÐµÑģÑĤÐ¸": 2789,
      "AT": 2790,
      "its": 2791,
      "ĠÑĥÐ¿ÑĢÐ°Ð²Ð»ÐµÐ½Ð¸Ñı": 2792,
      "ÑĪÐµ": 2793,
      "Ġgener": 2794,
      "ĠÑģÐ¸Ð»ÑĮ": 2795,
      "Ð¸Ð¼ÑĥÑīÐµÑģÑĤÐ²": 2796,
      "ĠÐ¸ÑģÐ¿Ð¾Ð»ÑĮÐ·ÑĥÐµÐ¼": 2797,
      "ĠÑįÑĤÑĥ": 2798,
      "Ð°Ð»ÑĮÐ½Ð¾": 2799,
      "ĠÐºÐ¾Ð¼Ð¿ÑĮÑİÑĤÐµÑĢ": 2800,
      "Ð¸ÑĨ": 2801,
      "http": 2802,
      "})": 2803,
      "Ð¸Ð²Ð°Ñı": 2804,
      "rad": 2805,
      "ings": 2806,
      "ava": 2807,
      "ĠÐ¿ÐµÑĢÑģÐ¾Ð½": 2808,
      "Ġ25": 2809,
      "ĠÐ²ÑģÑĤÑĢ": 2810,
      "ĠÐ¿ÑĢÐ¸Ð±": 2811,
      "âĶ": 2812,
      "ĠÑĦÐ¸Ð½": 2813,
      "ĠÐ¼Ð¸Ð½ÑĥÑĤ": 2814,
      "ĠÐ¿Ð¸ÑĤ": 2815,
      "ĠÑģÐ¾Ð±ÑĭÑĤ": 2816,
      "ĠÐ¼ÐµÑĤÐ¾Ð´Ñĭ": 2817,
      "ild": 2818,
      "LE": 2819,
      "ĠÑĢÐ°Ð´Ð¸": 2820,
      "Ð»ÑİÑĩÐµÐ½Ð¸Ðµ": 2821,
      "30": 2822,
      "eat": 2823,
      "ĠÐ°Ð´Ð°Ð¿": 2824,
      "==": 2825,
      "ĠÐ¿ÑĢÐ¾ÑģÑĤÐ¾": 2826,
      "ĠÐ¿ÑĢÐ¾Ð¸Ð·Ð²Ð¾Ð´Ð¸ÑĤÐµÐ»ÑĮ": 2827,
      "Ġwill": 2828,
      "gram": 2829,
      "ĠÑĤÐµÐ±Ñı": 2830,
      "ĠÑģÐ¸ÑĤÑĥ": 2831,
      "Ð°Ð»Ð¾Ð²": 2832,
      "ĠÐ¸ÑģÐ¿Ð¾Ð»ÑĮÐ·ÑĥÐµÑĤ": 2833,
      "ÐµÐ»Ð»ÐµÐºÑĤ": 2834,
      "ĠÐ½Ð°Ð¹Ð´": 2835,
      "ĠÐºÐ°ÑĤ": 2836,
      "ĠÑģÐ²ÐµÑĤ": 2837,
      "ĠÐŁÑĢÐµÐ´": 2838,
      "olog": 2839,
      "ÐºÐ¸Ð¹": 2840,
      "che": 2841,
      "ÑıÑı": 2842,
      "ĠÐ¿ÑĢÐ¸Ð·": 2843,
      "irst": 2844,
      "ick": 2845,
      "ÑĬÑıÑģÐ½": 2846,
      "ÐµÐ³ÑĢ": 2847,
      "ÑĨÐ¸Ð¿": 2848,
      "ĠÑĩÐ»ÐµÐ½": 2849,
      "Ð°Ð»Ð»": 2850,
      "âĪ": 2851,
      "ublic": 2852,
      "Ð°Ð»Ñĭ": 2853,
      "ÐĴÑħÐ¾Ð´": 2854,
      "Ð²Ð°ÑĤ": 2855,
      "ĠÑģÑĢÐ°Ð²Ð½": 2856,
      "ĠÑĤÐ°Ð±Ð»Ð¸": 2857,
      "ĠÐŁÐ¾ÑģÐ»Ðµ": 2858,
      "ĠÐ´ÐµÐ»Ð°ÐµÑĤ": 2859,
      "ĠÐ¿Ð¾Ð»ÑĥÑĩÐ¸ÑĤÑĮ": 2860,
      "ĠÐ¾Ð¶": 2861,
      "Ð¾Ð½ÐµÑĩÐ½Ð¾": 2862,
      "Ġent": 2863,
      "Ġri": 2864,
      "ĠÐ¿ÑĢÐµÐ´Ð»Ð°Ð³": 2865,
      "ms": 2866,
      "add": 2867,
      "ĠÐ¼Ñĥ": 2868,
      "ĊĠĠĠĠĠĠ": 2869,
      "ĠData": 2870,
      "izer": 2871,
      "Ġeach": 2872,
      "ous": 2873,
      "ĠÐ¾Ð¿ÑĭÑĤ": 2874,
      "Ġwhich": 2875,
      "ĠÑįÐ»ÐµÐ¼ÐµÐ½ÑĤÑĭ": 2876,
      "ĠÐ²Ð½Ð¸Ð¼Ð°Ð½Ð¸Ðµ": 2877,
      "Ð°ÑĤÐ¾Ñĩ": 2878,
      "ĠÐ°ÑĥÐ´": 2879,
      "Ð°Ð¼ÐµÐ½": 2880,
      "ages": 2881,
      "ĠÐ³Ð¾ÑĢÐ¾Ð´": 2882,
      "ica": 2883,
      "='": 2884,
      "ÑĳÐ½": 2885,
      "ĠÑĤÐ¾Ðº": 2886,
      "ĠÐ½Ð°Ð²Ñĭ": 2887,
      "ĠÐ½Ð°ÑģÑĤ": 2888,
      "ĠÐ½ÐµÐºÐ¾ÑĤÐ¾ÑĢÑĭÐµ": 2889,
      "(-": 2890,
      "Ð¾ÑĨÐ¸": 2891,
      "Ġ+=": 2892,
      "ĠÑĤÑĢÐµÑĥÐ³Ð¾Ð»ÑĮÐ½Ð¸ÐºÐ°": 2893,
      "ÐĿÐ°Ð¿": 2894,
      "Ð°ÑĢÑı": 2895,
      "ĠÑģÐ¾Ð·Ð´Ð°ÑĤÑĮ": 2896,
      "ĠÑĥÑĢÐ°Ð²Ð½ÐµÐ½Ð¸Ñı": 2897,
      "ÑıÑĤÐ¸": 2898,
      "erson": 2899,
      "net": 2900,
      "ased": 2901,
      "ĠÐ½Ð¾Ð²ÑĭÑħ": 2902,
      "Ð¸Ð½Ð°Ð¼": 2903,
      "ative": 2904,
      "Ð¾ÑģÐº": 2905,
      "rix": 2906,
      "ÑģÐºÐ¾Ð¼": 2907,
      "ĠÑĩÑĥÐ²ÑģÑĤÐ²": 2908,
      "Ð½Ð¸Ñĩ": 2909,
      "ÑģÐ¸Ñħ": 2910,
      "ÑĤÐ¾Ð²": 2911,
      "Ġpr": 2912,
      "ĠÐ´Ð¾Ð»Ð¶Ð½Ð¾": 2913,
      "ib": 2914,
      "ĠÐºÑĢÑĥÐ³": 2915,
      "ĠÑĢÑĥ": 2916,
      "ader": 2917,
      "ĠÑģÑĤÐ°ÑĤÑĮ": 2918,
      "Ð¾ÑıÑī": 2919,
      "Th": 2920,
      "ĠÐ¸Ð½ÑĤÐµÐ»Ð»ÐµÐºÑĤ": 2921,
      "me": 2922,
      "ĠÑģÐ»ÐµÐ´ÑĥÑİÑīÐ¸Ðµ": 2923,
      "ÑĤÐµÑĢÐ½": 2924,
      "Ð¾ÑĤÐ¸Ð²": 2925,
      "ĠÐ¾ÑĤÑģ": 2926,
      "ĠÐ¿Ð¾Ð¼Ð¾Ð³Ð°ÐµÑĤ": 2927,
      "ÐŁÑĢÐµÐ´": 2928,
      "ÐµÐ½Ñģ": 2929,
      "Ġsum": 2930,
      "Ġ30": 2931,
      "ĠÑįÐ»ÐµÐºÑĤÑĢÐ¾Ð½": 2932,
      "ÐŁÐµÑĢ": 2933,
      "ĠÐ±ÐµÐ·Ð¾Ð¿Ð°ÑģÐ½Ð¾ÑģÑĤÐ¸": 2934,
      "ĠÐŁÐ¾Ð»": 2935,
      "ĠÐŃÑĤÐ¾ÑĤ": 2936,
      "ado": 2937,
      "Ð°ÑĢÐ°": 2938,
      "ÑıÐ½Ð¸Ðµ": 2939,
      "Ð¼Ðµ": 2940,
      "Ð¾Ð¹ÑĩÐ¸Ð²": 2941,
      "ĠÑģÑĤÐ°Ð½Ð´Ð°ÑĢÑĤ": 2942,
      "ÑģÐ¿ÐµÐºÑĤ": 2943,
      "ÐĺÑģÐ¿Ð¾Ð»ÑĮÐ·": 2944,
      ")}": 2945,
      "ĠÑģÐ»Ð¾Ð²Ð°": 2946,
      "^\\": 2947,
      "ĠÐ¼ÐµÐ½ÑĮÑĪÐµ": 2948,
      "plit": 2949,
      "ÐµÐ´Ð¸": 2950,
      "ĠÑĢÐ°Ð±": 2951,
      "Ð¾Ð¼Ð¸Ð½": 2952,
      "label": 2953,
      "ĠAB": 2954,
      "ĠÐ¿ÑĢÐµÐ²": 2955,
      "ĠÐ¿Ð°Ð¼": 2956,
      "Ġq": 2957,
      "ÐµÐ·Ð´": 2958,
      "Ġpri": 2959,
      "ÐłÐ°Ñģ": 2960,
      "led": 2961,
      "Ġno": 2962,
      "ef": 2963,
      "Ġmain": 2964,
      "ĠÑĢÐ°Ð·Ð½ÑĭÑħ": 2965,
      "ÐŀÑĤÐ²ÐµÑĤ": 2966,
      "iel": 2967,
      "ID": 2968,
      "div": 2969,
      "Ð¿Ð¾Ñĩ": 2970,
      "vers": 2971,
      "idad": 2972,
      "ĠÑģÐ¿Ð¾ÑģÐ¾Ð±ÑģÑĤÐ²": 2973,
      "ĠÐ¸Ð¼ÐµÑĤÑĮ": 2974,
      "Ð¿ÑĢÐ¾ÑģÑĤÑĢÐ°Ð½": 2975,
      "ĠÐ²Ð¾Ð·Ð¼Ð¾Ð¶Ð½Ð¾ÑģÑĤÑĮ": 2976,
      "ĠÑģÑĤÑĢÐ¾ÐºÐ°": 2977,
      "ÑĥÐ½ÐºÑĨÐ¸Ñı": 2978,
      "ĠÑĤÐµÐ¼Ð¿ÐµÑĢÐ°ÑĤ": 2979,
      "ĠÐŃÑĤÐ¸": 2980,
      "ional": 2981,
      "ĠÑĢÐ°Ð·Ð»Ð¸ÑĩÐ½ÑĭÐµ": 2982,
      "ĠÐ³Ð»ÑĥÐ±Ð¾Ðº": 2983,
      "99": 2984,
      "Ð½ÑıÑı": 2985,
      "Ġbut": 2986,
      "ÑĤÐ¾Ñĩ": 2987,
      "ĠÐ½Ð°ÑħÐ¾Ð´Ð¸ÑĤÑģÑı": 2988,
      "pect": 2989,
      "ĠÐ¾Ð¿ÑĢÐµÐ´ÐµÐ»ÐµÐ½Ð¸Ñı": 2990,
      "ĠÐ½ÐµÑģÐºÐ¾Ð»ÑĮ": 2991,
      "ĠÐ°ÑĤ": 2992,
      "().": 2993,
      "Ġact": 2994,
      "inal": 2995,
      "circ": 2996,
      "ĠÐ¿Ð¾Ð²ÐµÐ´": 2997,
      "Ġconst": 2998,
      "ru": 2999,
      "ĠÐ½Ð°ÑĥÑĩ": 3000,
      "ĠÐºÐ½Ð¸Ð³": 3001,
      "Ġ\\\\": 3002,
      "ĠÐ¾Ð±ÑĢÐ°Ð±Ð¾ÑĤÐºÐ¸": 3003,
      "ĠÐ²ÑĭÐ¿Ð¾Ð»Ð½ÐµÐ½Ð¸Ñı": 3004,
      "ĠÐĶÐ¶": 3005,
      "rit": 3006,
      "bash": 3007,
      "ĠÐ¡Ð»": 3008,
      "ier": 3009,
      "ponse": 3010,
      "duct": 3011,
      "ĠÐ¿Ð¾ÐºÑĥÐ¿": 3012,
      "ĠÐ¶Ð¸Ð²Ð¾ÑĤ": 3013,
      "Ð»ÑıÐ´": 3014,
      "Ð³Ð¾Ð²": 3015,
      "ĠÑĤÐ°ÐºÐ¾Ð¹": 3016,
      "ĠÑĥÑģÐ»ÑĥÐ³": 3017,
      "ĠÑĢÐµÑĪÐµÐ½Ð¸Ðµ": 3018,
      "main": 3019,
      "ÐĺÐ½": 3020,
      "ĠÐ½ÐµÐ·": 3021,
      "ĠÐ¼Ð½Ð¾Ð¶ÐµÑģÑĤÐ²Ð¾": 3022,
      "ÑģÑĤÐ²Ð¸Ñı": 3023,
      "Ġeff": 3024,
      "enci": 3025,
      "Ð¾ÑĩÐµÑĤ": 3026,
      "ely": 3027,
      "ĠÐºÐ¾Ð¼Ð°Ð½": 3028,
      "Ð½ÑĥÑĤÑĮ": 3029,
      "cont": 3030,
      "ĠÐ½Ð¾ÑĢÐ¼": 3031,
      "ÐµÑĩÐµÐ½Ð¸Ðµ": 3032,
      "angle": 3033,
      "ĠÐ²Ð¾Ð´Ñĭ": 3034,
      "ĠÐ²Ð¾Ð¿ÑĢÐ¾ÑģÑĭ": 3035,
      "ÑĢÐµÐ²": 3036,
      "ans": 3037,
      "ĠÐºÐ°ÑĩÐµÑģÑĤÐ²Ðµ": 3038,
      "ĠÐ´Ð¾ÑĢ": 3039,
      "ĠÑģÐ½Ð¸Ð¶": 3040,
      "ĠÐ½Ð°ÑģÑĤÑĢÐ¾": 3041,
      "32": 3042,
      "ization": 3043,
      "Ð°Ð»Ð¸Ð·Ð°ÑĨÐ¸Ñı": 3044,
      "Ġ11": 3045,
      "ÑĭÐ²Ð°ÐµÐ¼": 3046,
      "ĠÐ·Ð½Ð°ÑĩÐµÐ½Ð¸Ð¹": 3047,
      "40": 3048,
      "ss": 3049,
      "ĠÐ¿ÑĢÐ¸Ñģ": 3050,
      "ĠÑĤÑĢÑĥÐ´": 3051,
      "Ð¾Ð½Ñĭ": 3052,
      ")(": 3053,
      "ĠÐ²Ð°ÑĪÐµÐ¹": 3054,
      "ĠÐ°ÑģÐ¿ÐµÐºÑĤ": 3055,
      "ĠÑĢÐ°Ð±Ð¾Ñĩ": 3056,
      "}^{": 3057,
      "ĠÐºÐ°Ð¼": 3058,
      "Ġstd": 3059,
      "ĠÐ¿Ð¾ÑģÑĤÐ¾ÑıÐ½": 3060,
      "ĠÐ¿ÐµÑĢÐ¸": 3061,
      "lex": 3062,
      "imp": 3063,
      "ĠÑģÐ¾ÐµÐ´Ð¸Ð½": 3064,
      "Ð¸Ð½Ñĥ": 3065,
      "ĠEn": 3066,
      "ĠÑĦÐ¾ÑĢÐ¼Ð°ÑĤ": 3067,
      "ÑĢÐ°Ñĩ": 3068,
      ".**": 3069,
      "ÑĤÐ¾Ð³": 3070,
      "ĠÐ¡Ð¾": 3071,
      "ĠÑģÐ»ÑĥÑĩÐ°Ð¹": 3072,
      "ÐŃÑĤÐ¾": 3073,
      "ĠÑĦÐ¸Ð½Ð°Ð½Ñģ": 3074,
      "ĠÐ°Ð½Ð°Ð»Ð¸Ð·Ð°": 3075,
      "ĠÑĤÐ¾ÑĩÐµÐº": 3076,
      "Ġend": 3077,
      "orm": 3078,
      "Ð»ÐµÐºÑģ": 3079,
      "Ġreg": 3080,
      "Ġsup": 3081,
      "ĠÐ¿Ð¾Ð³": 3082,
      "ĠÑĥÐ»ÑĥÑĩÑĪÐ¸ÑĤÑĮ": 3083,
      "Ð°ÑĤÐµÐ»ÑĮÐ½Ð¾": 3084,
      "Ġ_": 3085,
      "ĠÐ±ÑĥÐº": 3086,
      "ÑĢÐ°Ð¹": 3087,
      "ĠÐºÐ¾ÑįÑĦÑĦÐ¸ÑĨÐ¸": 3088,
      "ĠÐ¼Ð¾Ð½": 3089,
      "Pro": 3090,
      "cal": 3091,
      "ĠÐ²Ð¾Ð·Ð´Ñĥ": 3092,
      "ĠÑĤÑĢÐµÐ±ÑĥÐµÑĤ": 3093,
      "ĠÑĢÐ°Ð±Ð¾ÑĤÐ°ÐµÑĤ": 3094,
      "ĠÐ´Ð¸Ð°Ð³": 3095,
      "ĠÑĩÐµÑĤÑĭ": 3096,
      "Ġ(-": 3097,
      "ĠÐ¾Ð±ÑĬÐµÐ¼": 3098,
      "test": 3099,
      "ĠÐºÑĤÐ¾": 3100,
      "ĠÑĢÐµÑĪÐµÐ½Ð¸Ð¹": 3101,
      "ĠÑģÐ¾Ð±ÑģÑĤÐ²ÐµÐ½": 3102,
      "Ð»Ð¾Ð½": 3103,
      "umn": 3104,
      "ĠÑģÑĤÐ°Ð½Ð¾Ð²": 3105,
      "ĠÐ½ÐµÑĢ": 3106,
      "ĠÑıÐ·ÑĭÐºÐ¾Ð²Ð°Ñı": 3107,
      "ĠÑĪÐ¸ÑĢÐ¾Ðº": 3108,
      "ÐŁÐ¾Ñģ": 3109,
      "ĠIt": 3110,
      "ĠÐĺÑģÐ¿Ð¾Ð»ÑĮÐ·ÑĥÐ¹ÑĤÐµ": 3111,
      "Ð¾Ð¶Ð´ÐµÐ½Ð¸Ñı": 3112,
      "ĠÐºÐ¾ÑĤÐ¾ÑĢÐ¾Ð¹": 3113,
      "ÑĮÐµ": 3114,
      "ĠÐ½Ð¾Ð²ÑĭÐµ": 3115,
      "Ġbet": 3116,
      "Ð¼ÐµÐ½ÑĤ": 3117,
      "ink": 3118,
      "ĠÐ£Ð±ÐµÐ´Ð¸ÑĤÐµÑģÑĮ": 3119,
      "ÑĢÐ°Ñħ": 3120,
      ")**:": 3121,
      "ater": 3122,
      "Ð°Ð½Ð½ÑĭÐ¹": 3123,
      "ÑĢÐ¸ÑĨ": 3124,
      "append": 3125,
      "Ð¸Ð¾Ð½": 3126,
      "ĠÐ¾Ð´Ð½Ð¾Ð³Ð¾": 3127,
      "ĠÐ½Ð°Ð»": 3128,
      "ĠÐ¼ÐµÑħ": 3129,
      "ĠÐ½Ð°Ðº": 3130,
      "ĠÑĢÐ°Ð·ÑĢÐ°Ð±Ð¾ÑĤÐ°Ð½Ð½Ð°Ñı": 3131,
      "Ġatt": 3132,
      "Ġ%": 3133,
      "Ġlas": 3134,
      "Ġ...": 3135,
      "ĠÑģÑĩÐµÑĤ": 3136,
      "ĠÑĥÐ±": 3137,
      "ĠÐ¿Ð¾Ð²ÑĤÐ¾ÑĢ": 3138,
      "Ġhas": 3139,
      "ĠÑĨÐµÐ½ÑĤÑĢ": 3140,
      "Ð°ÑİÑīÐµÐ¹": 3141,
      "Ex": 3142,
      "att": 3143,
      "ĠÐ°Ð´Ð°Ð¿ÑĤ": 3144,
      "ities": 3145,
      "Ð¸ÑĤÑĭ": 3146,
      "ĠÐ±ÑĥÐ´ÑĥÑī": 3147,
      "ĠÐļÐ°Ð¶Ð´": 3148,
      "ĠÐ¿ÑĥÑĤÐ¸": 3149,
      "ĠÐ¿Ð¾ÑģÐºÐ¾Ð»ÑĮÐºÑĥ": 3150,
      "Ġover": 3151,
      "ĠÐ³Ð¾Ð´Ð°": 3152,
      "ĠÐ½ÐµÐ¼": 3153,
      "ource": 3154,
      "ĠÐºÐ°ÐºÐ¸Ðµ": 3155,
      "Ð°Ð»Ð¸ÑģÑĤ": 3156,
      "Ð¾Ð¿Ð¾Ð»": 3157,
      "60": 3158,
      "Ġ)": 3159,
      "Ð¾ÑĦ": 3160,
      "ÐĴÑĭÑħÐ¾Ð´": 3161,
      "ĠÑĢÐ°ÑģÐ¿ÑĢÐ¾ÑģÑĤÑĢÐ°Ð½": 3162,
      "yp": 3163,
      "sig": 3164,
      "Ð°ÐµÑĪÑĮ": 3165,
      "Data": 3166,
      "Ð½Ð¸ÑĤÐµ": 3167,
      "ÐłÐ°Ð·": 3168,
      "ĠÐ¿ÐµÑĢÐµÐ²": 3169,
      "Ð¸Ð²Ð°ÐµÑĤÑģÑı": 3170,
      "ĠÐ¿Ð¾Ð»Ð¸ÑĤ": 3171,
      "ĠÑĦÑĥÐ½ÐºÑĨÐ¸Ñı": 3172,
      "ĠÑĤÐ°ÐºÐ¾Ðµ": 3173,
      "ĠAd": 3174,
      "result": 3175,
      "ĠÐ¿ÑĢÐ¾ÑĦÐµÑģÑģ": 3176,
      "Ð°ÑģÑĤÐ²": 3177,
      "ĠÐ½Ð°ÑģÑĤÑĢÐ¾Ð¹": 3178,
      "ĠÑĨÐµÐ»ÑĭÑħ": 3179,
      "Ġcode": 3180,
      "Ġwork": 3181,
      "ute": 3182,
      "ĠÐºÐ¾Ð½ÐµÑĩ": 3183,
      "`:": 3184,
      "time": 3185,
      "ĠÐ²ÐµÑģ": 3186,
      "ĠÑĢÑĭÐ½": 3187,
      "ĠÐ´Ð²Ðµ": 3188,
      "ĠÐ¾ÐºÑĢÑĥÐ¶Ð½Ð¾ÑģÑĤÐ¸": 3189,
      "Ð°Ð·Ð°": 3190,
      "ify": 3191,
      "ĠÐ¼ÐµÐ½ÐµÐµ": 3192,
      "ÐµÐ½Ð½ÑĭÐ¼Ð¸": 3193,
      "Ġinto": 3194,
      "Ġ13": 3195,
      "Ġget": 3196,
      "Ð¾Ð³Ð»Ð°Ñģ": 3197,
      "ĠÐ¾Ð´Ð½Ð¾": 3198,
      "QL": 3199,
      "rite": 3200,
      "ÑģÑģ": 3201,
      "Ð¸ÑĤÐµÐ»Ð¸": 3202,
      "Ð²Ñĭ": 3203,
      "ĠÑģÑĤÐ°ÑĢ": 3204,
      "ÑĩÐ°ÑģÑĤ": 3205,
      "Ð¿Ð°Ð´": 3206,
      "ĠÑĤÐµÐ¿": 3207,
      "let": 3208,
      "ĠÐºÐ°ÑĢ": 3209,
      "ĠÑįÐºÑģÐ¿ÐµÑĢ": 3210,
      "Ġsystem": 3211,
      "Ġstart": 3212,
      "ĠÑģÐ¾Ð²ÑĢÐµÐ¼": 3213,
      "ÑĤÐµÑģÑĮ": 3214,
      "ÑıÐ³": 3215,
      "ĠÐ¿Ð¾Ð±": 3216,
      "cur": 3217,
      "ĠÐŀÐ½Ð°": 3218,
      "class": 3219,
      "ÑĪÑĤ": 3220,
      "Ġcal": 3221,
      "ied": 3222,
      "çļ": 3223,
      "ĠÐŀÐ¿ÑĢÐµÐ´ÐµÐ»": 3224,
      "())": 3225,
      "Ð¾Ð»Ñı": 3226,
      "nect": 3227,
      "Ð°ÑĤÐµÐ¼": 3228,
      "Ġopt": 3229,
      "ĠÐ¸Ð³ÑĢÐ¾Ðº": 3230,
      "ĠÑģÐµÐº": 3231,
      "ĠÐ²ÑĭÐ·Ð¾Ð²": 3232,
      "Ġits": 3233,
      "Ġlike": 3234,
      "Ð¸ÐµÐ¹": 3235,
      "Ð¸ÑĢÑĥÐµÑĤ": 3236,
      "ĠÑĦÑĥÐ½": 3237,
      "iones": 3238,
      ")/": 3239,
      "çļĦ": 3240,
      "21": 3241,
      "ĠÐ¾Ð±ÑıÐ·": 3242,
      "Ġ14": 3243,
      "rid": 3244,
      "ĠÐ¿ÑģÐ¸Ñħ": 3245,
      "ĠÐ½Ð°Ð±Ð¾ÑĢ": 3246,
      "ĠÐ²Ð¾Ð·Ð¼Ð¾Ð¶Ð½Ð¾ÑģÑĤÐ¸": 3247,
      "ĠÐ¿ÑĢÐ¾ÑģÑĤÑĢÐ°Ð½": 3248,
      "ÐµÐ½Ð½ÑĥÑİ": 3249,
      "Ġ50": 3250,
      "ÑĢÐ°Ð±Ð¾ÑĤÐºÐ°": 3251,
      "AR": 3252,
      "ĠÑĥÑĢÐ¾Ð²ÐµÐ½ÑĮ": 3253,
      "ÑģÑĤÐ²Ðµ": 3254,
      "ĠÐ¾Ð¶Ð¸Ð´": 3255,
      "ÐµÑĩÐµÐ½Ð¸Ñı": 3256,
      "Ð°Ð½Ð½Ð¾Ð¹": 3257,
      "ĠÑĤÐµÐ¾ÑĢ": 3258,
      "lp": 3259,
      "Ð¸ÐºÑģ": 3260,
      "ĠÐºÐ¾Ð»Ð¸ÑĩÐµÑģÑĤÐ²Ð°": 3261,
      "rop": 3262,
      "ĠÐ´ÑĢÑĥÐ³Ð¸Ð¼Ð¸": 3263,
      "Ð³Ð»": 3264,
      "ĠÐ¿ÑĢÑıÐ¼Ð¾": 3265,
      "En": 3266,
      "ustom": 3267,
      "ĠÐ²ÑģÑĤÑĢÐµÑĩ": 3268,
      "Ġsign": 3269,
      "ĠÐ²ÑģÐµÐ¼": 3270,
      "Ð°ÑĨÐ¸ÐµÐ¹": 3271,
      "vol": 3272,
      "ĠÑģÐ¿ÑĢÐ°Ð²": 3273,
      "ĠÑĤÑĢÐ°Ð½ÑģÐ¿": 3274,
      "uc": 3275,
      "Ġoutput": 3276,
      "Ġ200": 3277,
      "Ġspecific": 3278,
      "ĠÑĢÐµÐ³ÑĥÐ»ÑıÑĢ": 3279,
      "Ġappro": 3280,
      "ĠÐ¿ÑĢÐ¸Ð»Ð¾Ð¶ÐµÐ½Ð¸Ñı": 3281,
      "ĠÐ±ÑĭÑģÑĤÑĢ": 3282,
      "Ð»ÑıÑı": 3283,
      "Ð¿Ð»": 3284,
      "ĠÐ¿Ð¾ÐºÐ°": 3285,
      "ĠÐ½ÐµÑģ": 3286,
      "Ð°Ð»ÑĮÐ½Ð°Ñı": 3287,
      "ĠÐºÐ¾Ð¼Ð°Ð½Ð´Ñĭ": 3288,
      "Ð½Ð¾Ð¾Ð±ÑĢÐ°Ð·": 3289,
      "Ð½Ð°ÑĩÐ°Ð»Ð°": 3290,
      "Ð¡ÑĤ": 3291,
      "Ġtorch": 3292,
      "Frame": 3293,
      "ĠÐ½Ð°Ð¸Ð±Ð¾Ð»ÐµÐµ": 3294,
      "ĠÐ±ÐµÐ»": 3295,
      "ĠÐ¼ÑĭÑĪ": 3296,
      "Ġvalue": 3297,
      "back": 3298,
      "ĠÑĤÐµÐ±Ðµ": 3299,
      "ĠÑģÐµÑĢÐ²ÐµÑĢ": 3300,
      "Ġtest": 3301,
      "ĠÑĢÐ¾Ð»ÑĮ": 3302,
      "ĠÑĥÑģÐ¿ÐµÑĪ": 3303,
      "ĠRe": 3304,
      "theta": 3305,
      "Ġdiffer": 3306,
      "Ð¸ÑĢÑĥÐµÐ¼": 3307,
      "ĠUn": 3308,
      "Ġhow": 3309,
      "ÑĳÐ¼": 3310,
      "ribut": 3311,
      "ÑĪÐ¸Ñħ": 3312,
      "ĠÑĢÐ°ÑģÑĪÐ¸ÑĢ": 3313,
      "Ð½Ð¾Ñģ": 3314,
      "Ð»ÑıÐµÑĤÑģÑı": 3315,
      "ato": 3316,
      "ĠÑģÐ¾Ð»Ð½": 3317,
      "ĠÐºÑĢÐ°ÑĤ": 3318,
      "ÐµÑĢÑĭ": 3319,
      "ĠÐĶÐ¾Ð±Ð°Ð²": 3320,
      "ĠÑģÑĤÐ°ÑĤ": 3321,
      "}{\\": 3322,
      "ĠOpen": 3323,
      "ĠÐºÐ¾ÑĢÑĢÐµÐºÑĤ": 3324,
      "ield": 3325,
      "Ð¸Ð»Ñı": 3326,
      "ando": 3327,
      "AI": 3328,
      "ĠÐ²Ð¾Ð·ÑĢÐ°ÑģÑĤ": 3329,
      "ÑĨÐ¸Ñİ": 3330,
      "ĠÐłÐ°Ñģ": 3331,
      "Ð°ÑİÑīÐ¸Ðµ": 3332,
      "ĠÑįÑĦÑĦÐµÐºÑĤÐ¸Ð²Ð½Ð¾": 3333,
      "Ġsub": 3334,
      "ĠÐºÐ¾ÑĤÐ¾ÑĢÐ¾Ð¼": 3335,
      "ĠÑĤÐ¾Ð²": 3336,
      "ÑģÐºÐ¸Ðµ": 3337,
      "Ð¾ÑĢÐ¼Ð¸ÑĢÐ¾Ð²": 3338,
      "Ð¸ÑĤÐ°": 3339,
      "uth": 3340,
      "ÐŀÐ¿": 3341,
      "ĠÐ¿ÑĢÐ¸Ð¼ÐµÑĢÐµ": 3342,
      "True": 3343,
      "ĠÐ³Ð¾Ð´Ñĥ": 3344,
      "ĠÑĢÐ°Ð½": 3345,
      "Ð³Ð°": 3346,
      "ĠCh": 3347,
      "ized": 3348,
      "ÐŁÑĢÐ¸Ð²": 3349,
      "ĠÐ·Ð½Ð°ÑĩÐ¸ÑĤÐµÐ»ÑĮ": 3350,
      "ĠÐ¿ÑĢÐµÐ´Ð¿ÑĢ": 3351,
      "ĠÐ²ÑĭÐ³": 3352,
      "Ġfil": 3353,
      "ĠÐ¿ÑĢÐµÐ¸Ð¼ÑĥÑīÐµÑģÑĤÐ²": 3354,
      "ĠÐ½Ð°Ð·Ð²": 3355,
      "Ġkey": 3356,
      "ĠÐ²Ð¾ÑģÐ¿": 3357,
      "ÐŁÑĢÐ¾Ð²ÐµÑĢÐºÐ°": 3358,
      "Ð°Ð»Ðµ": 3359,
      "Ġmy": 3360,
      "Ġ<=": 3361,
      "raw": 3362,
      "ĠÑĨÐµÐ»Ð¾Ðµ": 3363,
      "Ð¦": 3364,
      "ĠÐ·ÑĢ": 3365,
      "sider": 3366,
      "ĠÐ¼Ð¾Ð¶ÐµÐ¼": 3367,
      "Ð¸Ð³ÑĥÑĢ": 3368,
      "lies": 3369,
      "ĠÐ½Ð°Ð¿Ð¸Ñģ": 3370,
      "redict": 3371,
      "Ð¼Ð¾Ñģ": 3372,
      "ĠÐ¿ÑĢÐµÐ´Ð¿Ð¾Ñĩ": 3373,
      "\\):": 3374,
      "ĠÐºÐ¾Ñģ": 3375,
      "ĠÑĨÐµÐ½ÑĤ": 3376,
      "ĠÐ¸Ð½ÑĤÐµÑĢÐ²": 3377,
      "ĠÐ³Ð¾Ð´": 3378,
      "Ð¾Ð»Ð¸": 3379,
      "ĠÑģÐ²ÑıÐ·Ð¸": 3380,
      "Ġ!": 3381,
      "ÐĺÐ·": 3382,
      "ĠÐ¸Ð½Ð´ÐµÐºÑģ": 3383,
      "ÑĥÐ·": 3384,
      "ĠÑħÐ¾ÑĤÐ¸ÑĤÐµ": 3385,
      "ĠÐ¶Ð¸Ð·Ð½ÑĮ": 3386,
      "ĠÐ¿ÑĢÐ¾Ð¼": 3387,
      "ĠÑıÐ·ÑĭÐº": 3388,
      "ĠÑģÐ¿ÐµÑĨÐ¸": 3389,
      "ĠÐ¿ÑĢÐ¸Ð½Ð¸Ð¼Ð°ÑĤÑĮ": 3390,
      "ĠÐ¿ÑĢÐµÐ´ÑģÑĤÐ°Ð²Ð»ÑıÐµÑĤ": 3391,
      "ĠÐ³ÑĢÑĥÐ¿Ð¿Ñĭ": 3392,
      "ĠÐ·Ð°Ð´Ð°ÑĩÑĥ": 3393,
      "lement": 3394,
      "Ð¸Ð½Ðµ": 3395,
      "Ġext": 3396,
      "ĠÐ¼Ð¾Ð³Ñĥ": 3397,
      "item": 3398,
      "ĠÐ¿ÑĢÐ¸Ð²Ð¾Ð´Ð¸ÑĤ": 3399,
      "Ġtrain": 3400,
      "cial": 3401,
      "âĶĢ": 3402,
      "ÐµÐ²Ð¾Ð¹": 3403,
      "ĠÐ»ÑİÐ´Ð¸": 3404,
      "ĠÐ´ÐµÐ¹ÑģÑĤÐ²Ð¸Ñı": 3405,
      "ĠÐ¿Ð¾Ð¶": 3406,
      "Ð°ÑİÑīÐ¸Ð¹": 3407,
      "ÐºÑĥÑģ": 3408,
      "Ġ>=": 3409,
      "ML": 3410,
      "Ð½Ð°ÑĢÑĥÐ¶": 3411,
      "ĠÐ¾ÑĤÐºÑĢÑĭÑĤ": 3412,
      "ĠÐ´Ð°Ð²": 3413,
      "Ġdist": 3414,
      "ĠÑħÐ¾ÑĤÑı": 3415,
      "Ð°Ð»ÑģÑı": 3416,
      "ĠÐ»ÐµÐ¶": 3417,
      "Ð¸Ð»Ð¾": 3418,
      "Ġmethod": 3419,
      "Ð¸ÑĪÑĮ": 3420,
      "ĠÑĢÐ°Ð·Ð±": 3421,
      "ÑĢÐ°ÑĪ": 3422,
      "Ð¾ÑģÑĥÐ´": 3423,
      "ĠÐ¿ÑĥÑĤÑĮ": 3424,
      "ÐºÑĨÐ¸Ð¸": 3425,
      "Ð¾Ð²ÑĭÐ¹": 3426,
      "ĠÐ²Ð¼ÐµÑģÑĤÐµ": 3427,
      "ĠâĪ": 3428,
      "ise": 3429,
      "ĠÐ´Ð¾ÑģÑĤÐ¸Ð³": 3430,
      "Ð»ÐµÐ½Ð¸Ð¸": 3431,
      "ÐºÐ»Ð°Ð´": 3432,
      "Ð°Ð»Ð¸ÑģÑĮ": 3433,
      "ĠÐŁÑĢÐ¾": 3434,
      "ĠÑģÐµÐ±Ðµ": 3435,
      "SE": 3436,
      "ĠÐľÑĭ": 3437,
      "ĠÐ¿Ð¾Ð»ÑĮÐ·Ð¾Ð²Ð°ÑĤÐµÐ»ÐµÐ¹": 3438,
      "ĠÐ¿ÑĢÐ¾Ñģ": 3439,
      "lient": 3440,
      "\"\"": 3441,
      "ĠÐ¸Ð½ÑĦ": 3442,
      "ÑĦÐµÐ¹": 3443,
      "ĠÐ²Ð½ÐµÑĪ": 3444,
      "ĠÐ²Ð½ÑĥÑĤÑĢÐ¸": 3445,
      "ÑĩÐ¸Ðº": 3446,
      "ÑĢÐ¾Ð²Ð°ÑĤÑĮ": 3447,
      ".,": 3448,
      "ĠÐ¼Ð¾Ñī": 3449,
      "Ð½Ñİ": 3450,
      "ĠÐ²Ð¸Ð·": 3451,
      "ĠÐ´Ð²Ð¸Ð¶": 3452,
      "uest": 3453,
      "ww": 3454,
      "comp": 3455,
      "ĠÐ³Ð¸Ð¿": 3456,
      "Ð±Ñĭ": 3457,
      "ÐµÐ´ÑĢ": 3458,
      "ĠÑħÐ¾Ð´": 3459,
      "lock": 3460,
      "ĠÐ¿ÑĢÐ¾Ð³ÑĢÐ°Ð¼Ð¼Ð¸ÑĢÐ¾Ð²": 3461,
      "ÐµÐ½Ð¸ÑıÐ¼Ð¸": 3462,
      "----------------": 3463,
      "Ġco": 3464,
      "ĠÐ´ÑĢÑĥÐ·": 3465,
      "ĠÑĪÐ°Ð³Ð¸": 3466,
      "ĠÑĥÐ´Ð¾Ð±": 3467,
      "arning": 3468,
      "ĠÑģÑĤÐ¾Ð¸ÑĤ": 3469,
      "ĠÑĢÐ°Ð±Ð¾ÑĤÐ°ÑĤÑĮ": 3470,
      "wer": 3471,
      "22": 3472,
      "ĠÑģÐºÐ¾ÑĢÐ¾ÑģÑĤÑĮ": 3473,
      "geq": 3474,
      "ÐļÐ¾Ð½ÐµÑĩÐ½Ð¾": 3475,
      "Ġbu": 3476,
      "no": 3477,
      "ĠÐ¾Ð±ÑĥÑĩÐµÐ½Ð¸Ðµ": 3478,
      "Ġany": 3479,
      "ĠÐ¿Ð°ÑĢÐ°Ð¼ÐµÑĤÑĢ": 3480,
      "ax": 3481,
      "Ð°Ð²Ð¸Ñģ": 3482,
      "ÑĢÐ¾Ñī": 3483,
      "ĠÐ¿Ð¾Ð¿ÑĥÐ»ÑıÑĢ": 3484,
      "ÐµÐ´Ð¾Ð²Ð°ÑĤÐµÐ»ÑĮÐ½Ð¾": 3485,
      "ÑĢÐ¾Ð¹": 3486,
      "ero": 3487,
      "Ð¸ÑĨÐ¸Ð¾Ð½": 3488,
      "To": 3489,
      "type": 3490,
      "ĠÐ·Ð°ÑĢ": 3491,
      "ĠÐ½Ð¸Ðº": 3492,
      "ãĢĤ": 3493,
      "ĠÐºÑĢÐ¸ÑĤ": 3494,
      "ĠÐ²ÐµÐ´": 3495,
      "ĠÐ¢Ñĭ": 3496,
      "split": 3497,
      "}.": 3498,
      "ĠÐ²Ð´": 3499,
      "ĠÑģÐµÑĢÐ´": 3500,
      "Ð¾Ð·Ð´Ð°": 3501,
      "Ġthese": 3502,
      "Ð¸Ð²Ð°ÑİÑĤ": 3503,
      "Ð»ÑıÑİÑĤ": 3504,
      "ÑĭÐ´": 3505,
      "ĠÐ²Ð¾Ð·Ð´ÑĥÑħ": 3506,
      "Ġname": 3507,
      "Ð¸Ð·Ð°ÑĨÐ¸Ñı": 3508,
      "ÐĿÐ°": 3509,
      "index": 3510,
      "80": 3511,
      "ÑĭÐ²Ð°ÐµÑĤÑģÑı": 3512,
      "round": 3513,
      "Ð°Ð¶Ð½Ð¾": 3514,
      "ĠÐ·Ð°Ð²Ð¸ÑģÐ¸ÑĤ": 3515,
      "ĠÑĢÐ°Ð·ÑĢ": 3516,
      "ĠÐ²Ð¾Ð·Ð¼Ð¾Ð¶Ð½ÑĭÑħ": 3517,
      "ÐºÐµÑĤ": 3518,
      "ÑĨÐ¸Ð¾Ð½": 3519,
      "ĠÐ²ÑĭÐ±ÑĢÐ°ÑĤÑĮ": 3520,
      "ĠÐ¢Ð°ÐºÐ¸Ð¼": 3521,
      "ĠÐ¿ÑĢÐ¸Ð³": 3522,
      "**.": 3523,
      "Ġother": 3524,
      "eter": 3525,
      "ĠÐ°ÑĢÑħ": 3526,
      "ĠÐ¿Ð¾Ð¼Ð¾Ð¶ÐµÑĤ": 3527,
      "ĠÑģÐ»ÑĥÐ¶": 3528,
      ")^{": 3529,
      "ocument": 3530,
      "ĠÑģÑĤÑĢÐµÐ¼": 3531,
      "ĠÑĨÐµÐ»Ð¾Ð¼": 3532,
      "ĠÐ¾ÑĤÐ´ÐµÐ»ÑĮ": 3533,
      "ĠÐ±Ð°Ð½": 3534,
      "andom": 3535,
      "Ġag": 3536,
      "ĠÐ²Ð½ÑĥÑĤÑĢÐµÐ½": 3537,
      "Ð°Ð»ÑĮÐ½ÑĭÐ¼": 3538,
      "ĠÐ°Ð²ÑĤÐ¾Ð¼Ð¾Ð±": 3539,
      "Ð¸ÑĩÐµÑģÐºÑĥÑİ": 3540,
      "mathbf": 3541,
      "Ð¸Ð²Ð°Ð½Ð¸Ðµ": 3542,
      "ĠÑģÐ»ÐµÐ´ÑĥÐµÑĤ": 3543,
      "itial": 3544,
      "Ð½Ð¸ÑĤ": 3545,
      "ĠÐ²ÐµÑĤ": 3546,
      "rror": 3547,
      "Ġ\\,": 3548,
      "ular": 3549,
      "Ð¸ÑĢÑĥÐ¹ÑĤÐµ": 3550,
      "ĠÐ¿ÑĢÐ¾Ð¿": 3551,
      "}\\).": 3552,
      "Ð»Ð°Ð¼": 3553,
      "implies": 3554,
      "ĠÐ´Ð°ÑĤ": 3555,
      "ĠÐ·Ð½Ð°Ðº": 3556,
      "ÐµÑĪÐµÑģÑĤÐ²": 3557,
      "Ð±Ð¸Ð½": 3558,
      "ĠÑģÑĤÑĥÐ´": 3559,
      "ÐµÐ¼Ð¾Ð½": 3560,
      "ake": 3561,
      "Ġwhile": 3562,
      "Ð¾Ð¼ÐµÑĢ": 3563,
      "ÑĢÐ°Ð³": 3564,
      "util": 3565,
      "ĠÑĢÐ°Ð±Ð¾ÑĤÑĥ": 3566,
      "OR": 3567,
      "ĊĊĠ": 3568,
      "ĠÐ½Ð°Ð³": 3569,
      "Ġnumber": 3570,
      "oid": 3571,
      "indow": 3572,
      "ĠÐ°Ð±": 3573,
      "Ġpued": 3574,
      "ĠÐ¤ÑĥÐ½ÐºÑĨÐ¸Ñı": 3575,
      "Ð¸ÑĢÐ¾Ð²Ð°ÑĤÑĮÑģÑı": 3576,
      "ĠÐºÐ°Ñģ": 3577,
      "ĠÑģÐ±": 3578,
      "itÃł": 3579,
      "ĠÑĥÑĢÐ¾Ð²Ð½Ñı": 3580,
      "ĠÐłÐ¾Ñģ": 3581,
      "((": 3582,
      "ÐµÑĪÐµÐ½Ð¸Ðµ": 3583,
      "ĠÐ´Ð¾ÐºÐ°Ð·": 3584,
      "ÑĥÑĩÐµÐ½Ð¸Ðµ": 3585,
      "ĠÐ¿Ð¾Ð»ÑĥÑĩÐ°ÐµÐ¼": 3586,
      "value": 3587,
      "Ġperson": 3588,
      "ĠÑįÑĤÐ°Ð¿": 3589,
      "Ġ__": 3590,
      "ĠÑģÐµÐ³": 3591,
      "Ġfol": 3592,
      "ÑģÐºÐ°Ñı": 3593,
      "Ġcount": 3594,
      "aly": 3595,
      "Ġpot": 3596,
      "Ð¸Ð½Ð³Ð°": 3597,
      "resent": 3598,
      "Ð°ÑĤÑĥÑĢ": 3599,
      "ÑĥÐ¼Ð¼Ð°": 3600,
      "load": 3601,
      "\\_": 3602,
      "ĠÐ¿Ð¾ÑģÑĤÑĢÐ¾": 3603,
      "ĠÑĢÐµÑĪÐ¸ÑĤÑĮ": 3604,
      "udio": 3605,
      "Ġchar": 3606,
      "Ð¸ÑĩÐµÑģÑĤÐ²Ð¾": 3607,
      "ĠÐ¸ÑģÑģÐ»ÐµÐ´Ð¾Ð²Ð°Ð½Ð¸Ñı": 3608,
      "ĠÑĩÐµÐ»Ð¾Ð²ÐµÑĩ": 3609,
      "ĠÑģÐ²Ð¾Ð±": 3610,
      "raph": 3611,
      "new": 3612,
      "Ġrel": 3613,
      "ĠÐ¾Ð±ÐµÑģÐ¿ÐµÑĩÐµÐ½Ð¸Ñı": 3614,
      "ĠÑĥÑģÑĤÐ¾Ð¹ÑĩÐ¸Ð²": 3615,
      "ĠÐ¼Ð¸ÑĢÐµ": 3616,
      "ĠÑģÐ¾Ð¾ÑĤÐ²ÐµÑĤÑģÑĤÐ²ÑĥÐµÑĤ": 3617,
      "Ġvari": 3618,
      "Ġline": 3619,
      "Ġ17": 3620,
      "Ð°Ð»Ð°Ð½Ñģ": 3621,
      "ĠÑĢÑıÐ´": 3622,
      "ÑĭÐ´ÑĥÑī": 3623,
      "ĠÑĦÐ¾ÑĤ": 3624,
      "ĠÐ¿Ð¾Ð½ÑıÑĤÑĮ": 3625,
      "play": 3626,
      "ÐºÑĥÑĢ": 3627,
      "ful": 3628,
      "ĠÐ¾Ð±ÑĢÐ°Ð±Ð°ÑĤ": 3629,
      "Ġlen": 3630,
      "start": 3631,
      "ĠÐĺÑģÐ¿Ð¾Ð»ÑĮÐ·Ð¾Ð²Ð°Ð½Ð¸Ðµ": 3632,
      "Ġima": 3633,
      "ĠÐºÐ¾ÑĤÐ¾ÑĢÑĥÑİ": 3634,
      "mplement": 3635,
      "flo": 3636,
      "ĠÐºÐ»Ð¸ÐµÐ½ÑĤ": 3637,
      "ĠÃ¨": 3638,
      "velop": 3639,
      "map": 3640,
      "ÐºÐ¸Ð¼": 3641,
      "ĠÑģÐ¸ÑģÑĤÐµÐ¼Ñĥ": 3642,
      "Â°": 3643,
      "ĠIf": 3644,
      "ential": 3645,
      "^^^^": 3646,
      "ower": 3647,
      "ait": 3648,
      "Ġ=>": 3649,
      "jo": 3650,
      "ÑģÐ»ÑĥÐ¶": 3651,
      "Ġhelp": 3652,
      "ĠÐ±ÐµÑģÐ¿": 3653,
      "ĠÐºÑĥÐ±": 3654,
      "ĠÐ¿Ð¾Ð»ÑĮÐ·Ð¾Ð²Ð°ÑĤÐµÐ»Ñı": 3655,
      "ien": 3656,
      "ĠÐ´Ð²ÑĥÐ¼": 3657,
      "https": 3658,
      "ĠÑģÐ²Ð¾ÐµÐ³Ð¾": 3659,
      "ĠÐ¿ÑĢÐ¾Ð²Ð¾Ð´": 3660,
      "ĠÐ²Ð¾Ð·Ð²ÑĢÐ°Ñī": 3661,
      "ÃŃa": 3662,
      "ĠÑİ": 3663,
      "Ð¸Ð²Ð°ÐµÐ¼": 3664,
      "ĠÐ¿Ð»Ð°ÑĤÑĦÐ¾ÑĢÐ¼": 3665,
      "ÐµÐ½Ð½Ð¾ÑģÑĤÑĮ": 3666,
      "Ð¸ÑıÐ¼Ð¸": 3667,
      "ĠÐ³Ð»Ð°Ð²": 3668,
      "co": 3669,
      "Ð¡Ð¾Ð·Ð´Ð°Ð¹ÑĤÐµ": 3670,
      "Ġunder": 3671,
      "ĠZ": 3672,
      "Ð²Ð°": 3673,
      "():": 3674,
      "ĠÑģÑĥÐ¼Ð¼Ñĭ": 3675,
      "ÐŀÐ´": 3676,
      "ĠÑĢÐ°Ð·Ð²Ð¸ÑĤÐ¸Ñı": 3677,
      "ĠÑģÐ²Ð¾Ð¸Ð¼": 3678,
      "ious": 3679,
      "ĠÐ¿Ð¾ÑĤÐµÐ½ÑĨÐ¸Ð°Ð»ÑĮ": 3680,
      "Ġinform": 3681,
      "ĠGP": 3682,
      "ĠÐ¼ÐµÑĤÐ¾Ð´Ð¾Ð²": 3683,
      "ÑĢÐ¾Ð¼Ðµ": 3684,
      "ĠAPI": 3685,
      "ĠÑĢÐ¾Ð´": 3686,
      "ĠÐ±ÑĭÑģÑĤÑĢÐ¾": 3687,
      "ativ": 3688,
      "ÐºÑĨÐ¸Ð¹": 3689,
      "ĠÐ·Ð½Ð°": 3690,
      "Ð¸ÐµÑģÑı": 3691,
      "ÐµÑĤÐ¾Ð²": 3692,
      "ĠÑĤÑĢÐ°Ð½ÑģÐ¿Ð¾ÑĢÑĤ": 3693,
      "Ð»Ð°Ð¹Ð½": 3694,
      "ĠÑĤÑĢÐ°Ð´": 3695,
      "Ġdat": 3696,
      "fl": 3697,
      "ply": 3698,
      "Ġ</": 3699,
      "ĠÐ¿ÑĢÐµÐ´ÑĭÐ´ÑĥÑī": 3700,
      "ian": 3701,
      "Ð½Ð¾ÑĪ": 3702,
      "ĠÐ½Ð°Ð¿ÑĢ": 3703,
      "64": 3704,
      "ĠÐ¿ÑĢÐµÐ´Ð¾ÑĤ": 3705,
      "ĠÐ¸ÑģÐ¿Ð¾Ð»ÑĮÐ·ÑĥÑİÑĤÑģÑı": 3706,
      "Ġsin": 3707,
      "ĠÐ±Ð¸": 3708,
      "list": 3709,
      "ÐµÐ¼Ð°ÑĤ": 3710,
      "ven": 3711,
      "ision": 3712,
      "ĠÐ¼ÐµÐ´Ð¸ÑĨÐ¸": 3713,
      "Ð¸Ð¾Ð½Ð°Ð»ÑĮ": 3714,
      "Ð¾ÑĢÐ¾Ð´": 3715,
      "ĠÐ²Ð»Ð¸ÑıÐ½Ð¸Ðµ": 3716,
      "Ð³ÐµÐ½ÐµÑĢ": 3717,
      "Ð°Ð²ÐµÐ½": 3718,
      "ward": 3719,
      "matrix": 3720,
      "Ð°ÑĤÐµÐ»Ð¸": 3721,
      "ĠÐ¸ÑģÑĤÐ¾ÑĢÐ¸Ð¸": 3722,
      "CT": 3723,
      "ĠÑģÐ¾ÑģÑĤÐ°Ð²Ð»ÑıÐµÑĤ": 3724,
      "Ð½ÐµÐ½Ð¸Ñı": 3725,
      "Ð¼Ð¾Ð²": 3726,
      "Ð¸Ð¶Ðµ": 3727,
      "chn": 3728,
      "ĠÑĢÐµÐ°Ðº": 3729,
      "Ġens": 3730,
      "ĠÑĢÐ°ÑģÐ¿Ð¾Ð»Ð¾Ð¶": 3731,
      "ĠÐ¿Ð¾Ð²ÐµÑĢÑħ": 3732,
      "Ġrow": 3733,
      "edding": 3734,
      "emb": 3735,
      "ÑģÐ»ÐµÐ¶": 3736,
      "Ġ--": 3737,
      "Ð»ÐµÐ½Ñĭ": 3738,
      "key": 3739,
      "SS": 3740,
      "ĠÑĥÑĤ": 3741,
      "Ġbo": 3742,
      "ĠÐ¾Ð±Ð½Ð°ÑĢÑĥÐ¶": 3743,
      "Ð¾Ð»Ð¾Ð²": 3744,
      "ÑıÑİÑĤÑģÑı": 3745,
      "ĠÐ²Ð¾Ð·Ð¼Ð¾Ð¶Ð½ÑĭÐµ": 3746,
      "ĠÐ¸ÑģÐºÑĥÑģÑģÑĤÐ²ÐµÐ½": 3747,
      "ĠÑģÐºÐ°Ð·": 3748,
      "ĠÑģÑĤÑĢÐ¾ÐºÑĥ": 3749,
      "ÐµÑĢÐº": 3750,
      "dots": 3751,
      "Ð½ÐµÑĤ": 3752,
      "ĠÑıÐ·ÑĭÐºÐ°": 3753,
      "}$": 3754,
      "ector": 3755,
      "ood": 3756,
      "Ġ[]": 3757,
      "Ð¸ÑĩÐµÑģÐºÐ¸Ð¼": 3758,
      "Ð»Ð¸Ð½": 3759,
      "200": 3760,
      "cond": 3761,
      "ÑģÐºÐ¾ÑĢ": 3762,
      "Ð¸Ð¼Ð¾": 3763,
      "ĠÑģÑĥÐ¼Ð¼Ñĥ": 3764,
      "Ġcap": 3765,
      "Ġexper": 3766,
      "ĠÐ²Ð»": 3767,
      "Ġsuch": 3768,
      "ĠÐĴÐ¾Ð·Ð¼Ð¾Ð¶Ð½Ð¾": 3769,
      "Ð°ÐºÐ¾Ð²": 3770,
      "ural": 3771,
      "Ð¾Ð·Ð½Ð°Ñĩ": 3772,
      "Ġone": 3773,
      "Ġwhere": 3774,
      "idth": 3775,
      "ĠÐ²ÑĭÑĩÐ¸Ñģ": 3776,
      "Ð¸ÑĤÐµÐ»Ñı": 3777,
      "ÐŀÐ¿ÑĢÐµÐ´ÐµÐ»": 3778,
      "ĠÐ¾ÑĤÑĢÐ°Ð¶": 3779,
      "ÑģÑĤÐ²Ð¾Ð¼": 3780,
      "Ġcreate": 3781,
      "Ġph": 3782,
      "iss": 3783,
      "hat": 3784,
      "Ð¾ÑĪ": 3785,
      "ĠÐ´Ð¾ÑģÑĤÐ°ÑĤÐ¾Ñĩ": 3786,
      "ern": 3787,
      "ĠÐ¿ÑĢÐ¸Ð½ÑĨÐ¸Ð¿": 3788,
      "ambda": 3789,
      "ĠÐ´Ð¾ÑģÑĤÐ¸Ð¶ÐµÐ½Ð¸Ñı": 3790,
      "pend": 3791,
      "ĠÐ¼ÐµÑģÑĤÐ¾": 3792,
      "itle": 3793,
      "Ġ24": 3794,
      "ĠÑıÑĢ": 3795,
      "Ð¸Ð»ÑģÑı": 3796,
      "ĠÐ´Ðµ": 3797,
      "ĠÑģÐ¸ÑģÑĤÐµÐ¼Ð°": 3798,
      "ĠÐ½Ð°Ð»Ð¸Ñĩ": 3799,
      "}}{\\": 3800,
      "Ð¼Ð°ÑĤÑĢ": 3801,
      "RO": 3802,
      "old": 3803,
      "ĠÐ¾Ð±ÑĢÐ°Ð·Ð¾Ð²": 3804,
      "ÐºÐ¾ÑģÑĤÑĮ": 3805,
      "Ġtu": 3806,
      "ĠÐ¾Ð±ÑĬÐµÐ´Ð¸Ð½": 3807,
      "ĠÐ²ÐµÑĢÐ¾ÑıÑĤÐ½Ð¾ÑģÑĤÑĮ": 3808,
      "Ġstep": 3809,
      "ÐµÐ½Ð¸ÑıÑħ": 3810,
      "ÐĲÐ½": 3811,
      "aus": 3812,
      "Ð¸Ð²Ð¸Ð´": 3813,
      "Ġdec": 3814,
      "ĠÐ¾ÑģÐ½Ð¾Ð²Ð½ÑĭÐµ": 3815,
      "ĠÐ·Ð°ÐºÐ¾Ð½": 3816,
      "ĠÐ±Ð»Ð°Ð³Ð¾Ð´": 3817,
      "len": 3818,
      "ÑģÑĤÐµÑģÑĤÐ²": 3819,
      "ĠÐ´Ð¾Ð²": 3820,
      "Ġpublic": 3821,
      "Ð¸ÐµÐ¼": 3822,
      "ĠÐ³ÑĢÐ°Ð´": 3823,
      "Ã¡s": 3824,
      "ĠÑĢÐ°Ð´Ð¸ÑĥÑģ": 3825,
      "ault": 3826,
      "ÑģÑĤÐ°": 3827,
      "Ð½Ð°ÑĩÐ¸ÑĤ": 3828,
      "ĠÐ¸Ð½ÑĤÐµÐ³ÑĢ": 3829,
      "ĠÑĥÐ»ÑĥÑĩÑĪÐµÐ½Ð¸Ñı": 3830,
      "ĠÐ¿ÐµÑĢÐ¸Ð¾Ð´": 3831,
      "Ġinclud": 3832,
      "Ð¸ÑıÑħ": 3833,
      "ÑĪÐ°Ñı": 3834,
      "ÑıÑĤÑĮÑģÑı": 3835,
      "ĠÑĢÐµÐ¿": 3836,
      "EN": 3837,
      "ĠWe": 3838,
      "Ð¾Ð¶Ðµ": 3839,
      "Ð¾Ð»Ð¸ÑĩÐµÑģÑĤÐ²Ð¾": 3840,
      "Ġtarget": 3841,
      "ĠÑĩÐ¸ÑģÑĤ": 3842,
      "ĠÐ¿Ð¾Ð¿ÑĢÐ¾Ð±": 3843,
      "ÐµÑĩÐ°ÑĤ": 3844,
      "33": 3845,
      "be": 3846,
      "sible": 3847,
      "ĠÐ¿ÑĢÐ°Ð²Ð¸Ð»ÑĮÐ½Ð¾": 3848,
      "ution": 3849,
      "ĠÐ¼ÑĥÐ·Ñĭ": 3850,
      "ĠÐ³Ð¾Ð²Ð¾ÑĢ": 3851,
      "ĠÑħÐ¾ÑĢÐ¾ÑĪÐ¾": 3852,
      "ÐµÑģÑĤÐ²Ð¾Ð¼": 3853,
      "Ġused": 3854,
      "Ð´Ð¶": 3855,
      "tal": 3856,
      "Ġword": 3857,
      "af": 3858,
      "ÑĭÐ²Ð¾Ð´": 3859,
      "Ð¾Ð¸ÑĤ": 3860,
      "ĠÐ¸Ð³ÑĢÑĭ": 3861,
      "Ð»ÐµÐ´": 3862,
      "ÑĢÐ°ÑĤÐ¸ÑĤÑĮ": 3863,
      "ween": 3864,
      ")**": 3865,
      "ĠÐ¿ÑĢÐ¾Ð³ÑĢÐµÑģÑģ": 3866,
      "ences": 3867,
      "string": 3868,
      "ĠÐ¸ÑģÐ¿Ð¾Ð»Ð½": 3869,
      "ìĿ": 3870,
      "Ġoper": 3871,
      "prox": 3872,
      "ĠÐ¿ÑĢÐ¾ÐµÐºÑĤÐ°": 3873,
      "ape": 3874,
      "ĠÐ¿Ð¾Ð¸ÑģÐºÐ°": 3875,
      "Ð°Ð½Ð½ÑĥÑİ": 3876,
      "ĠÑĥÐ²ÐµÑĢ": 3877,
      "ĠÐºÑĥÐ»ÑĮÑĤÑĥÑĢ": 3878,
      "Ġë": 3879,
      "ĠÑĢÐµÐ¶": 3880,
      "Ð¾Ð¿ÑĢÐ¸ÑıÑĤ": 3881,
      "ÑıÐ»": 3882,
      "ĠÐ²Ð¾Ð¹": 3883,
      "ÐµÑĢÑģ": 3884,
      "ÑĢÐ°Ð²Ð¸Ð»ÑĮ": 3885,
      "ĠÑĢÐµÐ·ÑĥÐ»ÑĮÑĤÐ°ÑĤÑĭ": 3886,
      "ĠÐŀÑģÐ½Ð¾Ð²": 3887,
      "ĠÐ½ÐµÐ±Ð¾Ð»ÑĮÑĪ": 3888,
      "anc": 3889,
      "Ġquest": 3890,
      "Ñĸ": 3891,
      "ĠÐ²ÑĭÑĢÐ°Ð¶ÐµÐ½Ð¸Ðµ": 3892,
      "ĠÐ¼Ð¾Ð¼ÐµÐ½ÑĤ": 3893,
      "ĠÐ¼Ð¾Ð´ÐµÐ»ÐµÐ¹": 3894,
      "ante": 3895,
      "Ð¿Ð¾Ð»Ð°Ð³": 3896,
      "Cl": 3897,
      "ĠÐ¾Ð±ÑģÐ»ÑĥÐ¶": 3898,
      "ĠÐ²ÐµÐºÑĤÐ¾ÑĢ": 3899,
      "ĠÐ·Ð°ÐºÐ»ÑİÑĩ": 3900,
      "ĠÑĥÐ³Ð¾Ð»": 3901,
      "Ð°Ð½Ð¸ÑĢÐ¾Ð²": 3902,
      "ÐµÑĤÑĢÐ¾Ð²": 3903,
      "ĠÐ·ÐµÐ¼": 3904,
      "ĠÐ´Ð»Ð¸Ð½Ñĭ": 3905,
      "ĠÐ³ÑĢÐ°Ð½Ð¸": 3906,
      "ĠÐ·Ð°Ð²ÐµÑĢÑĪ": 3907,
      "Ġsome": 3908,
      "Ġrec": 3909,
      "ĠÐ¿ÐµÑĢÐµÑħÐ¾Ð´": 3910,
      "ĠÑģÑĤÐ°Ð»": 3911,
      "ĠÐ¼Ð°ÑĤÑĢÐ¸": 3912,
      "Ð¾Ð²Ð°Ñı": 3913,
      "ÐµÑĢÐ¾Ð²": 3914,
      "Ð¾Ð½Ðµ": 3915,
      "ĠÐ¿ÑĢÐ¾Ð³Ð½Ð¾Ð·": 3916,
      "ÑıÑĤÐµÐ»ÑĮ": 3917,
      "erg": 3918,
      "uto": 3919,
      "ĠÐ´Ð¾Ð»Ð³": 3920,
      "mpl": 3921,
      "ĠÐ¿ÑĥÑĤÐµÑĪÐµÑģÑĤÐ²": 3922,
      "Ð¼ÑĭÑģÐ»": 3923,
      "ĠÑģÐ¾Ð²Ð¿Ð°Ð´": 3924,
      "ĠÐ±Ð¸Ð·Ð½ÐµÑģ": 3925,
      "ä»": 3926,
      "ĠÐ²ÐºÑĥÑģ": 3927,
      "ĠÐ´Ð¸Ð·": 3928,
      "Ð¸ÑĤÐµÐºÑĤ": 3929,
      "Ð¾ÑģÑĤÐ°Ð²ÑĮÑĤÐµ": 3930,
      "ugh": 3931,
      "Ġthey": 3932,
      "ĠÐ½Ð¾Ð²ÑĭÐ¹": 3933,
      "45": 3934,
      "ĠÐ¾Ð±Ð¼ÐµÐ½": 3935,
      "Ð¸ÑĢÑĤ": 3936,
      "Ġhand": 3937,
      "ĠÐļÐ¾Ð½": 3938,
      "ÑĪÑĤÐ°Ð±": 3939,
      "fil": 3940,
      "Ġhigh": 3941,
      "wo": 3942,
      "atter": 3943,
      "ico": 3944,
      "Ġed": 3945,
      "Ð¾ÑģÑĥÐ´Ð°ÑĢ": 3946,
      "ĠÑĤÐµÑħÐ½Ð¾Ð»Ð¾Ð³Ð¸Ð¹": 3947,
      "Ð°Ð±Ð¸Ð»ÑĮ": 3948,
      "ĠÐĹÐ°ÑĤÐµÐ¼": 3949,
      "Re": 3950,
      "ĠÐ½Ð°Ð·ÑĭÐ²": 3951,
      "Ð²Ð°ÑĢ": 3952,
      "ĠÑģÐ¿Ð¾ÑģÐ¾Ð±Ð¾Ð²": 3953,
      "ĠÐ½ÐµÐºÐ¾ÑĤÐ¾ÑĢÑĭÑħ": 3954,
      "ocker": 3955,
      "ays": 3956,
      "Ġav": 3957,
      "Ġ@": 3958,
      "ĠÐ¿Ð¾ÑĢÑıÐ´ÐºÐµ": 3959,
      "ÑıÐ²Ð»Ñı": 3960,
      "Ð»Ð°ÑĤ": 3961,
      "Ð°ÑĤÐµÐ»ÐµÐ¹": 3962,
      "ĠÑģÐ²Ð¾Ð¸Ð¼Ð¸": 3963,
      "ÐµÐ»Ñı": 3964,
      "Ð¸Ð³Ð½": 3965,
      "ĠÐµÑģÑĤÐµÑģÑĤÐ²": 3966,
      "ĠÑģÑĤÑĢÑĥÐºÑĤÑĥÑĢ": 3967,
      "ĠÑĥÑģÐ¿ÐµÑħ": 3968,
      "Ġfind": 3969,
      "ĠÐ¸Ð¼Ñı": 3970,
      "ĠÑĤÐ¸Ð¿Ð°": 3971,
      "ĠÐ»Ð¸Ð±Ð¾": 3972,
      "ĠÑĨÐµÐ»ÑĮ": 3973,
      "Ġexample": 3974,
      "ĠÐ¿Ð¾Ð½ÑıÑĤ": 3975,
      "ÐµÑģÑĤÑĮ": 3976,
      "ĠÐ±Ð¾Ð»ÑĮÑĪÐ¸Ñħ": 3977,
      "tring": 3978,
      "Ġtoken": 3979,
      "Error": 3980,
      "ĠÐ³ÐµÑĢ": 3981,
      "ĠÐ¿ÑĢÐµÐ¿": 3982,
      "ĠÑģÐ°Ð¼ÑĭÑħ": 3983,
      "ency": 3984,
      "ĠÑģÑĤÑĢÐ¾": 3985,
      "Ð»ÑıÑİÑī": 3986,
      "ĠÑĢÐµÐ·ÑĥÐ»ÑĮÑĤÐ°ÑĤÐ¾Ð²": 3987,
      "ish": 3988,
      "equiv": 3989,
      "ÑĢÐµÑģ": 3990,
      "ĠÐ¿Ð¾ÑģÐ»ÐµÐ´Ð¾Ð²Ð°ÑĤÐµÐ»ÑĮÐ½Ð¾ÑģÑĤÐ¸": 3991,
      "ĠÑĤÐ°ÐºÐ¸Ð¼": 3992,
      "ĠÐ¾ÑĤÐº": 3993,
      "ĠÑįÑĦÑĦÐµÐºÑĤ": 3994,
      "Ġback": 3995,
      "ĠÐ¿Ð¾Ð»ÑĥÑĩÐµÐ½Ð¸Ñı": 3996,
      "Ð¸ÑĤÐµÐ»ÑĮÐ½ÑĭÑħ": 3997,
      "Ð¾ÑĢÑĭ": 3998,
      "ĠLa": 3999,
      "ĠÑģÑĤÑĢÐµÑģÑģ": 4000,
      "ÑĢÐ¾Ñĩ": 4001,
      "requ": 4002,
      "Ð°ÑģÑģÐ¼Ð¾ÑĤÑĢÐ¸Ð¼": 4003,
      "orld": 4004,
      "ĠÐ²ÐµÑĢÑĪÐ¸Ð½": 4005,
      "ĠÐ²Ð¾ÑĤ": 4006,
      "ĠÐ»ÐµÐ³ÐºÐ¾": 4007,
      "view": 4008,
      "arrow": 4009,
      "ĠÐ¸Ð·Ð¼ÐµÑĢ": 4010,
      "ĠÐ¿Ð¾ÑģÐ»ÐµÐ´Ð¾Ð²Ð°ÑĤÐµÐ»ÑĮÐ½Ð¾ÑģÑĤÑĮ": 4011,
      "ÑĢÐ¸ÑĨÐ°ÑĤÐµÐ»ÑĮ": 4012,
      "Ġ40": 4013,
      "Ð¼Ð¾ÑĤÑĢÐµÑĤÑĮ": 4014,
      "ÐŁÑĢÐ¾": 4015,
      "ĠÐ´Ð¾Ð±Ð°Ð²Ð¸ÑĤÑĮ": 4016,
      "Ġabout": 4017,
      "ĠÐ½Ð°Ð´ÐµÐ¶": 4018,
      "Ġvar": 4019,
      "Ð°Ð»Ð¸Ð·Ð¸ÑĢÐ¾Ð²Ð°Ð½": 4020,
      "ĠÐ¿ÑĢÐ¸Ð´": 4021,
      "ases": 4022,
      "Ð¾ÐºÐ°": 4023,
      "ĠÐĹÐ°Ðº": 4024,
      "User": 4025,
      "ĠÑĩÐ¸ÑĤ": 4026,
      "ĠÐ²ÑĭÐ·Ð²": 4027,
      "Ġ!=": 4028,
      "ĠÑģÑĢÐµÐ´Ð¸": 4029,
      "ĠÐ¢Ð¾": 4030,
      "ÐºÐ¸Ð¼Ð¸": 4031,
      "ĠÐµÐ¼Ñĥ": 4032,
      "ÑĭÑģ": 4033,
      "ÑĢÐ°Ð¶Ð´": 4034,
      "ĠÐ·Ð°Ð½Ð¸Ð¼": 4035,
      "ĠÐ¾Ð´Ð½Ð¸Ð¼": 4036,
      "ĠÐ·Ð°Ð¼ÐµÐ½": 4037,
      "ĠÑģÑĤÑĢÐ°Ð½Ð¸": 4038,
      "ĠÐ·Ð°Ð±Ð¾Ð»ÐµÐ²": 4039,
      "ĠÑģÐºÑĢÐ¸Ð¿": 4040,
      "ĠÐ¿ÑĢÐ¾ÑĪ": 4041,
      "ĠHT": 4042,
      "rol": 4043,
      "LL": 4044,
      "ĠÑĢÐ°Ð·ÑĢÐ°Ð±Ð¾ÑĤÐºÐ¸": 4045,
      "ĠÐ²Ð²Ð¾Ð´": 4046,
      "\\(": 4047,
      "ĠÐ²ÐºÐ»ÑİÑĩÐ°ÑİÑĤ": 4048,
      "ĠÑĢÐµÐºÐ¾Ð¼ÐµÐ½Ð´": 4049,
      "Ð»ÐµÐ¹": 4050,
      "ĠÐ½ÐµÐ³Ð¾": 4051,
      "ĠðŁ": 4052,
      "ĠÐ¿Ð»Ð¾ÑīÐ°Ð´ÑĮ": 4053,
      "ĠÐ½ÐµÑĢÐ°Ð²ÐµÐ½": 4054,
      "ĠÑģÐ¾Ð²ÐµÑĢÑĪ": 4055,
      "Ġstat": 4056,
      "ĠÑıÐ·ÑĭÐºÐµ": 4057,
      "br": 4058,
      "ody": 4059,
      "ĠÑĨÐµÐ»Ð¸": 4060,
      "ĠÐ¸Ð·Ð²": 4061,
      "ĠÐºÐ°ÑĩÐµÑģÑĤÐ²Ð°": 4062,
      "ĠÐ¾Ð¿ÑĤÐ¸Ð¼Ð°Ð»ÑĮ": 4063,
      "ÑģÑĤÐ²ÐµÐ½Ð½Ð¾": 4064,
      "inu": 4065,
      "ĠÐ¸Ð½ÑģÑĤÑĢÑĥÐ¼ÐµÐ½ÑĤ": 4066,
      "Ch": 4067,
      "ĠÐ¾ÑģÑĤÐ°ÑĤ": 4068,
      "rough": 4069,
      "ĠÐ²ÑĭÐ´ÐµÐ»": 4070,
      "Ġam": 4071,
      "ĠÐ¾Ð±ÑīÐµÐµ": 4072,
      "ĠÑħÐ°ÑĢÐ°ÐºÑĤÐµÑĢÐ¸ÑģÑĤ": 4073,
      "ĠÐ³Ð¸Ð±": 4074,
      "Ġexp": 4075,
      "ĠÑĢÐ°ÑģÐ¿": 4076,
      "ÑĢÐ°Ð¼Ð¸": 4077,
      "ĠÑĢÐ°Ð·Ð½Ð¾Ð¾Ð±ÑĢÐ°Ð·": 4078,
      "Ġdiv": 4079,
      "Ġ\\((": 4080,
      "ĠÑĨÐ²ÐµÑĤÐ°": 4081,
      "ĠÐ´Ð²ÑĥÐ¼Ñı": 4082,
      "Ġwas": 4083,
      "Ġtotal": 4084,
      "token": 4085,
      "amente": 4086,
      "fo": 4087,
      "cho": 4088,
      "):**": 4089,
      "ĠÑĢÐ°ÑģÑħÐ¾Ð´": 4090,
      "Ð¢Ð°Ðº": 4091,
      "Ġshould": 4092,
      "ĠÐ¼Ð°ÑĤÐµÐ¼Ð°ÑĤ": 4093,
      "mon": 4094,
      "ĠÑģÑĭ": 4095,
      "init": 4096,
      "ĠĠĠĠĠ": 4097,
      "ĠÐ¿ÑĢÐ¸Ðº": 4098,
      "ĠÑģÐ¾ÐºÑĢÐ°Ñī": 4099,
      "AC": 4100,
      "ĠÑĤÐµÑħÐ½Ð¾Ð»Ð¾Ð³Ð¸Ð¸": 4101,
      "Ċĉ": 4102,
      "ik": 4103,
      "ĠÑĥÑĤÐ²ÐµÑĢÐ¶Ð´": 4104,
      "DE": 4105,
      "ÑĤÐ°Ðº": 4106,
      "ĠÐ¾Ð±ÑĢÐ°Ñī": 4107,
      "ÑĬÑıÑģÐ½ÐµÐ½Ð¸Ðµ": 4108,
      "ĠÐ²ÐºÐ»ÑİÑĩÐ°ÑĤÑĮ": 4109,
      "ĠÐ¸Ð½ÑĤÐµÑĢÑĦÐµÐ¹": 4110,
      "ĠÐ¾ÑĤÑģÐ»ÐµÐ¶": 4111,
      "egin": 4112,
      "ĠÐ½Ð°Ð±Ð»ÑİÐ´": 4113,
      "RE": 4114,
      "ĠÐ½Ð¸Ð·": 4115,
      "Id": 4116,
      "part": 4117,
      "Ġbre": 4118,
      "ĠÐŁÐ¾ÑģÐºÐ¾Ð»ÑĮÐºÑĥ": 4119,
      "ĠÐ¿ÐµÑĢÐµÑģÐµÐº": 4120,
      "ĠÑĤÐ¾ÑĩÐºÐ°": 4121,
      "ĠÐ¿Ð¸Ñī": 4122,
      "Ð¼Ð½Ð¾Ð¶": 4123,
      "ĠÐ´Ð»Ð¸Ð½": 4124,
      "ĠÐ¾Ð±Ð¾ÑĢ": 4125,
      "ĠÐ¾Ð½Ð¾": 4126,
      "Ġbetween": 4127,
      "0000": 4128,
      "ĠÐ¿ÑĢÐ¸Ð²ÐµÐ´": 4129,
      "pri": 4130,
      "uring": 4131,
      "ĠÐ²Ð°ÑĪÐµÐ¼": 4132,
      "ĠÐ½ÐµÐ¹ÑĢÐ¾Ð½": 4133,
      "Ð°Ð½Ð°Ð²": 4134,
      "output": 4135,
      "Ġsk": 4136,
      "ĠÑģÐ¾ÑģÑĤÐ¾ÑıÐ½Ð¸Ñı": 4137,
      "ĠFor": 4138,
      "ĠÐĸ": 4139,
      "ĠGo": 4140,
      "ync": 4141,
      "ĠÐ³Ðµ": 4142,
      "Ġfollow": 4143,
      "ĠÐ¾Ñħ": 4144,
      "Ð¸Ð·Ð¼": 4145,
      "ĠÐĹÐ°Ð¿": 4146,
      "ĠÐ»ÑİÐ±Ð¾Ð¹": 4147,
      "ines": 4148,
      "ĠÑĤÑĢÐµÑħ": 4149,
      "ĠÑģÐ¾ÑĨÐ¸Ð°Ð»ÑĮÐ½ÑĭÑħ": 4150,
      "url": 4151,
      "Ġerror": 4152,
      "Ð»Ð¾Ð¼": 4153,
      "ĠÐ¿Ð¾Ð´Ð³Ð¾ÑĤÐ¾Ð²": 4154,
      "Ð°Ð»Ð¸ÑĤ": 4155,
      "Ð¸ÑĤÐµÐ»ÑĮÐ½ÑĭÐµ": 4156,
      "ĠÐºÐ»Ð¸Ð¼": 4157,
      "Ġlet": 4158,
      "ĠÑĢÐ°ÑģÑģÑĤÐ¾ÑıÐ½Ð¸Ðµ": 4159,
      "Ġpoint": 4160,
      "ĠÐ¿ÑĢÐ¾Ð¸ÑģÑħÐ¾Ð´Ð¸ÑĤ": 4161,
      "ĠÑĤÐ²Ð¾": 4162,
      "ĠÐ½Ð¸": 4163,
      "ĠÐ¿Ð¾Ð´ÐºÐ»ÑİÑĩ": 4164,
      "ĠÐ²ÐµÑĢÑģ": 4165,
      "ÑĢÐµÐ´Ð¸": 4166,
      "ĠÐ»ÐµÑģ": 4167,
      "Ð°ÑĤÐµÐ»Ñı": 4168,
      "ability": 4169,
      "Ð°Ð»ÑĮÐ½ÑĥÑİ": 4170,
      "ĠÐ¿Ð¾Ð´ÑĢÐ¾Ð±": 4171,
      "ĠÐºÑĥÑĢÑģ": 4172,
      "stand": 4173,
      "now": 4174,
      "ÑĥÐ´Ð°": 4175,
      "}(": 4176,
      "ĠÐ¿ÑĢÐ¾Ð²ÐµÑĢÐ¸ÑĤÑĮ": 4177,
      "bu": 4178,
      "ĠÐ´Ð¾ÑģÑĤÑĥÐ¿Ð°": 4179,
      "Ġinstall": 4180,
      ")\\)": 4181,
      "lambda": 4182,
      "ĠÑĤÐ¾ÑĩÐºÐµ": 4183,
      "ĠÐ¾Ð´Ð½Ñĥ": 4184,
      "AM": 4185,
      "Ðĸ": 4186,
      "ĠÐ¿ÑĢÐ¸Ð·Ð½Ð°Ðº": 4187,
      "Ð¸ÑĢÑĤÑĥÐ°Ð»ÑĮ": 4188,
      "ĠÐ²Ð¾ÑģÑģÑĤÐ°Ð½Ð¾Ð²": 4189,
      "ĠÐ¾ÑĤÐ²ÐµÑĩ": 4190,
      "point": 4191,
      "ĠÐ²ÐµÑĢÑħ": 4192,
      "ĠÐºÐ¸ÑģÐ»": 4193,
      "Ġmight": 4194,
      "html": 4195,
      "ĠÐ¾Ð´Ð½Ð°": 4196,
      "Ġconsider": 4197,
      "ĠÐ¼Ð¸ÑĢÐ°": 4198,
      "ÐĿÐµ": 4199,
      "cu": 4200,
      "ĠÐ¿ÑĢÐ¾Ð²ÐµÑĢÐºÐ¸": 4201,
      "ÑĢÐµÐ¶Ð´": 4202,
      "length": 4203,
      "ĠÐŃÑĤÐ°": 4204,
      "ĠÑģÐ¾ÑģÑĤÐ¾ÑıÐ½Ð¸Ðµ": 4205,
      "ÑĢÐ¸ÑĢÑĥ": 4206,
      "ÑģÑĤÑĢÑĥÐºÑĤ": 4207,
      "Ġsignific": 4208,
      "ĠÐ¾Ð±Ñģ": 4209,
      "plication": 4210,
      "Ġter": 4211,
      "ĠÐ¿ÑĢÐµÐ´Ð¿Ð¾ÑĩÑĤ": 4212,
      "ĠÐ°Ð²ÑĤÐ¾ÑĢ": 4213,
      "king": 4214,
      "sub": 4215,
      "ensor": 4216,
      "ĠÐ¾ÑĨÐµÐ½ÐºÐ¸": 4217,
      "ĠÐ»Ð¸Ð½ÐµÐ¹": 4218,
      "air": 4219,
      "++": 4220,
      "ĠÐ¢ÑĢ": 4221,
      "vert": 4222,
      "Ð¸ÑĦÐ¸ÐºÐ°ÑĨÐ¸Ð¸": 4223,
      "ĠÐ½ÐµÑģÐºÐ¾Ð»ÑĮÐºÐ¸Ñħ": 4224,
      "go": 4225,
      "ln": 4226,
      "Ð°ÑĦ": 4227,
      "ĠÐ´Ð¸Ð½Ð°Ð¼": 4228,
      "Ġreal": 4229,
      "ĠÐŁÑĢÐ¾ÑģÑĤ": 4230,
      "Ð¸ÑĤÐµÑĢ": 4231,
      "ĠÐ¾Ð±Ð»Ð°Ð´": 4232,
      "ĠÑģÐ¾ÑģÐµÐ´": 4233,
      "ĠÐ¼Ð°ÑĪÐ¸Ð½Ð½Ð¾Ð³Ð¾": 4234,
      "ĠÑĢÐµÑģÑĥÑĢÑģÐ¾Ð²": 4235,
      "xt": 4236,
      "ĠÑģÐ¾Ð³Ð»Ð°Ñģ": 4237,
      "ĠÐ¾Ð±ÐµÑģÐ¿ÐµÑĩÐ¸Ð²Ð°ÐµÑĤ": 4238,
      "Ð»Ð°Ð²": 4239,
      "etwork": 4240,
      "ono": 4241,
      "ĠÐºÐ°Ð¶Ð´Ð°Ñı": 4242,
      "ĠÐ·Ð½Ð°Ð½Ð¸Ñı": 4243,
      "ĠÐºÐ°Ð½": 4244,
      "gest": 4245,
      "ĠÑģÐ¾ÑģÑĤÐ¾Ð¸ÑĤ": 4246,
      "ĠÐļÐ¾Ð¼": 4247,
      "ÑĭÑĩÐ¸ÑģÐ»": 4248,
      "ĠÐ²ÐµÑĢÑĪÐ¸Ð½Ñĭ": 4249,
      "ĠÐ°ÑĢÑħÐ¸ÑĤÐµÐºÑĤ": 4250,
      "íķ": 4251,
      "ĠÐ¡Ð¿": 4252,
      "ĠÑĢÑĥÐ±": 4253,
      "Ġthem": 4254,
      "ĠÐ´Ð°Ð½Ð½Ð¾Ð³Ð¾": 4255,
      "ĠÐ´Ð½Ñı": 4256,
      "Ð°ÐµÑĤÐµ": 4257,
      "Ð¾ÑĤÑĥ": 4258,
      "Ġpor": 4259,
      "Ð¸Ð½Ð¾": 4260,
      "Â»,": 4261,
      "ĠÐ¿Ð¾Ð·Ð¸ÑĨÐ¸Ð¸": 4262,
      "ĠÐļÐ¾Ð³Ð´Ð°": 4263,
      "ĠÑĢÐ°Ð·Ð½ÑĭÐµ": 4264,
      "Ð°ÑİÑīÑĥÑİ": 4265,
      "ÑĮÐ¼Ð¸": 4266,
      "}+": 4267,
      "Ġrun": 4268,
      "ĠÐºÐ°ÐºÐ¾Ð¹": 4269,
      "Ã±": 4270,
      "Ð¾Ð²Ð¾Ð³Ð¾": 4271,
      "ĠÐ¿ÑĢÐµÐ´ÑģÐºÐ°Ð·": 4272,
      "ĠÐ¾Ð±ÑĬÑıÑģÐ½": 4273,
      "ÐµÐºÐ¾Ð¼": 4274,
      "ote": 4275,
      "Ġform": 4276,
      "ĠÑģÐ¿ÐµÑĨÐ¸Ð°Ð»ÑĮ": 4277,
      "Ð¾Ð»Ð¾Ð³Ð¸Ð¸": 4278,
      "ĠÐ±Ð¾Ð³": 4279,
      "ĠÐ¿ÑĢÐ¾Ð³ÑĢÐ°Ð¼Ð¼Ñĭ": 4280,
      "ĠÑĨÐµÐ»ÐµÐ¹": 4281,
      "ĠComp": 4282,
      "ĠÑĤÐ²Ð¾ÑĢ": 4283,
      "Ġra": 4284,
      "ĠÑģÑĨÐµÐ½": 4285,
      "Ġtra": 4286,
      "Ġ->": 4287,
      "Ġprovid": 4288,
      "36": 4289,
      "ĠÐ¿ÑĥÑģÑĤ": 4290,
      "ĠÐ´ÐµÑģ": 4291,
      "ention": 4292,
      "Ġfirst": 4293,
      "ĠÑĦÐ°Ð¹Ð»Ð°": 4294,
      "Ð¸ÑĩÐ½Ð¾": 4295,
      "Ġwhen": 4296,
      "ĠÑĥÐ±ÐµÐ´": 4297,
      "ĠÐ¾Ð½Ð»Ð°Ð¹Ð½": 4298,
      "order": 4299,
      "Ð¸ÑģÑģ": 4300,
      "ĠÐ¼Ð°Ð»ÐµÐ½ÑĮ": 4301,
      "ĠÐ°ÑĤÐ¼Ð¾Ñģ": 4302,
      "ner": 4303,
      "ĠÑħÐ¾Ð»": 4304,
      "ÑĥÑģÐºÐ°": 4305,
      "ĠÑĦÑĥÐ½ÐºÑĨÐ¸Ð¹": 4306,
      "ĠÐ¿ÑĢÐ¾Ð²ÐµÐ´": 4307,
      "ogle": 4308,
      "Ð¼Ð¸ÑĢÑĥ": 4309,
      "ÑĨÐµÐ²": 4310,
      "ĠÐ²Ð¾Ðº": 4311,
      ")^{-": 4312,
      "Ð»ÐµÐ½Ð¸Ð¹": 4313,
      "Ð¸ÑĢÑĥÐ¹": 4314,
      "ĠÑĢÐµÐ¶Ð¸Ð¼": 4315,
      "ĠÑĢÐµÐºÐ¾Ð¼ÐµÐ½": 4316,
      "Ad": 4317,
      "ĠÐ³Ð¾ÑģÑĥÐ´Ð°ÑĢ": 4318,
      "ĠÐ¿ÐµÑĢÐ²Ð¾Ð³Ð¾": 4319,
      "ĠÐ¿ÑĭÑĤ": 4320,
      "Ð°Ð»ÑĥÐ¹": 4321,
      "ĠÑĨÐµÐ¿": 4322,
      "ĠÐ¿Ð¾ÑĩÐµÐ¼Ñĥ": 4323,
      "Ð»Ð¸ÑĪ": 4324,
      "ĠÐºÐ¾Ð¾ÑĢÐ´Ð¸Ð½Ð°ÑĤ": 4325,
      "eatures": 4326,
      "ÑĨÐµÐ¿": 4327,
      "angu": 4328,
      "ĠÐ¾ÑĤÐ½Ð¾ÑģÐ¸ÑĤÐµÐ»ÑĮÐ½Ð¾": 4329,
      "Ġmult": 4330,
      "sv": 4331,
      "begin": 4332,
      "Ð»ÐµÐ½Ð¸ÐµÐ¼": 4333,
      "ĠÐ¼ÐµÐ´Ð¸ÑĨÐ¸Ð½": 4334,
      "unk": 4335,
      "ĠÑģÐ¼Ð¾Ð¶": 4336,
      "ĠÑģÐ²Ð¾Ðµ": 4337,
      "ÑĩÐµÐ¹": 4338,
      "ique": 4339,
      "ĠÐ´Ð°Ð»ÑĮ": 4340,
      "ĠÐ·Ð´Ð¾ÑĢÐ¾Ð²ÑĮÑı": 4341,
      "ĠÐ¸Ð½Ð´Ð¸Ð²Ð¸Ð´": 4342,
      "ĠÑģÐ¸Ð³Ð½": 4343,
      "75": 4344,
      "yle": 4345,
      "Ð¾ÑĩÐºÐ¸": 4346,
      "ĠÐ¿Ð»Ð¾ÑģÐº": 4347,
      "ĠNone": 4348,
      "ura": 4349,
      "ÐµÐ¶Ð°ÑĤÑĮ": 4350,
      "search": 4351,
      "ÐµÐ½ÑĨÐ¸": 4352,
      "ars": 4353,
      "ĠÑĢÐ°Ð±Ð¾ÑĤÐµ": 4354,
      "List": 4355,
      "ĠÐºÑĢÑĥÐ¿": 4356,
      "Name": 4357,
      "ĠÐºÐ¾Ð¼Ð±Ð¸Ð½": 4358,
      "message": 4359,
      "ÐµÐ»Ð°": 4360,
      "Ð¸ÑĩÐµÑģÐºÐ¸Ð¼Ð¸": 4361,
      "ĠÑĪÐ°Ð³Ð¾Ð²": 4362,
      "ĠÐ¿Ð°ÑĢÑĭ": 4363,
      "ĠÐ¿Ð¾Ð´ÑħÐ¾Ð´ÑıÑī": 4364,
      "ĠÑģÑĤÐ°Ð½": 4365,
      "ÑĢÐµÐ¹": 4366,
      "Ser": 4367,
      "ÐµÑĢÑĭÐ²": 4368,
      "Ġloc": 4369,
      "ĠÐ½ÐµÐ¾Ð±ÑħÐ¾Ð´Ð¸Ð¼Ð¾ÑģÑĤÐ¸": 4370,
      "Ġdifferent": 4371,
      "ams": 4372,
      "ĠÑģÑĤÑĢÐ¾ÐºÐµ": 4373,
      "Ġcomo": 4374,
      "ĠÑĥÑģÐ»Ð¾Ð²Ð¸Ñİ": 4375,
      "ÄĻ": 4376,
      "ĠÐ½ÐµÐ´Ð¾ÑģÑĤ": 4377,
      "ĠÐ¸Ð·Ð¼ÐµÐ½ÐµÐ½Ð¸Ð¹": 4378,
      "px": 4379,
      "ĠÐ¿Ð¾Ð»Ñı": 4380,
      "ĠÐ¿ÑĢÐ¸Ð²Ð»ÐµÐº": 4381,
      "Ġ(`": 4382,
      "Ð°Ð»Ð¸Ð·Ð°ÑĨÐ¸Ð¸": 4383,
      "ĠYou": 4384,
      "Ð»ÐµÐ½Ð°": 4385,
      "ĠÐ¼Ð¸Ð»": 4386,
      "ÐµÐ»Ð¸Ðº": 4387,
      "query": 4388,
      "Ð°Ð»ÑĥÐ¹ÑģÑĤÐ°": 4389,
      "ÑĢÑĭÑĤ": 4390,
      "ĠÑģÐµÑĢÐ²": 4391,
      "ĠÑģÐ½Ð¸Ð·": 4392,
      "ĠÐ·Ð½Ð°ÑĩÐ¸ÑĤÐµÐ»ÑĮÐ½Ð¾": 4393,
      "dataset": 4394,
      "Ð´Ð¸": 4395,
      "lib": 4396,
      "ĠÐ¼Ð¸Ð½Ð¸Ð¼Ð°Ð»ÑĮÐ½Ð¾Ðµ": 4397,
      "ĠÑģÑĤÐ¾Ð¸Ð¼Ð¾ÑģÑĤÑĮ": 4398,
      "ĠÐ´Ð¾ÑĢÐ¾Ð³": 4399,
      "ÐºÐ¾Ð»": 4400,
      "ĠÑģÐ²ÑıÐ·ÑĮ": 4401,
      "ĠÐ¾Ð±ÑīÐµÑģÑĤÐ²": 4402,
      "ÑĤÐ¸Ðº": 4403,
      "Ġcheck": 4404,
      "ĠÐ¿Ð°Ð¼ÑıÑĤÐ¸": 4405,
      "ĠÐ¾Ð³": 4406,
      "Ð°Ð½Ð½Ð¾Ð³Ð¾": 4407,
      "ĠÐ¿ÑĢÐ¸Ð½ÑıÑĤ": 4408,
      "ÑģÑĤÑĥÐ¿": 4409,
      "ache": 4410,
      "ÐŁÑĥÑģÑĤÑĮ": 4411,
      "ÑĭÐ²Ð°ÑİÑĤ": 4412,
      "ĠÐ¿ÑĢÐ¾Ð´ÑĥÐºÑĤÐ¾Ð²": 4413,
      "ĠÐ¸ÑģÐ¿ÑĢÐ°Ð²": 4414,
      "bb": 4415,
      "ĠÐ½Ð¾Ð¼ÐµÑĢ": 4416,
      "ĠÐºÐ¾ÑĤÐ¾ÑĢÐ¾Ð³Ð¾": 4417,
      "ĠÐ½ÐµÐ·Ð°Ð²Ð¸Ñģ": 4418,
      "$\\": 4419,
      "90": 4420,
      "ĠÑĩÐµÑĤÑĭÑĢ": 4421,
      "Ð±Ð°": 4422,
      "ÐµÑĤÐ¾Ð¼": 4423,
      "Ġnon": 4424,
      "Ġstring": 4425,
      "Ġpass": 4426,
      "Ð§ÑĤÐ¾": 4427,
      "Ð°ÑĢÑĭ": 4428,
      "ĊĠĠĠĠĠĠĠĠĠ": 4429,
      "ĠÐ¿ÑĢÐµÐ´Ð»Ð¾Ð¶ÐµÐ½Ð¸Ðµ": 4430,
      "ĠÐ¿ÐµÑĢÐµÑģÑĤ": 4431,
      "ĠÐ¨Ð°Ð³": 4432,
      "Ġtask": 4433,
      "ĠÐ³Ð¾Ð»Ð¾Ñģ": 4434,
      "vir": 4435,
      "ession": 4436,
      "ĠÐºÐ°Ð¶Ð´Ð¾Ð¼": 4437,
      "ĠÑģÑĦÐµÑĢ": 4438,
      "ici": 4439,
      "ÐŁÐ¾": 4440,
      "ten": 4441,
      "ĠÐ¡Ð¾Ð·Ð´Ð°Ð½Ð¸Ðµ": 4442,
      "Ð¾Ð³ÑĢÐ°Ð¼": 4443,
      "ĠÑįÑĤÐ¸Ð¼": 4444,
      "Ġthrough": 4445,
      "ĠÑģÑĢÐµÐ´Ñĭ": 4446,
      "ĠÐºÐ¾Ð½ÑĦÐ¸Ð³ÑĥÑĢ": 4447,
      "ÐºÐ°Ð¼": 4448,
      "etr": 4449,
      "ĠÑĥÑģÑĤÑĢÐ¾Ð¹ÑģÑĤÐ²": 4450,
      "ĠÐ¾ÑĤÑģÑĥÑĤÑģÑĤÐ²": 4451,
      "ĊĊĠĠĠĠĠĠĠĠĠĠĠ": 4452,
      "ĠÑĥÑģÐ¸Ð»": 4453,
      "Ġdirect": 4454,
      "Ð»ÐµÐ½Ð¸Ñİ": 4455,
      "Ġ60": 4456,
      "ging": 4457,
      "Ð¸Ð³ÑĢ": 4458,
      "ired": 4459,
      "}\")": 4460,
      "ĠÑĢÐ¾Ð¼": 4461,
      "Ð¿Ð¾Ð»Ð¾Ð¶Ð¸Ð¼": 4462,
      "ÑĥÑģÑĤÐ¸Ð¼": 4463,
      "ÐµÐºÐ¾ÑĤÐ¾ÑĢÑĭÐµ": 4464,
      "ĠÐ¿ÐµÑĢÑģÐ¾Ð½Ð°Ð¶": 4465,
      "clude": 4466,
      "AN": 4467,
      "Ãº": 4468,
      "Ð°Ð»Ð¾ÑģÑĮ": 4469,
      "ada": 4470,
      "ĠÑģÐ»ÑĥÑĩÐ°Ñı": 4471,
      "ĠÐ¿ÑĢÐ¾Ð¸Ð·Ð²ÐµÐ´ÐµÐ½Ð¸Ðµ": 4472,
      "ĠÑĥÐ·Ð½": 4473,
      "ÑģÐ»Ð¾Ð²": 4474,
      "ĠÐĹÐµÐ¼": 4475,
      "approx": 4476,
      "Ð¾ÑĩÐºÐ°": 4477,
      "_{\\": 4478,
      "ĠÐºÐ¾Ð½ÑĤÑĢÐ¾Ð»": 4479,
      "ĠÐ¿ÑĢÐ¾ÑĨÐµÑģÑģÐ°": 4480,
      "ĠÐ¿ÑĢÐ¾ÑĦÐµÑģÑģÐ¸Ð¾Ð½Ð°Ð»ÑĮ": 4481,
      "json": 4482,
      "Ð¸ÑģÑĤÑĢ": 4483,
      "ĠÐ¿Ð°Ðº": 4484,
      "ĠÑıÐ²": 4485,
      "ĠÐ¼ÐµÑħÐ°Ð½Ð¸Ð·": 4486,
      "ger": 4487,
      "ĠÑģÑĤÐ°Ð½Ð¾Ð²Ð¸ÑĤÑģÑı": 4488,
      "Ð°Ð¿Ð°Ð·": 4489,
      "ĠÐ´ÐµÐ²": 4490,
      "Ġtechn": 4491,
      "ĠÐ¸Ð³ÑĢÐ°": 4492,
      "Ġdf": 4493,
      "Ġfe": 4494,
      "ĠÐºÐ¾Ð½Ñģ": 4495,
      "Ð¾ÐµÐ²": 4496,
      "ĠÑįÐºÑģÐ¿ÐµÑĢÐ¸Ð¼": 4497,
      "lay": 4498,
      "ĠÐ¿Ð¾ÑĢÑĤ": 4499,
      "ĠÐ±Ð¾ÑĢ": 4500,
      "ĠÑģÐ¾Ð²Ð¼ÐµÑģÑĤ": 4501,
      "ĠÐ¿Ð¾Ð´ÑħÐ¾Ð´Ð¸ÑĤ": 4502,
      "ĠÐ¿ÑĢÐ¸ÑĢÐ¾Ð´": 4503,
      "ĠÑģÐ»ÐµÐ´ÑĥÑİÑīÐ¸Ð¼": 4504,
      "ĠÐ¾ÑĪÐ¸Ð±Ð¾Ðº": 4505,
      "ĠÐ¼Ð¸Ðº": 4506,
      "äº": 4507,
      "ĠÐ»ÑİÐ±Ð¾Ð³Ð¾": 4508,
      "ÑĥÐ½Ð´": 4509,
      "This": 4510,
      "by": 4511,
      "ÐµÑĢÐµ": 4512,
      "ĠDe": 4513,
      "Ð°ÑĨÐ¸Ð¹": 4514,
      "ĠÐ¸Ð´ÐµÐ½ÑĤ": 4515,
      "ĠDataFrame": 4516,
      "Ġenc": 4517,
      "ĠÑģÑĥÐ¼Ð¼": 4518,
      "ament": 4519,
      "ĠÐ·Ð°Ð³ÑĢÑĥÐ·": 4520,
      "ĠÑĢÐ°Ð·Ð²Ð¸ÑĤÐ¸Ðµ": 4521,
      "ĠÐ±ÐµÑģÐº": 4522,
      "ĠÑģÐºÐ¾Ð»ÑĮÐºÐ¾": 4523,
      "ĠÐ½Ð°ÑĢÑĥÑĪ": 4524,
      "Ġaw": 4525,
      "ÐºÐ¾Ð²Ð¾Ð´": 4526,
      "ÐŁÑĢÐ¸Ð²ÐµÑĤ": 4527,
      "ĠÐ¾Ð±Ðµ": 4528,
      "ldots": 4529,
      "Ð¸Ð½Ð¾Ð¼": 4530,
      "ĠÐ»Ð¸ÑĨ": 4531,
      "ÑĢÐ¾ÑģÑĤ": 4532,
      "Ð°Ð»Ð°ÑģÑĮ": 4533,
      "ĠÑħÑĢÐ°Ð½ÐµÐ½Ð¸Ñı": 4534,
      "reg": 4535,
      "Ġpol": 4536,
      "ĠÑĪÑĤ": 4537,
      "ÑĥÐ»Ñİ": 4538,
      "ĠÐ¼ÐµÑģÑı": 4539,
      "ĠÐ¾Ð¿Ð°Ñģ": 4540,
      "Ġseg": 4541,
      "ĠÐ½Ð¾Ð²ÐµÐ¹": 4542,
      "std": 4543,
      "ĠÑģÐ¸Ð¼Ð²Ð¾Ð»Ð¾Ð²": 4544,
      "ĠÐ²ÐµÑĩ": 4545,
      "ĠÐĹÐ½Ð°ÑĩÐ¸ÑĤ": 4546,
      "ĠÐ¼Ð½Ð¾Ð³Ð¸Ñħ": 4547,
      "ĠÐ¿Ð¾ÑģÑĤÐ°Ð²": 4548,
      "Ð´ÐµÐ¹ÑģÑĤÐ²": 4549,
      "âĢĻ": 4550,
      "Ġcome": 4551,
      "azione": 4552,
      "ling": 4553,
      "Ġcu": 4554,
      "Ð°Ð½ÑĤÐ¸ÑĢÑĥ": 4555,
      "ĠÐ½ÐµÐ¾Ð±ÑħÐ¾Ð´Ð¸Ð¼ÑĭÐµ": 4556,
      "ior": 4557,
      "ÐŁÐµÑĢÐ²": 4558,
      "ĠÐ¿ÐµÑĢÐµÐ´Ð°Ñĩ": 4559,
      "Ð»ÐµÐ¶": 4560,
      "Ġ1000": 4561,
      "trans": 4562,
      "Ġpd": 4563,
      "ĠÐ¾ÑĩÐµÑĢ": 4564,
      "ĠÑĤÐ¾Ð¿": 4565,
      "ÑĢÐ¾Ð¿": 4566,
      "ĠÐ¾ÑģÐ²": 4567,
      "ĠÐ´Ð¾ÑħÐ¾Ð´": 4568,
      "ĠÐ´Ð¾ÐºÑĥÐ¼ÐµÐ½ÑĤ": 4569,
      "ĠÐ°ÑĤÐ¼Ð¾ÑģÑĦÐµÑĢ": 4570,
      "ĠÐ²ÑĭÑĪÐµ": 4571,
      "ĠÑģÐµÑĢÐ²Ð¸Ñģ": 4572,
      "Äħ": 4573,
      "Ġcontext": 4574,
      "ĠÑģÐ¸ÑģÑĤÐµÐ¼Ðµ": 4575,
      "ĠOpenAI": 4576,
      "ĠÐ¾ÑģÐ½Ð¾Ð²Ð½ÑĭÑħ": 4577,
      "ĠÐ¿Ð¾Ð»ÑĮÐ·Ð¾Ð²Ð°ÑĤÐµÐ»ÑĮ": 4578,
      "opt": 4579,
      "Ġrequest": 4580,
      "Ð¸ÑĤÐ¾ÑĢÐ¸Ð¸": 4581,
      "ĠÐ¿Ð¾ÑģÐ»ÐµÐ´ÑģÑĤÐ²Ð¸Ñı": 4582,
      "Ġht": 4583,
      "ÑĥÑİÑīÐ¸Ñħ": 4584,
      "ÐµÑĢÐ¾ÑıÑĤ": 4585,
      "Ð¾ÐºÐ¾Ð»": 4586,
      "ĠÐ¾ÑĤÐ½Ð¾ÑĪÐµÐ½Ð¸Ñı": 4587,
      "ĠÐ²Ð·Ð°Ð¸Ð¼Ð¾Ð´ÐµÐ¹ÑģÑĤÐ²Ð¸Ñı": 4588,
      "ĠÐ°ÑģÑģ": 4589,
      "Ġpi": 4590,
      "ĠÐ¸Ð·Ð¾Ð±ÑĢÐ°Ð¶ÐµÐ½Ð¸Ñı": 4591,
      "ĠÑĢÐ°Ð²Ð½Ñĭ": 4592,
      "ÐµÐ½ÐµÐ¼": 4593,
      "ank": 4594,
      "CD": 4595,
      "Ġthere": 4596,
      "ÑĥÐ³Ð¾Ð»ÑĮÐ½Ð¸ÐºÐ°": 4597,
      "Ð¾ÑĨÐ¸Ð¾Ð½Ð°Ð»ÑĮ": 4598,
      "ĠÑįÐ»ÐµÐ¼ÐµÐ½ÑĤÐ°": 4599,
      "ciÃ³n": 4600,
      "ĠÐļÑĢÐ¾Ð¼Ðµ": 4601,
      "ÐĿÐ°Ð·Ð¾Ð²": 4602,
      "current": 4603,
      "ĠÐ´ÐµÑıÑĤÐµÐ»ÑĮ": 4604,
      "ĠÐ¾ÑĤÑĢÐµÐ·": 4605,
      "27": 4606,
      "als": 4607,
      "ĠÑĢÐµÐ»": 4608,
      "ĠÐ¾Ð±ÐµÑģÐ¿ÐµÑĩÐ¸ÑĤÑĮ": 4609,
      "ump": 4610,
      "ati": 4611,
      "Ð¨ÐĲ": 4612,
      "Ġstate": 4613,
      "ÑĢÐµÐ¼Ñı": 4614,
      "ĠĠĠĠĠĠ": 4615,
      "Ð¾ÑģÑĤÐµÐ¹": 4616,
      "ĠÑĤÑĢÐµÐ±Ð¾Ð²Ð°Ð½Ð¸Ñı": 4617,
      "Ð±Ð»": 4618,
      "ĠÑĥÐ²Ð¸Ð´": 4619,
      "Ġperform": 4620,
      "ĠÑģÐ¾ÑĩÐµÑĤ": 4621,
      "ĠÐ´ÑĥÑħ": 4622,
      "ĠÐºÐ¾Ð½ÑĦÐ»Ð¸Ðº": 4623,
      "config": 4624,
      "Ġbased": 4625,
      "ĠÐ´Ð¾Ð¼Ð°": 4626,
      "js": 4627,
      "plot": 4628,
      "ĠÐ¶ÐµÐ½": 4629,
      "ĠÐ²Ð°ÑĪÐ¸Ñħ": 4630,
      "process": 4631,
      "ĠÑĤÐ¾ÐºÐµÐ½": 4632,
      "Ġalso": 4633,
      "ĠÐ·Ð°Ð´Ð°ÑĩÐ°": 4634,
      "ĠJava": 4635,
      "ĠÐ¿Ð¾Ð´Ñĩ": 4636,
      "ĠÐºÐ¾Ð¾ÑĢÐ´Ð¸Ð½Ð°ÑĤÑĭ": 4637,
      ".*": 4638,
      "ÑĩÐ¸": 4639,
      "cc": 4640,
      "Ð½ÑĥÐ»": 4641,
      "ĠÑįÐºÐ¾Ð»Ð¾Ð³": 4642,
      "ĠÐ±ÑĥÐºÐ²": 4643,
      "vices": 4644,
      "Ð°ÑĤÐ¾Ð²": 4645,
      "ĠÐ°Ð¿": 4646,
      "ĠÑģÐ»ÐµÐ´ÑĥÑİÑīÐ¸Ð¹": 4647,
      "ĠÐºÐ°ÑĩÐµÑģÑĤÐ²Ð¾": 4648,
      "28": 4649,
      "ĠAl": 4650,
      "ett": 4651,
      "Ġgpt": 4652,
      "ĠÑĢÐµÐ´": 4653,
      "gan": 4654,
      "ĠÐ»Ð¸ÑģÑĤ": 4655,
      "Ġvers": 4656,
      "ĠÐ²Ð¾ÐºÑĢÑĥÐ³": 4657,
      "Ġmake": 4658,
      "my": 4659,
      "ĠÑĢÐµÐ°Ð»ÑĮ": 4660,
      "viron": 4661,
      "Ð°ÑģÑĤÐµÑĢ": 4662,
      "lection": 4663,
      "oss": 4664,
      "ĠÐ´ÐµÐ»Ð°ÑĤÑĮ": 4665,
      "ĠÐ¾ÐºÐ°Ð·": 4666,
      "Ð¸Ð¼ÑģÑı": 4667,
      "your": 4668,
      "ĠÐ²ÑĭÐ±ÑĢÐ°Ð½": 4669,
      "ĠÐĴÑģÐµ": 4670,
      "of": 4671,
      "ĠÐ¿ÐµÑĢÐ²ÑĭÐ¹": 4672,
      "ĠÑģÑĤÑĢÑĥÐºÑĤÑĥÑĢÑĭ": 4673,
      "ĠÑĤÐµÑĩÐµÐ½Ð¸Ðµ": 4674,
      "cription": 4675,
      "ĠÑģÐ¾Ð·Ð´Ð°Ð²Ð°ÑĤÑĮ": 4676,
      "Ð¾Ð´Ð½Ñı": 4677,
      "ĠÐ¿ÐµÑĢÐµÐº": 4678,
      "Ġmed": 4679,
      "Cont": 4680,
      "ÅĤ": 4681,
      "Ġproduct": 4682,
      "TP": 4683,
      "ĠÐ»Ð¸Ð½Ð¸Ð¸": 4684,
      "ĠÐ¼Ð°ÑĢÐºÐµÑĤ": 4685,
      "ÑģÑĭÐ»": 4686,
      "Ġrep": 4687,
      "endo": 4688,
      "ĠÑĢÐµÐ°Ð»Ð¸Ð·Ð°ÑĨÐ¸Ð¸": 4689,
      "ÐµÐ»ÐµÐ½": 4690,
      "ender": 4691,
      "Ð°ÐºÑĤÐ¸Ð²": 4692,
      "ĠÐ¿Ð¸ÑģÑĮ": 4693,
      "Ð¸Ð²ÐµÑĢÑģ": 4694,
      "ĠÐºÐ¾Ð½ÑĨÐµÐ¿": 4695,
      "ĠÑĨÐ¸ÐºÐ»": 4696,
      "ĠÑĥÑĩÐµÐ½": 4697,
      "AD": 4698,
      "Ð²ÑıÐ·": 4699,
      "ĠÑĢÐ°Ð·Ð½Ð¸": 4700,
      "ĠÐ²ÐºÐ»Ð°Ð´": 4701,
      "ĠÑĤÑĢÑĥ": 4702,
      "Ġstruct": 4703,
      "Ġright": 4704,
      "ĠÐ½Ð°ÑģÐ»": 4705,
      "âĶĢâĶĢ": 4706,
      "ĠÐŀÐ±ÑĬÑıÑģÐ½ÐµÐ½Ð¸Ðµ": 4707,
      "ĠÐ´Ð¸Ð°Ð¿Ð°Ð·": 4708,
      "()`": 4709,
      "Ġoptim": 4710,
      "ĠÐ½Ð¸Ð¼Ð¸": 4711,
      "ĠÐ½Ð°Ð²ÑĭÐºÐ¸": 4712,
      "txt": 4713,
      "ĠAs": 4714,
      "$$": 4715,
      "ĠÐ¿ÑĢÐ¸Ð³Ð¾ÑĤÐ¾Ð²": 4716,
      "ĠÐ½Ð¾Ð²ÐµÐ¹ÑĪÐ°Ñı": 4717,
      "ĠÐ¿Ð¾Ð²ÑĭÑģ": 4718,
      "ĠÑĥÐ¿ÑĢÐ¾Ñī": 4719,
      "ÑıÐ¹": 4720,
      "emp": 4721,
      "Ð³Ð¸": 4722,
      "Ġvis": 4723,
      "den": 4724,
      "Ð¡Ð³ÐµÐ½ÐµÑĢ": 4725,
      "Ð½Ð¸ÑĤÑĮ": 4726,
      "place": 4727,
      "ĠÐ²Ð¸ÑĢÑĤÑĥÐ°Ð»ÑĮ": 4728,
      "andas": 4729,
      "ĠÐ³Ð¾Ð»Ð¾Ð²": 4730,
      "ĠÑĤÐ¾ÑĢ": 4731,
      "ÐµÑīÐµÐ½Ð¸Ñı": 4732,
      "ĠÑģÐ»Ð¾Ð²Ð¾": 4733,
      "ĠÐĴÑģ": 4734,
      "Ġtype": 4735,
      "ĠÐ¿ÐµÑģ": 4736,
      "Ġgu": 4737,
      "Ġdevelop": 4738,
      "ÐĿÐ°Ð·Ð¾Ð²Ð¸ÑĤÐµ": 4739,
      "ĠÐ¸Ð½ÑģÑĤÑĢÑĥÐ¼ÐµÐ½ÑĤÑĭ": 4740,
      "rm": 4741,
      "ÐºÐ¾Ðµ": 4742,
      "ĠÐ·Ð°Ñħ": 4743,
      "Ð¸Ð»Ð¸ÑģÑĮ": 4744,
      "Ġsize": 4745,
      "head": 4746,
      "stat": 4747,
      "roll": 4748,
      "ĠÐ¼ÐµÑģÑĤÐ°": 4749,
      "Ð°Ð¹ÑĤÐ°": 4750,
      "ÑĢÐ¸ÑĦ": 4751,
      "Ð»Ð°ÑģÑģ": 4752,
      "ĠÑıÐ´": 4753,
      "ĠÐ½Ð°ÑĩÐ°Ð»Ð°": 4754,
      "Ð¾Ð±Ð¸Ð»ÑĮ": 4755,
      "ĠÑĢÐ°ÑģÑģÐ¼Ð¾ÑĤÑĢÐ¸Ð¼": 4756,
      "ĠÑĤÑĢÐ°Ð´Ð¸ÑĨÐ¸Ð¾Ð½": 4757,
      "tri": 4758,
      "ÑĥÐ´ÑĮ": 4759,
      "ĠÐ¿ÑĢÐ¾Ð¸Ð·Ð²Ð¾Ð´Ð¸ÑĤÐµÐ»ÑĮÐ½Ð¾ÑģÑĤÐ¸": 4760,
      "unc": 4761,
      "ĠÐ³Ð»Ð¾Ð±": 4762,
      "ĠÐ¼Ð°ÑģÑĪÑĤÐ°Ð±": 4763,
      "ĠÐ¿Ð¾Ñħ": 4764,
      "ĠÐºÑĢÐ¾Ð²": 4765,
      "ÐµÐ´Ð¸ÑĤÐµ": 4766,
      "ĠÐ¸ÑģÐ¿ÑĭÑĤ": 4767,
      "pert": 4768,
      "cor": 4769,
      "ĠÐ´Ð°": 4770,
      "ĠÑģÑħ": 4771,
      "ĠÐ¸ÑģÐºÐ»ÑİÑĩ": 4772,
      "ĠÐ¸ÑĤÐ¾Ð³": 4773,
      "ĠÑģÑĩÐ°ÑģÑĤ": 4774,
      "ĠÐ¾Ð±Ð¾ÑĢÑĥÐ´": 4775,
      "Ġet": 4776,
      "ĠÐ²ÑĤÐ¾ÑĢÐ¾Ð¹": 4777,
      "ĠÐľÐ°ÑĢ": 4778,
      "ĠÐ¡Ð¨ÐĲ": 4779,
      "ĠÐĿÐ°Ð¹Ð´": 4780,
      "Ġmark": 4781,
      "ÑĨÐµÑģÑģ": 4782,
      "Ġdella": 4783,
      "ĠÑĥÐ¼ÐµÐ½ÑĮÑĪÐ¸ÑĤÑĮ": 4784,
      "ĠÐ¼Ð¾ÑĤÐ¸Ð²": 4785,
      "ĠHere": 4786,
      "'t": 4787,
      "Ġallow": 4788,
      "ĠÐ·Ð´ÐµÑģÑĮ": 4789,
      "ĠÐ²Ð¸Ð´ÐµÐ¾": 4790,
      "ĠÐ¸Ð½Ð²ÐµÑģÑĤ": 4791,
      "ĠÐ¾ÑĪÐ¸Ð±ÐºÐ¸": 4792,
      "ÑĥÑĤÑĮ": 4793,
      "ĠÐ¿Ð¾Ð´Ð¾Ð±": 4794,
      "ĠÐ´ÑĢÑĥÐ³Ð°": 4795,
      "ĠÐºÐ¾Ð¿": 4796,
      "ĠÐ´Ð°ÐµÑĤ": 4797,
      "ĠÑģÑĤÐ°Ð±Ð¸Ð»ÑĮ": 4798,
      "Ġproble": 4799,
      "ĠÑĢÐµÐºÐ»Ð°Ð¼": 4800,
      "Ġlabel": 4801,
      "ware": 4802,
      "ĠÐ¼ÐµÑĩ": 4803,
      "Ġmay": 4804,
      "ĠÐ¾ÑĢÐ³Ð°Ð½Ð¸Ð·Ð°ÑĨÐ¸Ð¸": 4805,
      "Ð²ÐµÑĢÑĤ": 4806,
      "lev": 4807,
      "ĠÐºÐ°Ð¿": 4808,
      "ĠÐ£ÑģÑĤÐ°Ð½Ð¾Ð²": 4809,
      "bot": 4810,
      "Ð°ÑģÐ¸Ð±Ð¾": 4811,
      "ves": 4812,
      "ids": 4813,
      "bre": 4814,
      "ĠÐ²Ð¾Ð·Ð´ÐµÐ¹ÑģÑĤÐ²": 4815,
      "ĠÐ·Ð½Ð°Ð¼ÐµÐ½": 4816,
      "Ð¾Ð¾": 4817,
      "ule": 4818,
      "Ð²Ð¸Ð³": 4819,
      "Ġscript": 4820,
      "ĠÐ½ÐµÐ¿ÑĢ": 4821,
      "ĠÐ±Ð°Ð·Ð¾Ð²": 4822,
      "Ð°ÑıÑģÑĮ": 4823,
      "ĠÐ¼ÐµÑĢÐ¾Ð¿ÑĢÐ¸ÑıÑĤ": 4824,
      "ĠÐ¿Ð¾Ð´Ñģ": 4825,
      "ĠÐ´Ð°Ð»": 4826,
      "Ð½Ð¾ÑģÑĤÑıÐ¼Ð¸": 4827,
      "ĠÐ¼Ð¾Ð³Ð»Ð¸": 4828,
      "ĠÐ¿ÑĢÑıÐ¼Ð¾Ð¹": 4829,
      "ĠÐ´Ð½ÐµÐ¹": 4830,
      "Ġcould": 4831,
      "ĠÐ»ÑİÐ´ÑĮÐ¼Ð¸": 4832,
      "Ġcorrect": 4833,
      "ÐĿÐ°Ð¿Ð¸ÑĪÐ¸": 4834,
      "floor": 4835,
      "Ð»Ð¸ÑĪÐºÐ¾Ð¼": 4836,
      "image": 4837,
      "ĠÐ¿ÑĢÐ¾ÑħÐ¾Ð´": 4838,
      "Ð¸Ð¼ÐµÐ½ÑĮÑĪ": 4839,
      "aj": 4840,
      "po": 4841,
      "ÐŃÑĤÐ¸": 4842,
      ")]": 4843,
      "Ġemb": 4844,
      "ĠÐ²ÑĭÐ¿Ð¾Ð»Ð½ÑıÐµÑĤÑģÑı": 4845,
      "Ð°Ð¶Ð¸ÑĤÐµ": 4846,
      "ÐºÐ¾Ð½Ð¾Ð¼": 4847,
      "sis": 4848,
      "ÐµÐ½Ð½Ð¾Ð¼": 4849,
      "ano": 4850,
      "group": 4851,
      "ĠÐ³ÐµÐ½": 4852,
      "ĠÐ²ÑĭÐ±ÑĢÐ¾Ñģ": 4853,
      "comm": 4854,
      "ĠÑĢÐ¾Ð²": 4855,
      "ÑħÐ¾Ð¶Ð´ÐµÐ½Ð¸Ñı": 4856,
      "ĠÐ±Ð¾Ð»": 4857,
      "ales": 4858,
      "ĠÑĤÑĢÐµÐ±ÑĥÐµÑĤÑģÑı": 4859,
      "ĠÐ»Ð¾Ð¶": 4860,
      "Ġsim": 4861,
      "ĠÐ¾ÑĤÐ¾Ð±ÑĢÐ°Ð¶": 4862,
      "ĠÐĶÐ°Ð²Ð°Ð¹ÑĤÐµ": 4863,
      "az": 4864,
      "ÑģÑıÑĤ": 4865,
      "ĠÐ´Ð²Ð¸Ð³": 4866,
      "ĠÐ¿Ð¾ÑĤÐ¾Ð¼Ñĥ": 4867,
      "Ð¿Ð¾Ñģ": 4868,
      "ond": 4869,
      "ĠÑĢÐµÑĩ": 4870,
      "ĠÐ¾Ð±Ð¾Ð·Ð½Ð°Ñĩ": 4871,
      "ĠÐ¿Ð°ÑĢÐ°Ð»Ð»": 4872,
      "ĠÐ¸Ð·Ð±ÐµÐ¶Ð°ÑĤÑĮ": 4873,
      "An": 4874,
      "([": 4875,
      "ĠÐ¿Ð¾Ð»Ð½Ð¾ÑģÑĤÑĮÑİ": 4876,
      "ature": 4877,
      "zioni": 4878,
      "ĠÑħÐ¾Ñĩ": 4879,
      "Ġinteg": 4880,
      "IT": 4881,
      "ĠÐ½Ð°Ð¸Ð±Ð¾Ð»ÑĮÑĪ": 4882,
      "Ġutil": 4883,
      "Ġpath": 4884,
      "ĠÐ²ÑĭÐ³Ð»ÑıÐ´": 4885,
      "ĠÑĦÐ°ÐºÑĤÐ¾ÑĢÐ¾Ð²": 4886,
      "cel": 4887,
      "ÐµÐ²ÑĭÐµ": 4888,
      "ception": 4889,
      "ĠÑģÐ¼ÑĭÑģÐ»": 4890,
      "ĠÐłÐµÐ³": 4891,
      "01": 4892,
      "Ġop": 4893,
      "Ð°ÑģÑĤÑĢÐ¾Ð¹": 4894,
      "ĠÐ½Ð°ÑģÐµÐ»": 4895,
      "ĠLe": 4896,
      "ĠÐ¿ÑĢÐ¾Ð³ÑĢÐ°Ð¼Ð¼Ð¸ÑĢÐ¾Ð²Ð°Ð½Ð¸Ñı": 4897,
      "Ġbreak": 4898,
      "Ð¸ÑĤÐ¸Ð²": 4899,
      "Ġ-\\": 4900,
      "ĠÑģÑĤÐµÐ¿ÐµÐ½Ð¸": 4901,
      "ĠÑģÐ²Ð¾Ð±Ð¾Ð´": 4902,
      "cent": 4903,
      "ÐµÐ»Ð¾": 4904,
      "ĠÐºÐ½Ð¾Ð¿": 4905,
      "ÐºÑĢÐµÐ¿": 4906,
      "Ġ?": 4907,
      "26": 4908,
      "sive": 4909,
      "Ð°Ð½Ð°Ð²Ð»Ð¸Ð²": 4910,
      "amma": 4911,
      "ĠÐ¸Ð½Ð´Ð¸Ð²Ð¸Ð´ÑĥÐ°Ð»ÑĮ": 4912,
      "ĠÑĥÑģÐºÐ¾ÑĢ": 4913,
      "ĠÐ´Ð¾Ð»Ð»": 4914,
      "ĠÑĨÐ¸ÑĦÑĢÐ¾Ð²": 4915,
      "ãĢģ": 4916,
      "Ð¸Ð²Ð°ÑİÑĤÑģÑı": 4917,
      "ĠÑĥÑģÐ»Ð¾Ð²Ð¸Ð¹": 4918,
      "ĠÑĥÐ½": 4919,
      "itions": 4920,
      "Ð¾Ð¿Ð¾Ð»Ð¾Ð¶": 4921,
      "ĠÐ¶Ð¸Ð²Ð¾ÑĤÐ½ÑĭÑħ": 4922,
      "udo": 4923,
      "ĠÐ¿Ð°ÑĢÐ°Ð¼ÐµÑĤÑĢÑĭ": 4924,
      "For": 4925,
      "ĠÐ¾ÑĦ": 4926,
      "ĠÑĢÑĥÐºÐ¾Ð²Ð¾Ð´": 4927,
      "Ð²ÐµÑģÑĤÐ¸": 4928,
      "Ġapproach": 4929,
      "ÐĺÑģÐ¿Ð¾Ð»ÑĮÐ·Ð¾Ð²Ð°Ð½Ð¸Ðµ": 4930,
      "âī": 4931,
      "Ġess": 4932,
      "Ġmat": 4933,
      "Ġimplement": 4934,
      "Ġwould": 4935,
      "ĠÑĤÐ²Ð¾ÑĢÑĩ": 4936,
      "Ð¾ÐºÐ¾Ð¹": 4937,
      "Ġweb": 4938,
      "Ġresponse": 4939,
      "ĠÐŁÐ»": 4940,
      "ĠÐ·Ð°Ð¼ÐµÑĤ": 4941,
      "ĠÐ¼Ð½Ð¾Ð³Ð¾Ñĩ": 4942,
      "ĠÐ´ÐµÐ»Ð¸ÑĤÑģÑı": 4943,
      "Ġtemp": 4944,
      "SON": 4945,
      "Ð³Ð´Ðµ": 4946,
      "ols": 4947,
      "ĠÐ¾ÑĤÐ²ÐµÑĤÑģÑĤÐ²ÐµÐ½": 4948,
      "hen": 4949,
      "pr": 4950,
      "Å¼": 4951,
      "ĠAI": 4952,
      "Ġalg": 4953,
      "ĠSQL": 4954,
      "Ð¿ÑĢÐµÑĤ": 4955,
      "ĠÐºÐ»ÑİÑĩÐµÐ²ÑĭÑħ": 4956,
      "ĠÑĢÐ°Ð·Ð»Ð¸ÑĩÐ½ÑĭÐ¼Ð¸": 4957,
      "ĠÑĥÑģÐ»Ð¾Ð²Ð¸Ðµ": 4958,
      "Ð³ÑĢÐµÐ´Ð¸": 4959,
      "ĠÑģÐ¾Ð»Ð½ÐµÑĩ": 4960,
      "ores": 4961,
      "Ġprogram": 4962,
      "ĠÐ²Ð°ÑĪÐ¸": 4963,
      "ÐĶÐ°": 4964,
      "ĠÐĺÐ½ÑĤÐµÑĢÐ½": 4965,
      "ÐŁÐ¾ÑģÐ»Ðµ": 4966,
      "Ð³Ð»Ð¸Ð¹": 4967,
      "Ð³ÑĥÐ¼": 4968,
      "Ð°Ð½Ð½ÑĭÐ¼": 4969,
      "RL": 4970,
      "ĠÐ²ÑģÑĳ": 4971,
      "AL": 4972,
      "Ð¸Ð»Ð¾Ñģ": 4973,
      "ream": 4974,
      "ĠÐ´Ð²Ð¸Ð¶ÐµÐ½Ð¸Ñı": 4975,
      "Ð²ÐµÐ´ÐµÐ½Ð¸Ðµ": 4976,
      "Ð¾ÑģÐ½Ð¾Ð²": 4977,
      "ĠÐºÐ¾ÑįÑĦÑĦÐ¸ÑĨÐ¸ÐµÐ½ÑĤ": 4978,
      "ĠÐłÐ¾ÑģÑģÐ¸Ð¸": 4979,
      "reate": 4980,
      "ÑĢÑĥÑĤ": 4981,
      "ĠÑĤÐµÐ»ÐµÑĦ": 4982,
      "ĠÐºÑĥÐ¿": 4983,
      "ĠÐ²ÑĭÑĢÐ°Ð¶ÐµÐ½Ð¸Ñı": 4984,
      "ĠÐ²ÑĭÑıÐ²": 4985,
      "Ð°Ð·Ð½Ð°Ñĩ": 4986,
      "idx": 4987,
      "loy": 4988,
      "ĠÐ´ÐµÐ¹ÑģÑĤÐ²Ð¸ÑĤÐµÐ»ÑĮÐ½Ð¾": 4989,
      "Ð¾Ð²Ð¾Ðµ": 4990,
      "ĠÑģÐ¾Ð´ÐµÑĢÐ¶Ð°Ñī": 4991,
      "ames": 4992,
      "Ġitem": 4993,
      "Se": 4994,
      "ÑĪÐ¸Ð¹": 4995,
      "ational": 4996,
      "Ð±ÐµÑĢÐ¸ÑĤÐµ": 4997,
      "ÑĢÐµÐ´Ð¾ÑĤ": 4998,
      "Ð°ÑĤÐµÐ»ÑĮÐ½ÑĭÑħ": 4999,
      "Model": 5000,
      "ÑĪÐµÐ³Ð¾": 5001,
      "Ġfin": 5002,
      "ĠÐŁÐµÑĢÐ²": 5003,
      "ĠÐ´Ð°Ð½Ð½ÑĭÐ¼Ð¸": 5004,
      "ĠÑĢÑĥÑģÑģÐºÐ¾Ð¼": 5005,
      "Ġ\"\"\"": 5006,
      "ĠÐ´ÐµÑĤÐµÐ¹": 5007,
      "ĠÐ¾Ð²": 5008,
      "Ġher": 5009,
      "Ð¾Ð¼ÐµÑĤÑĢ": 5010,
      "ĠÐ¿ÑĢÐ¸ÑĩÐ¸Ð½": 5011,
      "Ġequ": 5012,
      "ĠÐ¿ÐµÑĢÐ²Ð¾Ð¹": 5013,
      "));": 5014,
      "ÑĢÐ¸Ñģ": 5015,
      "Ġcolor": 5016,
      "ÐµÐ½Ð¸ÑĢÐ¾Ð²": 5017,
      "Ġcustom": 5018,
      "ĠÐ¿ÑĢÐ¾Ð¸Ð·Ð²Ð¾Ð´Ð¸ÑĤÐµÐ»ÑĮÐ½Ð¾ÑģÑĤÑĮ": 5019,
      "ĠÑī": 5020,
      "Ġtrue": 5021,
      "iment": 5022,
      "ÑĢÑıÐ·": 5023,
      "ĠÐĿÐµÐºÐ¾ÑĤÐ¾ÑĢÑĭÐµ": 5024,
      "ĠÐ¿Ð¾ÑĤÐ¾Ðº": 5025,
      "board": 5026,
      "Ð¸Ð»Ð¾ÑģÐ¾ÑĦ": 5027,
      "Ġtwo": 5028,
      "ĠÑģÐ»Ð¸ÑĪÐºÐ¾Ð¼": 5029,
      "array": 5030,
      "ĠÐºÐ²Ð°Ð½ÑĤ": 5031,
      "ĠÐ½Ð°ÑģÑĤÑĢÐ¾Ð¹ÐºÐ¸": 5032,
      "ĠÐ´Ð¸ÑĢ": 5033,
      "any": 5034,
      "ĠÑģÑĤÑĢÑĥÐºÑĤÑĥÑĢÑĥ": 5035,
      "ET": 5036,
      "ĠÐ²Ð°ÑĢÐ¸Ð°Ð½ÑĤÐ¾Ð²": 5037,
      "ĠÐ·Ð½Ð°ÑĩÐ¸ÑĤ": 5038,
      "\");": 5039,
      "ĠÐ¿ÑĢÐ¾Ñĩ": 5040,
      "Ġcalcul": 5041,
      "top": 5042,
      "ĠÐºÐ¾ÑĢÐ¾ÑĤ": 5043,
      "ÑĥÐ»Ð¸ÑĢÐ¾Ð²": 5044,
      "ĠÐ´ÐµÐ¼Ð¾Ð½": 5045,
      "ĠÑĨÐ¸ÑĦÑĢ": 5046,
      "ĠÐºÐ¾Ð½ÑĤÐµÐºÑģÑĤÐµ": 5047,
      "Val": 5048,
      "kens": 5049,
      "ÑĢÐ°ÐºÑĤ": 5050,
      "ÑģÑĭ": 5051,
      "ĠÐ»Ð¾Ðº": 5052,
      "ÑĥÑİÑīÐ¸Ðµ": 5053,
      "Ð¸Ð»Ð°ÑģÑĮ": 5054,
      "ĠÐ´Ð¾Ð¿Ð¾Ð»Ð½Ð¸ÑĤÐµÐ»ÑĮÐ½ÑĭÐµ": 5055,
      "ĠÐ´Ð¾ÑģÑĤÐ°ÑĤÐ¾ÑĩÐ½Ð¾": 5056,
      "ility": 5057,
      "ĠÐ±Ð¸Ð±Ð»Ð¸Ð¾ÑĤÐµÐºÐ¸": 5058,
      "table": 5059,
      "ĠÑģÑĢÐµÐ´ÑģÑĤÐ²": 5060,
      "ĠÐ¿Ð¾Ð·Ð²Ð¾Ð»ÑıÑİÑĤ": 5061,
      "ĠÐ·Ð°Ð½ÑıÑĤ": 5062,
      "omm": 5063,
      "Ġtransform": 5064,
      "Ð¸Ð¶ÐµÐ½Ð¸Ðµ": 5065,
      "ĠÐ·ÑĢÐµÐ½Ð¸Ñı": 5066,
      "anguage": 5067,
      "ole": 5068,
      "Ġcos": 5069,
      "Ġcontain": 5070,
      "ĠÐļÐ°Ð¶Ð´ÑĭÐ¹": 5071,
      "ĠÐ¿ÑĢÐ¾ÑĨÐµÑģÑģÐµ": 5072,
      "}^": 5073,
      "Ġopen": 5074,
      "ĠÐ±ÐµÑĢ": 5075,
      "Ð¡Ð¾ÑģÑĤÐ°Ð²ÑĮÑĤÐµ": 5076,
      "face": 5077,
      "ÐµÑĢÐ±": 5078,
      "ene": 5079,
      "elta": 5080,
      "Ġprof": 5081,
      "ĠÑģÐµÐ¼ÑĮ": 5082,
      "title": 5083,
      "ĠÑģÑĤÐ°Ð²": 5084,
      "Col": 5085,
      "ĠÐºÐ¾Ð»Ð»": 5086,
      "struct": 5087,
      "ĠÑĤÐ²": 5088,
      "Ġdataset": 5089,
      "otal": 5090,
      "beta": 5091,
      "ÐŀÑģÐ½Ð¾Ð²": 5092,
      "Ġcar": 5093,
      "ĠÑĦÑĥÑĤ": 5094,
      "ilar": 5095,
      "ÐµÑĢÐ°ÑĨÐ¸Ð¹": 5096,
      "ĠÑĩÐµÐ»Ð¾Ð²ÐµÑĩÐµÑģÐº": 5097,
      "ĠÐ¿Ð°ÑĢÑĤ": 5098,
      "Ð¼Ð¾Ð½": 5099,
      "ĠÐĴÐ°Ð¶Ð½Ð¾": 5100,
      "ĊĠĠĠĠĠĠĠĠĠĠĠĠĠĠĠĠĠĠĠĠĠĠĠ": 5101,
      "ĠÐ¼ÑĥÐ¶": 5102,
      "29": 5103,
      "tt": 5104,
      "ĠÑĦÐ¾ÑĢÐ¼Ñĭ": 5105,
      "ĠÑģÐ¾Ð·Ð´Ð°Ð½Ð¸Ðµ": 5106,
      "ĠÑĢÐ¾ÑģÑĤÐ°": 5107,
      "*(": 5108,
      "II": 5109,
      "ÐŁÐ¾Ð»": 5110,
      "ĠÐ²ÑĢÐµÐ´": 5111,
      "ĠÑģÐ¾Ð¿": 5112,
      "Ð¾Ð¹Ð´": 5113,
      "Ġgo": 5114,
      "Ð°ÑİÑīÐµÐµ": 5115,
      "ĠÑĥÐ²Ð°Ð¶": 5116,
      "ele": 5117,
      "Ġinv": 5118,
      "fter": 5119,
      "ĠÐ²ÐµÐ»Ð¸Ñĩ": 5120,
      "imit": 5121,
      "ĠÐ¿ÑĢÐ¸ÑģÑĥÑĤÑģÑĤÐ²": 5122,
      "ĠÑģÐ²ÐµÑĤÐ°": 5123,
      "ĠÑįÐ»ÐµÐºÑĤÑĢ": 5124,
      "Ġemp": 5125,
      "ÐµÐ¾Ð±ÑĢÐ°Ð·": 5126,
      "ĠÑĢÐ°ÑģÑģÐºÐ°Ð·": 5127,
      "Ġtry": 5128,
      "Ġimage": 5129,
      "Ð¾ÑģÑĢÐ¾Ñĩ": 5130,
      "Ð¿Ð¸ÑģÐ°Ð½Ð¸Ðµ": 5131,
      "Ġsm": 5132,
      "ĠÐ°Ð»ÑĮ": 5133,
      "Ð°Ð¹ÑĤÐµÑģÑĮ": 5134,
      "ĠÐ³Ð°ÑĢÐ°Ð½ÑĤÐ¸ÑĢÑĥ": 5135,
      "åı": 5136,
      "Ġoff": 5137,
      "Ġver": 5138,
      "ĠÐ±Ð»Ð°Ð³Ð¾Ð´Ð°ÑĢÑı": 5139,
      "ĠÑģÑģÑĭÐ»": 5140,
      "ĠÐ±Ð¸ÑĤ": 5141,
      "Ġmessage": 5142,
      "Ġtyp": 5143,
      "Ġcond": 5144,
      "Ð°ÑĤÐµÐ»ÑĮÐ½ÑĭÐµ": 5145,
      "ĠÑħÐ¸Ð¼": 5146,
      "ĠÑģÑĤÐµÐ¿ÐµÐ½ÑĮ": 5147,
      "Ð¾Ð½Ñĩ": 5148,
      "ĠÑģÑĤÐ¸Ð»": 5149,
      "ĠÐŀÐ¿": 5150,
      "Ġthen": 5151,
      "ables": 5152,
      "ĠÐ¸Ð·Ð¼ÐµÐ½Ð¸ÑĤÑĮ": 5153,
      ")=": 5154,
      "ĠÑĥÑģÐ»Ð¾Ð²Ð¸ÑıÑħ": 5155,
      "ĠÐºÐ¾Ð½ÑĨÐµ": 5156,
      "ĠÑĥÑĩÐ¸ÑĤÑĭÐ²Ð°ÑĤÑĮ": 5157,
      "ĠÐ¿ÑĢÐµÐ´Ð¼ÐµÑĤ": 5158,
      "ĠÐ´Ð»Ð¸Ð½Ð°": 5159,
      "ĠĠĠĠĠĠĠĠĠĠĠĠĠĠĠĠĠĠĠĠĠĠĠĠĠĠĠĠĠĠĠĠ": 5160,
      "ĠÐ½Ð¾Ñģ": 5161,
      "ĠÐ¸ÑģÑĤÐ¾ÑĩÐ½Ð¸Ðº": 5162,
      "ÐµÐ´ÑĮ": 5163,
      "Ð¾Ð»Ð¾": 5164,
      "ÑĥÑģÐ¾Ð²": 5165,
      "ĠÐ²ÐµÐº": 5166,
      "Ġcost": 5167,
      "48": 5168,
      "ÐºÐ°Ñı": 5169,
      "ina": 5170,
      "ÐĴÐ¾Ð·Ð¼Ð¾Ð¶Ð½Ð¾": 5171,
      "Ġconfig": 5172,
      "ÐµÑīÐµÐ½Ð¸Ðµ": 5173,
      "Ġnel": 5174,
      "ĠÐ¢Ð°ÐºÐ¶Ðµ": 5175,
      "ĠÑĢÐ¾Ð²Ð½Ð¾": 5176,
      "ĠÐºÐ°ÑĤÐµÐ³": 5177,
      "Ð»Ð¸Ð±Ð¾": 5178,
      "ÑĨÐ¾Ð²": 5179,
      "ÑĬÐµÐ¼": 5180,
      "ÑĢÑı": 5181,
      "ĠÑĦÐ°ÐºÑĤ": 5182,
      "ren": 5183,
      "Ð´ÐµÑģÑĮ": 5184,
      "ĠÑģÑĤÐ¸Ñħ": 5185,
      "ãģ®": 5186,
      "ĠÐ¼Ð½Ð¾Ð¶ÐµÑģÑĤÐ²Ð°": 5187,
      "Ġdocument": 5188,
      "ĠÐĿÐ°Ñĩ": 5189,
      "Ġconnect": 5190,
      "ĠÐ±Ð°Ð»Ð°Ð½Ñģ": 5191,
      "Ġpo": 5192,
      "oder": 5193,
      "ÑĢÐ°Ð²Ð½ÐµÐ½Ð¸Ðµ": 5194,
      "ĠÐ±Ñİ": 5195,
      "ĠÐ¿ÑĢÐµÐ´Ð¿Ð¾Ð»Ð°Ð³": 5196,
      "ĠÐºÐ¾Ð½ÐºÑĥÑĢ": 5197,
      "ĠÑĤÑĢÐµÑĤÑĮ": 5198,
      "mathbb": 5199,
      "ĠÑģÐ½Ð¸Ð·Ð¸ÑĤÑĮ": 5200,
      "Ð¸ÑĦÐ¸ÑĨÐ¸": 5201,
      "ĠÑģÐ¾Ð¾Ð±ÑīÐµÐ½Ð¸Ñı": 5202,
      "Ġinformation": 5203,
      "ĠÑĢÐ°ÑģÑģÐ¼Ð°ÑĤÑĢ": 5204,
      "ĠÐ¾ÑĤÐ¼ÐµÑĤ": 5205,
      "Ġarg": 5206,
      "ĠBC": 5207,
      "ĠÐ¼Ð°ÐºÑģÐ¸Ð¼Ð°Ð»ÑĮÐ½Ð¾Ðµ": 5208,
      "ĠÐ¼Ð°Ð³Ð°Ð·": 5209,
      "ĠÐ¾Ð¿ÐµÑĢÐ°ÑĨÐ¸Ð¹": 5210,
      "Ġprovide": 5211,
      "function": 5212,
      "Ð¾Ð¶Ð´ÐµÐ½Ð¸Ðµ": 5213,
      "Ð·ÑĭÐ²": 5214,
      "alth": 5215,
      "ĠÐ²ÑĭÐ²Ð¾Ð´Ð¸ÑĤÑĮ": 5216,
      "include": 5217,
      "Ġwant": 5218,
      "ĠÐºÐ¾Ð¼Ð½": 5219,
      "Ð²Ð¸Ð½": 5220,
      "ĠÐŁÑĢÐ¾ÑģÑĤÐ¾": 5221,
      "ĠÐ½Ð°ÑģÑĤÐ¾ÑıÑī": 5222,
      "ĠÑĦÐ°Ð¹Ð»Ð¾Ð²": 5223,
      "ĠÐ²Ð´Ð¾Ñħ": 5224,
      "Ġlearning": 5225,
      "ĠÐ°ÑģÐ¿ÐµÐºÑĤÑĭ": 5226,
      "Ð¸ÑĢÑĥÐµÑĤÑģÑı": 5227,
      "ĠÐ±Ð»Ð¸Ð·": 5228,
      "encia": 5229,
      "]:": 5230,
      "pack": 5231,
      "Ð¼ÐµÑĤÑĢ": 5232,
      "ÐŁÑĢÐ¸": 5233,
      "ĠÑģÐ¿Ð¾ÑģÐ¾Ð±Ð½Ð¾ÑģÑĤÑĮ": 5234,
      "itional": 5235,
      "ĠÐ¿Ð¾Ð²ÑĭÑģÐ¸ÑĤÑĮ": 5236,
      "heet": 5237,
      "ĠÑĤÐ°ÐºÐ¸Ð¼Ð¸": 5238,
      "ĠÐłÐµÑĪÐµÐ½Ð¸Ðµ": 5239,
      "ÑĥÑģÐ°": 5240,
      "Ġlast": 5241,
      "ĠÐ³Ð¾ÑĢÐ¾Ð´Ð°": 5242,
      "Ġ:=": 5243,
      "ĠÐ·Ð°ÐºÐ»ÑİÑĩÐ°ÐµÑĤÑģÑı": 5244,
      "Ð¸Ð²Ð°ÑĤÑĮÑģÑı": 5245,
      "ÑİÐ±": 5246,
      "ross": 5247,
      "ĠÑįÑĦÑĦÐµÐºÑĤÐ¸Ð²Ð½Ð¾ÑģÑĤÑĮ": 5248,
      "Script": 5249,
      "ĠTrue": 5250,
      "ĠÑģÐ¾ÑĤÑĢÑĥÐ´Ð½Ð¸ÐºÐ¾Ð²": 5251,
      "emory": 5252,
      "ĠÐ¿ÑĢÐ¾ÑĨÐµÑģÑģÐ¾Ð²": 5253,
      "Ð¾Ð·Ð´Ð°ÐµÐ¼": 5254,
      "Ð°Ð½Ð½Ð¾Ðµ": 5255,
      "Ð¾Ð²Ð°": 5256,
      "ÐµÐ´Ð½ÐµÐ²": 5257,
      "Ð¸ÑĢÐ¾Ð²ÐºÐ¸": 5258,
      "ĠÑĩÑĤ": 5259,
      "Ð¡Ð»": 5260,
      "Ġobject": 5261,
      "Ġcontent": 5262,
      "Ġthan": 5263,
      "35": 5264,
      "ĠÐ¡Ðº": 5265,
      "ĠÐ½Ð¾Ð²Ð¾Ð³Ð¾": 5266,
      "ĠÑĢÐµÐ·ÑĥÐ»ÑĮÑĤÐ°ÑĤÐµ": 5267,
      "ĠÐ¾ÐºÑĢÑĥÐ¶Ð°ÑİÑīÐµÐ¹": 5268,
      "Res": 5269,
      "fix": 5270,
      "ading": 5271,
      "ÑĥÐ»Ð¸ÑĢÑĥ": 5272,
      "Ġart": 5273,
      "ÐĿÐ°Ð¹Ð´": 5274,
      "dir": 5275,
      "Ð½Ð°ÑĢÐ¾Ð´": 5276,
      "ĠÑįÑĦÑĦÐµÐºÑĤÐ¸Ð²Ð½Ð¾ÑģÑĤÐ¸": 5277,
      "ĠÑģÐ²Ð¾ÐµÐ¼": 5278,
      "Ð¸ÑĦÑĢÐ¾Ð²": 5279,
      "!\"": 5280,
      "Ġbest": 5281,
      "ÑīÑĳ": 5282,
      "ĠÐ´ÐµÐ¹ÑģÑĤÐ²Ð¸Ð¹": 5283,
      "Ġunderstand": 5284,
      "just": 5285,
      "ali": 5286,
      "âĪļ": 5287,
      "ĠÐ¸ÑģÐ¿Ð¾Ð»Ð½ÑıÐµÐ¼": 5288,
      "ĠmÃ¡s": 5289,
      "ved": 5290,
      "Ġflo": 5291,
      "ĠÐ·Ð°ÑĤÑĢÐ°ÑĤ": 5292,
      "çĶ": 5293,
      "state": 5294,
      "dfrac": 5295,
      "ĠSe": 5296,
      "ĠÑįÐ¼Ð¾ÑĨÐ¸Ð¾Ð½Ð°Ð»ÑĮ": 5297,
      "Comp": 5298,
      "ĠÑĤÐµÐ¿ÐµÑĢÑĮ": 5299,
      "ĊĊ": 5300,
      "ĠÐ¿Ð¾Ð´Ð´ÐµÑĢÐ¶ÐºÐ¸": 5301,
      "Ġindex": 5302,
      "const": 5303,
      "ĠÑģÐ»Ð¾Ð¶Ð½ÑĭÑħ": 5304,
      "ĠGoogle": 5305,
      "ÑĩÑĳÑĤ": 5306,
      "ĠÐ´ÑĢÑĥÐ³Ð¸Ð¼": 5307,
      "ĠÐ·Ð°ÑīÐ¸ÑĤÑĭ": 5308,
      "ĠÑĢÐ¾Ð±": 5309,
      "ĠÑĤÐ¾ÑĩÐ½Ð¾": 5310,
      "ĠÐ´Ð»Ð¸Ð½Ñĥ": 5311,
      "ĠÐŁÑĥÑģÑĤÑĮ": 5312,
      "ĠÐ¿ÑĢÐµÐ´Ð¿ÑĢÐ¸ÑıÑĤ": 5313,
      "Ġ**\"": 5314,
      "ĠÐ¾Ð±ÑĬÐµÐºÑĤÐ¾Ð²": 5315,
      "ron": 5316,
      "ting": 5317,
      "ĠÐ¾Ð¿ÑĤÐ¸Ð¼Ð¸Ð·Ð°ÑĨÐ¸Ð¸": 5318,
      "era": 5319,
      "Ġtable": 5320,
      "Ð°ÑĤÐµÐ»ÑĮÑģÑĤÐ²Ð°": 5321,
      "Ġexperi": 5322,
      "Ġproject": 5323,
      "ĠÑĥÐ¿ÑĢÐ°Ð¶": 5324,
      "Ġplay": 5325,
      "Ġ},": 5326,
      "Ð¾ÑıÑĤÐµÐ»ÑĮ": 5327,
      "ĠÐ§ÑĤÐ¾Ð±Ñĭ": 5328,
      "ĠÐ´Ð¾ÑģÑĤÐ°Ð²": 5329,
      "ning": 5330,
      "ÑĩÐ°Ñģ": 5331,
      "abase": 5332,
      "ĠÑģÑĤÑĢÐ°Ñħ": 5333,
      "å®": 5334,
      "ÑģÑĤÐ°Ð½ÑĤ": 5335,
      "ĠAS": 5336,
      "ido": 5337,
      "ĠÐ²Ð¼ÐµÑģÑĤÐ¾": 5338,
      "ĠÐºÐ¾Ð¼Ð¿Ð»ÐµÐºÑģ": 5339,
      "with": 5340,
      "Ġpe": 5341,
      "ĠÐ·Ð°ÑģÑĤ": 5342,
      "ĠÐ¾ÑĤÑĢÐ¸ÑĨÐ°ÑĤÐµÐ»ÑĮ": 5343,
      "ĠÐ´Ð¾Ð±ÑĢ": 5344,
      "Ġcall": 5345,
      "ĠÐ²ÑĭÐ¿Ð¾Ð»Ð½Ð¸ÑĤÑĮ": 5346,
      "ĠÐ¿Ð¾Ð¿ÑĭÑĤ": 5347,
      "error": 5348,
      "Ð¾Ð½Ð¸Ð¼": 5349,
      "mail": 5350,
      "ĠÐ¿Ð¾ÑıÐ²": 5351,
      "ĠÐºÐ°Ð¶Ð´Ð¾Ðµ": 5352,
      "ĠÐ°Ð½Ð³Ð»Ð¸Ð¹": 5353,
      "ÐŀÐ´Ð½Ð°ÐºÐ¾": 5354,
      "Ġref": 5355,
      "ĠÐ°Ð½ÑĤ": 5356,
      "ĠÑĢÐµÑģÑĥÑĢÑģÑĭ": 5357,
      "Ġresults": 5358,
      "ness": 5359,
      "Text": 5360,
      "ĠÑĦÐ¾ÑĢÐ¼Ð¸ÑĢÐ¾Ð²": 5361,
      "ĠÐķÐ³Ð¾": 5362,
      "Ġnext": 5363,
      "ĠÐ½Ð°Ð¸Ð¼ÐµÐ½ÑĮÑĪ": 5364,
      "hed": 5365,
      "ĠÐ¸Ð¼ÐµÐ½Ð¸": 5366,
      "Ð´Ñĭ": 5367,
      "ĠÐ¸Ð¼ÐµÐ½Ð½Ð¾": 5368,
      "ĠÐ¸Ð½ÑĤÐµÐ»Ð»ÐµÐºÑĤÐ°": 5369,
      "Ġour": 5370,
      "ever": 5371,
      "ÐµÑħÐ½": 5372,
      "Ġfl": 5373,
      "ĠÐ¿Ð»Ð°Ð½Ð¸ÑĢÐ¾Ð²": 5374,
      "Ð¼Ð¾ÑĤÑĢÑı": 5375,
      "Ð¸ÑģÐº": 5376,
      "Ð¾ÑĤÐ²Ð¾ÑĢ": 5377,
      "ĠÑģÐ¿ÐµÐºÑĤ": 5378,
      "plt": 5379,
      "ĠÐ¿ÑĢÐ°Ð²Ð¸Ð»": 5380,
      "ĠÑĢÐ°ÑģÑĩÐµÑĤ": 5381,
      "ĠÑĤÐ¾ÑĩÐºÑĥ": 5382,
      "ĠÑĦÑĢÐ°Ð·": 5383,
      "ĠÑįÐ¿": 5384,
      "ĠÑĥÑģÑĤÑĢÐ¾Ð¹ÑģÑĤÐ²Ð°": 5385,
      "ĠÐ¾ÐºÐ¾Ð»Ð¾": 5386,
      "ĠÐ½ÐµÑĩÐµÑĤ": 5387,
      "Ð¸ÑıÐ¼": 5388,
      "Ð¸Ð·Ð¾Ð½ÑĤ": 5389,
      "ĠÐ²ÑĭÑĩÐ¸ÑģÐ»ÐµÐ½Ð¸Ñı": 5390,
      "ëĭ": 5391,
      "ÑĤÐµÑĢÐ½Ð°ÑĤÐ¸Ð²": 5392,
      "cle": 5393,
      "ĠÐ¼ÐµÐ»": 5394,
      "ĠÐ·Ð°Ð³ÑĢÑıÐ·": 5395,
      "Ð°ÑĤÐ¾ÑĢÐ°": 5396,
      "ÐĿÐ°Ð¿Ð¸ÑĪÐ¸ÑĤÐµ": 5397,
      "db": 5398,
      "ÑĢÐ¸Ð´": 5399,
      "ĠÐ¸ÑģÑĤÐ¾ÑĢÐ¸Ñİ": 5400,
      "ĠÐ²ÐµÑīÐµÑģÑĤÐ²": 5401,
      "ÐĿÐ°Ð¿ÑĢÐ¸Ð¼ÐµÑĢ": 5402,
      "44": 5403,
      "Ð¸ÑħÑģÑı": 5404,
      "ĠÐ¿Ð¾Ð¼Ð¾Ð³ÑĥÑĤ": 5405,
      "Ġident": 5406,
      "ĠÐ¿ÑĢÐµÐ²ÑĭÑĪ": 5407,
      "ĠÐ¿Ð¾Ð¼Ð¾ÑīÑĮ": 5408,
      "ÑĩÐ¸ÐºÐ¾Ð²": 5409,
      "Ð°ÑİÑīÐ°Ñı": 5410,
      "ĠÑĢÐ°Ð·Ð¼ÐµÑĢÐ°": 5411,
      "Ð·Ð°Ðº": 5412,
      "ĠÐ¾Ð¿ÑĢÐµÐ´ÐµÐ»ÑıÐµÑĤÑģÑı": 5413,
      "ĠÑģÑĤÑĢÐ°Ð½Ñĭ": 5414,
      ")}{": 5415,
      "code": 5416,
      "ĠAC": 5417,
      "mask": 5418,
      "fore": 5419,
      "acter": 5420,
      "ĠÐ¸ÑģÐ¿Ð¾Ð»ÑĮÐ·ÑĥÐ¹ÑĤÐµ": 5421,
      "ĠÐºÐ²Ð°Ð´ÑĢÐ°ÑĤÐ°": 5422,
      "mente": 5423,
      "ĠHow": 5424,
      "ĠÑģÐ¸ÑĤÑĥÐ°ÑĨÐ¸Ð¸": 5425,
      "ÑĭÑĤÑĮ": 5426,
      "ically": 5427,
      "ĠÐŁÐ¾Ð²": 5428,
      "Ġboth": 5429,
      "ĠÐŀÐ´": 5430,
      "Ġsys": 5431,
      "Ġpriv": 5432,
      "ĠÐ²ÑĢÐµÐ¼ÐµÐ½ÐµÐ¼": 5433,
      "ĠÐ¿ÑĢÐµÐ´Ð»Ð¾Ð¶ÐµÐ½Ð¸Ñı": 5434,
      "ĠÐºÑĥÑĢ": 5435,
      "Ð¸Ð¼ÐµÑĩ": 5436,
      "Ġtop": 5437,
      "Ð¸ÑĨÐ¸Ð¸": 5438,
      "ĠÐ¿ÑĢÐµÐ¸Ð¼ÑĥÑīÐµÑģÑĤÐ²Ð°": 5439,
      "ĠÐ²Ð½ÐµÐ´ÑĢ": 5440,
      "ĠÑģÐ½Ð°ÑĩÐ°Ð»Ð°": 5441,
      "Ð±Ð¸": 5442,
      "ĠÐ¿ÐµÑĢÐµÑģÐµÑĩÐµÐ½Ð¸Ñı": 5443,
      "vironment": 5444,
      "dict": 5445,
      "Ġeffect": 5446,
      "Ġsupport": 5447,
      "ĠEst": 5448,
      "Ð»ÐµÐ½Ð½ÑĭÑħ": 5449,
      "Ð¾ÐºÑģ": 5450,
      "Ð¸ÑĩÐµÑģÐºÐ¾Ð¼": 5451,
      "ality": 5452,
      "ĠÑįÐºÑĢÐ°Ð½": 5453,
      "ĠÐŀÐ±Ñī": 5454,
      "ĠÑģÐ¿Ð¸ÑģÐºÐ°": 5455,
      "ĠSer": 5456,
      "Ġanaly": 5457,
      "Ġdesign": 5458,
      "Type": 5459,
      "ĠÑĦÑĥÐ½ÐºÑĨÐ¸Ð¾Ð½Ð°Ð»ÑĮ": 5460,
      "ĠÐ²Ð¸Ð´Ð¾Ð²": 5461,
      "ĠÐ¿ÑĢÐ¾ÑģÑĤÑĭÑħ": 5462,
      "ĠÐ¿ÑĢÐµÐ´Ð¾ÑĤÐ²ÑĢÐ°Ñī": 5463,
      "ement": 5464,
      "ĠÐ¿Ð¾ÐºÐ°Ð·ÑĭÐ²Ð°ÐµÑĤ": 5465,
      "ĠÐŁÐ¾ÑģÑĤ": 5466,
      "ges": 5467,
      "ĠÐ´ÑĢÐ¾Ð±": 5468,
      "ins": 5469,
      "ĠÑĢÐ°Ð¼": 5470,
      "Ð¡Ð¿": 5471,
      "ĠÑģÐ¾ÑģÑĢÐµÐ´Ð¾ÑĤ": 5472,
      "ĠÐ¡Ð»ÐµÐ´Ð¾Ð²Ð°ÑĤÐµÐ»ÑĮÐ½Ð¾": 5473,
      "dis": 5474,
      "Ð¸ÑĢÑĥÑİÑī": 5475,
      "ĠÐ¸Ð´ÐµÐ¸": 5476,
      "ĠÑģÐ¸Ð½ÑĤ": 5477,
      "ĠÐ¼Ð¸Ð»Ð»Ð¸": 5478,
      "Ġgroup": 5479,
      "icro": 5480,
      "ÐµÑģÑĤÐ²Ñĥ": 5481,
      "ÐļÐ¾Ð³Ð´Ð°": 5482,
      "ĠÐºÐ¾Ð¼Ð°Ð½Ð´Ñĥ": 5483,
      "sl": 5484,
      "uments": 5485,
      "api": 5486,
      "ĠÐ½Ð°ÑħÐ¾Ð´ÑıÑĤÑģÑı": 5487,
      "IM": 5488,
      "ĠÐ¼ÐµÑĤÐ¾Ð´Ð°": 5489,
      "ĠÐ¸Ð½ÑĤÐµÑĢÐ¿ÑĢÐµÑĤ": 5490,
      "ĠÑģÐ¾Ð¾ÑĤÐ²ÐµÑĤÑģÑĤÐ²ÐµÐ½Ð½Ð¾": 5491,
      "sole": 5492,
      "ĠÑģÐ¾ÑĤÑĢÑĥÐ´Ð½Ð¸Ñĩ": 5493,
      "ĠÑģÑİ": 5494,
      "ÑģÑĤÐ²Ñĥ": 5495,
      "By": 5496,
      "ĠÐ±ÑĢ": 5497,
      "ĠÐ´Ð¸Ð·Ð°Ð¹": 5498,
      "pmatrix": 5499,
      "Ġpartic": 5500,
      "Here": 5501,
      "Ġê": 5502,
      "Ð±Ñĥ": 5503,
      "ĠÐ±Ð¸Ð·Ð½ÐµÑģÐ°": 5504,
      "umpy": 5505,
      "dist": 5506,
      "Ġstud": 5507,
      "ÅĽ": 5508,
      "lete": 5509,
      "rightarrow": 5510,
      "Ġimpro": 5511,
      "Ð¾Ð¹ÑĤÐ¸": 5512,
      "Ð°Ð»ÑĮÐ½ÑĭÐ¼Ð¸": 5513,
      "Ð½ÑİÑİ": 5514,
      "](": 5515,
      "ÐµÑĢÐ¼": 5516,
      "Ġincluding": 5517,
      "ĠÐ¼Ð¾Ð±Ð¸Ð»ÑĮ": 5518,
      "Ð¾ÑĢÐ¾ÑĤ": 5519,
      "ÐļÐ¾Ð½": 5520,
      "ĠÐ¸Ð·Ð¾Ð±ÑĢÐ°Ð¶ÐµÐ½Ð¸Ð¹": 5521,
      "ĠÐ¿ÑĢÐ¾Ð´ÑĥÐºÑĤÑĭ": 5522,
      "ÑĢÑĭÐ²": 5523,
      "Ð³ÑĢÐ°Ð½Ð¸Ñĩ": 5524,
      "ES": 5525,
      "ccess": 5526,
      "ĠÐ²ÑĢÐ°Ñĩ": 5527,
      "ĠÐ¿Ð»Ð¾ÑīÐ°Ð´Ð¸": 5528,
      "step": 5529,
      "ÐµÑĢÐ¿": 5530,
      "ÐµÐ¹Ð½ÐµÑĢ": 5531,
      "ĠÑĥÐ³Ð»Ð¾Ð²": 5532,
      "csv": 5533,
      "ĠÐ¿Ð°ÑĨÐ¸": 5534,
      "ĠIN": 5535,
      "Ġmodels": 5536,
      "ĠÐ·Ð°Ð¿Ð¸ÑģÐ¸": 5537,
      "eddings": 5538,
      "ĠÐ¼Ð¾Ð·": 5539,
      "ĠÐ¼ÐµÑĢÐµ": 5540,
      "Ġinitial": 5541,
      "ĠÑĦÐ¸Ð»Ð¾ÑģÐ¾ÑĦ": 5542,
      "action": 5543,
      "Ð²ÐµÑĩÐ°Ð¹": 5544,
      "ÐŁÑĢÐ¸Ð¼ÐµÑĢÑĭ": 5545,
      "ĠÑģÐ¸Ð»Ñĭ": 5546,
      "ĠÑģÐ±Ð¾ÑĢ": 5547,
      "Ġ<<": 5548,
      "ĠÐ¿ÑĢÐ¾Ð±Ð»ÐµÐ¼Ð°": 5549,
      "ĠÐ½Ð°Ð»Ð¸ÑĩÐ¸Ðµ": 5550,
      "width": 5551,
      "ÐµÑģÐ»Ð¸": 5552,
      "-\\": 5553,
      "ĠÐºÐ¾Ð»Ð¾Ð½": 5554,
      "ĠÑĥÐºÐ°Ð·ÑĭÐ²Ð°ÐµÑĤ": 5555,
      "Äĩ": 5556,
      "Ġonly": 5557,
      "Ð¾ÑīÐ°Ð´ÑĮ": 5558,
      "ĠÐ¼Ð½Ð¾Ð³Ð¸Ðµ": 5559,
      "ĠÐ¿Ð¾Ð²ÑĭÑĪÐµÐ½Ð¸Ñı": 5560,
      "ĠÐ²Ð°Ð»": 5561,
      "ĠÐºÐ¾Ð¶": 5562,
      "Ð¾ÑĤÑı": 5563,
      "ĠÐ°ÑĤÐ¾Ð¼": 5564,
      "Ġprev": 5565,
      "oug": 5566,
      "ĠÐĲÐ»": 5567,
      "ĠÑģÐ¾Ð¾Ð±ÑīÐµÐ½Ð¸Ðµ": 5568,
      "Ġawait": 5569,
      "ĠÑĢÐ°Ð¹": 5570,
      "ĠÐ¡ÑĥÐ¼Ð¼Ð°": 5571,
      "ĠÐ°Ð½Ð°Ð»Ð¾Ð³": 5572,
      "ĠÑĢÐ°ÑģÑĤÐ²": 5573,
      "ital": 5574,
      "ÐµÐ¶Ð´Ðµ": 5575,
      "ĠÑģÐ²Ð¾Ð¹ÑģÑĤÐ²Ð°": 5576,
      "ĠÐ¿ÑĢÐ¸Ð»Ð¾Ð¶ÐµÐ½Ð¸Ð¹": 5577,
      "ĠÐ½Ð°Ð·Ð½Ð°Ñĩ": 5578,
      "Ð¾Ð¿ÑĢÐ¾Ð±": 5579,
      "ĠÐ¼Ð°ÑĢÑĪ": 5580,
      "ĠÑģÐ¿ÐµÑĨÐ¸Ð°Ð»Ð¸ÑģÑĤ": 5581,
      "ĠÐ¿ÐµÑĢÐµÐ¿": 5582,
      "ĠÑĥÐ¿ÑĢÐ°Ð²Ð»ÐµÐ½Ð¸Ðµ": 5583,
      "ÑĳÑħ": 5584,
      "ĠÐºÐ¾Ð¼Ð¿Ð°Ð½Ð¸Ñı": 5585,
      "ĠÑĢÐ°Ð·ÑĢÐµÑĪ": 5586,
      "eters": 5587,
      "ends": 5588,
      "sql": 5589,
      "ĠÐ¿Ð¾Ð´Ð´ÐµÑĢÐ¶Ð¸Ð²Ð°ÑĤÑĮ": 5590,
      "ving": 5591,
      "ĠÑģÑĢÐ¾Ðº": 5592,
      "mer": 5593,
      "ĠIP": 5594,
      "ĠÐ¾Ð´Ð½Ð¾Ð¼": 5595,
      "Ġvalues": 5596,
      "ĠÐ¿ÑĢÐµÐ´Ð¾ÑģÑĤÐ°Ð²Ð»ÑıÐµÑĤ": 5597,
      "66": 5598,
      "ĠÐ¼ÐµÑģÑĤÐµ": 5599,
      "ĠÐ¾Ð³ÑĢÐ¾Ð¼": 5600,
      "CO": 5601,
      "ÑĢÐ³": 5602,
      "ection": 5603,
      "ĠÐ¾Ð±ÐµÑģÐ¿ÐµÑĩÐµÐ½Ð¸Ðµ": 5604,
      "ĠÑĥÑĢÐ¾Ð²Ð½Ðµ": 5605,
      "ĠÐ¸Ñī": 5606,
      "Ð¿Ð¾ÑĢ": 5607,
      "Ġda": 5608,
      "ĠÑĢÐµÑĨÐµÐ¿": 5609,
      ".)": 5610,
      "Ð¸ÑĤÐµÐ»ÑĮÐ½Ð¾Ðµ": 5611,
      "ĠUse": 5612,
      "iled": 5613,
      "ĠÐ°ÑĢÐ³ÑĥÐ¼": 5614,
      "ĠÐ¼Ð¾Ð»Ð¾Ð´": 5615,
      "ĠÑģÑĤÑĢÐ°ÑĤÐµÐ³Ð¸Ð¸": 5616,
      "ĠÐ´ÑĢÑĥÐ³Ð¾Ð¼": 5617,
      "ĠÐĲÐ²": 5618,
      "ĠÑĦÐ¾ÑĢÐ¼Ð°ÑĤÐµ": 5619,
      "uration": 5620,
      "ĠÑĩÐµÐ³Ð¾": 5621,
      "ĠÑģÑĢÐµÐ´Ñĥ": 5622,
      "ĠÐ¿Ð¾Ð²ÐµÐ´ÐµÐ½Ð¸Ðµ": 5623,
      "wh": 5624,
      "iven": 5625,
      "ĠÐ¾Ð¿ÐµÑĢÐ°ÑĨÐ¸Ð¸": 5626,
      "ĠÑģÐ²ÐµÐ¶": 5627,
      "ĠÐºÐ»Ð¸Ð¼Ð°ÑĤÐ°": 5628,
      "ĠÐ¿Ð¾Ð´ÑĩÐµÑĢÐº": 5629,
      "ĊĠĠĠĠĠĠĠĠĠĠ": 5630,
      "ĠÐ²ÑĭÐ±Ð¸ÑĢ": 5631,
      "ĠÐ½ÐµÐ²Ð¾Ð·Ð¼Ð¾Ð¶Ð½Ð¾": 5632,
      "run": 5633,
      "Ð¾Ð¶Ð½Ð¾": 5634,
      "ĠÐ»ÐµÐ²": 5635,
      "ĠÑĢÐµÐ·ÑĥÐ»ÑĮÑĤÐ°ÑĤÐ°": 5636,
      "Ð°Ð·Ð´": 5637,
      "ĠÐ¿Ð¾Ð±ÐµÐ´": 5638,
      "ĠÑĥÐ±ÐµÐ´Ð¸ÑĤÑĮÑģÑı": 5639,
      "ĠÑĤÐ¾Ð½": 5640,
      "Ġbatch": 5641,
      "duc": 5642,
      "ĠÐ²Ð´Ð¾ÑħÐ½Ð¾Ð²": 5643,
      "ĠRes": 5644,
      "Ġcomplex": 5645,
      "ÐºÐ°Ðº": 5646,
      "ĠÐ»Ð¸ÑĤÐµÑĢ": 5647,
      "ground": 5648,
      "ĠÑĤÐµÑĢÐ¼Ð¸Ð½": 5649,
      "Ð¾Ð²Ð°Ð½Ð¸Ð¹": 5650,
      "ÑİÑģÑĮ": 5651,
      "ĠÐ²ÑĭÑĢÐ°Ð·": 5652,
      "70": 5653,
      "ĠÐ³Ð°Ð·": 5654,
      "ĠÐ¸Ð½Ð¸ÑĨÐ¸": 5655,
      "ĠSh": 5656,
      "inter": 5657,
      "ĠÐ¸Ð·Ð¼ÐµÐ½ÐµÐ½Ð¸Ðµ": 5658,
      "ĠÐ·Ð°Ð¿ÑĢÐ¾ÑģÐ¾Ð²": 5659,
      "ÐŀÐ¿Ð¸ÑĪÐ¸ÑĤÐµ": 5660,
      "ĠÑĢÐ°ÑģÑģÑĩÐ¸ÑĤ": 5661,
      "ĠÑģÑĤÐ°ÑĤÐ¸ÑģÑĤ": 5662,
      "Ð¸Ð½ÑĤ": 5663,
      "ĠÐ¿Ð¾Ð»Ðµ": 5664,
      "color": 5665,
      "ÐµÑĤÑĢÐ°": 5666,
      "usion": 5667,
      "andid": 5668,
      "Ð½Ð¸ÑĨÐ¸": 5669,
      "ĠÑĢÐ¸ÑģÐº": 5670,
      "ĠÐ¿Ð¾Ð½Ð¸Ð¼Ð°Ð½Ð¸Ðµ": 5671,
      "ĠÑĢÑĥÑģÑģÐºÐ¸Ð¹": 5672,
      "åħ": 5673,
      "ÑģÐºÐ¾Ðµ": 5674,
      "Ġstdin": 5675,
      "Ġ36": 5676,
      "ler": 5677,
      "ÑģÑĤÐ²Ð¸Ðµ": 5678,
      "Ġwhat": 5679,
      "valu": 5680,
      "ĠÐ´ÑĢÐµÐ²": 5681,
      "Ġsq": 5682,
      "Ġorig": 5683,
      "var": 5684,
      "ĠÑģÐµÑĤÐµÐ¹": 5685,
      "ush": 5686,
      "ĠÑģÐ¿ÐµÑĨÐ¸ÑĦ": 5687,
      "Ð¡Ð³ÐµÐ½ÐµÑĢÐ¸ÑĢÑĥÐ¹": 5688,
      "ĠÑģÐµÑĢÑĮ": 5689,
      "ĠÐ§ÑĤÐ¾": 5690,
      "ĠÑģÐ½Ð¾Ð²": 5691,
      "ĠÐ¾Ð±Ð°": 5692,
      "ÑĢÐµÐ¼ÐµÐ½Ð½Ð¾": 5693,
      "ĠÐºÑĢÐµÐ´": 5694,
      "ĠÐ½ÐµÐ¼Ð½Ð¾Ð³Ð¾": 5695,
      "indows": 5696,
      "Ð½ÐµÐ½Ð¸Ðµ": 5697,
      "Ġpredict": 5698,
      "Ġwithin": 5699,
      "ĠÑįÐºÐ·": 5700,
      "Ġans": 5701,
      "Ð°Ð¶Ð´Ñĭ": 5702,
      "ĠÑĥÑĩÐ°ÑģÑĤÐ²": 5703,
      "ĠÐ¿ÑĢÐ¾Ð´Ð°Ð¶": 5704,
      "OS": 5705,
      "bers": 5706,
      "Ð¸ÑĨÑĭ": 5707,
      "Ð»Ñĭ": 5708,
      "Ð´Ð°Ð»": 5709,
      "Ġvalid": 5710,
      "ĠÐ¼Ð¾Ð»ÐµÐº": 5711,
      "ĠÐ¿Ð°ÑĢÐ°Ð¼ÐµÑĤÑĢÐ¾Ð²": 5712,
      "\"]": 5713,
      "'re": 5714,
      "ĠÐ´ÑĥÑĪ": 5715,
      "ĠÐ½Ð¸ÐºÐ¾Ð³Ð´Ð°": 5716,
      "agg": 5717,
      "ĠÑĥÐ¼Ð½Ð¾Ð¶": 5718,
      "Ð»ÐµÑĩÐµÐ½Ð¸Ñı": 5719,
      "ĠÐ¿Ð°Ð¿": 5720,
      "ĠÐ¸Ð½Ð½Ð¾Ð²": 5721,
      "ĠÐ¿ÐµÑĢÐµÑģÑĤÐ°Ð½Ð¾Ð²": 5722,
      "rand": 5723,
      "ĠÐŁÑĢÐ¸Ð¼ÐµÐ½": 5724,
      "ĠÐ³Ð¸Ð¿Ð¾ÑĤ": 5725,
      "Ð»ÐµÐ½Ð½ÑĭÐ¹": 5726,
      "ĠÑĦÐ¾ÑĢÐ¼ÑĥÐ»Ñĥ": 5727,
      "ĠÐ²Ð¾ÑģÐ¿ÑĢ": 5728,
      "na": 5729,
      "ĠÐ½Ð°Ð¶": 5730,
      "ĠÐ¸Ð½ÑĦÐ¾ÑĢÐ¼Ð°ÑĨÐ¸Ñı": 5731,
      "ĠÐ°ÐºÑĤÑĥÐ°Ð»ÑĮ": 5732,
      "Ð«": 5733,
      "ĠÐ¼Ð¸ÑĢÐ¾Ð²": 5734,
      "Ġensure": 5735,
      "ĠÑģÐ¾Ð·Ð´Ð°Ð½Ð½ÑĥÑİ": 5736,
      "Ð¾Ð³Ð¸": 5737,
      "ĠÐ¿ÑĢÐ¸Ð»Ð¾Ð¶ÐµÐ½Ð¸Ðµ": 5738,
      "ĠÐĹÐ°ÐºÐ»ÑİÑĩÐµÐ½Ð¸Ðµ": 5739,
      "umns": 5740,
      "ĠÑĥÐºÐ°Ð·ÑĭÐ²": 5741,
      "ĠÑĥÑģÐ»Ð¾Ð²Ð¸ÑıÐ¼": 5742,
      "Ð¸ÑĩÐ½ÑĭÐ¹": 5743,
      "ĠÑĪÐºÐ¾Ð»": 5744,
      "ĠÐ¿ÑĢÐµÐ·": 5745,
      "Ġhum": 5746,
      "ĠÐºÐ»ÐµÑĤÐºÐ¸": 5747,
      "cat": 5748,
      "mary": 5749,
      "ÑĥÑİÑĤÑģÑı": 5750,
      "book": 5751,
      "ĠÐ¿Ð¾Ð²ÐµÑĢÑħÐ½Ð¾ÑģÑĤÐ¸": 5752,
      "ĠÑĢÐ°ÑģÐ¿Ð¾Ð·Ð½": 5753,
      "Ġcent": 5754,
      "assi": 5755,
      "ĠÑģÐ¿ÑĢÐ¾Ñģ": 5756,
      "Ð°ÑĤÐµÐ»ÑĮÑģÑĤÐ²Ð¾": 5757,
      "Ġmost": 5758,
      "lob": 5759,
      "izz": 5760,
      "Ġparam": 5761,
      "ĠÐ¼Ð¸Ð½Ð¸Ð¼ÑĥÐ¼": 5762,
      "BC": 5763,
      "Ð¾Ð²Ð¾": 5764,
      "Ġsent": 5765,
      "String": 5766,
      "ĠÑĤÐ°Ð¼": 5767,
      "rate": 5768,
      "ĠÐ¼Ð°ÑĤÐµÑĢÐ¸Ð°Ð»Ð¾Ð²": 5769,
      "ĠÑĢÐ°Ð·Ð¼": 5770,
      "Ð¸Ð²Ð°Ð¹ÑĤÐµ": 5771,
      "Ð¸ÑĩÐ½ÑĭÐµ": 5772,
      "ÑģÐºÐ¸Ð¼": 5773,
      "local": 5774,
      "ĠÐ¸ÑģÐºÑĥÑģÑģÑĤÐ²ÐµÐ½Ð½Ð¾Ð³Ð¾": 5775,
      "ĠÐ¢ÐµÐ¿ÐµÑĢÑĮ": 5776,
      "____": 5777,
      "ti": 5778,
      "ÑģÑĤÑĢÐ¸ÑĢÑĥ": 5779,
      "ÐºÐ¾Ð³Ð¾": 5780,
      "ÐµÐ¼Ð°": 5781,
      "Ġ90": 5782,
      "Ð»ÑĥÑĩÑĪ": 5783,
      "ĠÑĤÐ°Ð±Ð»Ð¸ÑĨÑĭ": 5784,
      "ĠÐ¾ÑĤÐ·ÑĭÐ²": 5785,
      "Ð´ÑĥÐµÑĤÑģÑı": 5786,
      "ung": 5787,
      "Ð¸ÑĤÐµÐ»ÑĮÐ½ÑĭÐ¹": 5788,
      "ĠPy": 5789,
      "Ð¾Ð²ÑĥÑİ": 5790,
      "Ġeng": 5791,
      "ĠÑĤÑĢÐµÐ½Ð¸ÑĢÐ¾Ð²": 5792,
      "ĠÐ¿ÑĢÐ¾Ð´ÑĥÐºÑĤÐ°": 5793,
      "park": 5794,
      "Ð½Ð°Ð·Ð½Ð°Ñĩ": 5795,
      "ĠÐ¿ÑĢÐµÐ´Ð»Ð°Ð³Ð°ÐµÑĤ": 5796,
      "ÑĮÐµÐ²": 5797,
      "Ġevent": 5798,
      "Ð¾ÑĢÐµÑĩ": 5799,
      "âĢĵ": 5800,
      "->": 5801,
      "ÐĴÑĭÑĩÐ¸ÑģÐ»": 5802,
      "button": 5803,
      "ĠÐ½ÐµÐ½": 5804,
      "Ġos": 5805,
      "iento": 5806,
      "xy": 5807,
      "ĠÐºÐ¾Ð½ÑĤÐµÐ½ÑĤ": 5808,
      "ĠÐ¸ÑģÐ¿Ð¾Ð»Ð½ÑıÐµÐ¼ÑĥÑİ": 5809,
      "Ġdepend": 5810,
      "Ð°Ð²Ð°Ñı": 5811,
      "ĠÑħÑĥÐ´": 5812,
      "ĠÐ·Ð´Ð¾ÑĢÐ¾Ð²ÑĮÐµ": 5813,
      "ca": 5814,
      "Ð¸ÑĤÐµÐ»ÑĮÐ½Ð¾ÑģÑĤÑĮ": 5815,
      "ference": 5816,
      "ĠJSON": 5817,
      "ĠÐ½Ð°Ð¿ÑĢÑıÐ¶": 5818,
      "ĠÑģÑĤÐ¸Ð¼": 5819,
      "ĠCO": 5820,
      "Ġstrateg": 5821,
      "Ð¨Ð°Ð³": 5822,
      "ĠÐ¿Ð»Ð¾ÑĤ": 5823,
      "Ġactiv": 5824,
      "Ð°Ð·Ð²": 5825,
      "Ð»ÐµÑĢ": 5826,
      "ĠÐ¾ÑĤÑħÐ¾Ð´": 5827,
      "ÐĶÐ¾Ðº": 5828,
      "ĠÐ½Ð°Ð³ÑĢÑĥÐ·": 5829,
      "phi": 5830,
      "ĠÐ¶ÐµÐ½Ñī": 5831,
      "Ð°ÑĢÐ°Ð¼": 5832,
      "ÑĦÐ¾ÑĢÑĤ": 5833,
      "ĠÐ¿Ð¾Ð´ÑĤÐ²ÐµÑĢÐ¶Ð´": 5834,
      "Ð¸Ð´ÑĥÐ¼": 5835,
      "ĠÑģÐ¾Ð±ÑĭÑĤÐ¸Ñı": 5836,
      "ÑĨÐµÐ½ÑĤ": 5837,
      "Ġcomput": 5838,
      "ĠÐ²ÑĭÐ·Ð¾Ð²Ð¸": 5839,
      "ĠÐ²Ð»Ð°ÑģÑĤ": 5840,
      "Ġaut": 5841,
      "ĠÑįÑĤÐ°": 5842,
      "rip": 5843,
      "seg": 5844,
      "resh": 5845,
      "ĠÐ¿ÑĥÑĤÐµÐ¼": 5846,
      "ĠNo": 5847,
      "ideo": 5848,
      "ĠÐ´Ð°Ð½Ð½Ð¾Ð¼": 5849,
      "ĠÐ¿ÑĢÐ¾ÑģÑĤÐ¾Ð¹": 5850,
      "sign": 5851,
      "ÑĨÐ¸Ð¾Ð½Ð°Ð»ÑĮ": 5852,
      "ĠÐ½ÐµÐ³": 5853,
      "ĠÑĥÑĩÐµÐ±": 5854,
      "';": 5855,
      "itive": 5856,
      "sk": 5857,
      "ÑħÑĢÐ¾Ð½": 5858,
      "ĠÐ½Ð¸Ð¶": 5859,
      "aciones": 5860,
      "ĠÐ¿ÑĢÐµÐ´ÐµÐ»": 5861,
      "Ġdoes": 5862,
      "Ð²Ð¸": 5863,
      "content": 5864,
      "åĪ": 5865,
      "ources": 5866,
      "ĠÏ": 5867,
      "ĠÑĥÐ³ÑĢ": 5868,
      "Ð¸ÑĢÐ¾Ð²ÐºÐ°": 5869,
      "ĠÐºÐ¾ÑĤÐ¾ÑĢÑĭÐ¼": 5870,
      "ĠÐ²Ð°ÑĢÐ¸Ð°Ð½ÑĤÑĭ": 5871,
      "ared": 5872,
      "ĠÐ¿ÑĢÐµÐ´Ð¿Ð¾Ð»Ð¾Ð¶": 5873,
      "ĠÐ¾ÑĤÐ¼ÐµÑĤÐ¸ÑĤÑĮ": 5874,
      "ÐµÑĢÐ½Ð¾": 5875,
      "ĠÐ¼Ð¾Ð¶ÐµÑĪÑĮ": 5876,
      "ĠÐ´ÑĢÑĥÐ¶": 5877,
      "ĠÐ¿ÐµÑĢÐµÐ½": 5878,
      "agement": 5879,
      "annel": 5880,
      "ÑģÐ¾Ð²": 5881,
      "ĠÐµÑīÑĳ": 5882,
      "www": 5883,
      "heck": 5884,
      "Ð°Ð´Ð»ÐµÐ¶": 5885,
      "ÐŁÐ»": 5886,
      "orted": 5887,
      "ĠÐ²Ð¿ÐµÑĢ": 5888,
      "Ġfollowing": 5889,
      "ĠÐ±Ð¾Ð³Ð°ÑĤ": 5890,
      "ĠÐ´ÑĥÐ¼": 5891,
      "ĠÐ¾ÑĤÑĢÐ°Ñģ": 5892,
      "ĠÑģÐ²ÑıÐ·Ð°Ð½Ð¾": 5893,
      "Ġformat": 5894,
      "Ð°ÑĨÐ¸Ð¾Ð½Ð½ÑĭÑħ": 5895,
      "05": 5896,
      "ĠÐ¾Ð±ÑīÐ¸Ð¹": 5897,
      "Ð°Ð½Ð´Ð¸Ð´": 5898,
      "ĠÐ²ÑĭÐ¿Ð¾Ð»Ð½ÑıÑĤÑĮ": 5899,
      "amples": 5900,
      "False": 5901,
      "ÐłÐ°ÑģÑģÐ¼Ð¾ÑĤÑĢÐ¸Ð¼": 5902,
      "ĠÐ´ÐµÑģÑıÑĤ": 5903,
      "icient": 5904,
      "ĠÐĶÐ¾Ðº": 5905,
      "ĠÐºÐ»Ð°ÑģÑģÐ°": 5906,
      "ĠÐ¿Ð¾Ð¸ÑģÐº": 5907,
      "zy": 5908,
      "lease": 5909,
      "Ð¸ÐºÐ¾Ð¹": 5910,
      "ĠÐ½Ð¾Ð²Ð¾Ð¹": 5911,
      "ĠÐ¿Ð¾Ð½Ð¸Ð¼Ð°Ð½Ð¸Ñı": 5912,
      "ÑĬÑıÑģÐ½Ð¸ÑĤÐµ": 5913,
      "td": 5914,
      "ana": 5915,
      "CH": 5916,
      "ĠÐĴÐ°ÑĪ": 5917,
      "ĠÐ¿Ð¾ÑĢÑıÐ´Ð¾Ðº": 5918,
      "ÐľÑĭ": 5919,
      "Ð¿ÐµÐ½Ð´": 5920,
      "iple": 5921,
      "ĠÐ¸ÑģÐ¿Ð¾Ð»ÑĮÐ·ÑĥÐµÑĤÐµ": 5922,
      "ÑĨÐµÐ½ÐºÐ°": 5923,
      "ĠÑĥÐ½Ð¸Ð²ÐµÑĢÑģ": 5924,
      "Ð¾Ð·ÑıÐ¹": 5925,
      "ĠÐ¿ÑĢÐµÐ´Ð½Ð°Ð·Ð½Ð°Ñĩ": 5926,
      "ÐĶÐ¶": 5927,
      "ĠÐ½Ð°ÑĪÐµÐ¹": 5928,
      "ĠÐĲÐ½Ð°Ð»Ð¸Ð·": 5929,
      "Ð¸Ð½Ð¾Ð²": 5930,
      "ario": 5931,
      "ology": 5932,
      "ear": 5933,
      "Ð¸ÑĩÑĮ": 5934,
      "fty": 5935,
      "ĠÑĢÐµÐ°ÐºÑĨÐ¸Ð¸": 5936,
      "ĠÐ²Ð¿": 5937,
      "ĠÐ¿ÑĢÐ¾Ð³ÑĢÐ°Ð¼Ð¼Ð½Ð¾Ð³Ð¾": 5938,
      "Ð¾Ð»Ð¾ÑĤ": 5939,
      "infty": 5940,
      "ĠÑģÐ²Ð¾Ð¹ÑģÑĤÐ²": 5941,
      "Ð¾Ð½ÐµÑĨ": 5942,
      "ĠÑĢÐµÐ±ÐµÐ½": 5943,
      "ÑĥÐºÐ¸": 5944,
      "Ġknow": 5945,
      "Ġquery": 5946,
      "ĠÐºÐ»ÑİÑĩÐµÐ²ÑĭÐµ": 5947,
      "ĠÐºÐ¾Ð¼Ð¿Ð¾Ð½ÐµÐ½ÑĤ": 5948,
      "LM": 5949,
      "ĠÐ¼Ð°Ð½": 5950,
      "ĠÐ¼ÐµÑĤÑĢ": 5951,
      "Ð¸ÑĢÐ¾Ð²Ð°Ð½Ð½ÑĭÐ¹": 5952,
      "Time": 5953,
      "hip": 5954,
      "ÐµÐ²ÑĭÑħ": 5955,
      "ÑįÐ½": 5956,
      "ĠÐ¼Ð°ÑĢÐºÐµÑĤÐ¸Ð½Ð³": 5957,
      "ĠÐ·Ð½Ð°Ð½Ð¸Ð¹": 5958,
      "ĠÑĥÑĩÐ¸ÑĤÑĭÐ²Ð°Ñı": 5959,
      "ĠÐ·Ð°Ð¿Ð¾Ð»Ð½": 5960,
      "ĠÐºÐ°ÑĩÐµÑģÑĤÐ²": 5961,
      "ĠÑģÐ¾Ð±ÑĭÑĤÐ¸Ð¹": 5962,
      "ĠÐ»ÑİÐ´ÑıÐ¼": 5963,
      "Par": 5964,
      "ĠÐĲÑĢ": 5965,
      "Ð¼ÑĥÐ½Ð¸Ðº": 5966,
      "ĠÑĤÐ¾Ð¶Ðµ": 5967,
      "ĠÐ²Ð°ÑĪÐµ": 5968,
      "Ġhttp": 5969,
      "Ġ]": 5970,
      "ĠÐ½Ð°ÑĤÑĥÑĢ": 5971,
      "Ġim": 5972,
      "ĠÑĤÐ°Ð¹": 5973,
      "ÐµÐ´Ð»Ð¸Ð²": 5974,
      "orith": 5975,
      "Ġsecond": 5976,
      "[\"": 5977,
      "batch": 5978,
      "Key": 5979,
      "ĠÑĥÑģÐ»ÑĥÐ³Ð¸": 5980,
      "ÐºÐ¾ÑģÑĤÐ¸": 5981,
      "ÑģÐ¾Ðº": 5982,
      "Ġexpl": 5983,
      "Ġapp": 5984,
      "ĠÐ¼Ð°ÑģÑģÐ¸Ð²Ð°": 5985,
      "Ð¸Ð½ÑĤÐµÑĢ": 5986,
      "Ġnetwork": 5987,
      "Ġread": 5988,
      "ĠÐ¾Ð´Ð½Ð¾Ð²": 5989,
      "ng": 5990,
      "ÐĻ": 5991,
      "`**:": 5992,
      "ÐµÑģÐºÐ¸Ñħ": 5993,
      "iter": 5994,
      "ÑĢÐ°ÑĤÐ¸ÑĤÐµ": 5995,
      "ĠÐ·Ð°Ð¿ÑĢÐ¾ÑģÐ°": 5996,
      "ida": 5997,
      "ĠÐ´Ð¾Ð¼Ð°ÑĪ": 5998,
      "ret": 5999,
      "ÑĥÐ±Ð»Ð¸Ðº": 6000,
      "ĠÐŁÐ¾Ð¼": 6001,
      "ÑĳÑĢ": 6002,
      "ĠÐ´Ð¾ÑģÑĤÐ¸Ð¶": 6003,
      "====": 6004,
      "ĠAp": 6005,
      ")--": 6006,
      "Ġexist": 6007,
      "Ã²": 6008,
      "oken": 6009,
      "ĠHTML": 6010,
      "mathrm": 6011,
      "Ð¿ÐµÐ½Ð´Ð¸Ðº": 6012,
      "Ð¾ÑĤÐ¸Ð¿": 6013,
      "ĠÐ´ÐµÐº": 6014,
      "ĠÐ¿Ð°ÑĤ": 6015,
      "ĠÐ²Ð¸Ð·ÑĥÐ°Ð»ÑĮ": 6016,
      "ĠÐ²Ð¾Ð·Ð´ÑĥÑħÐ°": 6017,
      "ocus": 6018,
      "ĠÐ»ÑİÐ±Ð¾Ð²": 6019,
      "NN": 6020,
      "Ġinvol": 6021,
      "ĠÐ¿Ð¾Ð¼Ð¾Ð³Ð°ÑİÑĤ": 6022,
      "Ð¸ÑĢÐ°ÐµÐ¼": 6023,
      "ĠÐ¿Ð¾Ð»Ð¾Ð¶Ð¸ÑĤÐµÐ»ÑĮÐ½ÑĭÑħ": 6024,
      "ĠÐ½Ð¸Ð¼": 6025,
      "ĠÑģÐ¿Ð¾ÑģÐ¾Ð±ÑģÑĤÐ²ÑĥÐµÑĤ": 6026,
      "Ġmon": 6027,
      "ĠÐ°Ð½Ð°Ð»Ð¸ÑĤ": 6028,
      "ĠÑģÐ»ÐµÐ´ÑĥÑİÑīÐµÐµ": 6029,
      "ĠÐ³Ð¾ÑĢÐ¸Ð·Ð¾Ð½ÑĤ": 6030,
      "ĠÐ²Ð°ÑĪÑĥ": 6031,
      "ĠÐ¿Ð¾ÑĤÐµÑĢ": 6032,
      "Ð¾Ð¹ÑĤÐµ": 6033,
      "arge": 6034,
      "Ġarray": 6035,
      "89": 6036,
      "ÑģÑĤÐ°Ð²Ð»ÑıÐµÐ¼": 6037,
      "ĠAdd": 6038,
      "ĠÐ¿Ð°Ð´": 6039,
      "Ð¸Ð·Ð¸ÑĢÐ¾Ð²Ð°ÑĤÑĮ": 6040,
      "ĠÑħÐ»": 6041,
      "ĠÐ¾Ð²Ð¾Ñī": 6042,
      "Ð°Ð»Ð¾Ð¼": 6043,
      "ĠÐµÐ¹": 6044,
      "ĠÑĨÐ¸ÑĦÑĢÑĭ": 6045,
      "ĠÐ¡Ð¾Ð·Ð´Ð°Ð¹ÑĤÐµ": 6046,
      "man": 6047,
      "Ð¾Ð¾ÑħÑĢÐ°Ð½": 6048,
      "ĠÑĤÑĢÐ°Ð²": 6049,
      "ĠÑĩÐ°ÑģÑĤÑĮÑİ": 6050,
      "ĠÑĤÑĢÐ°Ð½Ñģ": 6051,
      "34": 6052,
      "ories": 6053,
      "ĠÐ²ÑĭÐ²ÐµÐ´": 6054,
      "ited": 6055,
      "sib": 6056,
      "ĠCla": 6057,
      "Ã¹": 6058,
      "Ġleft": 6059,
      "ĠÐ½Ð¾Ñĩ": 6060,
      "Ð¼ÑĥÐ½": 6061,
      "Ð°Ð½Ð½ÑĭÐ¼Ð¸": 6062,
      "ĠÑģÐ¾Ð·Ð´Ð°ÐµÑĤ": 6063,
      "ĠÑģÐµÐ³Ð¾Ð´Ð½Ñı": 6064,
      "ĠÐ¿ÑĢÐ¸Ð¼ÐµÑĢÐ½Ð¾": 6065,
      "ĠÐ®": 6066,
      "ĠÐŁÐ¾ÑĤ": 6067,
      "ĠÐ·Ð²ÐµÐ·Ð´": 6068,
      "ĠÑĢÐµÐºÐ¾Ð¼ÐµÐ½Ð´Ð°ÑĨÐ¸Ð¸": 6069,
      "apt": 6070,
      "ĠÐ´Ð¾Ð²ÐµÑĢ": 6071,
      "ĠÐ±ÑİÐ´Ð¶": 6072,
      "ĠÐĴÐ¾Ð·": 6073,
      "ĠÑĤÐµÐ»Ð°": 6074,
      "ĠÐ¾ÑĤÐ´ÑĭÑħ": 6075,
      "Ġfound": 6076,
      "ĠÑĦÐ¾ÑĢ": 6077,
      "Ð°Ð¶ÐµÑĤÑģÑı": 6078,
      "ĠÑĥÐ¿ÑĢÐ°Ð²Ð»ÑıÑĤÑĮ": 6079,
      "ĠÐ²Ð»Ð¸ÑıÐµÑĤ": 6080,
      "ĠÑĤÐ¾ÑĤ": 6081,
      "ĠÐ·Ð°ÑīÐ¸ÑĤ": 6082,
      "ros": 6083,
      "Ġlong": 6084,
      "ek": 6085,
      "Ð¡Ð¾": 6086,
      "ĠÑĤÐµÐ¼Ñĭ": 6087,
      "ĠABC": 6088,
      "Ġfact": 6089,
      "Ð½Ð¾Ð³": 6090,
      "Ġ45": 6091,
      "Ð¸Ð¶Ð°Ð¹": 6092,
      "equest": 6093,
      "Ġpuede": 6094,
      "It": 6095,
      "ĠÐŁÑĢÐ¾Ð²ÐµÑĢÐºÐ°": 6096,
      "ï¸": 6097,
      "ega": 6098,
      "ÐŀÐ¿ÑĢÐµÐ´ÐµÐ»ÐµÐ½Ð¸Ðµ": 6099,
      "Ġ21": 6100,
      "ĠÐ¸Ð½Ð³ÑĢÐµÐ´Ð¸": 6101,
      "ĠÑĢÐ°Ð±Ð¾ÑĤÐ°": 6102,
      "ĠÐ¿Ð¸Ñģ": 6103,
      "down": 6104,
      "Ð¾ÐºÐ¾": 6105,
      "Ð¸ÑĩÐ½Ð¾Ð¹": 6106,
      "ĠÐļÐ¾ÑĢ": 6107,
      "ĠÐ³ÐµÐ½ÐµÑĢÐ°ÑĨÐ¸Ð¸": 6108,
      "ados": 6109,
      "Ð°ÑĤÐµÐ»ÑĮÐ½ÑĭÐ¹": 6110,
      "ĠÐ¾Ñī": 6111,
      "ĠÑģÐ»Ð¾Ð¶Ð½ÑĭÐµ": 6112,
      "ĠÐºÐ¾Ð½ÑĤÑĢÐ¾Ð»ÑĮ": 6113,
      "ÑıÑĩ": 6114,
      "ÑĢÐ¾Ð²Ð¾Ð´": 6115,
      "'.": 6116,
      "ĠÐľÐµÑĤ": 6117,
      "ĠÐºÐ½Ð¸Ð³Ð¸": 6118,
      "ä½": 6119,
      "onent": 6120,
      "Ð»ÐµÐ½Ð½ÑĭÐµ": 6121,
      "Ð½Ð¾Ð²Ð»ÑıÐµÐ¼": 6122,
      "ĠÐłÐµÐ³ÑĥÐ»ÑıÑĢ": 6123,
      "ĠÐŁÐ¾Ð»ÑĥÑĩ": 6124,
      "ĠÑĢÐ°ÑģÐºÑĢ": 6125,
      "ÐµÐ¹ÑĩÐ°Ñģ": 6126,
      "Ð¸Ð»Ð¾ÑģÑĮ": 6127,
      "Ġ32": 6128,
      "Ð°ÑĨÐ¸Ð¾Ð½Ð½ÑĭÐµ": 6129,
      "host": 6130,
      "ÐµÐ´Ð¶": 6131,
      "unic": 6132,
      "Ġrequire": 6133,
      "Un": 6134,
      "flow": 6135,
      "Ġ(\\": 6136,
      "ĠÐ¸ÑģÑĤÐ¾ÑĩÐ½Ð¸ÐºÐ¾Ð²": 6137,
      "ĠÑģÐ°Ð¹ÑĤ": 6138,
      "ĠÐ»Ð¸Ð´": 6139,
      "Ġvoid": 6140,
      "med": 6141,
      "Ð¬": 6142,
      "ÐµÑĢÐ¸ÑĤÐµ": 6143,
      "Ġiss": 6144,
      "37": 6145,
      "ĠÐ¾ÑĤÑĩÐµÑĤ": 6146,
      "ĠÐ¾Ð±ÑīÐµÐ³Ð¾": 6147,
      "grad": 6148,
      "ÐµÑĢÑĤ": 6149,
      "ÐµÑģÐºÐ¸Ðµ": 6150,
      "ĠÑģÐ¿Ð¾ÑģÐ¾Ð±Ð½Ð¾ÑģÑĤÐ¸": 6151,
      "ĠÐ¿ÑĢÐ¸Ð½Ð°Ð´Ð»ÐµÐ¶": 6152,
      "ĠÑģÐ¾Ð¾ÑĤÐ½Ð¾ÑĪ": 6153,
      "ĠÑĤÑıÐ¶": 6154,
      "ÑĥÐ¶Ð½Ð¾": 6155,
      "ĠÐ¿ÑıÑĤÑĮ": 6156,
      "ione": 6157,
      "As": 6158,
      "ÐļÐ¾Ð¼": 6159,
      "ĠÐ°Ð´ÑĢÐµÑģ": 6160,
      "ĠÐ¿Ð¾ÑģÑĤÐ¾ÑıÐ½Ð½Ð¾": 6161,
      "device": 6162,
      "ĠÑĥÐ´Ð¾Ð²Ð»ÐµÑĤÐ²Ð¾ÑĢÑıÑİÑī": 6163,
      "ĠÐ°ÑĥÐ´Ð¸ÑĤÐ¾ÑĢ": 6164,
      "65": 6165,
      "ĠÐºÐ°Ð½Ð´Ð¸Ð´": 6166,
      "Ð¾Ð³Ð°": 6167,
      "Ġdeta": 6168,
      "ĠÑĥÑģÑĤÐ°Ð½Ð¾Ð²Ð¸ÑĤÑĮ": 6169,
      "ĠÑĤÐµÐ¼Ð¿ÐµÑĢÐ°ÑĤÑĥÑĢÑĭ": 6170,
      "ROM": 6171,
      "ĠAr": 6172,
      "ĠÐ´Ð°Ð»ÑĮÐ½ÐµÐ¹": 6173,
      "aw": 6174,
      "ĠÐļÐ¾Ð»Ð¸ÑĩÐµÑģÑĤÐ²Ð¾": 6175,
      "Ð¾Ð»Ñİ": 6176,
      "ĠÑģÐ²ÑıÐ·Ð°Ð½Ð½ÑĭÑħ": 6177,
      "ĠÐ¾Ð³ÑĢÐ°Ð½Ð¸ÑĩÐµÐ½Ð¸Ñı": 6178,
      "ĠÑģÐ¾ÑģÑĢÐµÐ´Ð¾ÑĤÐ¾Ñĩ": 6179,
      "Ð²ÐµÑĢÑħ": 6180,
      "ÑĥÐ´ÑĮÑĤÐµ": 6181,
      "ĠÐ½Ð°ÑĩÐ°ÑĤÑĮ": 6182,
      "ĠÐºÐ¾ÑĪ": 6183,
      "values": 6184,
      "binom": 6185,
      "join": 6186,
      "ĠÑĢÐµÐ²": 6187,
      "Ð°Ð³ÑĢÑĥÐ·": 6188,
      "ĠÑģÐ²ÑıÐ·Ð°Ð½Ð½ÑĭÐµ": 6189,
      "ĠÐºÐ¾Ð½ÑĤÐµÐ¹Ð½ÐµÑĢ": 6190,
      "ĠÑĥÑģÑĤÑĢÐ°Ð½": 6191,
      "ĠÑĤÐ°ÐºÐ¾Ð³Ð¾": 6192,
      "ĠÐ´Ð¾Ð»Ð»Ð°ÑĢÐ¾Ð²": 6193,
      "ita": 6194,
      "Ġmu": 6195,
      "ĠÐ¸ÑģÐ¿Ð¾Ð»ÑĮÐ·Ð¾Ð²Ð°ÑĤÑĮÑģÑı": 6196,
      "Ġjust": 6197,
      "[:": 6198,
      "ĠÐ¿ÑĢÐµÐº": 6199,
      "ĠÐĿÐ°Ð¿": 6200,
      "ube": 6201,
      "ĠÑģÐ¸Ð¼Ð¼ÐµÑĤÑĢ": 6202,
      "ÑģÐ¸Ð¹": 6203,
      "Ð¼Ð¸ÑĤÐµ": 6204,
      "ĠÐ³ÑĢÐ°Ð¶Ð´": 6205,
      "eature": 6206,
      "ĠÐ¿Ð¾Ð¼Ð¾ÑīÐ¸": 6207,
      "ĠÐ¸Ð½ÑģÑĤÑĢÑĥÐ¼ÐµÐ½ÑĤÐ¾Ð²": 6208,
      "inci": 6209,
      "ĠÐ³Ð°ÑĢÐ°Ð½ÑĤÐ¸ÑĢÑĥÐµÑĤ": 6210,
      "ove": 6211,
      "ĠCol": 6212,
      "sert": 6213,
      "ĠÐŁÐ¾ÑįÑĤÐ¾Ð¼Ñĥ": 6214,
      "ormal": 6215,
      "gre": 6216,
      "æľ": 6217,
      "ÑĪÐµÐ¹": 6218,
      "ĠÐ³Ð¾Ð²": 6219,
      "Ġem": 6220,
      "Ġrandom": 6221,
      "ights": 6222,
      "target": 6223,
      "org": 6224,
      "doc": 6225,
      "ĠÐ±Ð°Ð·Ñĭ": 6226,
      "Ġnull": 6227,
      "ĠÃĹ": 6228,
      "ĠÐ·Ð°Ð±Ð¾ÑĤ": 6229,
      "ito": 6230,
      "ÑĭÐ±": 6231,
      "Ġblock": 6232,
      "ĠÑģÐ¿Ð¾ÑĢÑĤ": 6233,
      "ĠÑĤÑĥÑĢ": 6234,
      "....": 6235,
      "ĠÐ´Ð¸Ð°Ð»Ð¾Ð³": 6236,
      "ĠÑĦÐ°Ð¹Ð»Ñĭ": 6237,
      "overline": 6238,
      "ĠÑħÐ¾Ð»Ð¾Ð´": 6239,
      "ĠClaude": 6240,
      "ĠÐ¿Ð¾Ð´Ð´ÐµÑĢÐ¶ÐºÑĥ": 6241,
      "ĠÐ¿Ð»Ð¾ÑģÐºÐ¾ÑģÑĤÐ¸": 6242,
      "Ð°ÑĤÐºÐ¸": 6243,
      "Ð¸ÑĢÑĥÑİÑĤ": 6244,
      "ĠÐ¿Ð°ÑĢÐ°Ð»Ð»ÐµÐ»ÑĮ": 6245,
      "ĠÐ·Ð°Ð¿ÑĥÑģÐº": 6246,
      "ĠÐ¿ÐµÑĢÐ¿ÐµÐ½Ð´Ð¸Ðº": 6247,
      "ĠÐ¿Ð¾Ð»Ð¾Ð²": 6248,
      "Ġcolumn": 6249,
      "ĠÐ´Ð¾Ð±": 6250,
      "pm": 6251,
      "Ð¡Ðº": 6252,
      "ÑĢÐ¾ÑĦ": 6253,
      "ĠÐ¾ÑĤÐ²ÐµÑĤÐ°": 6254,
      "67": 6255,
      "ĠÑģÐµÑĢÑĮÐµÐ·": 6256,
      "ĠÐ¿ÑĢÐ¸Ð½Ð¸Ð¼Ð°ÐµÑĤ": 6257,
      "');": 6258,
      "Ð°ÑİÑīÐµÐ³Ð¾": 6259,
      "ĠâīĪ": 6260,
      "ĠÑĤÐµÐ¾ÑĢÐ¸Ð¸": 6261,
      "Ġupdate": 6262,
      "Ġmap": 6263,
      "ÐŀÐ±Ñī": 6264,
      "ĠÐ¾Ð´Ð¸Ð½Ð°ÐºÐ¾Ð²": 6265,
      "ĠÑģÐ¼Ð¾Ð³": 6266,
      "Ð»Ð¸Ð½Ð°": 6267,
      "ĠÑģÐ¾Ð´ÐµÑĢÐ¶Ð°ÑĤÑĮ": 6268,
      "ï¸ı": 6269,
      "Ġsame": 6270,
      "Ð¸Ð¼ÑĭÑħ": 6271,
      "ade": 6272,
      "ĠÐ½Ð°Ð¿ÑĢÐ°Ð²Ð»ÐµÐ½Ð¸Ñı": 6273,
      "ĠÐ¿Ð°Ð¼ÑıÑĤÑĮ": 6274,
      "script": 6275,
      "ĠÑĤÐ°Ð½": 6276,
      "ĠÑĦÐ¾ÑĢÐ¼Ñĥ": 6277,
      "Ġfield": 6278,
      "42": 6279,
      "ĠÑģÐºÑĢÐ¸Ð¿ÑĤ": 6280,
      "ĠÑģÐ½Ð¾Ð²Ð°": 6281,
      "ÐµÐ½ÑĨÐ¸Ð¸": 6282,
      "ĠÐ°ÑĥÐ´Ð¸ÑĤÐ¾ÑĢÐ¸Ð¸": 6283,
      "Ġsignificant": 6284,
      "38": 6285,
      "Ð¾Ð¼Ðµ": 6286,
      "ATE": 6287,
      "SQL": 6288,
      "throp": 6289,
      "Ġload": 6290,
      "ĠÐºÐ¾Ð½ÑĨÐµÐ½ÑĤÑĢ": 6291,
      "ĠÐ²Ð¸Ð´Ð°": 6292,
      "`)": 6293,
      "}\\),": 6294,
      "ĠÐ¿ÑĢÐ¾ÑģÑĤÑĭÐµ": 6295,
      "={": 6296,
      "ĠÐ²ÑĭÑģÐ¾ÐºÐ¾Ð¹": 6297,
      "Ð¾ÑĢÑıÐ´": 6298,
      "ÑĢÐ¸ÑģÑĤ": 6299,
      "Ð°ÐºÐ¸": 6300,
      "Ð¸Ð²Ð°Ð»": 6301,
      "Ġbus": 6302,
      "ĠÐºÐ¾Ð½ÑģÑĤÐ°Ð½ÑĤ": 6303,
      "ĠÐ¿ÑĢÐ¾Ð²ÐµÑĢÑıÐµÐ¼": 6304,
      "}_": 6305,
      "ĠÐ¼Ð¾Ð½Ð¸ÑĤÐ¾ÑĢ": 6306,
      "?\"": 6307,
      "Ġ80": 6308,
      "ĠÐ¿ÑĢÐ¾ÑĤÐ¸Ð²Ð¾ÑĢÐµÑĩ": 6309,
      "ĠAnthrop": 6310,
      "ÑĥÐ½ÐºÑĤ": 6311,
      "Ar": 6312,
      "til": 6313,
      "ĠÐ¿ÑĢÐ°Ð²Ð°": 6314,
      "ÐŁÐ¾Ð¼": 6315,
      "Ġdown": 6316,
      "ÑĢÐ°ÑģÑĤÑĢÑĥÐºÑĤ": 6317,
      "ĠÐ¿Ð¾Ð´Ð¿Ð¸Ñģ": 6318,
      "ĠFalse": 6319,
      "ĠÐ±Ð¾Ð»ÑĮÑĪÐ¾Ð¹": 6320,
      "ĠÐ²ÑĤÐ¾ÑĢÐ¾Ð³Ð¾": 6321,
      "OT": 6322,
      "ÑĤÐ¸Ð¼Ð¸Ð·": 6323,
      "Ġha": 6324,
      "ĠÐ½ÐµÐ³Ð°ÑĤÐ¸Ð²": 6325,
      "ĠÑģÐ´": 6326,
      "ĠÐ²ÑĭÐ±Ð¾ÑĢÐ°": 6327,
      "ĠAnthropic": 6328,
      "ĠÑģÑĢÐµÐ´ÑģÑĤÐ²Ð°": 6329,
      "ĠÑĥÐºÑĢÐµÐ¿": 6330,
      "roid": 6331,
      "Ġgre": 6332,
      "Ġmarket": 6333,
      "anges": 6334,
      "ĠÐ´Ð¾Ð¿ÑĥÑģÑĤÐ¸Ð¼": 6335,
      "ĠÑģÑĤÐ¾Ð»Ðº": 6336,
      "predict": 6337,
      "ĠÐ´ÐµÐ½": 6338,
      "ĠÐ¡Ð¾Ð²": 6339,
      "ÑĭÐ²Ð°ÑİÑĤÑģÑı": 6340,
      "idden": 6341,
      "ivid": 6342,
      "ĠÑģÐ¾ÑĨÐ¸Ð°Ð»ÑĮÐ½ÑĭÐµ": 6343,
      "LECT": 6344,
      "Ġ$(": 6345,
      "ĠÑģÐµÐºÑĥÐ½Ð´": 6346,
      "ĠÑĥÑĩÐ°Ñī": 6347,
      "ios": 6348,
      "ÐµÐ²Ð°": 6349,
      "ily": 6350,
      "ĠÐ¼ÐµÐ¶Ð´ÑĥÐ½Ð°ÑĢÐ¾Ð´": 6351,
      "ĠGPU": 6352,
      "ĠÐ¾Ð¿Ð¸ÑģÐ°Ð½Ð¸Ðµ": 6353,
      "ĠÐºÐ°ÑĢÑĤÑĭ": 6354,
      "ager": 6355,
      "ĠÐ¸Ð³ÑĢÐ°ÐµÑĤ": 6356,
      "Ð½Ð¸Ð¼Ð¸": 6357,
      "itor": 6358,
      "ĠÐ¿ÑĢÐ¸Ð¼ÐµÑĢÑĭ": 6359,
      "ĠÐ¼ÐµÐ´Ð¸": 6360,
      "Ġele": 6361,
      "ĠÐ¸Ð¼Ð¿": 6362,
      "ĠÑģÐ¾Ð¿ÑĢ": 6363,
      "ĠÐºÐ²Ð°Ð´ÑĢÐ°ÑĤÐ¾Ð²": 6364,
      "ĠÐ½ÐµÐ¸Ð·": 6365,
      "ĠÐ¿ÑĢÐ¾Ð±Ð»ÐµÐ¼Ñĥ": 6366,
      "ÑĭÐ»ÑĮ": 6367,
      "other": 6368,
      "AP": 6369,
      "Ġaction": 6370,
      "Ġwithout": 6371,
      "ĠÑĩÐµÑĤÑĭÑĢÐµ": 6372,
      "ĠÑģÑĥÐ¿": 6373,
      "Ġax": 6374,
      "Ġmatch": 6375,
      "ĠÑĢÐ°ÑģÑģÐº": 6376,
      "Ġcontin": 6377,
      "ĠÐºÐ°Ð»": 6378,
      "Ġpy": 6379,
      "Ð¾ÑģÐ¸ÑģÑĤÐµÐ¼": 6380,
      "ĠÐ³Ð»Ð°Ð·": 6381,
      "enza": 6382,
      "ĠÑĩÐ°ÑģÐ¾Ð²": 6383,
      "Ġpad": 6384,
      "Ġmov": 6385,
      "ÐĲÐ½Ð°Ð»Ð¸Ð·": 6386,
      "Ġorder": 6387,
      "ĠÐ¿ÑĢÐµÐ¾Ð´": 6388,
      "ĠÐ´Ð°Ð²Ð°Ð¹ÑĤÐµ": 6389,
      "ÑĩÐµ": 6390,
      "ĠÑĥÐ±ÐµÐ´Ð¸ÑĤÐµÑģÑĮ": 6391,
      "enti": 6392,
      "ÐµÐ·Ð°": 6393,
      "not": 6394,
      "ĠÐ½ÐµÐ¿ÑĢÐ°Ð²Ð¸Ð»ÑĮ": 6395,
      "ĠÑįÐ½ÐµÑĢÐ³Ð¸Ñİ": 6396,
      "ĠâĶ": 6397,
      "Ð¢Ð¾Ð³Ð´Ð°": 6398,
      "ĠÐ¾Ð±Ð»ÐµÐ³": 6399,
      "ĠÐ¿Ð¾ÑģÐ»ÐµÐ´Ð½ÑıÑı": 6400,
      "ĠÐ±Ð¾Ð»ÐµÐ·": 6401,
      "body": 6402,
      "ãĤĴ": 6403,
      "ĠÐ¿ÐµÑĢÐµÐ²Ð¾Ð´": 6404,
      "por": 6405,
      "ÑģÐºÑĥÑİ": 6406,
      "ĠÑģÑĢÐµÐ´Ðµ": 6407,
      "ĠÐ¿ÑģÐ¸ÑħÐ¾Ð»Ð¾Ð³": 6408,
      "ĠÑĢÐ°Ð·Ð³": 6409,
      "ĠÐ·Ð°ÑħÐ²Ð°ÑĤ": 6410,
      "ĠÐ½ÑĥÐ»": 6411,
      "ĠÑģÐ¾Ð´ÐµÑĢÐ¶Ð°ÑĤ": 6412,
      "iness": 6413,
      "Ġport": 6414,
      "ĠÐºÐ°Ð¶Ð´ÑĥÑİ": 6415,
      "ĠÐ²Ð½Ð¸Ð¼Ð°Ð½Ð¸Ñı": 6416,
      "ĠÐµÐ´Ð¸Ð½ÑģÑĤÐ²ÐµÐ½": 6417,
      "ĠÐ²Ð¸Ð·Ñĥ": 6418,
      "ÐµÐ½Ð·": 6419,
      "Ð¸Ð·Ð¼Ð°": 6420,
      "ĠÑĩÐ¸ÑģÐ»Ðµ": 6421,
      "ÐĴÐ°ÑĪ": 6422,
      "Ġhis": 6423,
      "ÑĢÐ°Ð²Ð¸ÑĤ": 6424,
      "ĠÐ°Ð²ÑĤ": 6425,
      "ÐĹÐ°Ðº": 6426,
      "ÐŀÐ±ÑĬÑıÑģÐ½Ð¸ÑĤÐµ": 6427,
      "Ġincre": 6428,
      "ĠÐ»ÐµÐ¶Ð¸ÑĤ": 6429,
      "loss": 6430,
      "Ð¾ÑģÐ¿": 6431,
      "ĠSystem": 6432,
      "ĠÐ±ÐµÑģÐºÐ¾Ð½ÐµÑĩ": 6433,
      "ĠÑįÐ½": 6434,
      "Ð°ÑİÑīÐ¸Ð¼": 6435,
      "ĠÑĢÐ°ÑģÑģÐ¼Ð¾ÑĤÑĢÐµÑĤÑĮ": 6436,
      "ÑģÐ°Ð¹ÑĤ": 6437,
      "ĠÑĥÑĩÐµÑĤÐ¾Ð¼": 6438,
      "ause": 6439,
      "Ġleg": 6440,
      "ĠÑģÐ¼ÐµÑĪ": 6441,
      "Ġsci": 6442,
      "Ġworld": 6443,
      "ĠÐ¿Ð»Ð°ÑģÑĤ": 6444,
      "Ġproblem": 6445,
      "Ð¸ÑĢÑĥÑı": 6446,
      "ĠÐºÐ¾Ð½ÐºÑĢÐµÑĤÐ½ÑĭÑħ": 6447,
      "ĠÐ¾Ð±ÑģÑĥÐ¶Ð´": 6448,
      "ĠÐ¿ÑĢÐ¾Ð¸Ð·Ð²Ð¾Ð´ÑģÑĤÐ²Ð°": 6449,
      "ÑģÐ»Ð°Ð±": 6450,
      "ĠÑģÐºÐ¾ÑĢÐ¾ÑģÑĤÐ¸": 6451,
      "ĠÐ²ÑĭÑħÐ¾Ð´Ð½ÑĭÑħ": 6452,
      "Ð¿Ð¾": 6453,
      "Ġcle": 6454,
      "ĠÑĢÑĥÐº": 6455,
      "ĠÐ´Ð¾ÑģÑĤÐ¸ÑĩÑĮ": 6456,
      "Ġinclude": 6457,
      "Ð¾ÑĩÐµÐ¼Ñĥ": 6458,
      "ĊĠĠĠĠĠĠĠĠĠĠĠĠĠĠĠĠĠĠĠĠĠĠĠĠ": 6459,
      "ĠÐ¾Ð±ÑĢÐ°Ð±Ð°ÑĤÑĭÐ²Ð°ÑĤÑĮ": 6460,
      "è¿": 6461,
      "ĠÑĤÐ¾Ð¼Ñĥ": 6462,
      "Ð¾ÐºÑĥÑģ": 6463,
      "ÑĥÐ»Ð°": 6464,
      "Ġev": 6465,
      "Ð¸ÑĤÐµÐ»ÑĮÐ½Ð¾Ð¹": 6466,
      "ÑĢÐ¸ÐµÐ½ÑĤ": 6467,
      "ĠÐ·Ð°ÑīÐ¸Ñī": 6468,
      "ĠÐ±Ð»Ð¸Ð¶Ð°Ð¹": 6469,
      "ĠÐ½Ð°Ð»Ð¾Ð³": 6470,
      "ĠÐºÐ¾Ð»Ð¸ÑĩÐµÑģÑĤÐ²Ð¾Ð¼": 6471,
      "Ð¸Ð·Ð²Ð¾Ð´": 6472,
      "ĠÐŁÑĢÐ¸Ð²": 6473,
      "valid": 6474,
      "ĠÐ·Ð´ÑĢÐ°Ð²": 6475,
      "Ġ000": 6476,
      "**,": 6477,
      "File": 6478,
      "Ð¾ÑĢÐ¾Ð¶": 6479,
      "Ð»ÑıÑİÑĤÑģÑı": 6480,
      "Ð°ÐµÐ¼ÑĭÑħ": 6481,
      "Ġselect": 6482,
      "env": 6483,
      "Ð¸Ð´Ñĭ": 6484,
      "ĠÐłÐ°ÑģÑģ": 6485,
      "ĠÑģÐ½Ð°": 6486,
      "rec": 6487,
      "ĠÐ¿ÑĢÐ¾ÑħÐ¾Ð´Ð¸ÑĤ": 6488,
      "last": 6489,
      "ĠÐºÐ¾Ð¼Ð°Ð½Ð´Ð°": 6490,
      "ĠTo": 6491,
      "ĠÐ¼ÑıÐ³": 6492,
      "Ġloss": 6493,
      "(),": 6494,
      "ĠÑĥÐ³Ð»Ð°": 6495,
      "ĠÐ¿ÑĢÐ¸Ð±Ð»": 6496,
      "ÐºÐ¾Ð½": 6497,
      "ĠInt": 6498,
      "Ġpandas": 6499,
      "ĠÐ¡Ð¾Ð·Ð´Ð°ÐµÐ¼": 6500,
      "ĠÐ¸ÑģÐ¿Ð¾Ð»ÑĮÐ·Ð¾Ð²Ð°Ð½Ð¸Ð¸": 6501,
      "ĠÑģÐ¾ÑħÑĢÐ°Ð½Ð¸ÑĤÑĮ": 6502,
      "Ð¾Ð¸": 6503,
      "ĠÑģÐ¾ÑĢÑĤ": 6504,
      "Ð¸Ð½Ð°ÑĢ": 6505,
      "Ð¾Ð±ÑĭÑĩ": 6506,
      "ĠÐ¾ÑĤÐ½Ð¾ÑģÐ¸ÑĤÑģÑı": 6507,
      "ĠÑģÐµÐ»ÑĮ": 6508,
      "ingle": 6509,
      "ĠÐĴÐ¼ÐµÑģÑĤ": 6510,
      "ĠÑģÐ¾Ð±Ð»ÑİÐ´": 6511,
      "ĠÐ´ÐµÑıÑĤÐµÐ»ÑĮÐ½Ð¾ÑģÑĤÐ¸": 6512,
      "1000": 6513,
      "ral": 6514,
      "Ġsource": 6515,
      "ĠÐ·Ð°Ñı": 6516,
      "ĠÐ¿Ð¾ÐºÐ°Ð·ÑĭÐ²": 6517,
      "Ġfac": 6518,
      "ric": 6519,
      "Ġenvironment": 6520,
      "ĠÑģÑĥÑīÐµÑģÑĤÐ²ÑĥÑİÑĤ": 6521,
      "irect": 6522,
      "ĠÐ´Ð°ÑĤÑĮ": 6523,
      "Ġmet": 6524,
      "utton": 6525,
      "cdots": 6526,
      "ĠÑĤÐµÐ¿Ð»": 6527,
      "^^^^^^^^": 6528,
      "ĠÐ½Ð°ÑģÐµÐ»ÐµÐ½Ð¸Ñı": 6529,
      "dim": 6530,
      "atform": 6531,
      "ĠÐºÑĢÑĥÐ³Ð°": 6532,
      "ĠÑĩÐµÑĤÑĭÑĢÐµÑħ": 6533,
      "ĠÐ·Ð°Ñģ": 6534,
      "ĠÐĴÑĭÐ²Ð¾Ð´": 6535,
      "ĠÐµÐ´Ð¸Ð½Ð¸ÑĨ": 6536,
      "ĠÐ¿ÑĢÐ¸ÑĢÐ¾Ð´Ñĭ": 6537,
      "ĠÐ¼Ð¾Ð¹": 6538,
      "Ġdefault": 6539,
      "Ð¸Ð¼ÑĭÐµ": 6540,
      "Ġperm": 6541,
      "ĠÑģÐ¾Ð¾ÑĤÐ²ÐµÑĤÑģÑĤÐ²ÑĥÑİÑīÐ¸Ðµ": 6542,
      "Ġvarious": 6543,
      "Ġ~": 6544,
      "ino": 6545,
      "ĠÑģÑĤÐ¸Ð»ÑĮ": 6546,
      "ĠÑĦÐ¾Ð½": 6547,
      "ĠÑģÐ»Ð°Ð±": 6548,
      "Ġelement": 6549,
      "ĠÐ¾Ð´Ð½Ð¾Ð²ÑĢÐµÐ¼ÐµÐ½Ð½Ð¾": 6550,
      "ĠÐ¿Ð¾Ð»ÑĮÐ·Ð¾Ð²Ð°ÑĤÐµÐ»ÑıÐ¼": 6551,
      "Ð°ÑĤÐ¾ÑĢÑĭ": 6552,
      "ĠÐ²ÑĭÐ¿Ð¾Ð»Ð½ÐµÐ½Ð¸Ðµ": 6553,
      "ĠÐ¾Ð±ÑıÐ·Ð°ÑĤÐµÐ»ÑĮÐ½Ð¾": 6554,
      "ÐĿÐļ": 6555,
      "ĠÑĤÐµÐ¼Ñĥ": 6556,
      "ĠÐ¿ÑĢÐµÐ´Ð¾ÑģÑĤÐ°Ð²Ð¸ÑĤÑĮ": 6557,
      "Ġacc": 6558,
      "ĠÑģÐ»ÑĥÑĩÐ°ÑıÑħ": 6559,
      "ĠÐ»Ð¸ÑĪÑĮ": 6560,
      "ĠÐ¿ÑĢÐ°Ð²Ð¸Ð»ÑĮÐ½ÑĭÐ¹": 6561,
      "ĠÐ´Ð¾Ð»Ð³Ð¾ÑģÑĢÐ¾Ñĩ": 6562,
      "gamma": 6563,
      "ĠÑģÑĢÐ°Ð²Ð½ÐµÐ½Ð¸Ñİ": 6564,
      "ĠÐĶÐ¾Ð±Ð°Ð²ÑĮÑĤÐµ": 6565,
      "ÑįÑĪ": 6566,
      "ÐŁÑĢÐ¸Ð´ÑĥÐ¼": 6567,
      "ĠÐ¾Ð±ÑĬÐµÐºÑĤÐ°": 6568,
      "ĠÐ²Ð·Ð³": 6569,
      "ĠÐ·ÐµÐ»ÐµÐ½": 6570,
      "ĠÐ¿ÑĢÐµÐ´ÑģÑĤÐ°Ð²Ð¸ÑĤÑĮ": 6571,
      "Ġ\\)**:": 6572,
      "ÑģÐ»ÐµÐ´": 6573,
      "ÐŀÐ´Ð½Ð¸Ð¼": 6574,
      "Bo": 6575,
      "base": 6576,
      "sol": 6577,
      "ĠÐºÐ¾Ð½ÑĤÐ°ÐºÑĤ": 6578,
      "Ð°ÑĨÐ¸Ð¾Ð½Ð°Ð»ÑĮ": 6579,
      "gin": 6580,
      "ĠÑĩÐ¸ÑģÐ»Ð¾Ð¼": 6581,
      "ĠÐ½ÐµÑĢÐ°Ð²ÐµÐ½ÑģÑĤÐ²Ð¾": 6582,
      "ĠÑĥÐ·Ð½Ð°ÑĤÑĮ": 6583,
      "Al": 6584,
      "abor": 6585,
      "Ð¿Ð¾Ð½": 6586,
      "ĠÐ¾Ð±ÑīÐµÑģÑĤÐ²Ð°": 6587,
      "ĠÐ¿Ð°Ð½": 6588,
      "ĠÐ²ÐµÐºÑĤ": 6589,
      "ason": 6590,
      "UT": 6591,
      "Ġhist": 6592,
      "Ġtim": 6593,
      "Ġ27": 6594,
      "Ġaccess": 6595,
      "Ġdisc": 6596,
      "Ġstructure": 6597,
      "ÑĤÑĥ": 6598,
      "Ð»Ñĥ": 6599,
      "Ġbas": 6600,
      "55": 6601,
      "Ð¸ÐµÐ½ÑĤ": 6602,
      "ĠÑģÑĥÐ±": 6603,
      "ĠÑģÐ¾Ð¾ÑĤÐ²ÐµÑĤÑģÑĤÐ²Ð¸Ð¸": 6604,
      "ĠÐ¿Ð¾Ð½Ð¸Ð¼Ð°ÑĤÑĮ": 6605,
      "Ð¾ÑĤÐµ": 6606,
      "ĠÐ¿ÐµÑĢÐ²Ð¾Ð¼": 6607,
      "ĠÐ²Ð°ÑĢÑĮ": 6608,
      "ĠCont": 6609,
      "ĠÑĨÐµÐ»ÑĭÐµ": 6610,
      "ĠÐ¿Ð¾Ð´ÑħÐ¾Ð´Ð°": 6611,
      "Ġespeci": 6612,
      "ĠÐĿÐ°ÑģÑĤÑĢÐ¾Ð¹": 6613,
      "ĠÐ±Ð¾Ð»ÑĮÑĪÐ¸Ð½": 6614,
      "ĠÑĢÐ°ÑģÐ¿ÑĢÐµÐ´ÐµÐ»ÐµÐ½Ð¸Ñı": 6615,
      "gener": 6616,
      "ĠÐ¾ÑģÑĤÐ°ÐµÑĤÑģÑı": 6617,
      "ref": 6618,
      "ĠÐ±ÑĥÐ¼": 6619,
      "Ð¸ÑĩÐ½ÑĭÑħ": 6620,
      "ĠÐĺÑģ": 6621,
      "ĠÐłÐµ": 6622,
      "total": 6623,
      "ĠÐ¿ÑĢÐ¾Ð¸Ð·Ð²ÐµÐ´ÐµÐ½Ð¸Ñı": 6624,
      "ĠÐ¿Ð¸ÑĤÐ°Ð½Ð¸Ñı": 6625,
      "ĠÐ²Ð»Ð°Ð´": 6626,
      "Ġcase": 6627,
      "ĠÐ³ÑĢÐ°Ð½": 6628,
      "ivo": 6629,
      "mpty": 6630,
      "ĠÐ±Ð¾ÑĢÑĮ": 6631,
      "ĠÐ¿ÐµÑĢÐµÐ´Ð°ÑĩÐ¸": 6632,
      "Ð°Ð½Ð°Ð»Ð¸Ð·": 6633,
      "ÑĪÐ¸Ðµ": 6634,
      "Ġnode": 6635,
      "ather": 6636,
      "ĠÐ¾ÑĤÐ½Ð¾ÑĪÐµÐ½Ð¸Ðµ": 6637,
      "Ġhandle": 6638,
      "Ġdig": 6639,
      "ĠÐ²Ð·Ð°Ð¸Ð¼Ð¾Ð´ÐµÐ¹ÑģÑĤÐ²Ð¸Ðµ": 6640,
      "ĠÑħÑĥÐ´Ð¾Ð¶": 6641,
      "ÐĴÑĭÐ²Ð¾Ð´": 6642,
      "ĠÐ²Ð¾Ð¿ÑĢÐ¾ÑģÐ¾Ð²": 6643,
      "ĠÐ¼Ð°ÑĤÑĢÐ¸ÑĨÑĭ": 6644,
      "ĠÑģÑĥÐ´": 6645,
      "ĠÑįÐ¼Ð¾": 6646,
      "ĠÑĥÐ³Ð»ÐµÑĢ": 6647,
      "ĠÐ±ÐµÐ·Ð¾Ð¿Ð°ÑģÐ½Ð¾ÑģÑĤÑĮ": 6648,
      "ĠÐ°Ð±Ñģ": 6649,
      "ĠÐ¿Ð¾Ð²Ð»Ð¸": 6650,
      "ĠÐ¿ÐµÑĢÐ²ÑĭÑħ": 6651,
      "ĠÐ¾ÑģÐ¾Ð±ÐµÐ½Ð½Ð¾ÑģÑĤÐ¸": 6652,
      "ĠÐ»ÑİÐ±ÑĭÐµ": 6653,
      "pip": 6654,
      "ĠÐ´Ð¾Ð¿Ð¾Ð»Ð½": 6655,
      "cd": 6656,
      "ÐµÑĤÑĥ": 6657,
      "ĠÐĴÐ¾": 6658,
      "aterial": 6659,
      "ÑĦÐ¸Ðº": 6660,
      "ÐĴÑĭÐ²": 6661,
      "Ð¸ÑģÑĤÐµÐ½ÑĤ": 6662,
      "98": 6663,
      "ĠÐ´Ð°Ð½Ð½ÑĭÐ¼": 6664,
      "ĠÐĺÑģÐ¿Ð¾Ð»ÑĮÐ·ÑĥÐµÐ¼": 6665,
      "ÐµÐ¼Ñĭ": 6666,
      "rack": 6667,
      "ĠÐºÐ¾Ð´Ðµ": 6668,
      "ĠÑįÐ½ÐµÑĢÐ³Ð¸Ñı": 6669,
      "ĠpiÃ¹": 6670,
      "ĠÐ¾ÑīÑĥÑī": 6671,
      "ĠÐ¿Ð¾Ð·Ð²Ð¾Ð»Ð¸ÑĤ": 6672,
      "flu": 6673,
      "ÑĮÑıÐ¼Ð¸": 6674,
      "ĠÐ¿ÐµÑĢÐµÑĢ": 6675,
      "\";": 6676,
      "ÐµÐºÑĨÐ¸Ð¸": 6677,
      "ĠÐ²ÑĭÐ·Ð²Ð°ÑĤÑĮ": 6678,
      "Ġsequ": 6679,
      "ĠÐ¸ÑģÑĤÐ¸Ð½": 6680,
      "ĠÐ¿Ð¾ÐµÐ·Ð´": 6681,
      "ift": 6682,
      "come": 6683,
      "ĠÐ´ÐµÑĢÐµÐ²Ð°": 6684,
      "ĠÑģÐ¸Ð»Ñĥ": 6685,
      "ĠÑĦÐ¾ÑĤÐ¾Ð³ÑĢÐ°ÑĦ": 6686,
      "Ð¶ÐµÐ½ÐµÑĢ": 6687,
      "ĠCl": 6688,
      "ĠÐ¿ÑĢÐ¸Ð¼ÐµÐ½ÐµÐ½Ð¸Ñı": 6689,
      "ÑıÐ»Ð¸": 6690,
      "move": 6691,
      ")$": 6692,
      "ĠÑģÑĤÐµÐº": 6693,
      "Ð¸ÑĤÐµÐ»ÑĮÐ½Ð¾Ð³Ð¾": 6694,
      "Ð¾ÑģÑĤÑĮÑİ": 6695,
      "ĠÑģÐ¼ÐµÑĢ": 6696,
      "Ġbase": 6697,
      "ression": 6698,
      "ÑĨÐ°Ð¼Ð¸": 6699,
      "ĠÑĢÐ°Ð±Ð¾ÑĤÐ°ÑİÑĤ": 6700,
      "ni": 6701,
      "åľ": 6702,
      "ĠÑĤÐµÐ½Ð´": 6703,
      "Ġnat": 6704,
      "ĠÐ¿Ð¾Ð²ÐµÐ´ÐµÐ½Ð¸Ñı": 6705,
      "ĠÐ²ÐµÑĩÐµÑĢ": 6706,
      "Ð¸Ð²Ð½ÑĭÐµ": 6707,
      "ĠÐºÐ¾Ð¼Ð¿Ð¾Ð½ÐµÐ½ÑĤÑĭ": 6708,
      "ĠÐ´ÐµÐ¼Ð¾Ð½ÑģÑĤÑĢÐ¸ÑĢÑĥ": 6709,
      "95": 6710,
      "ĠÑĥÑĢÐ°Ð²Ð½ÐµÐ½Ð¸Ð¹": 6711,
      "Ġperformance": 6712,
      "Ġfloat": 6713,
      "ĠÑģÐµÑĤÑĮ": 6714,
      "loc": 6715,
      "Ġplan": 6716,
      "ĠÐ¾Ð±ÑĢÐ°ÑĤÐ½Ð¾": 6717,
      "Ġcommand": 6718,
      "Ð¾ÐºÑĢÐ°ÑĤ": 6719,
      "ĠÐĹÐ´ÐµÑģÑĮ": 6720,
      "Ġpersonal": 6721,
      "ĠÑĢÐ¾Ñģ": 6722,
      "Ð¾ÑĩÐ½ÑĭÐµ": 6723,
      "ĠÐ¢ÑĢÐµÐ±": 6724,
      "Ð·Ñı": 6725,
      "rel": 6726,
      "ĠÐ¾ÑĪÐ¸Ð±ÐºÐ°": 6727,
      "ĠÐ°Ð¿Ð¿": 6728,
      "ĠÐ¿ÐµÑĩ": 6729,
      "Ġwho": 6730,
      "Ġnecess": 6731,
      "ĠÐ°Ð²ÑĤÐ¾Ð¼Ð°ÑĤÐ¸ÑĩÐµÑģÐºÐ¸": 6732,
      "ĠÑģÑĥ": 6733,
      "Ġbl": 6734,
      "rap": 6735,
      "ĠÑĨÐ²ÐµÑĤÐ¾Ð²": 6736,
      "Ġsteps": 6737,
      "ĠÐ¿Ð¾Ð²Ñģ": 6738,
      "cio": 6739,
      "Ġpip": 6740,
      "Ġsuper": 6741,
      "96": 6742,
      "Ð»ÑİÐ´Ð°": 6743,
      "ĠÐ±Ð¾Ð»ÑĮÑĪÐ¸Ðµ": 6744,
      "oper": 6745,
      "ĠÐ¿ÑĢÐ¾ÑĨÐµÑģÑģÑĭ": 6746,
      "ĠQuest": 6747,
      "score": 6748,
      "create": 6749,
      "ĠÐ½Ð°Ð·Ð²Ð°Ð½Ð¸Ðµ": 6750,
      "Ġbeen": 6751,
      "ĠÐ²Ð²Ð¾Ð´Ð°": 6752,
      "æĸ": 6753,
      "ĠÐ°Ð¼": 6754,
      "ouse": 6755,
      "ĠÐ³Ð¾ÑģÑĥÐ´Ð°ÑĢÑģÑĤÐ²ÐµÐ½": 6756,
      "Ð´Ð»Ñı": 6757,
      "ĠÐ¾Ð±ÑīÐµÐ¹": 6758,
      "wn": 6759,
      "ĠÐ¿ÑĢÐ°Ð²Ð¸ÑĤÐµÐ»ÑĮ": 6760,
      "ÑģÑĤÑĢÐ¾Ðº": 6761,
      "unt": 6762,
      "racy": 6763,
      "ĠÑĢÐµÐ°Ð³": 6764,
      "ĠÑĢÑĭÐ½ÐºÐ°": 6765,
      "ead": 6766,
      "Ð¾Ð±Ð»ÐµÐ¼": 6767,
      "Ġpop": 6768,
      "ĠÐ¿Ð»Ð°Ð²": 6769,
      "mark": 6770,
      "Ġ28": 6771,
      "ĠÐ½Ð¾Ð²ÑĥÑİ": 6772,
      "ĠÐ¸Ð½ÑĤÐµÑĢÑĦÐµÐ¹Ñģ": 6773,
      "Ð¾ÑĢÐ¸Ñı": 6774,
      "Ġcell": 6775,
      "use": 6776,
      "root": 6777,
      "ÐµÐ²ÐµÑĢ": 6778,
      "ĠÐ¿Ð¾ÑĪ": 6779,
      "Ġever": 6780,
      "ĠÑĥÐ²Ð¸Ð´ÐµÑĤÑĮ": 6781,
      "Ġwell": 6782,
      "ÐĴÐ¾": 6783,
      "ĠList": 6784,
      "ERT": 6785,
      "args": 6786,
      "ĠÐ¾Ð±ÑĢÐ°Ð·Ð¾Ð²Ð°Ð½Ð¸Ñı": 6787,
      "Ð¾Ð»Ð¾Ð³Ð¸Ñı": 6788,
      "ĠÐ´Ð»Ð¸Ð½Ð¾Ð¹": 6789,
      "Ġshow": 6790,
      "IG": 6791,
      "Ð²ÐµÑĢÐ´": 6792,
      "ĠÐ¿Ð¾ÑĤÐµÐ½ÑĨÐ¸": 6793,
      "ĠÑĤÐ¾Ð¿Ð»Ð¸Ð²": 6794,
      "Ð²Ð¸Ð¶": 6795,
      "column": 6796,
      "Ð»Ð¾Ð¶Ð¸ÑĤÐµ": 6797,
      "ĠÐ¿ÑĢÐµÐ´ÑģÑĤÐ°Ð²Ð»ÐµÐ½Ð¸Ñı": 6798,
      "ĠÐ¾ÑĩÐµÑĢÐµÐ´ÑĮ": 6799,
      "ĠJavaScript": 6800,
      "ÑĭÐ²Ð°Ð½Ð¸Ñı": 6801,
      "Ð¡Ð¾Ð·Ð´Ð°Ð½Ð¸Ðµ": 6802,
      "lish": 6803,
      "Ġway": 6804,
      "ĠSon": 6805,
      "ÑĥÐ»ÑıÑĨÐ¸Ð¸": 6806,
      "ÑĭÑĩÐ¸Ñģ": 6807,
      "Ð»Ð°Ð³Ð¾Ð´": 6808,
      "ĠÐ½Ð°ÑĩÐ¸Ð½Ð°ÐµÑĤÑģÑı": 6809,
      "ĠÑģÐ°Ð´": 6810,
      "ÑĭÑĪÐ»ÐµÐ½": 6811,
      "Ġplt": 6812,
      "31": 6813,
      "mu": 6814,
      "ÐºÑĥÑİ": 6815,
      "ĠÐ±ÐµÐ´": 6816,
      "ĠÑĤÐ¾ÑĩÐ½Ð¾ÑģÑĤÑĮ": 6817,
      "ĠÑħÐ¾ÑĩÐµÑĤ": 6818,
      "ĠDocker": 6819,
      "Ġtraining": 6820,
      "ĠÐ¾ÑĢÐ¸ÐµÐ½ÑĤ": 6821,
      "ĠÐ¶ÐµÑģÑĤ": 6822,
      "ÐĴÑħÐ¾Ð´Ð½ÑĭÐµ": 6823,
      "pected": 6824,
      "eep": 6825,
      "ĠÐ¾ÑĤÐ´ÐµÐ»": 6826,
      "ĠÐ²ÐµÑĢÑģÐ¸Ð¸": 6827,
      "Ġenerg": 6828,
      "ĠÐ¿ÐµÑĢÐµÐ¼ÐµÑī": 6829,
      "ĠÐ»ÐµÑĩÐµÐ½Ð¸Ñı": 6830,
      "Ð²Ð¾Ð»Ñİ": 6831,
      "ĠÑĤÐ¸Ð¿Ð¾Ð²": 6832,
      ")\\).": 6833,
      "ĠÑįÐºÐ¾ÑģÐ¸ÑģÑĤÐµÐ¼": 6834,
      "ĠÐºÐ¾ÑģÐ¼": 6835,
      "åĲ": 6836,
      "Ġdeter": 6837,
      "ouble": 6838,
      "torch": 6839,
      "ĠDes": 6840,
      "ĠÑĦÐ¾ÑĢÐ¼Ðµ": 6841,
      "duction": 6842,
      "ĠÐ¾Ð±Ð½Ð¾Ð²Ð»ÐµÐ½Ð¸Ñı": 6843,
      "We": 6844,
      "aut": 6845,
      "ĠÐ¿ÑĢÐµÐ´ÑģÑĤÐ°Ð²Ð»ÐµÐ½Ð¸Ðµ": 6846,
      "ĠÐ½Ð°Ð²ÑĭÐºÐ¾Ð²": 6847,
      "ĠÑĢÐµÐºÐ¾Ð¼ÐµÐ½Ð´ÑĥÐµÑĤÑģÑı": 6848,
      "ension": 6849,
      "Ġusers": 6850,
      "ĠÐ¼Ð°ÑĤÐµÑĢÐ¸Ð°Ð»Ñĭ": 6851,
      "ategory": 6852,
      "ĠÐ·Ð´ÑĢÐ°Ð²Ð¾Ð¾ÑħÑĢÐ°Ð½": 6853,
      "dp": 6854,
      "ĠÐ¾ÐºÐµ": 6855,
      "ĠÑĥÐ¶": 6856,
      "Ġsal": 6857,
      "Ð°ÑĤÐµÐ»ÑĮÐ½ÑĭÐ¼": 6858,
      "ĠÐ¿ÑĢÐ°Ð²Ð¸Ð»Ð°": 6859,
      "ĠÑģÐ¾ÑĢ": 6860,
      "Ġdon": 6861,
      "ĠÑĢÐ°Ð·ÑĢÑĥÑĪ": 6862,
      "ĠÐ¾Ð±ÑīÐµÐ½Ð¸Ñı": 6863,
      "ĠÐ¾Ð±Ð»ÐµÐ³Ñĩ": 6864,
      "Lo": 6865,
      "ĠÑĤÑī": 6866,
      "ĠÑĪÑĥÐ¼": 6867,
      "Ġadv": 6868,
      "La": 6869,
      "Ð°Ð½Ðµ": 6870,
      "ÐŀÑĤÐ²ÐµÑĩÐ°Ð¹": 6871,
      "ĠÑĥÐ³ÑĢÐ¾Ð·": 6872,
      "CE": 6873,
      "Ð°Ð´Ð°Ñĩ": 6874,
      "Ġindivid": 6875,
      "Sh": 6876,
      "ĠÐ´Ð»": 6877,
      "Ġdp": 6878,
      "Ġfeatures": 6879,
      "ÑįÑĤ": 6880,
      "task": 6881,
      "ĠÐ°Ð»Ð³Ð¾ÑĢÐ¸ÑĤÐ¼Ñĭ": 6882,
      "ĠÐ¸Ð½ÑĦÑĢÐ°ÑģÑĤÑĢÑĥÐºÑĤ": 6883,
      "ĠÑĦÑĢÑĥÐºÑĤ": 6884,
      "ĠÐ·Ð°ÑģÑĤÐ°Ð²": 6885,
      "ense": 6886,
      "Ð½Ð°ÑĩÐµ": 6887,
      "ĠÐ¾Ð¿Ñĭ": 6888,
      "Ġcontrol": 6889,
      "'].": 6890,
      "âĪĴ": 6891,
      "Ġpotential": 6892,
      "ĠÐ¾Ð±Ð¾": 6893,
      "ĠÐºÐ¾Ð½ÑĤÑĢÐ¾Ð»Ñı": 6894,
      "Ġhealth": 6895,
      "ĠÐºÐ»Ð°ÑģÑģÐ¸ÑĦÐ¸ÐºÐ°ÑĨÐ¸Ð¸": 6896,
      "Ð½Ð¾ÑģÑĤÑıÐ¼": 6897,
      "ribute": 6898,
      "ĠÐ°Ð»ÑĮÑĤÐµÑĢÐ½Ð°ÑĤÐ¸Ð²": 6899,
      "Ġconf": 6900,
      "ÐµÐ¹Ð´": 6901,
      "ĠÐ²Ð¾Ð·Ð¼Ð¾Ð¶Ð½Ð¾ÑģÑĤÐµÐ¹": 6902,
      "Ġorgan": 6903,
      "Ð¸ÑĢÐ¾Ð²Ð°Ð½Ð½ÑĭÐµ": 6904,
      "ĠÐ´ÑĢÑĥÐ·ÐµÐ¹": 6905,
      "ĠÐ¾Ð±ÑģÐ»ÑĥÐ¶Ð¸Ð²Ð°Ð½Ð¸Ñı": 6906,
      "ĠÐ¿ÑĥÐ½ÐºÑĤ": 6907,
      "ÑĢÐµÑĤ": 6908,
      "ÐµÑĢÐ½": 6909,
      "ĠÐ¿ÑĢÐµÐ´Ð²Ð°ÑĢ": 6910,
      "ĠÐ½Ð¸Ð¶Ðµ": 6911,
      "char": 6912,
      "Ð¸ÑĢÐ¾Ð²Ð°Ð½Ð½ÑĭÑħ": 6913,
      ")\\),": 6914,
      "Ġpage": 6915,
      "ÑĢÐ¸ÑĦÐ¼ÐµÑĤ": 6916,
      "Ġrepresent": 6917,
      "ĠÐ²Ð¿Ð¸Ñģ": 6918,
      "ĠÐ¿Ð¾ÑĤÑĢÐµÐ±ÑĥÐµÑĤÑģÑı": 6919,
      "ĠÑĢÐ°ÑģÑģÑĤÐ¾ÑıÐ½Ð¸Ñı": 6920,
      "ĠÑĤÐ¾Ð²Ð°ÑĢÐ¾Ð²": 6921,
      "ĠÑģÑĤÐ°Ð»Ðº": 6922,
      "node": 6923,
      "Ġsuccess": 6924,
      "ĠÐºÐ¾Ð¼Ð¼ÑĥÐ½Ð¸Ðº": 6925,
      "tern": 6926,
      "param": 6927,
      "ĠÑĢÐ°ÑģÑĤÐµÐ½Ð¸Ð¹": 6928,
      "Ð¾Ð±ÑĢÐµÑĤ": 6929,
      "ĠÑģÐ¸ÑĤÑĥÐ°ÑĨÐ¸Ñı": 6930,
      "Ġversion": 6931,
      "ĠÐ½ÑĢÐ°Ð²": 6932,
      "ĠÐ»ÑİÐ±ÑĭÑħ": 6933,
      "Ġdim": 6934,
      "Ġdei": 6935,
      "ember": 6936,
      "inux": 6937,
      "Ð°ÐºÐ°": 6938,
      "ÑİÐ¹": 6939,
      "ĠÐľÐ¾Ð´": 6940,
      "ĠÐ¿ÑĢÐ¸Ð¼ÐµÑĢÐ¾Ð²": 6941,
      "ĠURL": 6942,
      "ĠÑĤÑĢÐµÑĥÐ³Ð¾Ð»ÑĮÐ½Ð¸ÐºÐ¾Ð²": 6943,
      "ĠÐºÐ¾Ð½ÐºÑĢÐµÑĤÐ½ÑĭÐµ": 6944,
      "ĠÐ¸ÑĤÐ¾Ð³Ðµ": 6945,
      "draw": 6946,
      "ÑģÐµÐ³Ð´Ð°": 6947,
      "info": 6948,
      "Qu": 6949,
      "find": 6950,
      "ĠÑĤÐ°ÐºÐ°Ñı": 6951,
      "ĠÐ¾ÑģÐ¸": 6952,
      "ĠÐ½Ð°ÑħÐ¾Ð´Ð¸Ð¼": 6953,
      "Ġpower": 6954,
      "Ð¸ÐºÐ°Ð½": 6955,
      "ism": 6956,
      "ĠÐ¿ÑĢÐµÐ´Ð¾ÑĤÐ²": 6957,
      "API": 6958,
      "ĠÐ¾Ð±Ð¸ÑĤ": 6959,
      "ĠÑįÐ»": 6960,
      "Ġ22": 6961,
      "ÑĪÐ¸Ð±ÐºÐ°": 6962,
      "ailable": 6963,
      "ĠÐ½Ð°Ð½": 6964,
      "ÑįÐ´": 6965,
      "Ġchall": 6966,
      "Ð°ÑİÑģÑĮ": 6967,
      "ÑģÐ¸Ð½": 6968,
      "Ġstand": 6969,
      "Ð°ÑĨÐ¸Ð¾Ð½Ð½Ð¾Ð¹": 6970,
      "ĠÐ³Ð°ÑĢÐ¼Ð¾Ð½": 6971,
      "Ġpoints": 6972,
      "nt": 6973,
      "Ġide": 6974,
      "Ġlanguage": 6975,
      "ils": 6976,
      "Ð¡Ð¢": 6977,
      "ĠÐŀÑĤÐºÑĢ": 6978,
      "Ð¾ÑĤÐ¾Ð¹": 6979,
      "Ð¾Ð±Ð½Ð¾Ð²Ð»ÑıÐµÐ¼": 6980,
      "Ġdet": 6981,
      "ramework": 6982,
      "ĠÐ¿ÐµÑĢÐ¿ÐµÐ½Ð´Ð¸ÐºÑĥÐ»ÑıÑĢ": 6983,
      "ĠÐ·Ð°ÑıÐ²": 6984,
      "ĠÑįÑĤÐ¾Ð¼Ñĥ": 6985,
      "ĠÐ²ÑĭÑĢÐ°Ð·Ð¸ÑĤÑĮ": 6986,
      "ĠÐ·Ð°Ð³Ð¾Ð»Ð¾Ð²": 6987,
      "ĠÑĤÐµÑĢÑĢ": 6988,
      "ÐŀÐĶ": 6989,
      "ĠWindows": 6990,
      "Ġcombin": 6991,
      "ĠÐ¾ÑģÑĤÐ°ÑĤÐ¾Ðº": 6992,
      "bject": 6993,
      "ĠÑĥÑħÐ¾Ð´": 6994,
      "ĠÑĢÑı": 6995,
      "Ð¸ÐºÐ°Ð¼Ð¸": 6996,
      "ĠÐĿÐµÑĤ": 6997,
      "Ġlay": 6998,
      "ocket": 6999,
      "Ġvol": 7000,
      "less": 7001,
      "ĠÐ¾ÑĤÐ²ÐµÑĤÑĭ": 7002,
      "ĠÐ¼ÐµÑĢÑĭ": 7003,
      "ĠÑįÐºÑģÐ¿ÐµÑĢÐ¸Ð¼ÐµÐ½ÑĤ": 7004,
      "nown": 7005,
      "ĠÐ¡Ð¾Ð±": 7006,
      "Ġ500": 7007,
      "ÑĩÐ¸ÐºÐ°": 7008,
      "ÑĪÐµÐ±": 7009,
      "ÐµÐ·ÑĥÐ»ÑĮÑĤÐ°ÑĤ": 7010,
      "Ġaddress": 7011,
      "ÑģÐµÑĢ": 7012,
      "Ġlevel": 7013,
      "ĠÐ¿Ð¾Ð´Ð´ÐµÑĢÐ¶Ð¸Ð²Ð°ÐµÑĤ": 7014,
      "ĠÐĴÐ¾Ð·Ð¼Ð¾Ð¶": 7015,
      "ÐµÐ²Ð¾Ð´": 7016,
      "Ð»ÐµÐ½Ð¾": 7017,
      "Ġsoft": 7018,
      "ÑĥÐ´ÑĢ": 7019,
      "ĠÐĺÐ¼": 7020,
      "ĠÐºÐ¾Ð¼ÑĦÐ¾ÑĢÑĤ": 7021,
      "ĠÐŁÐ¾Ð´ÑħÐ¾Ð´": 7022,
      "Line": 7023,
      "Ġ,": 7024,
      "Ð»ÐµÑĩÑĮ": 7025,
      "ĠÐ¸Ð·Ð±ÐµÐ³": 7026,
      "ĠÑģÐ¿ÑĢÐ°Ð²ÐµÐ´Ð»Ð¸Ð²": 7027,
      "Ġnumpy": 7028,
      "ĠUs": 7029,
      "Ð¸ÑĦÐ¸ÐºÐ°ÑĨÐ¸Ñı": 7030,
      "bl": 7031,
      "ĠÐ´ÐµÑĢÐ¶": 7032,
      "ÑģÐºÐ¾Ð»ÑĮÐºÐ¾": 7033,
      "her": 7034,
      "Ð¸Ð³Ð¸Ð½": 7035,
      "ife": 7036,
      "ÑĥÐ»ÑıÑĤÐ¾ÑĢ": 7037,
      "å¤": 7038,
      "ĠÐ¿ÑĢÐ¸Ð¾ÑĢÐ¸ÑĤ": 7039,
      "âĢ¢": 7040,
      "ĠÐ¼Ð°ÐºÑģÐ¸Ð¼Ð°Ð»ÑĮÐ½Ð¾": 7041,
      "];": 7042,
      "ĴĮ": 7043,
      "example": 7044,
      "ĠÐ²Ð°Ð¶Ð½ÑĭÐ¼": 7045,
      "ĠÐ³ÑĢÐ°Ð¼": 7046,
      "ĠÐĴÑĤÐ¾ÑĢ": 7047,
      "Ġoften": 7048,
      "ĠPl": 7049,
      "__(": 7050,
      "ĠÐ´ÑĭÑħ": 7051,
      "ĠÐ²Ð¸Ð´Ñĭ": 7052,
      "Ġdelle": 7053,
      "ĠTrans": 7054,
      "ĠÑĤÑĢÐµÐ±Ð¾Ð²Ð°Ð½Ð¸Ð¹": 7055,
      "ĠÐ³ÐµÐ¾Ð¼ÐµÑĤÑĢ": 7056,
      "ĠÑĥÑĤÐ¾Ñĩ": 7057,
      "ĠÐ¥Ð¾ÑĤÑı": 7058,
      "ĠÑĢÑıÐ´Ð¾Ð¼": 7059,
      "ĠÐ²Ð¾Ð²": 7060,
      "ances": 7061,
      "etch": 7062,
      "ĠID": 7063,
      "assword": 7064,
      "ĠÐºÐ¾ÑĦ": 7065,
      "ĠÐ½Ð°ÑĢ": 7066,
      "Ġrespon": 7067,
      "ĠÐ¿ÑĢÐµÐ¾Ð±ÑĢÐ°Ð·Ð¾Ð²Ð°Ð½Ð¸Ñı": 7068,
      "ĠÑģÑĩÐ¸ÑĤÐ°ÐµÑĤÑģÑı": 7069,
      "ĠÑħÐ¾ÑĩÑĥ": 7070,
      "ÑĢÐ°Ð·Ñĥ": 7071,
      "Ð¸ÑĤÐµÐ»ÐµÐ¼": 7072,
      "ĠÐºÐ¾Ð½ÑĤÐµÐ½ÑĤÐ°": 7073,
      "Ġlibr": 7074,
      "ĠÑģÐ°Ñħ": 7075,
      "Ġbi": 7076,
      "ĠÐ¾ÑģÐ¾Ð·Ð½": 7077,
      "ĠÐ²Ð¾Ð»Ð½": 7078,
      "ĠÑģÑĤÑĢÑĥÐºÑĤÑĥÑĢÐ°": 7079,
      "Ð°ÐµÐ¼ÑĭÐµ": 7080,
      "ĠÐ¿Ð¾Ð²ÑĢÐµÐ¶Ð´": 7081,
      "ĠÐĴÐ½": 7082,
      "ĠÐ¿ÑĢÐ¸ÐºÐ»ÑİÑĩ": 7083,
      "Ġanswer": 7084,
      "åŃ": 7085,
      "åĴĮ": 7086,
      "Ð¸Ð¼ÑĥÐ¼": 7087,
      "Ð°ÑģÑģÐ¸Ð²": 7088,
      "opy": 7089,
      "Ġserver": 7090,
      "ÐłÐ°ÑģÑģÐº": 7091,
      "Ġinvest": 7092,
      "ĠÐ¾Ð±ÑīÑĥÑİ": 7093,
      "Ġbefore": 7094,
      "ĠÑĦÐ°ÐºÑĤÐ¾ÑĢÑĭ": 7095,
      "Ð¸ÑĩÐ½Ð¾ÑģÑĤÑĮ": 7096,
      "Ġfocus": 7097,
      "ÐĴÐ°Ð¶Ð½Ð¾": 7098,
      "Ð¸Ð³Ð¸": 7099,
      "Ð°Ð·Ð²Ð°Ð½Ð¸Ðµ": 7100,
      "Ð½Ð¸ÐºÐ°Ð¼Ð¸": 7101,
      "ĠÐŁÑĢÐ¾Ð²ÐµÑĢÑĮÑĤÐµ": 7102,
      "UR": 7103,
      "ĠÐ¸Ð½ÑĤÐµÑĢÐ½ÐµÑĤ": 7104,
      "ĠÐºÐ¾ÑĢÑĢÐµÐºÑĤÐ½Ð¾": 7105,
      "ĠÐºÐ¾Ð½ÑĦÐ¸Ð³ÑĥÑĢÐ°ÑĨÐ¸Ð¸": 7106,
      "ĠÐ±Ð°ÑĤ": 7107,
      "Ð°ÑĢÐµ": 7108,
      "ĠÐ¿Ð¾ÑħÐ¾Ð¶": 7109,
      "ee": 7110,
      "Ð¾Ð»ÑİÑĤ": 7111,
      "ĠÑĢÐ°Ð·Ð»Ð¾Ð¶": 7112,
      "Ð¸ÑĢÐ¾Ð²Ð°Ð½Ñĭ": 7113,
      "ĠÐ¾Ð·": 7114,
      "({": 7115,
      "Request": 7116,
      "Ġbeh": 7117,
      "ĠÐ±Ð¾Ð»ÑĮ": 7118,
      "ĠÐ¾Ð´Ð½": 7119,
      "Ġpossible": 7120,
      "Ð½Ð¾Ñĩ": 7121,
      "Ġsit": 7122,
      "ĠLo": 7123,
      "ÑıÐ¹ÑĤÐµ": 7124,
      "ĠÐ´ÑĥÑħÐ¾Ð²": 7125,
      "Ġunique": 7126,
      "iction": 7127,
      "ĠÐ¾Ð¿ÑĭÑĤÐ°": 7128,
      "ĠÐ¿Ð¾Ð¶Ð°Ð»ÑĥÐ¹ÑģÑĤÐ°": 7129,
      "pmod": 7130,
      "pec": 7131,
      "Int": 7132,
      "ĠÐ·Ð°Ð±Ð¾Ð»ÐµÐ²Ð°Ð½Ð¸Ð¹": 7133,
      "Ð²ÑĢÐ¾Ð¿": 7134,
      "ĠÐ¸ÑģÑĩ": 7135,
      "ĠÑĥÐ»ÑĭÐ±": 7136,
      "next": 7137,
      "ffer": 7138,
      "ÑıÐ½Ð¸Ñı": 7139,
      "ĠÐ·Ð½Ð°ÑĤÑĮ": 7140,
      "ĠÐ²ÐµÐ»": 7141,
      "ĠÐ±ÑĢÐ¾Ñģ": 7142,
      "ÐµÐ·Ð¾Ð¿Ð°Ñģ": 7143,
      "ĠÐ¿Ð¾Ð´Ð¼Ð½Ð¾Ð¶": 7144,
      "ĠÐ¾Ð¿ÑĢÐµÐ´ÐµÐ»ÐµÐ½Ð½ÑĭÑħ": 7145,
      "ĠGPT": 7146,
      "ĠÑģÐµÐ¹ÑĩÐ°Ñģ": 7147,
      "Ð¾Ð¿ÑĢÐµÐ´ÐµÐ»": 7148,
      "uthor": 7149,
      "ĠÑĢÐ°ÑģÑħÐ¾Ð´Ñĭ": 7150,
      "Ġroot": 7151,
      "Add": 7152,
      "UN": 7153,
      "Ð°Ð½Ð½Ð¾ÑģÑĤÐ¸": 7154,
      "ÑıÑģÑĮ": 7155,
      "ĠÑģÐ¾Ð·Ð´Ð°": 7156,
      "Ð¼Ð¾": 7157,
      "Ġrem": 7158,
      "ĠÑģÐºÐ¾Ð±": 7159,
      "Ð¼Ð¾ÑĤÑĢÐ¸ÑĤÐµ": 7160,
      "Ġtak": 7161,
      "ĠÐ±Ð°Ðº": 7162,
      "ĠÐºÐ¾ÑĤÐ¾ÑĢÑĭÐ¼Ð¸": 7163,
      "ÑĥÑģÑĤÐ¸ÑĤÐµ": 7164,
      "duce": 7165,
      "jor": 7166,
      "Ð¼Ð¾ÑĤ": 7167,
      "Ġfut": 7168,
      "ĠÑģÐ°Ð¼Ð¾Ð¼": 7169,
      "ĠÐ¿ÑıÑĤ": 7170,
      "ĠÐ½ÐµÐ¶": 7171,
      "Ð½Ð¸ÐºÐ¾Ð¼": 7172,
      "ĠÐ´ÑĢÑĥÐ³Ð¾Ð³Ð¾": 7173,
      "ĠÑĤÑĢÐµÐ±ÑĥÑİÑĤ": 7174,
      "ĠÐ¾ÑĨÐµÐ½Ð¸ÑĤÑĮ": 7175,
      "ĠÐ¾ÑĤÐ½Ð¾ÑĪÐµÐ½Ð¸Ð¹": 7176,
      "ffect": 7177,
      "ĠÑĩÑĥÐ²ÑģÑĤÐ²Ð¾": 7178,
      "arm": 7179,
      "ĠÐºÐ¾Ð¼Ð½Ð°ÑĤ": 7180,
      "ĠÐ²Ð¾Ð·Ð²ÑĢÐ°ÑīÐ°ÐµÑĤ": 7181,
      "site": 7182,
      "ĠÐ²Ð°ÑĪÐ¸Ð¼": 7183,
      "ABC": 7184,
      "Ġgenerate": 7185,
      "ÐµÐ²Ð°Ñı": 7186,
      "dat": 7187,
      "Ð¾ÐµÐ´Ð¸Ð½": 7188,
      "ĠÐ²Ð°ÑĪÐµÐ¼Ñĥ": 7189,
      "ĠÐ¿ÑĢÐµÐ´Ð»Ð¾Ð¶Ð¸ÑĤÑĮ": 7190,
      "ules": 7191,
      "ĠÑģÐ°Ð¼Ð¾": 7192,
      "ÑĥÐ»Ð¸ÑĢÐ¾Ð²Ð°ÑĤÑĮ": 7193,
      "ĠÐľÐ¾Ð¶ÐµÑĤ": 7194,
      "CP": 7195,
      "des": 7196,
      "fect": 7197,
      "public": 7198,
      "ĠÐ¿ÑĢÐ¾Ðº": 7199,
      "Ð¸Ð½Ð¾Ð¹": 7200,
      "ĠÐ³Ð¸Ð´": 7201,
      "ĠÑģÐ¾Ð±Ð¸ÑĢ": 7202,
      "Ġdisplay": 7203,
      "Ġdoc": 7204,
      "Ð°ÑĢÐ¸Ð¹": 7205,
      "ĠÑģÐ²ÑıÐ·Ð°Ð½Ñĭ": 7206,
      "ĠÐ¿ÑĤÐ¸": 7207,
      "ĠÐ°ÑĢÐ¸ÑĦÐ¼ÐµÑĤ": 7208,
      "Ð¸Ð´ÐµÐ½ÑĨÐ¸Ð°Ð»ÑĮ": 7209,
      "Ġgr": 7210,
      "Ġfiles": 7211,
      "anced": 7212,
      "Ð¸Ð¼Ð¾Ðµ": 7213,
      "Ġpython": 7214,
      "Ġ35": 7215,
      "ĠÐŃÐº": 7216,
      "ified": 7217,
      "eces": 7218,
      "ĠÑģÑĤÑĥÐ´ÐµÐ½ÑĤÐ¾Ð²": 7219,
      "Ġalgorith": 7220,
      "ĠÑĩÐ°ÑĤ": 7221,
      "ÑĭÐ²Ð°Ð½Ð¸Ðµ": 7222,
      "ĠGit": 7223,
      "Ġ...,": 7224,
      ")--(": 7225,
      "FT": 7226,
      "ium": 7227,
      "older": 7228,
      "Ð°ÑĤÐµÐ»ÑĮÐ½Ð¾Ð¹": 7229,
      "ĠÐºÐ¾ÑĢÐ½ÐµÐ¹": 7230,
      "ĠÑħÐ°ÑĢÐ°ÐºÑĤÐµÑĢÐ¸ÑģÑĤÐ¸ÐºÐ¸": 7231,
      "triangle": 7232,
      "Ġprivate": 7233,
      "Ġpod": 7234,
      "Ġsearch": 7235,
      "ĠVal": 7236,
      "ĠÐ¿Ð¾Ð²ÑģÐµÐ´Ð½ÐµÐ²": 7237,
      "FS": 7238,
      "ĠÑģÑĤÐ°Ð»Ð¸": 7239,
      "ĠÐ¼Ð¾Ð¼ÐµÐ½ÑĤÑĭ": 7240,
      "Ġ['": 7241,
      "ĠÑģÐ»Ð¾Ð¶Ð½Ð¾": 7242,
      "ĠÐ°Ð»Ð³Ð¾ÑĢÐ¸ÑĤÐ¼Ð¾Ð²": 7243,
      "ĠÐ±ÑĭÑģÑĤÑĢÐµÐµ": 7244,
      "Ġder": 7245,
      "Ġ23": 7246,
      "ÑĢÐ°ÑĥÐ·": 7247,
      "ĠÑĥÐ²ÐµÐ»Ð¸ÑĩÐ¸ÑĤÑĮ": 7248,
      "ĠÐ¼Ð¾Ð»ÐµÐºÑĥÐ»": 7249,
      "ĠÐ¿ÑıÑĤÐ¸": 7250,
      "ĠÑĪÐ°Ð±": 7251,
      "Ð²Ð¸Ð´": 7252,
      "Ð¾Ð²Ð°ÑĤÑĮÑģÑı": 7253,
      "do": 7254,
      "plan": 7255,
      "ĠÐ°Ð»Ð³Ð¾ÑĢÐ¸ÑĤÐ¼Ð°": 7256,
      "ĠÐ¸ÑģÑģÐ»ÐµÐ´Ð¾Ð²Ð°Ð½Ð¸Ð¹": 7257,
      "su": 7258,
      "ÐºÐ°Ð½": 7259,
      "ĠÐ´ÑĢÑĥÐ³Ð¾Ðµ": 7260,
      "Ġerr": 7261,
      "ĠÐ´Ð¾ÐºÐ°Ð·Ð°ÑĤÑĮ": 7262,
      "Ġlocal": 7263,
      "ĠÑĢÐ°ÑģÐ¿Ð¾Ð·Ð½Ð°Ð²": 7264,
      "ÑģÑĤÐ²Ð¸Ð¹": 7265,
      "ĠÐ¸Ð·Ð¼": 7266,
      "Ġdell": 7267,
      "Value": 7268,
      "ps": 7269,
      "ĠCreate": 7270,
      "ĠModel": 7271,
      "Ġ&&": 7272,
      "ĠÐĶÐ°": 7273,
      "Ð°ÐµÐ¼ÑĭÐ¹": 7274,
      "ĠÐ¾Ð±ÐµÑģÐ¿ÐµÑĩÐ¸Ð²Ð°Ñı": 7275,
      "ĠÑĤÐµÐºÑĥÑīÐµÐ¹": 7276,
      "ĠÐ¾Ð±Ð¾ÑĢÑĥÐ´Ð¾Ð²Ð°Ð½Ð¸Ñı": 7277,
      "ãģĻ": 7278,
      "Ġmethods": 7279,
      "ĠÐ½Ð°ÑĩÐ¸Ð½Ð°ÐµÑĤ": 7280,
      "ĠÐµÑģÑĤÐµÑģÑĤÐ²ÐµÐ½Ð½Ð¾Ð³Ð¾": 7281,
      "Ð¾ÑĩÐ½ÑĭÑħ": 7282,
      "soft": 7283,
      "ĠÑģÐ»ÑĥÑĪ": 7284,
      "ĠÐ³Ð¾Ð²Ð¾ÑĢÐ¸ÑĤ": 7285,
      "uro": 7286,
      "Ð»ÐµÐ´Ð¾Ð²Ð°ÑĤÐµÐ»ÑĮ": 7287,
      "ãĥ¼": 7288,
      "Button": 7289,
      "ÑĩÐ¸ÐºÐ¸": 7290,
      "ĠFl": 7291,
      "ĠÐ½Ð°Ð¿Ð¾Ð»Ð½": 7292,
      "neq": 7293,
      "ĠÐŀÑģÐ½Ð¾Ð²Ð½ÑĭÐµ": 7294,
      "AG": 7295,
      "Ġnn": 7296,
      "imal": 7297,
      "Ġlook": 7298,
      "ĠÑĥÐ²ÐµÑĢÐµÐ½": 7299,
      "Ð¼ÐµÑĪ": 7300,
      "ĠÑģÐµÑĤÑıÑħ": 7301,
      "ÐŁÐµÑĢÐ²Ð°Ñı": 7302,
      "ĠÑĢÐµÐ²Ð¾Ð»Ñİ": 7303,
      "ĠÐ¿ÑĢÐµÐ´Ð¾ÑĤÐ²ÑĢÐ°ÑĤÐ¸ÑĤÑĮ": 7304,
      "ĠÐ½Ð°ÑħÐ¾Ð¶Ð´ÐµÐ½Ð¸Ñı": 7305,
      "Ð¹ÑĤÐµÑģÑĮ": 7306,
      "ĠÐ¾ÐºÐ¾Ð½Ñĩ": 7307,
      "Ġsug": 7308,
      "ĠÑĥÐ´Ð°Ð»ÐµÐ½Ð¸Ñı": 7309,
      "ĠÐºÑĢÐµÐ´Ð¸ÑĤ": 7310,
      "pu": 7311,
      "ĠÑģÐ¶": 7312,
      "ĠÑĩÐ¸ÑģÐ»Ð°Ð¼Ð¸": 7313,
      "trained": 7314,
      "nn": 7315,
      "Ð°Ð½Ð¸ÑĢÑĥ": 7316,
      "49": 7317,
      "Ġ($": 7318,
      "ĠcÃ³": 7319,
      "Ġai": 7320,
      "odes": 7321,
      "ĠÐ²ÐµÑĢÐ½Ð¾": 7322,
      "actions": 7323,
      "ĠÑĦÐ¾ÑĢÐ¼ÑĥÐ»Ðµ": 7324,
      "ĠÐ¿Ð¾ÑģÐ»ÐµÐ´Ð½Ð¸Ðµ": 7325,
      "ĠÐ¿ÑĢÐ¾ÑĤÐ¸Ð²Ð¾Ð¿Ð¾Ð»Ð¾Ð¶": 7326,
      "ĠÐ¡ÐµÑĢ": 7327,
      "ĠÑģÐ¾ÐºÑĢÐ°ÑĤÐ¸ÑĤÑĮ": 7328,
      "words": 7329,
      "Token": 7330,
      "cer": 7331,
      "stru": 7332,
      "etime": 7333,
      "ĠSS": 7334,
      "Ġgame": 7335,
      "ĠÑĢÐ°ÑģÐ¿ÑĢÐµÐ´ÐµÐ»ÐµÐ½Ð¸Ðµ": 7336,
      "ĠÑįÐ»ÐµÐºÑĤÑĢÐ¾Ð½Ð½Ð¾Ð¹": 7337,
      "[]": 7338,
      "ĠÑģÑĢÐ°Ð·Ñĥ": 7339,
      "ĠÐŀÑģ": 7340,
      "ĠÐ²Ð°Ð¶Ð½ÑĭÑħ": 7341,
      "Ð°Ð²Ð°Ð¹": 7342,
      "ĠÐºÐ¾Ð½ÐµÑĩÐ½Ð¾Ð¼": 7343,
      "ĠÑĤÐ¾ÑĢÐ³Ð¾Ð²": 7344,
      "align": 7345,
      "ĠÐ²ÐµÑĢÑĤÐ¸Ðº": 7346,
      "Ð½Ð¸ÑĨÐ¸Ð°Ð»Ð¸Ð·Ð°ÑĨÐ¸Ñı": 7347,
      "ĠÐ´Ð°Ð½Ð½Ð¾Ð¹": 7348,
      "Ġcho": 7349,
      "Ð°Ð½ÑĩÐ¸Ð²": 7350,
      "ello": 7351,
      "ĠÑĦÐ¸ÐºÑģ": 7352,
      "ĠÑĢÐ°Ð·Ð±ÐµÑĢ": 7353,
      "chie": 7354,
      "ÑĩÑĤÐ¾": 7355,
      "Ð¾Ð²Ð°Ð»": 7356,
      "ĠÐ¿Ð¾Ð»ÐµÐ·Ð½Ð¾": 7357,
      "Sc": 7358,
      "ĠÑıÐ¹": 7359,
      "ĠApp": 7360,
      "}-": 7361,
      "ĠÐ¿Ð¾ÑģÐµÑĤ": 7362,
      "ÑĢÐ¾ÑĪ": 7363,
      "ĠÑĤÐµÐºÑĥÑīÐµÐ³Ð¾": 7364,
      "ĠÐºÐ»ÐµÑĤÐ¾Ðº": 7365,
      "ĠÑģÐ¸Ð¼Ð¿": 7366,
      "Ġimportant": 7367,
      "ÑĥÐºÐ°": 7368,
      "Ð¾Ð¿Ð¾Ð»Ð½Ð¸ÑĤÐµÐ»ÑĮ": 7369,
      "ĠÐ¾ÑĤÑģÐ¾ÑĢÑĤ": 7370,
      "ĠÐ¿ÑĢÐ¾Ð³ÑĢÐ°Ð¼Ð¼Ñĥ": 7371,
      "request": 7372,
      "Ġcontinue": 7373,
      "ĠÐ³ÑĢÐ°Ð²Ð¸ÑĤ": 7374,
      "ĠÑģÐ¾ÑģÑĤÐ¾ÑıÑī": 7375,
      "ĠÐ¿ÑĢÐ¸Ð·Ð½Ð°ÐºÐ¾Ð²": 7376,
      "iche": 7377,
      "?**": 7378,
      "ration": 7379,
      "Ð´Ð°ÑİÑī": 7380,
      "Ð¸Ð¿ÐµÐ´": 7381,
      "ĠÐºÐ»Ð°Ð²": 7382,
      "ĠÐ¿Ð¾Ð»Ð¾Ð¶Ð¸ÑĤÐµÐ»ÑĮÐ½Ð¾Ðµ": 7383,
      "Ġcru": 7384,
      "ety": 7385,
      "ĠÐºÐ»Ð¸ÐµÐ½ÑĤÐ°": 7386,
      "Ġwords": 7387,
      "fit": 7388,
      "Ġclient": 7389,
      "ĠÑģÐ¿Ð¾ÐºÐ¾Ð¹": 7390,
      "izing": 7391,
      "ĠÑģÐ¸Ð¼Ð²Ð¾Ð»Ñĭ": 7392,
      "ĠÐ³ÑĢÐ°Ð¶Ð´Ð°Ð½": 7393,
      "ULL": 7394,
      "ĠÑĨÐ¸": 7395,
      "Ð¾Ð¶Ð°Ð»ÑĥÐ¹ÑģÑĤÐ°": 7396,
      "asy": 7397,
      "ĠÐµÐ¶": 7398,
      "ĠÑĦÐ¸Ð»ÑĮÑĤÑĢ": 7399,
      "curacy": 7400,
      "Ð¸Ð»ÐµÐ¹": 7401,
      "ĠÐĲÐ»ÐµÐºÑģ": 7402,
      "Ġ64": 7403,
      "âĢĿ": 7404,
      "erc": 7405,
      "ĠÐ·Ð°ÐºÐ°Ð·": 7406,
      "etrics": 7407,
      "ĠÐ½ÑĥÐ»Ñİ": 7408,
      "ÑģÐ¸Ñı": 7409,
      "ĠÑĤÐ¾Ð»": 7410,
      "ĠÑĢÐ°Ð·Ð³Ð¾Ð²": 7411,
      "ĠÐ¿Ð¾ÐºÑĢÑĭÑĤ": 7412,
      "ĠÐ¿ÐµÑĢÐµÐ¼ÐµÐ½Ð½ÑĭÑħ": 7413,
      "Ġmean": 7414,
      "ĠÐ°Ð³": 7415,
      "ÑģÐ¿ÐµÐºÑĤÐ¸Ð²": 7416,
      "ĠÐ²ÑģÐµÐ¹": 7417,
      "dig": 7418,
      "Ġsur": 7419,
      "ĠÐ¸Ð½Ð´Ñĥ": 7420,
      "ĠÑģÐµÐ¼ÑĮÐ¸": 7421,
      "ÑĭÐ»Ð¸": 7422,
      "ÑĢÑĥÑĩ": 7423,
      "85": 7424,
      "ÐĴÑĭÐ²ÐµÐ´Ð¸": 7425,
      "Ð¸Ð¼Ð¸Ð½": 7426,
      "ĠÐ½ÐµÐ¾ÑĤ": 7427,
      "ĠÐŁÐ¾Ð´Ð´ÐµÑĢÐ¶": 7428,
      "random": 7429,
      "ĠÐ¿ÑĢÐ¾Ð½": 7430,
      "ĠÑĥÑĩÐ°ÑģÑĤÐ½Ð¸ÐºÐ¾Ð²": 7431,
      "Ð¿Ð¾Ð»Ð½": 7432,
      "Ð±Ð¸ÑĤ": 7433,
      "ĠÑĢÐµÑģÑĤ": 7434,
      "ĠÐ»ÑĥÑĩ": 7435,
      "ÑĥÑīÐµÑģÑĤÐ²ÑĥÐµÑĤ": 7436,
      "Ġupd": 7437,
      "ertain": 7438,
      "ĠÐºÐ¾Ð¼Ð¿Ð¾Ð½ÐµÐ½ÑĤÐ¾Ð²": 7439,
      "ogn": 7440,
      "Ġprinci": 7441,
      "ĠÑģÐ¼Ð¾Ð¶ÐµÑĤÐµ": 7442,
      "ÐĴÑĭÑĩÐ¸ÑģÐ»ÐµÐ½Ð¸Ðµ": 7443,
      "ĠÑĦÐ¸Ð³": 7444,
      "oding": 7445,
      "Ġprob": 7446,
      "Ġ180": 7447,
      "ĠÐ±Ð»ÑİÐ´": 7448,
      "ÐµÐ¹ÑĤ": 7449,
      "eline": 7450,
      "lick": 7451,
      "ĠÑģÐ¸Ð»ÑĮÐ½Ð¾": 7452,
      "Ġfun": 7453,
      "ĠÑĪÐ°ÑĢ": 7454,
      "ĠÐ¼ÐµÐ´Ð»ÐµÐ½": 7455,
      "ĠÑĥÐ´Ð¾Ð²Ð»ÐµÑĤÐ²Ð¾ÑĢÑıÐµÑĤ": 7456,
      "ĠÐ´Ð¸Ð°Ð³Ð½Ð¾ÑģÑĤ": 7457,
      "ĠÐ²Ð¸ÑĤ": 7458,
      "ĠÐ³Ð°Ð·Ð¾Ð²": 7459,
      "ÑĥÑģÑĤÐ¸ÑĤÑĮ": 7460,
      "Ð¤Ð¾ÑĢÐ¼": 7461,
      "AME": 7462,
      "ename": 7463,
      "learn": 7464,
      "Ð¾Ð¿Ð»": 7465,
      "ÐµÑĩÐ¸ÑģÐ»": 7466,
      "Ð¾ÑĢÐ³": 7467,
      "alle": 7468,
      "ĠÑģÐ»ÐµÐ´ÑĥÑİÑīÐ¸Ñħ": 7469,
      "None": 7470,
      "ounter": 7471,
      "ĠUp": 7472,
      "Ġbackground": 7473,
      "Ġoriginal": 7474,
      "PE": 7475,
      "ĠÐ²ÑĭÐ¶": 7476,
      "ÑĥÑĢÐ½": 7477,
      "ĠÐ¿ÑĢÐ°Ð²Ð¸Ð»Ð¾": 7478,
      "Ð¸Ð»Ð¸Ñı": 7479,
      "Ġservice": 7480,
      "DB": 7481,
      "ives": 7482,
      "ĠÐłÐ°Ð±Ð¾ÑĤ": 7483,
      "ĠÐ¾Ð±ÑĢÐ°ÑĤÐ¸ÑĤÑĮÑģÑı": 7484,
      "ĠÐ±Ð°Ð·Ðµ": 7485,
      "ĠÐ·Ð½Ð°ÐºÐ¾Ð¼": 7486,
      "Ġ`.": 7487,
      "ĠÑĨÐµÐ½Ñĭ": 7488,
      "ĠÐ¿ÑĢÐ¸Ð·Ð½": 7489,
      "Ġmaint": 7490,
      "Ġsocial": 7491,
      "ĠÐĹÐµÐ¼Ð»Ð¸": 7492,
      "ho": 7493,
      "ĠÐ²ÑģÑĤÐ°Ð²": 7494,
      "ÑĢÑĥÐ±": 7495,
      "ai": 7496,
      "ÐµÐºÐ°ÑĢ": 7497,
      "ĠÐ³ÐµÐ½ÐµÑĤ": 7498,
      "77": 7499,
      "ĠÐ½Ð¾Ð²ÑĭÐ¼": 7500,
      "ĠÑĤÑĢÐ°Ð½Ð·Ð°Ðº": 7501,
      "labels": 7502,
      "riter": 7503,
      "æĪ": 7504,
      "ĠÐ²Ð¾Ð´Ñĥ": 7505,
      "Ð°Ð½Ð¸ÑıÐ¼Ð¸": 7506,
      "ĠÐľÐ°ÐºÑģ": 7507,
      "ĠÐ¿ÑĢÐ¾Ð±ÐµÐ»": 7508,
      "ĠÑģÐ¾Ð²Ð¿Ð°Ð´Ð°ÐµÑĤ": 7509,
      "=(": 7510,
      "ĠÑıÐ±Ð»": 7511,
      "ĠÐ¿ÑĢÐ¾ÑĨÐµÐ½ÑĤ": 7512,
      "ĠÐ´Ð²Ð¸Ð¶ÐµÐ½Ð¸Ðµ": 7513,
      "istem": 7514,
      "ĠAnd": 7515,
      "ĠÐ¾Ð±Ð»Ð°ÑģÑĤÑĮ": 7516,
      "ĠÑģÑİÐ¶": 7517,
      "Ġfalse": 7518,
      "Ġafter": 7519,
      "ĠÐ¿ÑĢÐ°Ð·Ð´": 7520,
      "ĠÐ½Ð°ÑģÐºÐ¾Ð»ÑĮÐºÐ¾": 7521,
      "Ġtasks": 7522,
      "ĠÐ¾Ð¿ÑĢÐµÐ´ÐµÐ»ÑıÐµÑĤ": 7523,
      "ĠÐºÐ¾ÑĢÐ¾Ð±": 7524,
      "Ġsimple": 7525,
      "items": 7526,
      "ĠÐ²Ð¾Ð¹Ð½Ñĭ": 7527,
      "ĠSonnet": 7528,
      "tan": 7529,
      "}}\\": 7530,
      "ĠÐ¿Ð¾ÐºÐ°Ð·Ð°ÑĤÑĮ": 7531,
      "ivers": 7532,
      "ĠÐ´Ð¾Ð±Ð°Ð²ÑĮÑĤÐµ": 7533,
      "ĠÑģÐ¾ÑģÑĤÐ¾ÑıÐ½Ð¸Ð¸": 7534,
      "ĠÐ¿Ð¾Ð¿ÑĢÐ¾Ð±Ð¾Ð²Ð°ÑĤÑĮ": 7535,
      ",\"": 7536,
      "Ġlimit": 7537,
      "ĠÐ¡Ð¾ÑħÑĢÐ°Ð½": 7538,
      "ĠÐļÐ°Ð¶Ð´Ð°Ñı": 7539,
      "Write": 7540,
      "day": 7541,
      "Ð²Ð¾Ð»ÑĮ": 7542,
      "strip": 7543,
      "App": 7544,
      "Ð½Ð¸ÑĨÐ°": 7545,
      "ĠÐ±Ð¾Ð»ÑĮÑĪÐ¾Ðµ": 7546,
      "ĠÐŀÐ¿ÑĢÐµÐ´ÐµÐ»ÐµÐ½Ð¸Ðµ": 7547,
      "Ġlead": 7548,
      "ĠÐ´ÑİÐ¹": 7549,
      "ĠÐ¼Ð°Ðº": 7550,
      "ĠÐĿÑĥÐ¶Ð½Ð¾": 7551,
      "ÑıÐ¼ÑĥÑİ": 7552,
      "ĠÐ¸Ð½Ð¾Ð³Ð´Ð°": 7553,
      "utput": 7554,
      "ĠÐ¿Ð¾Ð´Ð°ÑĢ": 7555,
      "ĠAuto": 7556,
      "Ð¡ÑĥÐ¼Ð¼Ð°": 7557,
      "Ġsystems": 7558,
      "first": 7559,
      "ĠÐ²ÐµÐ»Ð¸Ðº": 7560,
      "ĠÐ¿ÑĢÐ¾Ð¸ÑģÑħÐ¾Ð´": 7561,
      "pa": 7562,
      "ĠÐĺÑģÐ¿Ð¾Ð»ÑĮÐ·ÑĥÑı": 7563,
      "Ġant": 7564,
      "ĠÐ½Ð°ÑĩÐ°Ð»Ð¾": 7565,
      "ãģĹ": 7566,
      "Ġmultiple": 7567,
      "ĠÐ¡Ð¸ÑģÑĤÐµÐ¼": 7568,
      "verage": 7569,
      "ĠÐ´Ð¾Ð¿Ð¾Ð»Ð½Ð¸ÑĤÐµÐ»ÑĮÐ½ÑĭÑħ": 7570,
      "Ġsimilar": 7571,
      "ĠÐ¾ÑĢÐ¸Ð³Ð¸Ð½": 7572,
      "ĠÐ½Ð°Ð·ÑĭÐ²Ð°ÐµÑĤÑģÑı": 7573,
      "Des": 7574,
      "Ð¸ÑĨÐ°": 7575,
      "ĠÐ½Ð¾Ð²Ð¾Ðµ": 7576,
      "ĠÐ¿Ð¾ÑģÑĤÑĥÐ¿": 7577,
      "ĠÑĪÐ°Ð³Ð¾Ð¼": 7578,
      "ĠÐ½ÐµÐµ": 7579,
      "Ð°ÐµÐ¼Ð¾Ð³Ð¾": 7580,
      "ĠÐ¾ÑĩÐ¸ÑģÑĤ": 7581,
      "ĠÐ¿Ð¾Ð»Ð¸Ð½Ð¾Ð¼": 7582,
      "Ġelif": 7583,
      "ĠÑĨÐ¸ÐºÐ»Ð°": 7584,
      "ĠÐ½Ð°Ð¿ÑĢÑıÐ¼ÑĥÑİ": 7585,
      "Ð¿ÑĢÐ¾": 7586,
      "ĠÐ¸ÑģÑĤÐ¾ÑĩÐ½Ð¸ÐºÐ¸": 7587,
      "curity": 7588,
      "}+\\": 7589,
      "ĠÐ¸Ð³ÑĢÐ°ÑİÑĤ": 7590,
      "Ġessere": 7591,
      "'ll": 7592,
      "ĠÐ¾ÑģÑĤÐ°Ð½Ð¾Ð²": 7593,
      "ering": 7594,
      "Ð°ÑĢÐ´": 7595,
      "Ð¸ÑĤÐµÐ»ÑĮÐ½Ð°Ñı": 7596,
      "tokens": 7597,
      "ĠÑĨÐµÐ»ÐµÐ²Ð¾Ð¹": 7598,
      "ĠÐ½Ð°ÑĩÐ°Ð»Ðµ": 7599,
      "au": 7600,
      "ÐµÐ»ÐµÐ½Ð½Ð¾Ð¹": 7601,
      "rag": 7602,
      "ĠÐ¼Ð¾Ð´ÑĥÐ»Ñİ": 7603,
      "Ð°ÑİÑīÐ¸Ð¼Ð¸": 7604,
      "ÑĥÑĪÐºÐ°": 7605,
      "Ġarch": 7606,
      "ĠÐ·Ð°Ð¿ÑĢÐ¾ÑģÑĭ": 7607,
      "mplate": 7608,
      "Î¸": 7609,
      "ĠÂ": 7610,
      "Ð¸ÑĤÐµÐ»ÑĮÐ½Ð¾ÑģÑĤÐ¸": 7611,
      "ÐĴÑĭÐ±Ð¾ÑĢ": 7612,
      "shape": 7613,
      "ĠÐºÐ¾Ð½ÑĦÐ¸Ð´ÐµÐ½ÑĨÐ¸Ð°Ð»ÑĮ": 7614,
      "ÐµÐ½ÑģÐ¸Ð²": 7615,
      "Ġmemory": 7616,
      "ĠÑģÐ¾Ð²ÐµÑĤ": 7617,
      "ĠÐ¸Ð´ÐµÐ¹": 7618,
      "Ð¸Ð¾": 7619,
      "Ð°Ð»ÑĮÐ½Ð¾Ð¼": 7620,
      "response": 7621,
      "ĠÐ·Ð°ÐºÐ»ÑİÑĩÐµÐ½Ð¸Ðµ": 7622,
      "ĠÐ¿Ð¾Ð¿Ð°Ð´": 7623,
      "Le": 7624,
      "ĠÐ²ÑĢÐ°Ñī": 7625,
      "Ð°ÑĢÐ¸Ð¸": 7626,
      "ĠÐ¿Ð¾ÑĤÐ¾Ð¼": 7627,
      "Ð¸ÑĢÐ¾Ð²Ð°Ð½Ð½Ð¾Ð³Ð¾": 7628,
      "hand": 7629,
      "Ġlarge": 7630,
      "ĠSet": 7631,
      "vis": 7632,
      "ĠÐ½ÐµÐ¾Ð±ÑħÐ¾Ð´Ð¸Ð¼ÑĭÑħ": 7633,
      "ually": 7634,
      "CA": 7635,
      "np": 7636,
      "ĠÐ£Ð»ÑĥÑĩÑĪ": 7637,
      "server": 7638,
      "ĠÐ¼Ð°Ð³Ð½Ð¸ÑĤ": 7639,
      "ĠÐŀÐ¿ÑĢÐµÐ´ÐµÐ»Ð¸ÑĤÐµ": 7640,
      "Ġpresent": 7641,
      "ĠÑĢÐ°Ðº": 7642,
      "Ġ2023": 7643,
      "ĠÐļÐ°ÐºÐ¸Ðµ": 7644,
      "ìĹ": 7645,
      "ĠÑģÑĤÐ°Ðº": 7646,
      "ÑĢÐ¾Ñį": 7647,
      "ĠÐºÐ°Ð¼Ð¿": 7648,
      "Ġtokenizer": 7649,
      "ĠÐ¿Ð°Ð»": 7650,
      "ĠÐŁÑĢÐµÐ¾Ð±ÑĢÐ°Ð·": 7651,
      "Ġapplication": 7652,
      "ĠHowever": 7653,
      "Ð¾Ñĥ": 7654,
      "select": 7655,
      "ĠÐ´ÐµÑĢÐµÐ²Ð¾": 7656,
      "nsure": 7657,
      "ĠÐ¿ÑĢÑıÐ¼Ð¾ÑĥÐ³Ð¾Ð»ÑĮ": 7658,
      "View": 7659,
      "vi": 7660,
      "Ð¸Ð±ÑĥÑĤ": 7661,
      "Ġexec": 7662,
      "ĠÑĢÐ°Ð·Ð»Ð¸ÑĩÐ¸Ñı": 7663,
      "ÑĢÐ°Ð½Ð¸": 7664,
      "Ð¾Ð²Ñĭ": 7665,
      "ĠÐ¸Ð·ÑĥÑĩÐµÐ½Ð¸Ñı": 7666,
      "Ġsmall": 7667,
      "ĠÑģÐ¾Ð¾Ð±ÑīÐµÐ½Ð¸Ð¹": 7668,
      "ynam": 7669,
      "ĠÐŁÑĢÐ¾Ð²ÐµÑĢÑıÐµÐ¼": 7670,
      "ĠÑĩÐ»ÐµÐ½Ð¾Ð²": 7671,
      "ÐµÐ»ÐµÐ¹": 7672,
      "ÐµÑģÐ½Ñı": 7673,
      "ĠÐ²ÑĭÑģÑĤÑĥÐ¿": 7674,
      "side": 7675,
      "ĠFile": 7676,
      "range": 7677,
      "ĠÐ»ÐµÐ¶Ð°ÑĤ": 7678,
      "lobal": 7679,
      "ĠÑģÐ¾Ð·Ð´Ð°Ð²Ð°Ñı": 7680,
      "ĠÑĨÐµÐ½ÑĤÑĢÐ°": 7681,
      "ĠÐºÐ°Ð¶ÐµÑĤÑģÑı": 7682,
      "ÐĶÐ°Ð²Ð°Ð¹ÑĤÐµ": 7683,
      "ÐĹÐ°Ð¿": 7684,
      "ĠÐĺÐ½Ð´": 7685,
      "ĠÐ³Ð°ÑĢÐ°Ð½ÑĤ": 7686,
      "write": 7687,
      "ĠÑĥÑģÐ»Ð¾Ð²Ð¸Ð¸": 7688,
      "ĠÐºÐ¾Ð½ÐºÑĢÐµÑĤÐ½Ð¾Ð¹": 7689,
      "ĠÑĢÑĭÐ½ÐºÐµ": 7690,
      "ĠÐ¿ÑĢÐ¸Ð½ÑıÑĤÐ¸Ñı": 7691,
      "ĠÐ¾ÑĤÑħÐ¾Ð´Ð¾Ð²": 7692,
      "ĠÐ½Ð°Ð¿Ð¾Ð¼Ð¸Ð½": 7693,
      "ĠÑģÐµÑĢÐ´ÑĨÐµ": 7694,
      "ĠÐ´Ð°ÑĤÐ°Ñģ": 7695,
      ")`": 7696,
      "With": 7697,
      "ĠÐ½Ð¸Ñĩ": 7698,
      "ĠÐłÐ°ÑģÑģÐ¼Ð¾ÑĤÑĢÐ¸Ð¼": 7699,
      "Ð½Ð°ÐºÐ¾Ð¼": 7700,
      "Ð²ÐµÐ´Ð¸ÑĤÐµ": 7701,
      "ĠÑĤÑĢÑĥÐ´Ð°": 7702,
      "sor": 7703,
      "ÐļÐ°Ð¶Ð´": 7704,
      "Ð¾ÑīÑĢ": 7705,
      "ĠÐºÑĢÐ°ÑģÐ¸Ð²": 7706,
      "Ġactual": 7707,
      "ĠÐ¾ÑħÐ²Ð°ÑĤ": 7708,
      "ĠÐļÐ¾Ð¼Ð¿": 7709,
      "ĠÑģÑĥÑī": 7710,
      "Ġspe": 7711,
      "Ġmus": 7712,
      "icas": 7713,
      "Ġog": 7714,
      "ama": 7715,
      "cpp": 7716,
      "Ð°ÑĤÐ¾ÑĢÐ¾Ð²": 7717,
      "ĠÑĢÐ°Ð·Ð²Ð¸ÑĤÐ¸Ñİ": 7718,
      "ĠÑĢÐµÐ±ÑĢÐ°": 7719,
      "ĠÐºÐ¾ÑĦÐµ": 7720,
      "Ð¾ÑģÐ¾Ð±Ñĭ": 7721,
      "ĠSE": 7722,
      "ÑĢÐ¾Ð¼Ð°ÑĤ": 7723,
      "ym": 7724,
      "Ð¾Ð²ÑĭÐ¼": 7725,
      "ĠÐ¿Ð¾ÐºÐ¾Ð»": 7726,
      "ÑĭÑĩÐ½Ð¾": 7727,
      "ĠÐ¾ÑĤÐ²ÐµÑĤÐ¾Ð²": 7728,
      "ĠWeb": 7729,
      "ĠÑĢÑĳ": 7730,
      "Ð°Ð¼Ð¿": 7731,
      "ĠÑĢÐ°Ð·Ð½ÑĭÐ¼Ð¸": 7732,
      "ÐľÐµÑĤ": 7733,
      "ĠÐ¿ÑĢÐ¾ÑģÑĤÑĢÐ°Ð½ÑģÑĤÐ²Ð°": 7734,
      "call": 7735,
      "Ð±Ð¾Ð»": 7736,
      "ĠÐ±ÑĥÑĤ": 7737,
      "Ð¸ÑģÐ°": 7738,
      "ĠÑģÑĤÐ°Ð»Ð°": 7739,
      "ĠÐ¾ÑĤÑĤ": 7740,
      "ĠÐ´Ð¾ÐºÑĥÐ¼ÐµÐ½ÑĤÐ¾Ð²": 7741,
      "ĠÑĢÑĥÐ±Ð»ÐµÐ¹": 7742,
      "Ð¸ÑĢÑĥÑİÑĤÑģÑı": 7743,
      "ĠÐ¾ÑĦÐ¸ÑĨÐ¸": 7744,
      "ĠÐ»ÑİÐ±Ð¾Ð²ÑĮ": 7745,
      "Config": 7746,
      "Date": 7747,
      "mt": 7748,
      "ĠÑĢÐ¾Ð»Ð¸": 7749,
      "ĠÐ¾Ð±ÑĢÐ°Ð·Ð¾Ð²Ð°Ð½Ð¸Ðµ": 7750,
      "Ð°Ð½Ð´Ð°": 7751,
      "Ġcult": 7752,
      "Ġprot": 7753,
      "ĠÐ¤Ð¾ÑĢÐ¼": 7754,
      "IS": 7755,
      "audio": 7756,
      "ĠÐ¿Ð¾Ð»ÑĮÐ·": 7757,
      "ÐµÐ½Ð¸ÑıÐ¼": 7758,
      "ÑĭÐ²Ð°Ð¹ÑĤÐµ": 7759,
      "ĠÑĦÑĥÐ½ÐºÑĨÐ¸Ð¾Ð½": 7760,
      "ĠOpt": 7761,
      "ĠpuÃ²": 7762,
      "'],": 7763,
      "ĠString": 7764,
      "Ġexcept": 7765,
      "ĠÐ·Ð°Ð³Ð°Ð´": 7766,
      "ĠÑĩÐ°Ð¹": 7767,
      "ĠÐ²Ð¾Ð»ÑĪÐµÐ±": 7768,
      "TO": 7769,
      "ĠÐ´Ð¾Ñģ": 7770,
      "ora": 7771,
      "Ġpost": 7772,
      "Ġbel": 7773,
      "ÐŀÐ¿Ð¸ÑģÐ°Ð½Ð¸Ðµ": 7774,
      "ĠÐ²Ð¾Ð·Ð¼Ð¾Ð¶Ð½Ð¾Ðµ": 7775,
      "ÑĤÐµÐ³ÑĢ": 7776,
      "ĠÐ²ÑģÑİ": 7777,
      "ĠÐ³ÑĢÐ°Ð´ÑĥÑģÐ¾Ð²": 7778,
      "ĠÐ¿ÑĢÐ¾ÑĪÐ»": 7779,
      "ĠÑĢÐ°ÑģÑĤÐ²Ð¾ÑĢ": 7780,
      "ĠÐ²Ð·Ð³Ð»ÑıÐ´": 7781,
      "ĠÑģÐ¸Ð´": 7782,
      "ĠÐ³Ð°Ð»": 7783,
      "ĠÑģÐ»Ð¾Ð²Ð°Ð¼Ð¸": 7784,
      "Ð´Ð°Ð¼": 7785,
      "ĠÑģÑĤÐ¾ÑĢÐ¾Ð½Ñĥ": 7786,
      "Ġposition": 7787,
      "ĠÐ½Ð°ÑģÑĤÑĢÐ¾Ð¸ÑĤÑĮ": 7788,
      "attern": 7789,
      "ĠÑģÐ°Ð¹ÑĤÐ°": 7790,
      "Ð²ÐµÐ»Ð¸Ñĩ": 7791,
      "onents": 7792,
      "ĠÐ²ÑģÐ¿": 7793,
      "Ð²Ðµ": 7794,
      "ĠÐ¾Ð±Ð¾ÑģÐ½Ð¾Ð²": 7795,
      "achine": 7796,
      "ĠÐºÑĥÐ»ÑĮÑĤÑĥÑĢÑĭ": 7797,
      "ĠÑģÑĤÐ°Ð½ÐµÑĤ": 7798,
      "sian": 7799,
      "ĠÐľÐ½Ð¾Ð³": 7800,
      "ĠÑĥÐ½Ð¸ÐºÐ°Ð»ÑĮÐ½ÑĭÐµ": 7801,
      "ED": 7802,
      "ĠÐ¼Ð³": 7803,
      "ĠÐ¾ÐºÐ°Ð·ÑĭÐ²": 7804,
      "Ġchild": 7805,
      "ĠStep": 7806,
      "><": 7807,
      "Ġdue": 7808,
      "ĠÐ¿Ð¾ÑģÐµÑī": 7809,
      "ĠÐ¿ÑĢÐ¾ÑĨÐµÐ´": 7810,
      "avas": 7811,
      "ĠÐ¿Ð¾ÑģÑĤÑĢÐ¾Ð¸ÑĤÑĮ": 7812,
      "arr": 7813,
      "ries": 7814,
      "ĠÐ±Ð¾Ð»ÑĮÑĪÐ¸Ð¼": 7815,
      "java": 7816,
      "ople": 7817,
      "ĠÑĥÑģÐ¿ÐµÑĪÐ½Ð¾": 7818,
      "ĠÐ²ÑĭÑĩÐ¸ÑģÐ»ÑıÐµÑĤÑģÑı": 7819,
      "ĠÐ²ÑĭÐ²ÐµÐ´Ð¸": 7820,
      "39": 7821,
      "ÐµÐ¸Ð¼ÑĥÑīÐµÑģÑĤÐ²": 7822,
      "ĠPar": 7823,
      "ĠDis": 7824,
      "ĠÐ¾Ð¿ÑĢÐµÐ´ÐµÐ»ÐµÐ½Ð¸Ðµ": 7825,
      "ĠÐ°Ð±ÑģÐ¾Ð»ÑİÑĤ": 7826,
      "ÐĶÑĢÑĥÐ³": 7827,
      "ĠInst": 7828,
      "ĠÐ²ÑĭÐ·ÑĭÐ²Ð°ÐµÑĤ": 7829,
      "Ġpadding": 7830,
      "ĠÐ¢ÐµÐ¼": 7831,
      "Ð°ÑİÑīÐ¸ÑħÑģÑı": 7832,
      "ĠÐ±ÑĥÐ´ÑĥÑīÐµÐ¼": 7833,
      "ission": 7834,
      "ĠEng": 7835,
      "ÑĥÑĢÐµ": 7836,
      "ĠÐºÐ°ÑĤÐµÐ³Ð¾ÑĢ": 7837,
      "ÐĺÐ¼": 7838,
      "Ġund": 7839,
      "Ġloop": 7840,
      "ĠÐ¿ÑĢÐ¾ÐµÐºÑĤÐ¾Ð²": 7841,
      "ĠÑĥÑģÑĤÐ°Ð½Ð¾Ð²ÐºÐ¸": 7842,
      "ĠÑĤÐµÑģÑĤÐ¸ÑĢÐ¾Ð²Ð°Ð½Ð¸Ñı": 7843,
      "ĠÐ´ÐµÐ½ÑĮÐ³Ð¸": 7844,
      "ĠÑģÑĤÐ°ÑĤÑĮÐ¸": 7845,
      "ĠÐ¿Ð»Ð°ÑĤÑĦÐ¾ÑĢÐ¼Ñĭ": 7846,
      "Service": 7847,
      "avascript": 7848,
      "Ð»ÑİÐ·": 7849,
      "ÐŀÐ½": 7850,
      "ĠÐ³Ð»Ð°Ð·Ð°": 7851,
      "ĠÐºÐ°ÑĢÑĮ": 7852,
      "Ð¸ÑĤÐ°Ð¹": 7853,
      "ĠÐ½ÐµÐ¿ÑĢÐµÑĢÑĭÐ²": 7854,
      "ĠÐ¼ÑĥÐ´ÑĢ": 7855,
      "ĠÐ±ÑĢÐµÐ½": 7856,
      "ĠÐ¿ÐµÑĢÐ²ÑĭÐµ": 7857,
      "ĠÐ¿ÑĢÐµÐ¿ÑıÑĤ": 7858,
      "Ġindividual": 7859,
      "Ð¾ÑģÑĤÐ¾ÑıÑĤÐµÐ»ÑĮ": 7860,
      "ĠÐŀÑģÑĤ": 7861,
      "ÐĺÑģ": 7862,
      "ring": 7863,
      "Ð¿ÑĢÐ°Ð²Ð»ÐµÐ½Ð¸Ðµ": 7864,
      "ledge": 7865,
      "erate": 7866,
      "ÐŃÑĤÐ°": 7867,
      "ĠÐ´Ð¾Ð±Ð°Ð²Ð»ÐµÐ½Ð¸Ñı": 7868,
      "ĠÐŀÑĤÐ²ÐµÑĤ": 7869,
      "Ġhuman": 7870,
      "ĠÐ°ÐºÑĤÐ¸Ð²Ð½Ð¾ÑģÑĤÐ¸": 7871,
      "ĠÑĢÐ°Ð¼ÐºÐ°Ñħ": 7872,
      "Ġpract": 7873,
      "ĠÐ»ÑİÐ±Ð²Ð¸": 7874,
      "ĠÐ¿Ð¾ÑĢÑıÐ´ÐºÐ°": 7875,
      "ãģ«": 7876,
      "ĠExample": 7877,
      "ĠÑģÐ¾Ð»": 7878,
      "ĠÐ·Ð¾Ð»Ð¾ÑĤ": 7879,
      "ĠÐ·Ð°ÐºÐ¾Ð½Ð¾Ð¼": 7880,
      "ĠÐ¼Ð°ÑĤÐµÑĢ": 7881,
      "Ġinflu": 7882,
      "Ġot": 7883,
      "Ġrequired": 7884,
      "âĨĴ": 7885,
      "ÑĢÑĮ": 7886,
      "ined": 7887,
      "Ġfam": 7888,
      "ĠÐ¡Ð¾Ð»Ð½": 7889,
      "ĠÐĴÑĭÐ±ÐµÑĢÐ¸ÑĤÐµ": 7890,
      "ĠÐ²Ð¿ÐµÑĩÐ°ÑĤ": 7891,
      "ĠÐ¿ÑĢÐµÐºÑĢÐ°Ñģ": 7892,
      ")\\": 7893,
      "open": 7894,
      "ÑĢÐµÐ¿": 7895,
      "orage": 7896,
      "ĠÐĳÐ¾Ð»ÑĮÑĪ": 7897,
      "conom": 7898,
      "Ð¾ÑĢÐ¾ÑĪÐ¾": 7899,
      "ND": 7900,
      "ĠÐ¿ÑĢÐ¾ÑģÑĤÐ¾Ðµ": 7901,
      "Ġmaking": 7902,
      "ĠÐ¸Ð·Ð²ÐµÑģÑĤÐ½ÑĭÑħ": 7903,
      "ĠÑģÐ¿ÐµÑĨÐ¸Ð°Ð»Ð¸Ð·Ð¸ÑĢÐ¾Ð²Ð°Ð½": 7904,
      "levant": 7905,
      "Ð°Ð´Ðµ": 7906,
      "ĠÐĴÐºÐ»ÑİÑĩ": 7907,
      "utions": 7908,
      "Ð°Ð±Ð¾ÑĢ": 7909,
      "ĠÐ°ÑĤÐ¼Ð¾ÑģÑĦÐµÑĢÑĥ": 7910,
      "ĠÑĢÐ°Ð·Ð°": 7911,
      "ĠÐ´Ð²Ð¾Ð¹": 7912,
      "ĠÐ¿ÑĢÐ¾Ð²ÐµÑģÑĤÐ¸": 7913,
      "ĠÐ½Ð°ÑĩÐ¸Ð½Ð°Ñı": 7914,
      "{-": 7915,
      "uss": 7916,
      "ĠÐ¶Ð¸Ð´": 7917,
      "ulation": 7918,
      "mage": 7919,
      "ĠÐ¿Ð¾ÑĤÑĢÐµÐ±Ð½Ð¾ÑģÑĤÐ¸": 7920,
      "ĠÐŁÑĢÐ¸Ð¼ÐµÑĢÑĭ": 7921,
      "ĠÐ±ÑĥÐºÐ²Ñĭ": 7922,
      "ĠÐ£ÑģÑĤÐ°Ð½Ð¾Ð²Ð¸ÑĤÐµ": 7923,
      "ka": 7924,
      "ĠÐ²ÐµÑģÐ°": 7925,
      "Ġ\"__": 7926,
      "ĠÑģÐ¿Ð¾ÑģÐ¾Ð±ÑģÑĤÐ²Ð¾Ð²Ð°ÑĤÑĮ": 7927,
      "ĠÐ¾Ð±Ð¼ÐµÐ½Ð°": 7928,
      "Ċĉĉ": 7929,
      "Ġdate": 7930,
      "ĠÑģÐ»ÑĥÑĩÐ°ÐµÐ²": 7931,
      "Ġ(\\(": 7932,
      "ÐµÐºÑĤÐ¾ÑĢÐ¸Ð¸": 7933,
      "Ġoffer": 7934,
      "ĠÐ¼Ð°ÐºÑģÐ¸Ð¼ÑĥÐ¼": 7935,
      "åĬ": 7936,
      "Ð¼ÑĭÑĪ": 7937,
      "ÑĤÐ¸Ð¼Ð¸Ð·Ð°ÑĨÐ¸Ñı": 7938,
      "DA": 7939,
      "ĠDef": 7940,
      "ĠÑĢÐµÐ³ÑĢÐµÑģÑģ": 7941,
      "ÐļÐ°ÐºÐ¸Ðµ": 7942,
      "/(": 7943,
      "ront": 7944,
      "Ð¸Ð¼Ð¾Ð¹": 7945,
      "ĠÐºÐ¾ÑĢÐ½Ð¸": 7946,
      "ĠÐ¿Ð¾Ð´Ð´ÐµÑĢÐ¶ÐºÐ°": 7947,
      "ĠÐ¿ÑĢÐ¾ÑģÑĤÑĢÐ°Ð½ÑģÑĤÐ²Ð¾": 7948,
      "ĠÑĥÐ¿ÑĢÐ°Ð¶Ð½ÐµÐ½Ð¸Ñı": 7949,
      "ÐµÑģÐ¾Ð²": 7950,
      "Ġsqrt": 7951,
      "ĠÐĴÐ¼ÐµÑģÑĤÐ¾": 7952,
      "Ġresearch": 7953,
      "ÐµÐ¸Ð¼ÑĥÑīÐµÑģÑĤÐ²Ð°": 7954,
      "eval": 7955,
      "siÃ³n": 7956,
      "ĠMan": 7957,
      "ourn": 7958,
      "ĠÑĢÐµÐ³Ð¸Ð¾Ð½": 7959,
      "Ð»ÐµÑĩÐµÐ½Ð¸Ðµ": 7960,
      "Ð¸Ð½ÐµÐ¹": 7961,
      "ĠÐ¿ÐµÑĢÐµÐ±": 7962,
      "ĠÐºÐ¾Ð½ÑĤÐµÐºÑģÑĤÐ°": 7963,
      "ĠÐ²ÑĭÐ¿Ð¾Ð»Ð½ÑıÐµÑĤ": 7964,
      "Ð°ÑĢÐ°Ð¼ÐµÑĤÑĢ": 7965,
      "ĠÐ¿ÑĢÐµÐ¾Ð´Ð¾Ð»": 7966,
      "oro": 7967,
      "ĠÑĤÐ¾ÑĩÐ½Ð¾ÑģÑĤÐ¸": 7968,
      "Ġjson": 7969,
      "__\":": 7970,
      "ĠÑĢÐ°Ð·ÑĢÐ°Ð±Ð¾ÑĤÐºÐµ": 7971,
      "ĠÐ¸Ð´ÐµÑı": 7972,
      ")*": 7973,
      "Element": 7974,
      "ĠÑģÐ¿Ð¾ÑģÐ¾Ð±Ñĭ": 7975,
      "HT": 7976,
      "ĠÐ¸Ð½Ð¶ÐµÐ½ÐµÑĢ": 7977,
      "Ġemail": 7978,
      "ĠÑģÑĢÐµÐ´Ð½ÐµÐµ": 7979,
      "ĠÐ¾Ð¿Ð¸ÑģÐ°Ð½Ð¸Ñı": 7980,
      "ĠÐ¼ÑĥÐ·ÑĭÐº": 7981,
      "ĠÑģÑĤÐ¸ÑħÐ¾ÑĤÐ²Ð¾ÑĢ": 7982,
      "nov": 7983,
      "Ð¾Ð·ÑĢÐ°Ñĩ": 7984,
      "Ð¸ÑĤÐµÐ»ÑĮÐ½ÑĭÐ¼": 7985,
      "ĠÑĩÐ°ÑģÑĤÐµÐ¹": 7986,
      "ĠÑĨÐµÐ»Ð¾Ð³Ð¾": 7987,
      "ĠÐ¿ÑĢÐµÐ´ÑģÑĤÐ°Ð²Ð»ÑıÑİÑĤ": 7988,
      "Ġapplic": 7989,
      "ĠÐ·Ð°Ð³ÑĢÑĥÐ¶": 7990,
      "ych": 7991,
      "aces": 7992,
      "ÐŀÑĪÐ¸Ð±ÐºÐ°": 7993,
      "ĠMy": 7994,
      "ĠÑĪÐ¸ÑĢÐ¾ÐºÐ¾": 7995,
      "ĠÑĥÑģÐ¿ÐµÑħÐ°": 7996,
      "DO": 7997,
      "ĠÐ½Ð°ÑĤ": 7998,
      "ĠÑĥÑħ": 7999,
      "ĠÐºÐ¾ÑĢÐ°Ð±": 8000,
      "ĠÑĢÐµÐ¶Ð¸Ð¼Ðµ": 8001,
      "88": 8002,
      "ÑīÐ¸Ðº": 8003,
      "Ġbot": 8004,
      "ÐŁÐ¾ÑģÑĤ": 8005,
      "ĠÐ´ÐµÐ»ÐµÐ½Ð¸Ñı": 8006,
      "ĠÐ²ÑĭÐ²Ð¾Ð´Ð¸Ð¼": 8007,
      "iqu": 8008,
      "Ġidx": 8009,
      "SV": 8010,
      "ĠÐ²Ð²ÐµÑĢÑħ": 8011,
      "ĠÐ¿ÑĢÐµÐ¶Ð´Ðµ": 8012,
      "Ġsom": 8013,
      "ÐļÐ¾Ð»Ð¸ÑĩÐµÑģÑĤÐ²Ð¾": 8014,
      "ĠÐ²Ð°ÑĪÐ°": 8015,
      "ĠÑģÑĤÐ¸Ð»Ðµ": 8016,
      "Torch": 8017,
      "ÑĥÑĤÑģÑı": 8018,
      "ptr": 8019,
      "ĠÐ°Ð²ÑĤÐ¾Ð¼Ð¾Ð±Ð¸Ð»Ñı": 8020,
      "Ġpres": 8021,
      "ĠÐ½Ð°Ð±Ð¾ÑĢÐ°": 8022,
      "ĠÑĥÐ½Ð¸ÐºÐ°Ð»ÑĮÐ½ÑĭÑħ": 8023,
      "ĠÐ¾ÑģÑĤÐ°Ð²Ð°ÑĤÑĮÑģÑı": 8024,
      "ĠÑģÑĤÐ¾Ð»Ð±ÑĨÐ¾Ð²": 8025,
      "idades": 8026,
      "ĠÐ¾Ð±ÑĬÐµÐºÑĤÑĭ": 8027,
      "ĠÐ²ÐµÑģÑĮ": 8028,
      "ĠÑģÑĬ": 8029,
      "Ġdevelopment": 8030,
      "status": 8031,
      "Ġfinal": 8032,
      "ĠÐ²Ð°ÑĢÑĮÐ¸ÑĢÐ¾Ð²Ð°ÑĤÑĮÑģÑı": 8033,
      "ĠÑģÑĤÐµÐ½": 8034,
      "ĠÑıÑĩÐµÐ¹": 8035,
      "Ð°ÑĤÐµÐ»ÑĮÐ½Ð¾Ð³Ð¾": 8036,
      "ĠÐºÐ¾ÑĢÐ½Ñı": 8037,
      "ĠÐ¿Ð¾Ð·Ð²Ð¾Ð»ÑıÑı": 8038,
      "Ġelements": 8039,
      "Ġwere": 8040,
      "ĠÐ¿ÑĢÐ¸ÑĪ": 8041,
      "Ġ});": 8042,
      "ĠÐ³ÑĢÑĥÐ¿Ð¿Ð°": 8043,
      "ĠÐ²ÑĭÑĩÐ¸ÑģÐ»ÐµÐ½Ð¸Ð¹": 8044,
      "ION": 8045,
      "bar": 8046,
      "client": 8047,
      "ĠÐ°Ð½Ð¸Ð¼": 8048,
      "Ġnumbers": 8049,
      "Item": 8050,
      "ÐłÐµÑĪ": 8051,
      "âĢĶ": 8052,
      "ĠÐłÐ°Ð·ÑĢÐ°Ð±Ð¾ÑĤÐºÐ°": 8053,
      "ambi": 8054,
      "ĠÐ¼Ð°ÑĢÑĪÑĢÑĥÑĤ": 8055,
      "ÑĢÐ³Ð°Ð½Ð¸Ð·": 8056,
      "ĠÐ¸Ð½ÑĤÐµÑĢÐ°ÐºÑĤÐ¸Ð²": 8057,
      "ĠÑĢÐµÑģÑĤÐ¾ÑĢ": 8058,
      "aries": 8059,
      "ĠÐ²Ð¾Ð·Ð¾Ð±Ð½Ð¾Ð²Ð»ÑıÐµÐ¼": 8060,
      "ÑĭÐ¿": 8061,
      "ĠÐŁÑĢÐ¾Ð´": 8062,
      "Ġchalleng": 8063,
      "ĠÐ¼Ð»": 8064,
      "Ð½Ð¾ÑģÑĤÑıÑħ": 8065,
      "ĠÐ¾ÑĤÐ²": 8066,
      "ĠWh": 8067,
      "ĠÐ¸ÑģÐºÑĥÑģÑģÑĤÐ²Ð°": 8068,
      "Ġci": 8069,
      "Ġpack": 8070,
      "Ð¾ÑĩÐ½Ð¾Ð¹": 8071,
      "Ġlength": 8072,
      "true": 8073,
      "ĠÐ¸Ð½ÑģÑĤÑĢÑĥÐºÑĨÐ¸": 8074,
      "ÐµÑĤÐ¸": 8075,
      "ĠÐ¡ÑĢÐµÐ´": 8076,
      "essages": 8077,
      "ĠÐ¿Ð¾Ð»ÑĥÑĩÐ°ÑĤÑĮ": 8078,
      "ĠÐŁÐ¾Ð¿ÑĢÐ¾Ð±": 8079,
      "ĠÐ¾Ð±Ð»Ð°ÑģÑĤÑıÑħ": 8080,
      "Ġson": 8081,
      "Ġsistem": 8082,
      "ĠÐ°Ð³ÑĢ": 8083,
      "ĠÐ¿Ð¾Ð´ÑģÑĤÑĢÐ¾Ðº": 8084,
      "Ġsever": 8085,
      "Ġbuild": 8086,
      "ÐµÐ´Ð¾ÑģÑĤ": 8087,
      "Ð¸Ð½Ð´": 8088,
      "ĠÐ²Ð°Ð¶Ð½ÑĥÑİ": 8089,
      "ĠÐ´ÑĢÑĥÐ·ÑĮÑıÐ¼Ð¸": 8090,
      "ĠÐ·Ð°ÑĢÑıÐ´": 8091,
      "ÐµÐ¼ÑģÑı": 8092,
      "ĠÑĤÐ¾ÑĩÐºÐ°Ñħ": 8093,
      "ÑģÑĤÐ°Ð½Ð¾Ð²ÐºÐ°": 8094,
      "FF": 8095,
      "lon": 8096,
      "Ġsus": 8097,
      "space": 8098,
      "ÐºÑĥÑĢÑģ": 8099,
      "ĠÑĦÐ¾ÐºÑĥÑģ": 8100,
      "ĠÐ¿Ð¾Ð»Ð¾Ð¶Ð¸ÑĤÐµÐ»ÑĮÐ½ÑĭÐµ": 8101,
      "number": 8102,
      "ÐŁÑĢÐµÐ´Ð¿Ð¾Ð»Ð¾Ð¶Ð¸Ð¼": 8103,
      "ĠÐ¿ÐµÑĢÑģÐ¿ÐµÐºÑĤÐ¸Ð²": 8104,
      "Ġpropert": 8105,
      "ĠÐ¿Ð°ÑĢÑĤÐ½ÐµÑĢ": 8106,
      "Ġevalu": 8107,
      "æķ": 8108,
      "ĠÐ¾ÑģÑĥÑīÐµÑģÑĤÐ²": 8109,
      "ĠÐ¸ÑģÑĤÐ¾ÑĢÐ¸Ñı": 8110,
      "Ġadjust": 8111,
      "Ð¸Ð¼Ñĭ": 8112,
      "ĠÑıÑģ": 8113,
      "omega": 8114,
      "ĠÐĺÐ³": 8115,
      "ĠÐ¾ÐºÑĢÑĥÐ³": 8116,
      "ĠÐ»Ð¸ÑĨÐ°": 8117,
      "ĠÐ°Ð´Ð¼Ð¸Ð½": 8118,
      "ĠÑĤÐµÐ¼Ð¿ÐµÑĢÐ°ÑĤÑĥÑĢÐ°": 8119,
      "ĠÐ½ÐµÐ·Ð°Ð²Ð¸ÑģÐ¸Ð¼Ð¾": 8120,
      "oud": 8121,
      "Ð½ÑĥÑĤÑĮÑģÑı": 8122,
      "Ġmot": 8123,
      "ĠÐŀÐ±ÑĭÑĩÐ½Ð¾": 8124,
      "ĠÐĴÑĭÑģÐ¾Ðº": 8125,
      "ĠÐºÐ¾Ð½ÑģÑĥÐ»ÑĮÑĤ": 8126,
      "Ð¾ÑĢÐ´": 8127,
      "ĠÐ¿ÑĢÐ¸ÑıÑĤ": 8128,
      "ider": 8129,
      "ĠÐ£Ðº": 8130,
      "ĠÐ¿Ð°ÑĢÐ°": 8131,
      "ĠÑĤÐµÐºÑĥÑīÐ¸Ð¹": 8132,
      "ÑįÑĦÑĦÐµÐºÑĤÐ¸Ð²": 8133,
      "If": 8134,
      "ĠÐ´Ð¾Ð³": 8135,
      "ĠÐ¾Ð¿ÑĢÐµÐ´ÐµÐ»ÐµÐ½Ð½ÑĭÐµ": 8136,
      "ĠHTTP": 8137,
      "dex": 8138,
      "Ð°Ð½Ð½Ð¾ÑģÑĤÑĮ": 8139,
      "Ð³Ð¾ÑĢÐ¸ÑĤÐ¼": 8140,
      "Ð½ÐµÑģ": 8141,
      "ĠÑĢÐ°Ð·ÑĥÐ¼": 8142,
      "ĠÐ»ÑİÐ±Ð¾Ðµ": 8143,
      "ÐŀÐ±ÑĢÐ°Ð±Ð¾ÑĤÐºÐ°": 8144,
      "ĠâĪļ": 8145,
      "ĠÑĥÑģÑĤÐ°Ð½Ð¾Ð²Ð»ÐµÐ½": 8146,
      "Ġcommon": 8147,
      "ĠÑģÐ¸Ð¼Ð¿ÑĤÐ¾Ð¼": 8148,
      ",-": 8149,
      "Ð°Ð»ÐµÐ¹": 8150,
      "Ġcur": 8151,
      "Ġachie": 8152,
      "ĠÑģÐ²Ð¾ÐµÐ¼Ñĥ": 8153,
      "ĠÐ±ÑĥÐ´ÐµÐ¼": 8154,
      "Ð¾Ð»Ð¾Ð³Ð¸ÑĩÐµÑģÐºÐ¸Ðµ": 8155,
      "ĠÐ¾Ð±ÑĢÐ°Ð±Ð¾ÑĤÐºÐ°": 8156,
      "ÐµÐ½Ð½Ð¾Ð¼Ñĥ": 8157,
      "ĠThese": 8158,
      "ĠÑĦÐ¾ÑĢÐ¼Ð¸ÑĢÑĥ": 8159,
      "Ġcrucial": 8160,
      "`).": 8161,
      "ÐµÐ¼Ð¿": 8162,
      "Ġeduc": 8163,
      "ĠÐ¾Ð±Ð»Ð°Ð´Ð°ÐµÑĤ": 8164,
      "Ġunderstanding": 8165,
      "Per": 8166,
      "Ð°Ð»Ð»Ð¾Ð²": 8167,
      "Ġsono": 8168,
      "ĠÑĥÐ´Ð¸Ð²": 8169,
      "aging": 8170,
      "ĠÐ¸ÑģÑħÐ¾Ð´Ð½Ð¾Ð³Ð¾": 8171,
      "Ð¾ÑıÐ½Ð¸": 8172,
      "Ð°ÐµÐ¼Ð¾Ðµ": 8173,
      "ĠÐ¿ÑĢÐ¸Ð²ÑĭÑĩ": 8174,
      "Ã©n": 8175,
      "prev": 8176,
      "git": 8177,
      "ĠÐ·ÑĥÐ±": 8178,
      "Ġwidth": 8179,
      "ĠPer": 8180,
      "ĠÐ¿ÐµÑĢÐµÐ¼ÐµÐ½Ð½Ð¾Ð¹": 8181,
      "ĠYour": 8182,
      "Ð¸Ð´Ð°": 8183,
      "ĠÐĺÑħ": 8184,
      "ĠÐ·Ð°Ð¼ÐµÑĩ": 8185,
      "Ð¾Ð¿Ð¾Ð»ÑĥÑĩ": 8186,
      "ĠÐ±ÑĥÐ¼Ð°Ð³": 8187,
      "ÑĤÐ¾Ð½": 8188,
      "ĠÐ»ÐµÐºÐ°ÑĢ": 8189,
      "ĠÐ¿Ð»Ð¾Ñħ": 8190,
      "Ð¸ÑĩÐ½ÑĭÐ¼": 8191,
      "Ġmust": 8192,
      "ĠÐŁÐ°ÑĢ": 8193,
      "ĠÐ¾Ð¶Ð¸Ð´Ð°Ð½Ð¸Ñı": 8194,
      "Ġshe": 8195,
      "nswer": 8196,
      "ĠÐ²ÐµÑīÐµÑģÑĤÐ²Ð°": 8197,
      "''": 8198,
      "Ð»ÑĥÑĩ": 8199,
      "ÐµÐ´ÐµÑĢ": 8200,
      "Ð°ÑĢÑħ": 8201,
      "ĠPre": 8202,
      "ĠÐ´ÐµÐ»Ð°ÑİÑĤ": 8203,
      "connect": 8204,
      "ĠÐ·Ð°ÐºÐ°Ð½ÑĩÐ¸Ð²": 8205,
      "ĠÐ´ÐµÐ¹ÑģÑĤÐ²Ð¸Ðµ": 8206,
      "ĠÐ¿Ð¾ÑĤÐµÐ½ÑĨÐ¸Ð°Ð»ÑĮÐ½ÑĭÑħ": 8207,
      "javascript": 8208,
      "ĠÐ²Ð°Ðº": 8209,
      "ĠÑħÐ¾Ð·ÑıÐ¹": 8210,
      "ĠÐºÐ¾Ð¼Ð¼ÐµÐ½ÑĤ": 8211,
      "ĠÐ¸Ð´ÐµÑĤ": 8212,
      "ĠÑĢÐµÐ°Ð»Ð¸Ð·Ð¾Ð²Ð°ÑĤÑĮ": 8213,
      "ĠÐ¼ÑĥÐ¶Ñĩ": 8214,
      "ÑĥÑİÑīÐ¸Ð¹": 8215,
      "ĠÐ²Ð½Ð¸Ð·": 8216,
      "Ġplatform": 8217,
      "Ġhttps": 8218,
      "och": 8219,
      "ĠÐ¿Ð¾Ð³Ð»": 8220,
      "Ð¾ÑģÐ¸Ð¿ÐµÐ´": 8221,
      "iti": 8222,
      "ĠÐ³Ð¾Ð´Ñĭ": 8223,
      "ĠÐĶÐ¾ÑģÑĤ": 8224,
      "ĠÐ¿Ð¾ÑĤÑĢÐµÐ±Ð½Ð¾ÑģÑĤÐµÐ¹": 8225,
      "tes": 8226,
      "Ð¸Ð°ÑĤ": 8227,
      "ĠÐ·Ð°Ð¿ÑĢ": 8228,
      "Ġdraw": 8229,
      "Ġspecif": 8230,
      "check": 8231,
      "transform": 8232,
      "ÐµÑĢÐ¾ÑıÑĤÐ½Ð¾ÑģÑĤÑĮ": 8233,
      "vector": 8234,
      "ÐĺÑĤÐ¾Ð³": 8235,
      "Ð¸ÑĤÐµÐ»ÑıÐ¼Ð¸": 8236,
      "ets": 8237,
      "ĠÐ¾Ð±ÑīÐ¸Ðµ": 8238,
      "Ð³Ð¾ÑĤÐ¾Ð²ÐºÐ°": 8239,
      "Trans": 8240,
      "ĠÐºÑĥÑģ": 8241,
      "68": 8242,
      "ĠÐŁÑĢÐ¾Ð²": 8243,
      "fact": 8244,
      "ĠÐ¼ÑıÑģ": 8245,
      "Ð·Ð°Ð¿ÑĢÐ¾Ñģ": 8246,
      "Ð¸Ð¼Ð°": 8247,
      "ĠÐ³Ð°Ð·Ð°": 8248,
      "chan": 8249,
      "float": 8250,
      "ĠÐ¿ÑĢÐµÐ²ÑĭÑĪÐ°ÐµÑĤ": 8251,
      "ĠLLM": 8252,
      "ĠÐ¾ÑģÐ½Ð¾Ð²Ð½Ð¾Ð¹": 8253,
      "ĠUS": 8254,
      "Ã©s": 8255,
      "ĠÎ±": 8256,
      "SELECT": 8257,
      "points": 8258,
      "Ð½Ð°Ð¿": 8259,
      "Ġduring": 8260,
      "ĠÐ·Ð°Ð´ÐµÑĢÐ¶": 8261,
      "ĠÑĥÐ³Ð»Ñĭ": 8262,
      "ĠÐºÐ¾Ð³": 8263,
      "ĠÐ½ÐµÐº": 8264,
      "ĠÑģÐ°Ð¼Ð¾ÑģÑĤÐ¾ÑıÑĤÐµÐ»ÑĮ": 8265,
      "ĠÑĩÑĥÐ²ÑģÑĤÐ²Ð°": 8266,
      "ĠÑĥÑĤÐ²ÐµÑĢÐ¶Ð´ÐµÐ½Ð¸Ðµ": 8267,
      "Ð¾ÑģÐ²ÑıÐ·": 8268,
      "ending": 8269,
      "ÑģÑĤÐ°Ð²Ð¸Ð¼": 8270,
      "Ġhead": 8271,
      "Ð¿Ð¾Ð´": 8272,
      "Ð±Ðµ": 8273,
      "Ġeven": 8274,
      "ĠÐ¿Ð¾Ð·Ð¸ÑĤÐ¸Ð²": 8275,
      "ĠÐ¸Ð·Ð¾Ð±ÑĢÐ°Ð¶ÐµÐ½Ð¸Ðµ": 8276,
      "ĠÐ·Ð°Ð³ÑĢÑĥÐ·ÐºÐ¸": 8277,
      "ĠÐ²ÐµÐºÐ°": 8278,
      "PU": 8279,
      "ĠÐ´ÐµÑĦ": 8280,
      "Ð¿ÑĢÐ¾Ñī": 8281,
      "ÑĦÑĦÐµÐºÑĤÐ¸Ð²": 8282,
      "ĠÑĢÐµÑĩÐ¸": 8283,
      "mit": 8284,
      "utes": 8285,
      "Ġdu": 8286,
      "Ġmaterial": 8287,
      "Ġgrow": 8288,
      "ĠÑĢÐµÐ·ÐµÑĢÐ²": 8289,
[...]
